{
  "</s>": 0,
  "<unk>": 1,
  ".": 2,
  ",": 3,
  "\u2581the": 4,
  "\u2581\u306e": 5,
  "\u3002": 6,
  "\u2581,": 7,
  "\u2581\u306b": 8,
  "\u2581to": 9,
  "\u2581\u306f": 10,
  "\u2581of": 11,
  "\u2581\u3092": 12,
  "\u2581": 13,
  "s": 14,
  "\u2581\u3066": 15,
  "?": 16,
  "\u2581and": 17,
  "\u2581a": 18,
  "\u2581\u305f": 19,
  "'": 20,
  "\u2581I": 21,
  "\u2581in": 22,
  "\u2581\u304c": 23,
  "\u2581you": 24,
  "\u2581that": 25,
  "\u2581\u3068": 26,
  "\u2581is": 27,
  "\u2581\u3067": 28,
  "\u2581-": 29,
  "\u2581\u3057": 30,
  "\u2581it": 31,
  "\u306e": 32,
  "\u2581\u307e\u3059": 33,
  "\u3001": 34,
  "\u2581for": 35,
  "\u2581\u3053\u3068": 36,
  "!": 37,
  "\u2581\u201d": 38,
  "\u306f": 39,
  "\u2581\u307e\u3057": 40,
  "\u2581\u201c": 41,
  "\u2581\u306a": 42,
  "\u2581\u3082": 43,
  "\u2581be": 44,
  "\u3092": 45,
  "\u2581\u3044": 46,
  "\u2581(": 47,
  "\u2581\u304b": 48,
  "\u2581was": 49,
  "\u2581on": 50,
  "\u2581with": 51,
  "\u2581not": 52,
  "t": 53,
  "\u2581are": 54,
  "\u2581have": 55,
  "\u304c": 56,
  "\u2581this": 57,
  "\u2581we": 58,
  "\u306b": 59,
  "\u3068": 60,
  ":": 61,
  "\u2581\u3067\u3059": 62,
  "\u2581\u4eba": 63,
  "\u2019": 64,
  "\u2581\u305d\u306e": 65,
  "\u2581as": 66,
  "\u2581\u308c": 67,
  ")": 68,
  "\u2581The": 69,
  "\u2581\u3088\u3046": 70,
  "...": 71,
  "\u300d": 72,
  "\u2581they": 73,
  "\u2581he": 74,
  "\u2581\u3044\u308b": 75,
  "\u2581\u3059\u308b": 76,
  "\u2581will": 77,
  "\u2581can": 78,
  "\u2581his": 79,
  "\u2581from": 80,
  "\u2581your": 81,
  "\u2581me": 82,
  "\u2581\u3042\u308b": 83,
  "\u2581You": 84,
  "\u2581do": 85,
  "\u2581what": 86,
  "\u2581by": 87,
  "\u2581God": 88,
  "\u2581all": 89,
  "\u2581\u306a\u3044": 90,
  "\u2581\u3053\u306e": 91,
  "\u2581\u304b\u3089": 92,
  "\u2581or": 93,
  "\u2581one": 94,
  "\u2581at": 95,
  "\u2581\u3093": 96,
  "\u2581my": 97,
  "\u2581It": 98,
  "\u2581their": 99,
  "\u2581And": 100,
  "\u3067": 101,
  "\u2581\u8005": 102,
  "\u2581\u300c": 103,
  "\u2581who": 104,
  "\u2581\u3046": 105,
  "\u2581\u795e": 106,
  "\u2581\u2014": 107,
  "m": 108,
  "\u2581\u307e\u305b": 109,
  "\u2581)": 110,
  "\u2581\u305f\u3061": 111,
  "\u2581them": 112,
  "re": 113,
  "\u2581about": 114,
  "\u2581What": 115,
  "\u2581an": 116,
  "\u2581\u3042\u308a": 117,
  "\u2581Jehovah": 118,
  "\u2581were": 119,
  "\u2581We": 120,
  "\u2581\u3055": 121,
  "\u2581but": 122,
  "\u2581out": 123,
  "\u2581there": 124,
  "\u2581so": 125,
  "-": 126,
  "\u2581know": 127,
  "\u2581has": 128,
  "\u2581him": 129,
  "\u2581\u305d\u308c": 130,
  "\u2581\u30a8\u30db\u30d0": 131,
  "\u2581had": 132,
  "\u3060": 133,
  "\u2581our": 134,
  "\u2581[": 135,
  "\u2581He": 136,
  "\u2581up": 137,
  "\u2581people": 138,
  "\u2581\"": 139,
  "\u2581would": 140,
  "\u2581just": 141,
  "\u25811": 142,
  "\u2581us": 143,
  "ing": 144,
  "\u2581when": 145,
  "\u2581if": 146,
  "\u2581\u7684": 147,
  "\u2581\u3084": 148,
  "\u2581But": 149,
  "\u2581like": 150,
  ";": 151,
  "\u2581time": 152,
  "\u2581\u3044\u3046": 153,
  "\u2581\u3067\u3057\u3087": 154,
  "\u2581So": 155,
  "\u304b": 156,
  "\u2581\u305f\u3081": 157,
  "\u2581no": 158,
  "\u2581\u3082\u306e": 159,
  "\u300c": 160,
  "\u2581been": 161,
  "\u3088": 162,
  "\u3002\u300c": 163,
  "\u2581more": 164,
  "\u2581\u306a\u308a": 165,
  "\u3067\u3059": 166,
  "\u2581In": 167,
  "d": 168,
  "(": 169,
  "\u2581\u30fb": 170,
  "\u2581her": 171,
  "\u2581\u5e74": 172,
  "\u2581here": 173,
  "\u3082": 174,
  "\u2581some": 175,
  "\u2581\u81ea\u5206": 176,
  "\u2581A": 177,
  "\u2581This": 178,
  "\u2581get": 179,
  "\u2581\u3089\u308c": 180,
  "\u2581\u8056\u66f8": 181,
  "\u304b\u3089": 182,
  "\u2581did": 183,
  "\u2581Bible": 184,
  "\u2581\u3070": 185,
  "\u308b": 186,
  "\u2581right": 187,
  "\u306a": 188,
  "\u2581don": 189,
  "\u2581\u2015": 190,
  "\u2581Jesus": 191,
  "\u2581those": 192,
  "\u2581\u3057\u304b\u3057": 193,
  "\u2581see": 194,
  "\u2581\u4f55": 195,
  "ll": 196,
  "\u2581these": 197,
  "\u2581now": 198,
  "\u2581which": 199,
  "\u2581They": 200,
  "\u2581said": 201,
  "\u2581\u308c\u308b": 202,
  "\u2581\u2019": 203,
  "\u2581That": 204,
  "\u2581go": 205,
  "\u2581\u30a4\u30a8\u30b9": 206,
  "\u2581how": 207,
  "ed": 208,
  "\u2581life": 209,
  "\u2581may": 210,
  "\u2581\u3067\u3057": 211,
  "\u30fb": 212,
  "]": 213,
  "\u2581way": 214,
  "\u2581\u4e2d": 215,
  "\u3057": 216,
  "\u2581could": 217,
  "\u2581good": 218,
  "\u25812": 219,
  "\u2581\u306a\u308b": 220,
  "\u2581into": 221,
  "\u2581then": 222,
  "\u2581other": 223,
  "\u2581than": 224,
  "\u2581How": 225,
  "\u2581want": 226,
  "\u2581\u305d\u3046": 227,
  "\u2581she": 228,
  "\u2581\u307e\u305f": 229,
  "\u2581over": 230,
  "\u2581\u4eba\u3005": 231,
  "\u2581only": 232,
  "\u300d\u3002": 233,
  "\u2581man": 234,
  "ve": 235,
  "\u2581also": 236,
  "\u2581many": 237,
  "\u2581\u79c1": 238,
  "\u2581make": 239,
  "\u2581going": 240,
  "\u2581think": 241,
  "\u2581world": 242,
  "\u2581\u3042\u306a\u305f": 243,
  "\u2581No": 244,
  "\"": 245,
  "\u2581\u308f\u305f\u3057\u305f\u3061": 246,
  "\u2581\u4e00": 247,
  "\u2581\u3067\u304d": 248,
  "\u2581\u6642": 249,
  "\u2581should": 250,
  "\u2581If": 251,
  "\u2581even": 252,
  "\u2581\u305d\u3057\u3066": 253,
  "\u2581...": 254,
  "\u2581\u306a\u3063": 255,
  "\u2581things": 256,
  "\u2581need": 257,
  "\u2581back": 258,
  "\u2581because": 259,
  "\u2581\u3053\u3046": 260,
  "\u2581say": 261,
  "\u2581such": 262,
  "\u25813": 263,
  "\u2581years": 264,
  "\u2581\u3064\u3044": 265,
  "\u2581\u306a\u3089": 266,
  "\u2581got": 267,
  "\u2581work": 268,
  "\u2581first": 269,
  "\u2581come": 270,
  "\u2581take": 271,
  "\u2581two": 272,
  "\u2581very": 273,
  "\u2581\u3069\u3093\u306a": 274,
  "\u2581day": 275,
  "\u2581\u2010": 276,
  "\u3059\u308b": 277,
  "\u2581\u8ff0\u3079": 278,
  "\u2581\u2018": 279,
  "\u2581down": 280,
  "\u308f": 281,
  "\u2581any": 282,
  "\u2581does": 283,
  "\u2581\u65e5": 284,
  "\u2581help": 285,
  "\u2581\u306a\u304f": 286,
  "\u2581its": 287,
  "\u3084": 288,
  "\u2581\u3053\u308c": 289,
  "\u2581where": 290,
  "\u2581made": 291,
  "\u2581\u3060": 292,
  "a": 293,
  "\u2581Why": 294,
  "\u306d": 295,
  "\u2581being": 296,
  "\u2581before": 297,
  "\u2581There": 298,
  "\u2581much": 299,
  "\u2581really": 300,
  "\u2581\u7b2c": 301,
  "\u2581When": 302,
  "\u2581\u4e16\u754c": 303,
  "\u2581\u5f7c\u3089": 304,
  "ly": 305,
  "\u2581\u308f\u305f\u3057": 306,
  "\u2581\u8a3c\u4eba": 307,
  "\u305f": 308,
  "\u3057\u305f": 309,
  "\u300f": 310,
  "\u2581\u3059\u3079\u3066": 311,
  "\u25814": 312,
  "\u25815": 313,
  "\u2581\u591a\u304f": 314,
  "\u3055": 315,
  "\u2581something": 316,
  "\u2581well": 317,
  "\u2581\u3088\u3063": 318,
  "\u2581\u5fc5\u8981": 319,
  "\u258110": 320,
  "\u2581new": 321,
  "\u2581For": 322,
  "\u2581love": 323,
  "\u2581after": 324,
  "\u2581Well": 325,
  "\u2581earth": 326,
  "\u2581\u3088\u308a": 327,
  "\u2581Yeah": 328,
  "\u2581\u9593": 329,
  "\u2581let": 330,
  "\u2581too": 331,
  "\u2581\u8003\u3048": 332,
  "\u2581\u3069\u306e": 333,
  "\u2581\u307e\u3067": 334,
  "\u2581\u30af\u30ea\u30b9\u30c1\u30e3\u30f3": 335,
  "\u2581must": 336,
  "\u3066": 337,
  "S": 338,
  "\u2581find": 339,
  "\u25818": 340,
  "er": 341,
  "\u2581\u898b": 342,
  "\u2581She": 343,
  "\u2581\u304f\u3060\u3055\u3044": 344,
  "1": 345,
  "\u2581through": 346,
  "y": 347,
  "\u2581little": 348,
  "\u2581\u3069\u3046": 349,
  "\u2581\u304d": 350,
  "\u2581never": 351,
  "\u2581\u3079\u304d": 352,
  "\u306b\u306f": 353,
  "\u3044": 354,
  "\u2581\u4eba\u9593": 355,
  "\u2581\u5bb6": 356,
  "\u2581Do": 357,
  "\u3057\u3066": 358,
  "\u2581\u306a\u305c": 359,
  "\u2581most": 360,
  "\u2581\u6b21": 361,
  "\u2581/": 362,
  "\u2581own": 363,
  "\u2581As": 364,
  "I": 365,
  "\u2581give": 366,
  "\u2581\u4ed6": 367,
  "\u2581name": 368,
  "\u2581\u5f8c": 369,
  "\u2581\u3067\u304d\u308b": 370,
  "\u3089": 371,
  "2": 372,
  "\u2581\u4e8c": 373,
  "\u2581All": 374,
  "\u2581children": 375,
  "\u2581says": 376,
  "\u2581\u305f\u308a": 377,
  "\u2581same": 378,
  "\u2581\u30ad\u30ea\u30b9\u30c8": 379,
  "\u2581another": 380,
  "\u3063\u3066": 381,
  "\u2581Witnesses": 382,
  "\u2581look": 383,
  "\u3093\u3060": 384,
  "\u2581\u30da\u30fc\u30b8": 385,
  "\u2581use": 386,
  "\u2581\u4eca": 387,
  "\u2581Oh": 388,
  "\u2581page": 389,
  "\u2581gonna": 390,
  "\u2581why": 391,
  "\u2581\u554f\u984c": 392,
  "\u2581off": 393,
  "\u3053\u306e": 394,
  "\u2581Now": 395,
  "\u2581\u524d": 396,
  "\u307e\u3059": 397,
  "\u2581thing": 398,
  "\u2581still": 399,
  "\u258115": 400,
  "\u2581family": 401,
  "\u2581\u3078": 402,
  "e": 403,
  "\u25816": 404,
  "\u2581Christ": 405,
  "\u2581doing": 406,
  "\u2581\u3060\u3051": 407,
  "\u2581men": 408,
  "\u2581found": 409,
  "\u2581year": 410,
  "\u2581\u5fc3": 411,
  "\u2581home": 412,
  "\u2581\u79c1\u306f": 413,
  "\u2581Yes": 414,
  "\u2581times": 415,
  "\u2581\u8a00\u8449": 416,
  "\u308a": 417,
  "\u2581might": 418,
  "\u2581long": 419,
  "\u2581used": 420,
  "\u2581\u3067\u3082": 421,
  "\u2581away": 422,
  "\u2581others": 423,
  "\u2581\u4e0a": 424,
  "\u2581Christian": 425,
  "\u25817": 426,
  "\u2581\u307b\u3069": 427,
  "\u2581tell": 428,
  "\u2581am": 429,
  "\u2581\u5bfe\u3059\u308b": 430,
  "\u2581Let": 431,
  "\u2581put": 432,
  "\u2581Allah": 433,
  "\u2581\u5834\u5408": 434,
  "\u2581every": 435,
  "\u2581My": 436,
  "\u2581\u3089\u308c\u308b": 437,
  "\u2581place": 438,
  "\u2581\u3042\u3063": 439,
  "\u2581great": 440,
  "\u2581To": 441,
  "\u2581\u306a\u3069": 442,
  "\u2581--": 443,
  "\u258112": 444,
  "\u2581One": 445,
  "\u2581\u305b": 446,
  "\u2581part": 447,
  "\u2581each": 448,
  "\u2581\u5f7c": 449,
  "\u2581today": 450,
  "\u2581\u305a": 451,
  "\u2581didn": 452,
  "--": 453,
  "the": 454,
  "\u25819": 455,
  "\u2581Paul": 456,
  "\u4eba": 457,
  "\u2581mean": 458,
  "\u305d\u306e": 459,
  "\u2581true": 460,
  "\u2581\u306a\u3051\u308c": 461,
  "\u2581called": 462,
  "\u2581\u53d7\u3051": 463,
  "\u3057\u307e\u3059": 464,
  "\u2581'": 465,
  "in": 466,
  "\u2581example": 467,
  "\u2581person": 468,
  "\u2581\u5b50\u4f9b": 469,
  "\u258120": 470,
  "\u2581three": 471,
  "\u2581\u826f\u3044": 472,
  ".\"": 473,
  "\u2581again": 474,
  "\u2581came": 475,
  "\u2581Then": 476,
  "\u2581become": 477,
  "\u2581\u3057\u308c": 478,
  "\u2581\u751f\u6d3b": 479,
  "\u2581keep": 480,
  "\u2581\u6708": 481,
  "\u2581\u611b": 482,
  "\u2581C": 483,
  "\u30b9": 484,
  "\u2581\u540c\u3058": 485,
  "\u3002\u300d": 486,
  "\u2581\u738b\u56fd": 487,
  "\u2581death": 488,
  "\u2581last": 489,
  "\u2581against": 490,
  "\u306a\u3089": 491,
  "\u2581course": 492,
  "\u2581\u3082\u3046": 493,
  "\u2581\u6642\u9593": 494,
  "\u2581\u3053\u308c\u306f": 495,
  "\u2581\u76ee": 496,
  "\u201c": 497,
  "\u2581around": 498,
  "\u2581number": 499,
  "\u2581told": 500,
  "\u2581believe": 501,
  "\u2581\u70b9": 502,
  "\u2581feel": 503,
  "\u2581old": 504,
  "\u2581\u5bb6\u65cf": 505,
  "\u2581\u7bc0": 506,
  "\u2581\u4e8b\u67c4": 507,
  "\u2581human": 508,
  "\u2581end": 509,
  "\u304f": 510,
  "\u2581\u304a\u3089": 511,
  "\u2581\u7814\u7a76": 512,
  "\u2581\u300e": 513,
  "\u2581Lord": 514,
  "\u2581\u3088\u308b": 515,
  "\u3053\u3068": 516,
  "\u3063": 517,
  "\u25813:": 518,
  "\u2581under": 519,
  "\u258111": 520,
  "E": 521,
  "\u2581better": 522,
  "\u3067\u3042\u308b": 523,
  "\u2581\u4e0e\u3048": 524,
  "\u2581thought": 525,
  "\u2581\u304a": 526,
  "\u2581\u529b": 527,
  "\u2581means": 528,
  "\u2581\u4f7f\u5f92": 529,
  "\u25812:": 530,
  "\u2581left": 531,
  "\u2581\u3064\u307e\u308a": 532,
  "\u306a\u3044": 533,
  "\u258118": 534,
  "\u2581Hey": 535,
  "\u306e\u304b": 536,
  "\u2581\u3055\u3089\u306b": 537,
  "3": 538,
  "\u2581kind": 539,
  "\u2581\u4e00\u3064": 540,
  "\u2581upon": 541,
  "\u2581done": 542,
  "\u2581show": 543,
  "\u2581Christians": 544,
  "\u2581Okay": 545,
  "\u2581\u7ae0": 546,
  "\u2581%1": 547,
  "\u2581faith": 548,
  "\u2581heart": 549,
  "\u2581without": 550,
  "\u2581\u5949\u4ed5": 551,
  "\u2581while": 552,
  "\u2581\u30d1\u30a6\u30ed": 553,
  "\u2581\u52a9\u3051": 554,
  "\u2581\u3088\u304f": 555,
  "\u2581\u95a2\u4fc2": 556,
  "\u2581words": 557,
  "al": 558,
  "\u2581between": 559,
  "\u2581always": 560,
  "\u2581ever": 561,
  "\u2581\u4eca\u65e5": 562,
  "\u2581\u3068\u3053\u308d": 563,
  "\u2581Kingdom": 564,
  "\u2581call": 565,
  "/": 566,
  "\u2581Not": 567,
  "\u2581talk": 568,
  "\u2581truth": 569,
  "\u2581\u306a\u304b\u3063": 570,
  "\u2581\u4e0d": 571,
  "\u2581\u305d\u308c\u306f": 572,
  "\u2581\u5927": 573,
  "\u2581Come": 574,
  "\u3067\u306f": 575,
  "\u2581\u304a\u3044": 576,
  "\u2581New": 577,
  "\u307e\u305f": 578,
  "\u2581days": 579,
  "\u2581parents": 580,
  "\u2581sure": 581,
  "\u2581set": 582,
  "_": 583,
  "\u2581water": 584,
  "\u2581\u4e07": 585,
  "\u3059": 586,
  "\u2581ones": 587,
  "\u2581\u305d\u308c\u3089": 588,
  "n": 589,
  "\u2581!": 590,
  "\u2581actually": 591,
  "\u2581\u3060\u308c": 592,
  "\u2581anything": 593,
  "\u2581book": 594,
  "\u2581His": 595,
  "\u2581\u5b97\u6559": 596,
  "\u2581different": 597,
  "\u2581both": 598,
  "\u2581young": 599,
  "\u2581Who": 600,
  "\u2581\u5f7c\u306f": 601,
  "\u2581John": 602,
  "\u2581spirit": 603,
  "\u2581among": 604,
  "r": 605,
  "\u2581S": 606,
  "\u258116": 607,
  "\u258114": 608,
  "\u2581house": 609,
  "\u308d": 610,
  "\u25811:": 611,
  "\u304d": 612,
  "\u2581B": 613,
  "\u2581Your": 614,
  "\u2581live": 615,
  "\u25814:": 616,
  "\u2581\u65b0\u3057\u3044": 617,
  "\u2581&": 618,
  "\u2581Are": 619,
  "\u2581few": 620,
  "A": 621,
  "\u2581\u3068\u3063": 622,
  "\u2581fact": 623,
  "\u306e\u306f": 624,
  "\u2581\u601d\u3044": 625,
  "\u2581\u5730": 626,
  "\u2581\u95a2\u3059\u308b": 627,
  "th": 628,
  "\u2581\u4ed5\u4e8b": 629,
  "\u3060\u3063\u305f": 630,
  "\u2581\u8a00\u3044": 631,
  "\u2581\u305f\u3044": 632,
  "C": 633,
  "\u2581given": 634,
  "\u2581\u610f\u5473": 635,
  "\u2581\u624b": 636,
  "\u258117": 637,
  "\u2581able": 638,
  "\u2581Just": 639,
  "\u2581\u3082\u3057": 640,
  "\u2581\u7269": 641,
  "\u2581\u5144\u5f1f": 642,
  "\u2581night": 643,
  "\u2581At": 644,
  "\u2581Can": 645,
  "\u2581\u3068\u304d": 646,
  "\u2581\u8a9e": 647,
  "\u258113": 648,
  "\u2581mind": 649,
  "\u2581together": 650,
  "\u2581\u6570": 651,
  "i": 652,
  "\u307e\u3057\u305f": 653,
  "\u2581\u547d": 654,
  "\u2581\u56fd": 655,
  "\u2581\u5f97": 656,
  "\u2581\u5b9f\u969b": 657,
  "\u2581\u5bfe\u3057": 658,
  "\u25815:": 659,
  "\u2581money": 660,
  "\u2581system": 661,
  "\u2581\u4f1a\u8846": 662,
  "\u8005": 663,
  "\u2581power": 664,
  "\u2581\u4fe1\u4ef0": 665,
  "\u2581himself": 666,
  "\u2581\u3067\u3059\u304b\u3089": 667,
  "\u2581\u79c1\u305f\u3061": 668,
  "\u2581Some": 669,
  "\u2581\u5927\u304d\u306a": 670,
  "\u2581word": 671,
  "\u2581\u672c": 672,
  "\u2581read": 673,
  "\u2581often": 674,
  "\u2581Don": 675,
  "\u2581though": 676,
  "\u2581took": 677,
  "\u2581\u6240": 678,
  "\u2581nothing": 679,
  "\u2581next": 680,
  "\u30fc": 681,
  "\u2581father": 682,
  "\u2581\u6559\u3048": 683,
  "\u2581\u30e8\u30cf\u30cd": 684,
  "\u2581\u793a\u3057": 685,
  "\u2581shall": 686,
  "\u2581\u306a\u3055\u3044": 687,
  "\u2581Where": 688,
  "\u2581went": 689,
  "\u2581dead": 690,
  "\u2581\u3046\u3061": 691,
  "\u30c8": 692,
  "\u3068\u3057\u3066": 693,
  "\u2581\u89aa": 694,
  "\u2581\u6765": 695,
  "x": 696,
  "\u2581themselves": 697,
  "\u2581lot": 698,
  "\u2581\u3042\u3042": 699,
  "\u2581wife": 700,
  "\u2581%": 701,
  "\u2581study": 702,
  "\u2581hand": 703,
  "\u2581important": 704,
  "\u2581someone": 705,
  "\u2581\u3067\u306f": 706,
  "\u2581understand": 707,
  "\u25816:": 708,
  "\u2581wrong": 709,
  "\u3067\u3082": 710,
  "\u2581since": 711,
  "\u2581However": 712,
  "\u2581real": 713,
  "\u2581\u8a18\u4e8b": 714,
  "\u2581\u30de\u30bf\u30a4": 715,
  "\u2581hope": 716,
  "\u2581congregation": 717,
  "\u2581blood": 718,
  "\u2581\u6027": 719,
  "\u2581later": 720,
  "\u3055\u308c\u305f": 721,
  "\u2581best": 722,
  "\u2581living": 723,
  "es": 724,
  "\u2581On": 725,
  "\u2581\u7d50\u679c": 726,
  "\u2581\u3053\u308c\u3089": 727,
  "\u2581having": 728,
  "\u2581\u56f3": 729,
  "\u2581case": 730,
  "\u2581Because": 731,
  "\u2581problem": 732,
  "\u307e\u3067": 733,
  "\u2581okay": 734,
  "\u2581\u6559\u4f1a": 735,
  "\u3057\u3066\u3044\u308b": 736,
  "\u30af": 737,
  "\u2581during": 738,
  "\u2581spiritual": 739,
  "\u2581point": 740,
  "c": 741,
  "\u2581b": 742,
  "\u2581\u305d\u308c\u3067": 743,
  "\u2581change": 744,
  "\u2581until": 745,
  "\u2581mother": 746,
  "\u2581These": 747,
  "\u2581ask": 748,
  "\u2581order": 749,
  "\u2581\u78ba\u304b": 750,
  "\u2581bring": 751,
  "\u2581wanted": 752,
  "\u30ba": 753,
  "\u2581coming": 754,
  "\u2581saying": 755,
  "\u2581\u8a71": 756,
  "\u2581\u970a\u7684": 757,
  "\u304c\u3042\u308b": 758,
  "\u2581news": 759,
  "\u2581already": 760,
  "\u2581body": 761,
  "\u2581making": 762,
  "\u2581far": 763,
  "\u258122": 764,
  "\u2581bad": 765,
  "\u2581\u307e\u3057\u3087": 766,
  "\u2581\u5b50\u3069\u3082": 767,
  "\u2581matter": 768,
  "\u2581\u738b": 769,
  "\u2581\u8a00\u308f": 770,
  "\u5e74": 771,
  "o": 772,
  "\u2581\u4e16": 773,
  "\u2581women": 774,
  "\u2581yet": 775,
  "\u2581\u307e\u3060": 776,
  "\u2581everything": 777,
  "\u2581\u300d": 778,
  "\u258130": 779,
  "\u2581saw": 780,
  "\u2581high": 781,
  "\u2581Our": 782,
  "\u2581woman": 783,
  "\u2581\u6c34": 784,
  "\u2581seen": 785,
  "\u2581city": 786,
  "\u6642": 787,
  "\u2581care": 788,
  "\u2581whole": 789,
  "\u2581\u307f": 790,
  "\u2581gave": 791,
  "\u2581D": 792,
  "\u2581\u6b7b": 793,
  "\u2581\u305b\u308b": 794,
  "\u30e9": 795,
  "The": 796,
  "\u2581child": 797,
  "\u2581food": 798,
  "\u2581After": 799,
  "\u305e": 800,
  "\u3068\u3044\u3046": 801,
  "\u30ca": 802,
  "\u2581\u51fa": 803,
  "\u2581\u3042\u308c": 804,
  "\u2581reason": 805,
  "\u30fb\u30fb\u30fb": 806,
  "\u2581son": 807,
  "\u2581\u3060\u308d": 808,
  "\u2581leave": 809,
  "\u3093": 810,
  "\u2581enough": 811,
  "\u2581By": 812,
  "\u300e": 813,
  "\u2581\u7d50\u5a5a": 814,
  "\u2581hard": 815,
  "\u2581\u30a4\u30b9\u30e9\u30a8\u30eb": 816,
  "),": 817,
  "\u2581\u5973\u6027": 818,
  "\u2581Picture": 819,
  "\u2581\u59bb": 820,
  "D": 821,
  "\u2581school": 822,
  "\u2581fine": 823,
  "\u2581\u3055\u308c": 824,
  "\u2581\u30a4": 825,
  "\u2581whom": 826,
  "\u2581\u3054\u81ea\u5206": 827,
  "\u2581try": 828,
  "\u2581ago": 829,
  "\u2581start": 830,
  "\u2581Thank": 831,
  "\u3081": 832,
  "\u258119": 833,
  "\u2581became": 834,
  "\u3082\u306e": 835,
  "\u2581four": 836,
  "\u2581yourself": 837,
  "\u2581asked": 838,
  "\u2581\u672c\u5f53": 839,
  "\u2581With": 840,
  "\u2581Mr": 841,
  "\u2581\u3059": 842,
  "\u2581full": 843,
  "\u308c": 844,
  "\u2581\u65b9\u6cd5": 845,
  "\u2581\u9810\u8a00": 846,
  "\u2581O": 847,
  "\u2581\u5f71\u97ff": 848,
  "\u2581view": 849,
  "4": 850,
  "\u2581learn": 851,
  "\u2581turn": 852,
  "T": 853,
  "\u2581\u8aac\u660e": 854,
  "\u2581cannot": 855,
  "\u2581\u7406\u89e3": 856,
  "\u3064": 857,
  "\u2581\u7b54\u3048": 858,
  "\u2581Word": 859,
  "\u2581\u771f": 860,
  "\u2581percent": 861,
  "\u2581\u3060\u304b\u3089": 862,
  "\u2581happened": 863,
  "\u2581\u4ee5\u4e0a": 864,
  "\u2581hear": 865,
  "\u2581\u5929": 866,
  "b": 867,
  "\u3058\u3083\u306a\u3044": 868,
  "\u2581Look": 869,
  "\u2581question": 870,
  "\u2581United": 871,
  "\u306e\u3067\u3059": 872,
  "\u2581sorry": 873,
  "\u2581war": 874,
  "\u2581\u304a\u308a": 875,
  "\u2581\u3042\u306a\u305f\u306f": 876,
  "\u2581\u5b50": 877,
  "\u2581\u7406\u7531": 878,
  "\u30c9": 879,
  "\u2581\u4f8b\u3048\u3070": 880,
  "\u2581\u30ed\u30fc\u30de": 881,
  "\u2581looking": 882,
  "\u2581\u7d4c\u9a13": 883,
  "\u2581K": 884,
  "\u30a2": 885,
  "\u795e": 886,
  "\u2581face": 887,
  "\u2581million": 888,
  "\u2581second": 889,
  "\u2581\u3055\u3048": 890,
  "\u2581else": 891,
  "\u2581\u5f7c\u5973": 892,
  "\u2581\u7236": 893,
  "\u2581\u266a": 894,
  "\u2581apostle": 895,
  "\u2581\u975e\u5e38": 896,
  "\u2581began": 897,
  "or": 898,
  "\u2581problems": 899,
  "\u2581getting": 900,
  "\u2581\u6c11": 901,
  "\u2581sent": 902,
  "\u2581please": 903,
  "\u2581Please": 904,
  "\u2581small": 905,
  "\u2581Get": 906,
  "\u3088\u3046": 907,
  "\u2581peace": 908,
  "\u2581stop": 909,
  "\u2581open": 910,
  "\u2581wrote": 911,
  "\u258125": 912,
  "\u2581doesn": 913,
  "\u2581\u305d\u3053": 914,
  "\u2581\u3042\u308b\u3044\u306f": 915,
  "\u2581future": 916,
  "\u307f": 917,
  "\u2581\u884c\u306a\u308f": 918,
  "\u2581possible": 919,
  "\u2581light": 920,
  "\u3046": 921,
  "\u2581s": 922,
  "\u2581*": 923,
  "\u2581close": 924,
  "\u2581\u30ed": 925,
  "\u2581Did": 926,
  "\u2581\u6301\u3063": 927,
  "\u2581trying": 928,
  "\u3078": 929,
  "\u2581heard": 930,
  "\u2581once": 931,
  "\u2581\u7528\u3044": 932,
  "\u2581knowledge": 933,
  "\u2581\u3069\u3046\u3057\u3066": 934,
  "\u2581\u5d07\u62dd": 935,
  "\u2581\u884c\u306a\u3046": 936,
  "5": 937,
  "\u2581remember": 938,
  "\u3067\u3057\u3087\u3046": 939,
  "\u2581Here": 940,
  "\u2581\u6301\u3064": 941,
  "\u2581\u7f6a": 942,
  "\u2581won": 943,
  "\u2581\u3060\u3063": 944,
  "\u2581lives": 945,
  "\u2581five": 946,
  "\u2581big": 947,
  "\u2581\u6559": 948,
  "\u2581knew": 949,
  "\u2581country": 950,
  "\u2581\u3059\u308c": 951,
  "\u2581\u4e0b": 952,
  "\u2581\u4e16\u7d00": 953,
  "\u2581\u77e5\u3063": 954,
  "\u2581known": 955,
  "\u2581Of": 956,
  "\u2581\u3053\u3053": 957,
  "\u2581\u6700\u521d": 958,
  "\u3063\u305f": 959,
  "\u2581E": 960,
  "\u2581makes": 961,
  "\u3053\u3068\u3092": 962,
  "\u2581\u6b73": 963,
  "\u304a": 964,
  "\u2581\u9053": 965,
  "\u3057\u307e\u3057\u305f": 966,
  "\u2581x": 967,
  "\u2581worship": 968,
  "\u2581\u660e\u3089\u304b": 969,
  "ers": 970,
  "\u2581friends": 971,
  "\u2581\u771f\u7406": 972,
  "\u2581eyes": 973,
  "\u2581P": 974,
  "\u3055\u3093": 975,
  "\u2581\u7c73\u56fd": 976,
  "\u2581brought": 977,
  "\u2581head": 978,
  "\u2581free": 979,
  "\u2581\u4f53": 980,
  "\u2581information": 981,
  "ic": 982,
  "\u2581Or": 983,
  "\u2581answer": 984,
  "\u2581\u7d04": 985,
  "\u2581\u73fe\u5728": 986,
  "\u2581idea": 987,
  "\u3088\u308a": 988,
  "\u2581\u8a00\u3046": 989,
  "\u2581fear": 990,
  "\u2581century": 991,
  "\u2581move": 992,
  "\u2581\u79c1\u304c": 993,
  "\u2581World": 994,
  "\u2581Even": 995,
  "\u65e5": 996,
  "\u2581kill": 997,
  "\u2581Israel": 998,
  "\u2581religious": 999,
  "\u3070": 1000,
  "O": 1001,
  "\u2581\u66f8": 1002,
  "\u2581using": 1003,
  "\u3066\u3044\u308b": 1004,
  "on": 1005,
  "\u2581\u6642\u4ee3": 1006,
  "\u30bf": 1007,
  "\u2581\u91cd\u8981": 1008,
  "\u2581service": 1009,
  "\u2581brother": 1010,
  "\u4e2d": 1011,
  "\u2581\u696d": 1012,
  "\u2581land": 1013,
  "\u2581\u5225": 1014,
  "\u2581result": 1015,
  "\u2581started": 1016,
  "\u306e\u305f\u3081\u306b": 1017,
  "\u2581\u25cf": 1018,
  "\u2581\u793a\u3059": 1019,
  "\u2581\u7948\u308a": 1020,
  "\u2581\u5171": 1021,
  "\u2581\u307b\u3068\u3093\u3069": 1022,
  "\u2581\u652f\u914d": 1023,
  "\u2581Good": 1024,
  "\u2581car": 1025,
  "\u2581\u65b0": 1026,
  "\u2581\u6700\u3082": 1027,
  "\u2581From": 1028,
  "\u2581\u5275\u9020": 1029,
  "\u306b\u3064\u3044\u3066": 1030,
  "l": 1031,
  "\u2581working": 1032,
  "\u2581die": 1033,
  "\u2581\u25a1": 1034,
  "\u258124": 1035,
  "\u2581\u8eca": 1036,
  "\u2581along": 1037,
  "\u5927": 1038,
  "\u2581\u72b6\u614b": 1039,
  "\u2581\u3082\u3063\u3068": 1040,
  "\u2581\u3044\u3084": 1041,
  "\u258121": 1042,
  "\u30ab": 1043,
  "\u2581comes": 1044,
  "\u2581side": 1045,
  "\u2581Peter": 1046,
  "\u2581brothers": 1047,
  "\u2581\u3088": 1048,
  "\u2581\u76ee\u7684": 1049,
  "\u2581\u5834\u6240": 1050,
  "\u2581soon": 1051,
  "\u2581\u307b\u304b": 1052,
  "\u3042\u308b": 1053,
  "\u30ea": 1054,
  "\u2581\u8a69\u7de8": 1055,
  "\u2581however": 1056,
  "\u306b\u3082": 1057,
  "\u2581government": 1058,
  "\u2581certain": 1059,
  "\u2581taking": 1060,
  "\u2581\u884c\u52d5": 1061,
  "\u2581talking": 1062,
  "\u2581guy": 1063,
  "\u2581\u5371\u967a": 1064,
  "\u2581\u6c42\u3081": 1065,
  "to": 1066,
  "\u2581value": 1067,
  "\u2581nor": 1068,
  "\u2581\u3042\u306e": 1069,
  "\u2581happy": 1070,
  "\u2581friend": 1071,
  "\u2581taken": 1072,
  "\u2581job": 1073,
  "\u3060\u308d": 1074,
  "\u2581\u65b9": 1075,
  "\u3060\u308d\u3046": 1076,
  "\u2581\u5b8c\u5168": 1077,
  "P": 1078,
  "\u2581David": 1079,
  "\u2581law": 1080,
  "\u2581\u3060\u304c": 1081,
  "\u2581Father": 1082,
  "\u2581States": 1083,
  "\u2581\u4eba\u985e": 1084,
  "\u2581cause": 1085,
  "\u2581persons": 1086,
  "\u2581killed": 1087,
  "\u2581control": 1088,
  "\u3048": 1089,
  "\u2581T": 1090,
  "\u2581U": 1091,
  "\u2581Many": 1092,
  "\u2581line": 1093,
  "\u3060\u3051": 1094,
  "\u2581\u3069\u3053": 1095,
  "\u7269": 1096,
  "\u2581mankind": 1097,
  "\u30de": 1098,
  "\u2581\u3042\u306a\u305f\u65b9": 1099,
  "\u2581Yet": 1100,
  "\u2581alone": 1101,
  "\u2581thinking": 1102,
  "\u2581un": 1103,
  "\u4e8b": 1104,
  "\u2581message": 1105,
  "\u2581clear": 1106,
  "\u2581nations": 1107,
  "\u2581ways": 1108,
  "\u2581\u8a00\u3063": 1109,
  "\u2581\u4f55\u304b": 1110,
  "\u2581M": 1111,
  "\u3055\u308c\u308b": 1112,
  "\u2581article": 1113,
  "\u2581anyone": 1114,
  "B": 1115,
  "\u2581\u50d5": 1116,
  "\u2581lost": 1117,
  "\u2581\u30da\u30c6\u30ed": 1118,
  "\u2581present": 1119,
  "\u30ea\u30fc": 1120,
  "\u2581\u5730\u4e0a": 1121,
  "\u2581husband": 1122,
  "\u2581\u5b66": 1123,
  "\u2581less": 1124,
  "\u5206": 1125,
  "\u30ed": 1126,
  "\u3088\u3046\u306b": 1127,
  "\u624b": 1128,
  "\u3060\u3088": 1129,
  "\u2581Go": 1130,
  "\u2581girl": 1131,
  "\u2581group": 1132,
  "\u2581\u95a2\u3057": 1133,
  "\u30eb": 1134,
  "F": 1135,
  "\u2581\u541b\u306f": 1136,
  "\u2581following": 1137,
  "\u2581\u30b3\u30ea\u30f3\u30c8": 1138,
  "\u2581file": 1139,
  "\u2581F": 1140,
  "\u2581\u3082\u3061\u308d\u3093": 1141,
  "\u2581\u540d": 1142,
  "\u2581\u79c1\u306e": 1143,
  "\u2581\u5c11\u3057": 1144,
  "\u2581\u5f7c\u5973\u306f": 1145,
  "\u305d\u3046": 1146,
  "\u2581\u4e8b\u5b9f": 1147,
  "\u2581\u611f\u3058": 1148,
  "\u305b": 1149,
  "\u2581kingdom": 1150,
  "\u2581\u30e6\u30c0\u30e4": 1151,
  "\u2581needed": 1152,
  "\u2581\u5c11\u306a\u304f": 1153,
  "\u2581\u6d3b\u52d5": 1154,
  "an": 1155,
  "\u2581\u7d04\u675f": 1156,
  "\u2581\u898b\u308b": 1157,
  "\u2581age": 1158,
  "\u2581sense": 1159,
  "\u2581Satan": 1160,
  "\u3057\u3066\u308b": 1161,
  "\u258112:": 1162,
  "\u65b9": 1163,
  "\u2581least": 1164,
  "\u2581toward": 1165,
  "\u2015": 1166,
  "\u3044\u305f": 1167,
  "\u2581experience": 1168,
  "\u2581King": 1169,
  "\u2581questions": 1170,
  "\u2581\u672c\u5f53\u306b": 1171,
  "\u2581past": 1172,
  "\u2581religion": 1173,
  "\u2581stay": 1174,
  "\u2581half": 1175,
  "\u2581room": 1176,
  "\u2581\u5e73\u548c": 1177,
  "it": 1178,
  "\u2581large": 1179,
  "\u2581\u5168": 1180,
  "\u2581G": 1181,
  "\u2581\u75c5\u6c17": 1182,
  "\u306a\u3055\u3044": 1183,
  "\u2581speak": 1184,
  "\u2581\u559c\u3073": 1185,
  "\u258140": 1186,
  "Name": 1187,
  "g": 1188,
  "\u2581100": 1189,
  "\u3068\u306f": 1190,
  "\u3051\u3069": 1191,
  "\u2581\u653f\u5e9c": 1192,
  "\u2581\u3042\u308a\u304c\u3068\u3046": 1193,
  "\u2581\u5f97\u308b": 1194,
  "\u2581needs": 1195,
  "\u2581\u82e5\u3044": 1196,
  "\u2581\u7279\u306b": 1197,
  "\u2581\u306a\u304c\u3089": 1198,
  "\u2581early": 1199,
  "\u2581\u5b66\u6821": 1200,
  "\u2581Dr": 1201,
  "\u2581An": 1202,
  "\u2581run": 1203,
  "\u258123": 1204,
  "\u2581\u305f\u3060": 1205,
  "6": 1206,
  "\u7684\u306a": 1207,
  "\u2581hands": 1208,
  "\u2581\u3059\u3050": 1209,
  "\u2581\u304f\u308c": 1210,
  "\u258150": 1211,
  "\u2581\u5ba3\u6559": 1212,
  "\u2581\u4e3b": 1213,
  "U": 1214,
  "\u2581\u4ffa\u306f": 1215,
  "M": 1216,
  "\u2581\u3068\u3066\u3082": 1217,
  "\u2581\u5168\u304f": 1218,
  "\u258110:": 1219,
  "\u2581\u3044\u3064\u3082": 1220,
  "\u2581\u6ce8\u610f": 1221,
  "\u2581R": 1222,
  "\u2581\u308f\u3051": 1223,
  "\u2581whether": 1224,
  "\u2581\u592b": 1225,
  "\u2581\u3088\u3044": 1226,
  "\u2581\u9762": 1227,
  "\u79c1\u306f": 1228,
  "\u2581\u611f\u8b1d": 1229,
  "\u2581months": 1230,
  "\u30d0": 1231,
  "\u2581died": 1232,
  "?\"": 1233,
  "\u4f55": 1234,
  "\u2581\u30a2": 1235,
  "\u2581\u6c17": 1236,
  "\u2581guys": 1237,
  "\u2581form": 1238,
  "\u2581Thus": 1239,
  "\u2581morning": 1240,
  "\u2581\u304a\u3051\u308b": 1241,
  "\u2581\u6c17\u6301\u3061": 1242,
  "\u30d5": 1243,
  "\u30e0": 1244,
  "\u2581\u5341\u5206": 1245,
  "\u2581myself": 1246,
  "\u2581Those": 1247,
  "\u2581hours": 1248,
  "\u2581purpose": 1249,
  "\u3053\u308c\u306f": 1250,
  "\u2581felt": 1251,
  "\u3067\u3057\u305f": 1252,
  "\u304b\u308c\u3089\u306f": 1253,
  "\u3080": 1254,
  "\u2581\u52aa\u529b": 1255,
  "\u306a\u304b\u3063\u305f": 1256,
  "\u2581bit": 1257,
  "\u3060\u3068": 1258,
  "\u2581situation": 1259,
  "\u884c": 1260,
  "\u2581\u305d\u3053\u3067": 1261,
  "\u2581personal": 1262,
  "ness": 1263,
  "\u2581serve": 1264,
  "p": 1265,
  "\u306b\u306a\u308b": 1266,
  "\u2581\u5e0c\u671b": 1267,
  "\u2581share": 1268,
  "\u258111:": 1269,
  "\u2581area": 1270,
  "man": 1271,
  "\u25817:": 1272,
  "\u2581\u5206": 1273,
  "\u2581\u8003\u3048\u308b": 1274,
  "\u2581almost": 1275,
  "\u2581\u30a2\u30e1\u30ea\u30ab": 1276,
  "\u2581six": 1277,
  "\u2581marriage": 1278,
  "\u3089\u308c\u308b": 1279,
  "\u2581language": 1280,
  "\u2581works": 1281,
  "\u2581\u982d": 1282,
  "R": 1283,
  "\u2581text": 1284,
  "\u2581knows": 1285,
  "\u2581\u79d1\u5b66": 1286,
  "\u2581follow": 1287,
  "\u2581indeed": 1288,
  "\u2581Be": 1289,
  "\u2581\u540c\u69d8": 1290,
  "\u2581\u3048\u3048": 1291,
  "\u3042\u306a\u305f": 1292,
  "\u2581\u4ef2\u9593": 1293,
  "\u2581\u5730\u7403": 1294,
  "\u2581hold": 1295,
  "\u2581state": 1296,
  "\u2581\u3044\u3044": 1297,
  "\u529b": 1298,
  "\u2581\u614b\u5ea6": 1299,
  "\u2581\u30a4\u30b6\u30e4": 1300,
  "\u2581learned": 1301,
  "\u2581self": 1302,
  "\u2581\u5b58\u5728": 1303,
  "\u2581within": 1304,
  "\u2581\u751f\u3058": 1305,
  "\u2581\u970a": 1306,
  "\u2581hell": 1307,
  "\u2581\u8cea\u554f": 1308,
  "\u2581\u25c6": 1309,
  "\u2581\u5b9f": 1310,
  "\u2581\u30eb\u30ab": 1311,
  "\u2581\u81ea\u7531": 1312,
  "\u2581Jerusalem": 1313,
  "\u2581\u72b6\u6cc1": 1314,
  "\u2581support": 1315,
  "\u2581special": 1316,
  "\u2581Son": 1317,
  "\u2581\u8eab": 1318,
  "\u2581\u52d5\u7269": 1319,
  "\u2581consider": 1320,
  "\u2581Have": 1321,
  "\u3067\u304d\u308b": 1322,
  "\u2581\u306d": 1323,
  "\u2581\u77e5\u3089": 1324,
  "\u2581return": 1325,
  "\u2581history": 1326,
  "\u2581\u3044\u3048": 1327,
  "\u2581door": 1328,
  "\u2581\u4f1d\u9053": 1329,
  "\u2581See": 1330,
  "\u3067\u3042\u308d\u3046": 1331,
  "en": 1332,
  "\u3078\u306e": 1333,
  "\u3064\u306e": 1334,
  "\u2581\u5553\u793a": 1335,
  "\u4e00": 1336,
  "\u305d\u308c": 1337,
  "\u2581meet": 1338,
  "\u3044\u308b": 1339,
  "\u2581\u5185": 1340,
  "\u884c\u306a\u3063": 1341,
  "\u2581\u82e5\u8005": 1342,
  "\u2581re": 1343,
  "\u6027": 1344,
  "\u2581\u53f7": 1345,
  "\u2581\u304a\u3088\u3073": 1346,
  "\u2581giving": 1347,
  "\u2581maybe": 1348,
  "\u30ec": 1349,
  "\u2581Since": 1350,
  "\u2581\u305f\u3089": 1351,
  "\u2581everyone": 1352,
  "\u30b5": 1353,
  "\u2581Right": 1354,
  "\u2581\u5f1f\u5b50": 1355,
  "\u2581\u306f\u3044": 1356,
  "\u3057\u3066\u3044\u307e\u3059": 1357,
  "\u2581\u5fe0\u5b9f": 1358,
  "\u307e": 1359,
  "\u30aa": 1360,
  "\u2581list": 1361,
  "\u2581evidence": 1362,
  "\u2581rest": 1363,
  "\u305d\u308c\u306f": 1364,
  "\u2581itself": 1365,
  "\u2581\u59cb\u3081": 1366,
  "\u2581eat": 1367,
  "\u2581L": 1368,
  "\u2581longer": 1369,
  "k": 1370,
  "\u2581public": 1371,
  "\u2581happen": 1372,
  "\u3002\u300e": 1373,
  "able": 1374,
  "\u2581faithful": 1375,
  "\u2581inside": 1376,
  "\u6c17": 1377,
  "\u2581Matthew": 1378,
  "\u2581rather": 1379,
  "\u2581\u3082\u3068": 1380,
  "\u2581\u305d\u308c\u3067\u3082": 1381,
  "\u2581trust": 1382,
  "\u2581preaching": 1383,
  "\u2581behind": 1384,
  "\u2581fire": 1385,
  "\u2581humans": 1386,
  "\u2581especially": 1387,
  "\u2581feet": 1388,
  "\u672c\u5f53\u306b": 1389,
  "\u2581\u7d44\u7e54": 1390,
  "\u2581created": 1391,
  "\u2581\u5ea6": 1392,
  "\u2581continue": 1393,
  "\u2581\u4f8b": 1394,
  "\u2581\u56fd\u6c11": 1395,
  "7": 1396,
  "\u2581certainly": 1397,
  "\u2581goes": 1398,
  "\u2581gone": 1399,
  "\u304c\u3042\u308a\u307e\u3059": 1400,
  "\u2581isn": 1401,
  "\u258128": 1402,
  "\u2581easy": 1403,
  "\u5b50": 1404,
  "\u2581\u53d7\u3051\u308b": 1405,
  "\u2581stand": 1406,
  "\u2581\u7d42\u308f\u308a": 1407,
  "\u6c34": 1408,
  "\u2581business": 1409,
  "\u3053": 1410,
  "\u2581boy": 1411,
  "\u2581wait": 1412,
  "\u2581near": 1413,
  "\u30b7": 1414,
  "\u2581Will": 1415,
  "\u2581\u751f\u304d": 1416,
  "\u304b\u308c": 1417,
  "\u2581health": 1418,
  "\u2581wasn": 1419,
  "\u2581according": 1420,
  "\u2581holy": 1421,
  "\u2581\u95a2\u5fc3": 1422,
  "\u2581\u5f8b\u6cd5": 1423,
  "\u2581Maybe": 1424,
  "\u5730": 1425,
  "\u305a": 1426,
  "\u2581\u30b5\u30bf\u30f3": 1427,
  "\u2581equal": 1428,
  "10": 1429,
  "\u2581\u307e\u305a": 1430,
  "\u306a\u3093\u3060": 1431,
  "\u2581\u6226\u4e89": 1432,
  "\u2581quite": 1433,
  "\u2581\u30d8\u30d6\u30e9\u30a4": 1434,
  "\u2581\u8a8d\u3081": 1435,
  "\u258113:": 1436,
  "\u2581\u4e0e\u3048\u308b": 1437,
  "\u2581\u793e\u4f1a": 1438,
  "\u2581disciples": 1439,
  "\u2581\u3044\u3064": 1440,
  "\u2581ready": 1441,
  "\u307e\u305b\u3093": 1442,
  "\u2581attention": 1443,
  "\u2581J": 1444,
  "\u2581People": 1445,
  "\u2581respect": 1446,
  "\u2581\u6700\u8fd1": 1447,
  "\u30cb": 1448,
  "\u2581\u3042\u3089\u3086\u308b": 1449,
  "\u2581\u30d0\u30d7\u30c6\u30b9\u30de": 1450,
  "\u2581\u3061\u3087\u3063\u3068": 1451,
  "\u2581\u7a2e": 1452,
  "\u2581\u7121": 1453,
  "\u2581either": 1454,
  "\u2581story": 1455,
  "\u2581countries": 1456,
  "\u2581\u7bb4\u8a00": 1457,
  "\u2581\u540c": 1458,
  "\u2581heaven": 1459,
  "\u2581church": 1460,
  "\u8a00\u3063\u305f": 1461,
  "\u30b3": 1462,
  "\u2581\u6bcd": 1463,
  "\u306a\u3093\u3066": 1464,
  "\u76ee": 1465,
  "\u2581lead": 1466,
  "\u2581sir": 1467,
  "\u25811,": 1468,
  "\u2581\u5e7e\u3064": 1469,
  "\u2581\u9577\u8001": 1470,
  "\u2581\u547c\u3070": 1471,
  "\u2581\u8af8": 1472,
  "\u2581probably": 1473,
  "\u2581building": 1474,
  "\u2581\u5927\u4f1a": 1475,
  "\u2581play": 1476,
  "\u2581pay": 1477,
  "\u2581\u7537": 1478,
  "\u2581field": 1479,
  "\u2581\u897f\u66a6": 1480,
  "\u2581\u307f\u3093\u306a": 1481,
  "\u2581ancient": 1482,
  "\u2581\u77e5\u8b58": 1483,
  "\u2581\u969b": 1484,
  "\u2581York": 1485,
  "\u2581Like": 1486,
  "\u306b\u3088\u3063\u3066": 1487,
  "\u2581members": 1488,
  "\u2581Scriptures": 1489,
  "\u2581\u4ee5\u524d": 1490,
  "\u305d\u3057\u3066": 1491,
  "\u2581\u6c7a\u3057\u3066": 1492,
  "\u2581\u307b\u3046": 1493,
  "\u2581report": 1494,
  "\u2581\u795d\u798f": 1495,
  "\u2581\u8a8c": 1496,
  "\u2581\u4fe1\u3058": 1497,
  "\u2581local": 1498,
  "\u2581\u606f\u5b50": 1499,
  "\u2581\u51fa\u5e2d": 1500,
  "\u2581\u884c\u306a\u3044": 1501,
  "\u2581\u72a0\u7272": 1502,
  "\u2581\u5dde": 1503,
  "\u2581data": 1504,
  "\u898b": 1505,
  "G": 1506,
  "L": 1507,
  "\u2581\u30ab\u30c8\u30ea\u30c3\u30af": 1508,
  "\u2581\u5909\u5316": 1509,
  "\u2581\u30c6\u30e2\u30c6": 1510,
  "\u4e0a": 1511,
  "\u2581baby": 1512,
  "\u2581\u7fa9": 1513,
  "\u2581\u4e00\u90e8": 1514,
  "\u2581\u5e78\u798f": 1515,
  "\u2581\u76ca": 1516,
  "\u2581sin": 1517,
  "\u3042\u306a\u305f\u304c\u305f\u306f": 1518,
  "\u540d": 1519,
  "\u2581involved": 1520,
  "N": 1521,
  "\u826f\u3044": 1522,
  "\u30f3": 1523,
  "\u306a\u306e": 1524,
  "\u308f\u305f\u3057": 1525,
  "\u2581account": 1526,
  "\u3067\u3057\u3087": 1527,
  "\u2581\u6765\u308b": 1528,
  "\u2581write": 1529,
  "\u2581\u90fd\u5e02": 1530,
  "\u2581\u5c06\u6765": 1531,
  "\u2581\u305d\u308c\u304c": 1532,
  "\u3060\u304c": 1533,
  "\u2581tried": 1534,
  "\u2581common": 1535,
  "f": 1536,
  "\u2581\u5730\u57df": 1537,
  "\u2581save": 1538,
  "\u2581\u7d19": 1539,
  "\u2581simply": 1540,
  "\u307e\u305f\u306f": 1541,
  "\u3066\u308b": 1542,
  "\u2581strong": 1543,
  "\u30c0": 1544,
  "\u2581\u96c6\u4f1a": 1545,
  "\u2581position": 1546,
  "\u2581\u3053\u308c\u304c": 1547,
  "\u2581Does": 1548,
  "\u2581\u5c0f\u3055\u306a": 1549,
  "\u2581Catholic": 1550,
  "\u2581type": 1551,
  "\u2581week": 1552,
  "\u2581air": 1553,
  "\u2581shows": 1554,
  "\u2581\u60aa\u3044": 1555,
  "\u2581\u601d\u3063": 1556,
  "\u30c3": 1557,
  "K": 1558,
  "\u30b8": 1559,
  "\u2581king": 1560,
  "\u30de\u30f3": 1561,
  "\u2581servants": 1562,
  "\u2581\u3069\u308c": 1563,
  "\u3051": 1564,
  "\u2581\u81ea\u8eab": 1565,
  "\u2581whatever": 1566,
  "\u2581interest": 1567,
  "\u2581\u6050\u308c": 1568,
  "\u2581including": 1569,
  "\u2581\u8a00\u3048": 1570,
  "\u2581wants": 1571,
  "\u2581listen": 1572,
  "\u2581c": 1573,
  "\u3057\u306a\u3044": 1574,
  "\u2581\u3042\u306a\u305f\u304c": 1575,
  "\u2581above": 1576,
  "\u2581\u884c\u304f": 1577,
  "\u2581difficult": 1578,
  "\u306e\u3067": 1579,
  "\u2581\u3082\u3063": 1580,
  "\u2581helped": 1581,
  "\u2581single": 1582,
  "\u6642\u9593": 1583,
  "\u2581de": 1584,
  "\u2581relationship": 1585,
  "\u2581send": 1586,
  "z": 1587,
  "\u2581reading": 1588,
  "\u2581nation": 1589,
  "\u2581gives": 1590,
  "\u3053\u3068\u306f": 1591,
  "\u2581deal": 1592,
  "\u2581Moses": 1593,
  "\u258115:": 1594,
  "\u2581ten": 1595,
  "el": 1596,
  "\u2581\u6b74\u53f2": 1597,
  "\u2581uh": 1598,
  "\u6570": 1599,
  "\u2581outside": 1600,
  "8": 1601,
  "\u2581heavens": 1602,
  "\u7684": 1603,
  "\u2581\u4fa1\u5024": 1604,
  "\u9053": 1605,
  "\u2581\u53ef\u80fd": 1606,
  "\u2581pretty": 1607,
  "\u306a\u3069": 1608,
  "\u4eca": 1609,
  "\u79c1": 1610,
  "\u2581\u601d\u308f": 1611,
  "\u6708": 1612,
  "\u2581righteous": 1613,
  "\u258124:": 1614,
  "\u2581turned": 1615,
  "\u2581\u500b\u4eba": 1616,
  "\u3066\u3044\u307e\u3059": 1617,
  "\u3044\u307e\u3059": 1618,
  "\u2581Most": 1619,
  "\u305f\u3044": 1620,
  "\u2581H": 1621,
  "\u2581forth": 1622,
  "\u2581According": 1623,
  "\u2581promise": 1624,
  "\u30a4": 1625,
  "H": 1626,
  "\u306e\u3088": 1627,
  "\u2581seem": 1628,
  "\u3060\u304b\u3089": 1629,
  "\u2581couple": 1630,
  "\u2581\u4e00\u7dd2": 1631,
  "\u2581prayer": 1632,
  "\u2581\u5973": 1633,
  "\u2581serious": 1634,
  "\u2581thus": 1635,
  "\u2581enjoy": 1636,
  "\u2581\u305f\u3088\u308a": 1637,
  "is": 1638,
  "\u2581loving": 1639,
  "\u305d": 1640,
  "\u2581minutes": 1641,
  "\u2581desire": 1642,
  "\u2581sound": 1643,
  "\u2581\u3044\u3063": 1644,
  "\u2581\u8a3c\u62e0": 1645,
  "\u2581i": 1646,
  "\u2581Him": 1647,
  "\u2581function": 1648,
  "\u2581\u6728": 1649,
  "\u4e07": 1650,
  "\u2581\u30c0\u30d3\u30c7": 1651,
  "\u2581\u66f8\u3044": 1652,
  "\u2581states": 1653,
  "\u2581\u7cbe\u795e": 1654,
  "\u2581THE": 1655,
  "\u3067\u306f\u306a\u3044": 1656,
  "\u4e0b": 1657,
  "\u2581\u6b63\u3057\u3044": 1658,
  "\u2581\u30a2\u30d5\u30ea\u30ab": 1659,
  "\u2581ourselves": 1660,
  "\u2581ministry": 1661,
  "\u2581While": 1662,
  "\u2581\u541b\u306e": 1663,
  "\u2581\u305d\u3093\u306a": 1664,
  "You": 1665,
  "\u2581fellow": 1666,
  "\u2581soul": 1667,
  "\u30cd": 1668,
  "\u2581received": 1669,
  "\u3067\u3059\u304b": 1670,
  "\u2581teaching": 1671,
  "\u2581seems": 1672,
  "\u2581\u4e8b": 1673,
  "\u30d6": 1674,
  "\u2581\u9053\u5fb3": 1675,
  "\u751f": 1676,
  "and": 1677,
  "\u3089\u308c\u305f": 1678,
  "\u2581\u5f53\u6642": 1679,
  "\u3061": 1680,
  "\u2581\u6bcd\u89aa": 1681,
  "\u2581\u30a8\u30eb\u30b5\u30ec\u30e0": 1682,
  "ation": 1683,
  "\u2581witnesses": 1684,
  "\u4eba\u306e": 1685,
  "\u2581beautiful": 1686,
  "\u2581entire": 1687,
  "\u2581kept": 1688,
  "\u2581\u3042\u306a\u305f\u306e": 1689,
  "\u2581fight": 1690,
  "\u2581\u8d77\u304d": 1691,
  "\u2581Psalm": 1692,
  "\u2581greater": 1693,
  "\u2581takes": 1694,
  "\u2581\u7686": 1695,
  "\u2581act": 1696,
  "\u2581\u53e3": 1697,
  "\u2581\u611f\u60c5": 1698,
  "\u2581miles": 1699,
  "\u2581\u5f7c\u3089\u306f": 1700,
  "\u30c1": 1701,
  "\u2581alive": 1702,
  "\u2581\u3055\u3042": 1703,
  "\u30d7": 1704,
  "\u25819:": 1705,
  "\u2581cut": 1706,
  "us": 1707,
  "\u2581\u4f1d\u3048": 1708,
  "\u524d": 1709,
  "\u2581\u77e5\u308b": 1710,
  "\u2581further": 1711,
  "\u305d\u308c\u3092": 1712,
  "\u2581\u884c\u70ba": 1713,
  "\u2581W": 1714,
  "\u3042\u306a\u305f\u306e": 1715,
  "\u2581\u30b9": 1716,
  "\u305f\u3081\u306b": 1717,
  "\u304b\u306a": 1718,
  "\u30c4": 1719,
  "\u2581class": 1720,
  "\u2581walk": 1721,
  "\u2581\u4eba\u751f": 1722,
  "\u2581\u4f4f\u3080": 1723,
  "\u524d\u306b": 1724,
  "\u258126": 1725,
  "\u30df": 1726,
  "\u2581joy": 1727,
  "\u30d0\u30fc": 1728,
  "\u2581American": 1729,
  "\u258129": 1730,
  "\u30ad": 1731,
  "\u2581\u601d\u3046": 1732,
  "\u2581\u533b\u5e2b": 1733,
  "\u2581Isaiah": 1734,
  "\u2581\u304f\u3060\u3055\u308b": 1735,
  "\u2581\u541b": 1736,
  "\u2581\u653f\u6cbb": 1737,
  "\u2581\u91d1": 1738,
  "\u30a8": 1739,
  "\u30c7\u30a3": 1740,
  "\u2581police": 1741,
  "\u2581\u8cac\u4efb": 1742,
  "\u2581whose": 1743,
  "\u2581wisdom": 1744,
  "\u2581\u3053\u3068\u3070": 1745,
  "\u2581\u3088\u308c": 1746,
  "\u2581\u540d\u524d": 1747,
  "\u30b0": 1748,
  "\u7528": 1749,
  "\u2581\u7d9a\u3051": 1750,
  "\u2581perfect": 1751,
  "\u258117:": 1752,
  "\u2581\u901a\u3057": 1753,
  "\u2581short": 1754,
  "\u2581exactly": 1755,
  "\u2581Uh": 1756,
  "\u2581provide": 1757,
  "\u2581similar": 1758,
  "\u306b\u3042\u308b": 1759,
  "\u5bb6": 1760,
  "\u2581magazine": 1761,
  "\u2581several": 1762,
  "\u2581\u8840": 1763,
  "\u2581box": 1764,
  "\u2581fucking": 1765,
  "\u2581\u542b\u307e": 1766,
  "\u2581program": 1767,
  "u": 1768,
  "\u304b\u308c\u306f": 1769,
  "\u2581\u5065\u5eb7": 1770,
  "\u2581Their": 1771,
  "\u2581\u5a18": 1772,
  "\u2581counsel": 1773,
  "\u2581therefore": 1774,
  "\u2581based": 1775,
  "\u2581\u52a9\u8a00": 1776,
  "\u2581per": 1777,
  "\u30c6\u30a3": 1778,
  "\u2581Today": 1779,
  "\u2581front": 1780,
  "\u2581seven": 1781,
  "\u2581\u52e7\u3081": 1782,
  "\u2581N": 1783,
  "\u30ac": 1784,
  "\u2581married": 1785,
  "\u5fc3": 1786,
  "\u2581met": 1787,
  "\u2581p": 1788,
  "\u2581\u78ba\u4fe1": 1789,
  "\u2581\u884c\u304d": 1790,
  "\u2581material": 1791,
  "\u2581modern": 1792,
  "\u56fd": 1793,
  "\u2581\u4e09": 1794,
  "\u2581key": 1795,
  "\u2581reports": 1796,
  "\u2581effect": 1797,
  "\u2581\u73fe\u4ee3": 1798,
  "\u3055\u308c": 1799,
  "\u306e\u306b": 1800,
  "\u2581avoid": 1801,
  "\u2581perhaps": 1802,
  "\u3093\u3067\u3059": 1803,
  "\u2581Greek": 1804,
  "\u2581Take": 1805,
  "\u2581Jews": 1806,
  "ion": 1807,
  "\u2581wouldn": 1808,
  "\u8005\u306f": 1809,
  "\u2581\u3053\u3053\u3067": 1810,
  "\u2581\u8a33": 1811,
  "le": 1812,
  "\u2581\u3068\u304a\u308a": 1813,
  "\u3042\u306a\u305f\u306f": 1814,
  "\u2581rule": 1815,
  "\u2581Creator": 1816,
  "\u2581\u4e00\u822c": 1817,
  "\u3060\u306a": 1818,
  "\u2581sort": 1819,
  "\u2581office": 1820,
  "\u2581\u898b\u65b9": 1821,
  "\u2581written": 1822,
  "\u5f8c": 1823,
  "\u2581available": 1824,
  "\u2581\u6bd4\u8f03": 1825,
  "\u2581\u60c5\u5831": 1826,
  "\u2581\u8a9e\u3063": 1827,
  "\u2581\u666e\u901a": 1828,
  "\u2581evil": 1829,
  "\u7b11": 1830,
  "\u2581\u5bb6\u5ead": 1831,
  "\u2581moved": 1832,
  ",(": 1833,
  "\u2581likely": 1834,
  "\u2581\u5168\u4f53": 1835,
  "\u3053\u308c": 1836,
  "\u2581\u30ae\u30ea\u30b7\u30e3": 1837,
  "\u2581safe": 1838,
  "\u81ea\u5206": 1839,
  "\u2581\u4fe1\u983c": 1840,
  "\u2581changed": 1841,
  "\u2581heavenly": 1842,
  "\u2581\u3057\u307e\u3044": 1843,
  "\u2581top": 1844,
  "\u2581sign": 1845,
  "\u2581Day": 1846,
  "\u2581born": 1847,
  "\u2581political": 1848,
  "\u3068\u304b": 1849,
  "\u6240": 1850,
  "\u2581sea": 1851,
  "\u2581\u6d77": 1852,
  "h": 1853,
  "\u2581\u3059\u3067\u306b": 1854,
  "\u2581places": 1855,
  "\u2581\u30c9\u30a4\u30c4": 1856,
  "\u2581\u50d5\u306f": 1857,
  "\u2581looks": 1858,
  "\u2581late": 1859,
  "\u2581m": 1860,
  "\u2581\u304a\u91d1": 1861,
  "\u2581Such": 1862,
  "Laughter": 1863,
  "\u30c7": 1864,
  "\u2581\u5206\u304b\u308a": 1865,
  "\u2581sister": 1866,
  "\u30e1": 1867,
  "\u258133": 1868,
  "\u2581phone": 1869,
  "\u30c6": 1870,
  "\u2581Great": 1871,
  "\u2581matters": 1872,
  "\u2581\u624b\u7d19": 1873,
  "\u2581thousands": 1874,
  "\u51fa": 1875,
  "\u2581Africa": 1876,
  "\u2581meeting": 1877,
  "\u2581wicked": 1878,
  "\u2581\u60aa": 1879,
  "\u2581test": 1880,
  "\u2581\u53d6\u308a": 1881,
  "\u56de": 1882,
  "\u306e\u3088\u3046\u306b": 1883,
  "\u2581\u30ad\u30ed": 1884,
  "\u2581\u5fa9\u6d3b": 1885,
  "\u2581meetings": 1886,
  "\u2581clean": 1887,
  "\u2581\u5831\u544a": 1888,
  "\u2581y": 1889,
  "\u2581receive": 1890,
  "\u2581Although": 1891,
  "\u2581\u5149": 1892,
  "\u2581check": 1893,
  "\u2581simple": 1894,
  "\u2581hearts": 1895,
  "\u2581nice": 1896,
  "\u2581image": 1897,
  "\u2581\u3042\u3068": 1898,
  "\u2581showed": 1899,
  "\u3044\u3044": 1900,
  "\u2581\u3042\u308d": 1901,
  "\u2581\u7269\u8cea": 1902,
  "\u2581truly": 1903,
  "\u2581action": 1904,
  "\u2581break": 1905,
  "\u2581watch": 1906,
  "\u65b0\u3057\u3044": 1907,
  "\u2581hour": 1908,
  "\u3059\u308b\u3068": 1909,
  "\u2581security": 1910,
  "\u2581First": 1911,
  "\u2581\u8b66\u544a": 1912,
  "\u2581issue": 1913,
  "\u7dda": 1914,
  "\u2581Would": 1915,
  "\u2581\u8a18\u9332": 1916,
  "\u2581held": 1917,
  "\u2581taught": 1918,
  "We": 1919,
  "\u2581witness": 1920,
  "\u2581\u5b89\u5168": 1921,
  "\u30d5\u30a1\u30a4\u30eb": 1922,
  "\u2581period": 1923,
  "\u2581natural": 1924,
  "\u2581false": 1925,
  "\u2581Luke": 1926,
  "\u4f53": 1927,
  "\u3068\u601d\u3046": 1928,
  "\u5316": 1929,
  "W": 1930,
  "\u2581\u6559\u80b2": 1931,
  "\u2581\u539f\u56e0": 1932,
  "\u308c\u3070": 1933,
  "\u2581\u4f53\u5236": 1934,
  "\u2581tree": 1935,
  "\u2581sun": 1936,
  "\u2581town": 1937,
  "\u2581\u7537\u6027": 1938,
  "\u2581\u81ea\u7136": 1939,
  "\u2581Adam": 1940,
  "\u2581\u8abf\u67fb": 1941,
  "\u2581moment": 1942,
  "\u2581force": 1943,
  "\u2581daughter": 1944,
  "\u2581physical": 1945,
  "\u2581\u8a08\u753b": 1946,
  "\u2581instead": 1947,
  "\u2581\u3057\u307e\u3046": 1948,
  "\u2581\u611b\u3059\u308b": 1949,
  "\u2581game": 1950,
  "\u2581sleep": 1951,
  "\u2581social": 1952,
  "\u2581students": 1953,
  "\u2581source": 1954,
  "\u2581\u3042": 1955,
  "\u2581\u6700\u5f8c": 1956,
  "\u2581music": 1957,
  "\u2581\u58f0": 1958,
  "\u3057\u308d": 1959,
  "):": 1960,
  "\u2581couldn": 1961,
  "\u2581\u6211\u3005": 1962,
  "\u2581space": 1963,
  "\u2581\u8a00\u8a9e": 1964,
  "\u2581\u69d8\u3005": 1965,
  "\u2581Church": 1966,
  "\u30d3": 1967,
  "\u258132": 1968,
  "\u2581company": 1969,
  "\u2581\u30a8": 1970,
  "\u2581Me": 1971,
  "\u2581guess": 1972,
  "\u2581shit": 1973,
  "\u2581sometimes": 1974,
  "\u2581\u751f": 1975,
  "\u2581\u5099\u3048": 1976,
  "\u2581animals": 1977,
  "\u2581\u6c38\u9060": 1978,
  "\u2581poor": 1979,
  "\u2581\u4e00\u65b9": 1980,
  "\u2581disease": 1981,
  "\u2581deep": 1982,
  "\u2581\u65e5\u672c": 1983,
  "\u8272": 1984,
  "\u2581\u53d7\u3051\u5165\u308c": 1985,
  "\u305f\u3089": 1986,
  "\u2581plus": 1987,
  "as": 1988,
  "\u2581ground": 1989,
  "\u2581\u4e3b\u7fa9": 1990,
  "\u2581Indeed": 1991,
  "\u2581doubt": 1992,
  "\u2581command": 1993,
  "\u2581conduct": 1994,
  "\u2581\u8aad\u3080": 1995,
  "\u2581\u4e8c\u3064": 1996,
  "\u306b\u306a\u308a\u307e\u3059": 1997,
  "\u258160": 1998,
  "\u2581Wait": 1999,
  "\u2581\u3057\u304b": 2000,
  "\u2581changes": 2001,
  "\u2581\u304b\u3051": 2002,
  "\u2581chance": 2003,
  "\u2581\u5e02": 2004,
  "\u2581\u3055\u305b": 2005,
  "\u5148": 2006,
  "\u3082\u3057": 2007,
  "\u258127": 2008,
  "\u2581hurt": 2009,
  "\u2581\u3084\u3063": 2010,
  "\u2581brain": 2011,
  "\u2581\u3088\u3057": 2012,
  "\u2581elders": 2013,
  "\u2581\u3059\u306a\u308f\u3061": 2014,
  "\u2581\u96e2\u308c": 2015,
  "\u2581\u4e00\u81f4": 2016,
  "ity": 2017,
  "\u2581\u8239": 2018,
  "\u2581organization": 2019,
  "\u2581beginning": 2020,
  "\u305f\u3081": 2021,
  "\u2581Could": 2022,
  "no": 2023,
  "\u2581due": 2024,
  "\u2581\u5916": 2025,
  "ul": 2026,
  "\u4eba\u304c": 2027,
  "\u2581\u611f": 2028,
  "\u2581Hello": 2029,
  "\u9577": 2030,
  "\u2581Another": 2031,
  "\u2581\u8a18": 2032,
  "\u79c1\u306e": 2033,
  "\u30a8\u30db\u30d0": 2034,
  "\u2581wish": 2035,
  "\u2581\u7acb\u5834": 2036,
  "\u2581\u7236\u89aa": 2037,
  "\u2581third": 2038,
  "\u2581\u8a2a\u554f": 2039,
  "\u2581\u6211\u3005\u306f": 2040,
  "\u30e9\u30fc": 2041,
  "\u2581current": 2042,
  "\u2581\u56de": 2043,
  "\u2581gets": 2044,
  "It": 2045,
  "\u2581create": 2046,
  "\u2581\u6c7a\u5b9a": 2047,
  "\u2581Watchtower": 2048,
  "\u2581yes": 2049,
  "\u2581\u53e4\u4ee3": 2050,
  "\u2581\u7279\u5225": 2051,
  "\u25810": 2052,
  "\u2581\u304b\u306a\u308a": 2053,
  "\u304e": 2054,
  "V": 2055,
  "\u2581\u53cd\u5bfe": 2056,
  "\u2581teach": 2057,
  "9": 2058,
  "\u2581doctor": 2059,
  "\u2581Revelation": 2060,
  "\u2581\u5165\u308c": 2061,
  "\u2581benefit": 2062,
  "\u2581\u3054\u89a7": 2063,
  "\u2581feeling": 2064,
  "\u2581feelings": 2065,
  "\u2581\u62b1\u3044": 2066,
  "\u3082\u3046": 2067,
  "\u30a2\u30c3\u30e9\u30fc\u306f": 2068,
  "\u2581usually": 2069,
  "\u2581drink": 2070,
  "\u2581\u304a\u524d\u306f": 2071,
  "\u2581yeah": 2072,
  "\u2581\u59c9\u59b9": 2073,
  "w": 2074,
  "\u2581wise": 2075,
  "\u308f\u308c\u306f": 2076,
  "\u2581running": 2077,
  "\u70b9": 2078,
  "\u2581build": 2079,
  "\u2581\u793a\u3055": 2080,
  "\u2581happiness": 2081,
  "\u2581month": 2082,
  "\u2581decided": 2083,
  "\u2581eye": 2084,
  "\u2581May": 2085,
  "\u81ea\u5206\u306e": 2086,
  "\u258131": 2087,
  "\u3055\u308c\u307e\u3059": 2088,
  "\u2581parts": 2089,
  "\u2581\u5275\u4e16\u8a18": 2090,
  "\u2581English": 2091,
  "()": 2092,
  "Y": 2093,
  "\u4eba\u306f": 2094,
  "ia": 2095,
  "\u3055\u308c\u3066\u3044\u308b": 2096,
  "\u2581\u30e4\u30b3\u30d6": 2097,
  "\u2581accept": 2098,
  "\u6b7b": 2099,
  "\u3058": 2100,
  "at": 2101,
  "\u2581\u308f\u305a\u304b": 2102,
  "\u2581\u6614": 2103,
  "\u2581speaking": 2104,
  "\u2581worked": 2105,
  "\u2581lived": 2106,
  "\u3055\u305b\u308b": 2107,
  "\u2581Re": 2108,
  "\u2581energy": 2109,
  "\u30ce": 2110,
  "\u2581happens": 2111,
  "\u2581\u4fdd\u8b77": 2112,
  "\u2581level": 2113,
  "un": 2114,
  "\u2581wanna": 2115,
  "\u2581cell": 2116,
  "\u2581\u77e5\u6075": 2117,
  "\u3044\u3066": 2118,
  "\u91d1": 2119,
  "\u2581Abraham": 2120,
  "\u2581letter": 2121,
  "\u2581\u805e\u3044": 2122,
  "\u2581\u79c1\u305f\u3061\u306f": 2123,
  "\u2581\u82f1\u56fd": 2124,
  "\u2581Life": 2125,
  "\u2581\u8db3": 2126,
  "\u2581ahead": 2127,
  "\u2581baptized": 2128,
  "\u2581pain": 2129,
  "\u30dc": 2130,
  "\u672c": 2131,
  "\u2581\u96fb\u8a71": 2132,
  "\u306a\u3089\u3070": 2133,
  "\u30b9\u30c8": 2134,
  "\u2581\u5186": 2135,
  "\u2581\u884c\u3063": 2136,
  "\u2581\u751f\u307e": 2137,
  "\u2581\u898b\u3048": 2138,
  "\u3054": 2139,
  "\u2581\u591a\u3044": 2140,
  "\u5ea6": 2141,
  "\u2581remain": 2142,
  "\u2581\u304a\u524d": 2143,
  "\u2581finally": 2144,
  "\u2581Two": 2145,
  "\u2581attitude": 2146,
  "\u2581\u539f\u5247": 2147,
  "\u2581\u6307\u5c0e": 2148,
  "\u2581\u30e2\u30fc\u30bb": 2149,
  "\u2581\u5b87\u5b99": 2150,
  "\u2581completely": 2151,
  "\u2581fall": 2152,
  "\u2581ye": 2153,
  "\u2581\u5f7c\u304c": 2154,
  "\u2581meaning": 2155,
  "\u2581suffering": 2156,
  "\u2581\u3084\u304c\u3066": 2157,
  "\u2581books": 2158,
  "@": 2159,
  ",\"": 2160,
  "8:": 2161,
  "\u2581forever": 2162,
  "\u2581\u5354\u4f1a": 2163,
  "\u30bf\u30fc": 2164,
  "\u2581built": 2165,
  "\u2581Say": 2166,
  "\u2581\u54e1": 2167,
  "\u2581\u90e8\u5206": 2168,
  "\u2581War": 2169,
  "ar": 2170,
  "\u2581picture": 2171,
  "\u2581record": 2172,
  "\u2581haven": 2173,
  "\u8a2d\u5b9a": 2174,
  "\u2581\u8033": 2175,
  "\u2581black": 2176,
  "\u2581\u5927\u5207": 2177,
  "\u2581numbers": 2178,
  "\u2581stuff": 2179,
  "\u2581surely": 2180,
  "\u2581\u3057\u305f\u304c\u3063\u3066": 2181,
  "\u2581size": 2182,
  "\u306a\u304f": 2183,
  "\u2581Thanks": 2184,
  "\u2581loved": 2185,
  "\u2581recent": 2186,
  "\u2581white": 2187,
  "\u2581Only": 2188,
  "\u258135": 2189,
  "\u2581various": 2190,
  "\u2581\u306f\u3063\u304d\u308a": 2191,
  "\u3067\u3042\u308a": 2192,
  "\u2581\u8a71\u3057": 2193,
  "\u2581\u89e3\u6c7a": 2194,
  "\u2581fully": 2195,
  "\u2581\u82f1\u8a9e": 2196,
  "\u2581\u5fc5\u305a": 2197,
  "\u2581except": 2198,
  "\u2581f": 2199,
  "\u2581\u306f\u305a": 2200,
  "\u2581complete": 2201,
  "\u2581authority": 2202,
  "\u2581\u6a5f\u4f1a": 2203,
  "\u2581shown": 2204,
  "\u2581\u3059\u3070\u3089\u3057\u3044": 2205,
  "\u2581\u52a0\u3048": 2206,
  "\u2581plan": 2207,
  "\u4e16\u754c": 2208,
  "\u2581reach": 2209,
  "\u2581James": 2210,
  "\u2581\u81ea\u3089": 2211,
  "\u2581\u958b\u62d3": 2212,
  "em": 2213,
  "\u2581\u904e\u53bb": 2214,
  "\u2581e": 2215,
  "\u2581understanding": 2216,
  "\u2581\u2013": 2217,
  "\u2581telling": 2218,
  "\u2581X": 2219,
  "\u2581Israelites": 2220,
  "\u554f\u984c": 2221,
  "\u2581\u60a3\u8005": 2222,
  "\u2581\u541b\u304c": 2223,
  "\u2581Roman": 2224,
  "\u2581add": 2225,
  "\u2581grow": 2226,
  "\u308c\u308b": 2227,
  "\u2581During": 2228,
  "\u2581\u8a71\u3059": 2229,
  "\u2581date": 2230,
  "\u76ee\u3056\u3081\u3088": 2231,
  "\u2581across": 2232,
  "\u2581necessary": 2233,
  "\u2581negative": 2234,
  "\u2581\u30ab": 2235,
  "\u3005": 2236,
  "\u2581\u77e5\u308a": 2237,
  "\u2581\u5f7c\u306e": 2238,
  "\u2581cases": 2239,
  "\u2581Really": 2240,
  "\u2581step": 2241,
  "\u258120:": 2242,
  "\u2581\u307e\u305f\u306f": 2243,
  "\u25812.": 2244,
  "\u2581provided": 2245,
  "\u2581\u3054": 2246,
  "\u2581protect": 2247,
  "\u2581\u4ffa\u306e": 2248,
  "\u2581choice": 2249,
  "\u2581\u8fd1\u304f": 2250,
  "\u2581process": 2251,
  "\u2581divine": 2252,
  "\u2581millions": 2253,
  "\u2581visit": 2254,
  "\u2581\u30de": 2255,
  "\u5fa1": 2256,
  "ist": 2257,
  "\u30e4": 2258,
  "\u2581\u9ad8\u3044": 2259,
  "\u2581looked": 2260,
  "\u2581\u521d\u3081\u3066": 2261,
  "\u2581realize": 2262,
  "\u2581results": 2263,
  "\u30cb\u30fc": 2264,
  "\u30ea\u30f3": 2265,
  "\u2581\u3086\u304f": 2266,
  "\u2581\u53cb\u4eba": 2267,
  "\u258170": 2268,
  "\u2581Acts": 2269,
  "\u2581<": 2270,
  "\u2581America": 2271,
  "\u2581Proverbs": 2272,
  "\u2581\u5974\u96b7": 2273,
  "\u611b": 2274,
  "\u3088\u304f": 2275,
  "\u2581choose": 2276,
  "ment": 2277,
  "\u2581prove": 2278,
  "\u2581violence": 2279,
  "\u9762": 2280,
  "\u2581\u5f37\u3044": 2281,
  "\u2581birth": 2282,
  "\u2581Stop": 2283,
  "\u2581buy": 2284,
  "\u2581\u9b42": 2285,
  "\u3042\u306a\u305f\u304c\u305f\u306e": 2286,
  "\u2581\u5c71": 2287,
  "\u2581weeks": 2288,
  "\u3088\u308a\u3082": 2289,
  "\u2581strength": 2290,
  "\u2581\u518d\u3073": 2291,
  "am": 2292,
  "\u8003\u3048": 2293,
  "\u2581Man": 2294,
  "\u2581caused": 2295,
  "\u2581\u72af\u7f6a": 2296,
  "\u2581\u3053\u3093\u306a": 2297,
  "\u258118:": 2298,
  ",\u300c": 2299,
  "\u2581interested": 2300,
  "\u2581powerful": 2301,
  "ur": 2302,
  "\u2581Also": 2303,
  "\u2581principles": 2304,
  "\u2581\u3080\u3057\u308d": 2305,
  "\u2581\u304b\u6708": 2306,
  "\u2581\u8aad\u3093": 2307,
  "\u30bd\u30f3": 2308,
  "\u3057\u3066\u3044\u305f": 2309,
  "\u2581gotta": 2310,
  "\u7684\u306b": 2311,
  "\u2581learning": 2312,
  "\u2581\u6cbb\u7642": 2313,
  "\u2581\u771f\u5b9f": 2314,
  "\u5834\u5408": 2315,
  "\u2581opportunity": 2316,
  "\u2581\u30cb\u30e5\u30fc\u30e8\u30fc\u30af": 2317,
  "\u2581Keep": 2318,
  "\u3057\u305f\u3044": 2319,
  "\u2581neither": 2320,
  "\u3050": 2321,
  "\u2581\u8abf\u3079": 2322,
  "\u2581considered": 2323,
  "\u2581\u89aa\u5207": 2324,
  "\u2581fast": 2325,
  "\u2581figure": 2326,
  "\u2581#": 2327,
  "\u304b\u308c\u3089\u306e": 2328,
  "\u2581sons": 2329,
  "\u3073": 2330,
  "\u2581red": 2331,
  "0": 2332,
  "\u2581More": 2333,
  "\u2581\u65e9\u304f": 2334,
  "\u30fb\u30fb": 2335,
  "\u2581Japan": 2336,
  "\u2581hit": 2337,
  "\u2581older": 2338,
  "\u2581Tell": 2339,
  "\u2581\u5927\u5b66": 2340,
  "\u2581named": 2341,
  "\u3068\u304d": 2342,
  "\u2581allow": 2343,
  "\u2581selected": 2344,
  "\u2581afraid": 2345,
  "\u2581events": 2346,
  "\u2581\u8a13\u7df4": 2347,
  "\u2581V": 2348,
  "\u2581\u5e7e": 2349,
  "\u30b4": 2350,
  "\u300f\u3002": 2351,
  "\u3053\u3068\u304c": 2352,
  "\u2581\u6575": 2353,
  "\u2581Sorry": 2354,
  "\u2581kids": 2355,
  "\u2581temple": 2356,
  "\u258116:": 2357,
  "ch": 2358,
  "\u2581medical": 2359,
  "\u2581\u571f\u5730": 2360,
  "\u2581prophecy": 2361,
  "\u2581\u5f62": 2362,
  "\u2581\u6a5f": 2363,
  "\u2581major": 2364,
  "\u8a9e": 2365,
  "\u2581interesting": 2366,
  "\u2581righteousness": 2367,
  "\u2581\u5fd8\u308c": 2368,
  "\u2581decision": 2369,
  "\u2581\u753a": 2370,
  "\u3058\u3083": 2371,
  "\u2581general": 2372,
  "\u2581activity": 2373,
  "\u2581trouble": 2374,
  "\u2581\u671f\u9593": 2375,
  "\u4e0d": 2376,
  "\u2581\u811a\u6ce8": 2377,
  "\u2581\u305a\u3063": 2378,
  "\u30a6": 2379,
  "\u2581voice": 2380,
  "\u2581offer": 2381,
  "\u2581video": 2382,
  "\u306b\u306a\u3063\u305f": 2383,
  "\u2581\u4e00\u5ea6": 2384,
  "\u2581thank": 2385,
  "\u2581\u6b7b\u3093": 2386,
  "\u2581forward": 2387,
  "\u2581serving": 2388,
  "\u30e2": 2389,
  "\u2581Corinthians": 2390,
  "\u2581added": 2391,
  "\u2581\u30d5\u30e9\u30f3\u30b9": 2392,
  "\u2581wonder": 2393,
  "\u2581moving": 2394,
  "\u2581Witness": 2395,
  "\u2581lose": 2396,
  "\u2581\u30c9\u30eb": 2397,
  "\u2581eight": 2398,
  "\u2581\u66b4\u529b": 2399,
  "\u2581\u30b0\u30eb\u30fc\u30d7": 2400,
  "\u2581families": 2401,
  "\u2581\u51fa\u7248": 2402,
  "\u2581spend": 2403,
  "20": 2404,
  "\u2581led": 2405,
  "\u2581reported": 2406,
  "\u258119:": 2407,
  "\u2581\u3082\u305f\u3089\u3059": 2408,
  "\u2581\u4f7f\u7528": 2409,
  "\u2581\u5168\u90e8": 2410,
  "\u2581\u9031": 2411,
  "\u2581thousand": 2412,
  "\u2581enter": 2413,
  "\u2581mentioned": 2414,
  "\u2581individual": 2415,
  "\u2581\u3044\u3044\u3048": 2416,
  "\u2581\u6cd5": 2417,
  "\u307b\u3069": 2418,
  "\u2581seeing": 2419,
  "\u2581supposed": 2420,
  "\u2581\u592b\u5a66": 2421,
  "\u2581Society": 2422,
  "\u2581worth": 2423,
  "\u2581South": 2424,
  "\u2581draw": 2425,
  "\u2581effort": 2426,
  "\u2581\u307f\u306a": 2427,
  "up": 2428,
  "do": 2429,
  "\u2581appreciate": 2430,
  "\u8a8c": 2431,
  "\u2581carry": 2432,
  "\u25814.": 2433,
  "\u2581quickly": 2434,
  "\u2581freedom": 2435,
  "\u3060\u3063\u3066": 2436,
  "\u2581\u6df1\u3044": 2437,
  "\u2581Watch": 2438,
  "\u2581increase": 2439,
  "\u2581\u6c42\u3081\u308b": 2440,
  "ro": 2441,
  "\u2581asking": 2442,
  "\u3066\u3044\u305f": 2443,
  "\u2581sex": 2444,
  "\u2581\u30fc": 2445,
  "de": 2446,
  "\u2581%2": 2447,
  "\u2581address": 2448,
  "\u6642\u306b": 2449,
  "\u2581\u3086\u3048\u306b": 2450,
  "\u2581\u671f\u5f85": 2451,
  "\u2581\u306a\u305c\u306a\u3089": 2452,
  "\u3052": 2453,
  "\u2581>": 2454,
  "\u2581\u5f93\u3046": 2455,
  "\u2581Timothy": 2456,
  "\u2581wonderful": 2457,
  "\u2581cost": 2458,
  "\u2581team": 2459,
  "\u5f7c\u306f": 2460,
  "\u2581\u4fdd\u3064": 2461,
  "\u2581Law": 2462,
  "\u2581\u5cf6": 2463,
  "\u2581\u5148": 2464,
  "\u3042": 2465,
  "\u2581normal": 2466,
  "\u6cd5": 2467,
  "\u2581\u3053\u3053\u306b": 2468,
  "\u51fa\u3059": 2469,
  "\u2581waiting": 2470,
  "ie": 2471,
  "il": 2472,
  "\u307e\u3057\u3087\u3046": 2473,
  "\u2581\u5104": 2474,
  "\u2581Christendom": 2475,
  "\u2581\u30c0\u30cb\u30a8\u30eb": 2476,
  "\u2581computer": 2477,
  "\u2581stated": 2478,
  "\u2581hundred": 2479,
  "\u2581believers": 2480,
  "\u2581search": 2481,
  "\u2581\u30d5\u30a1\u30a4\u30eb": 2482,
  "\u2581non": 2483,
  "\u2581\u80fd\u529b": 2484,
  "\u2581\u30e1\u30fc\u30c8\u30eb": 2485,
  "\u2581\u3042\u306a\u305f\u304c\u305f": 2486,
  "\u2581\u5897\u52a0": 2487,
  "\u4f55\u304b": 2488,
  "\u2581practice": 2489,
  "\u53e3": 2490,
  "\u2581\u3084\u3081": 2491,
  "\u2581\u56fd\u969b": 2492,
  "\u2581worry": 2493,
  "\u2581Give": 2494,
  "\u2581\u3059\u304e": 2495,
  "\u2581\u8272": 2496,
  "\u2581\u8a9e\u308a": 2497,
  "\u30c9\u30eb": 2498,
  "\u2581forget": 2499,
  "\u2581\u4e92\u3044": 2500,
  "\u2581\u75c5": 2501,
  "\u2581\u3053\u308d": 2502,
  "\u2581\u5ddd": 2503,
  "\u2581oil": 2504,
  "\u2581ability": 2505,
  "\u2581About": 2506,
  "\u2581anymore": 2507,
  "\u2581areas": 2508,
  "\u2581sick": 2509,
  "\u2581subject": 2510,
  "\u2581spent": 2511,
  "\u2581color": 2512,
  "\u2581direction": 2513,
  "\u2581\u305d\u3046\u3060": 2514,
  "\u2581\u50cd\u304d": 2515,
  "\u2581pray": 2516,
  "ate": 2517,
  "\u3042\u306a\u305f\u304c\u305f\u306b": 2518,
  "\u2581Jewish": 2519,
  "\u2581expect": 2520,
  "\u2581society": 2521,
  "\u2581prison": 2522,
  "\u3067\u306f\u3042\u308a\u307e\u305b\u3093": 2523,
  "\u2581\u6210\u529f": 2524,
  "\u2581explained": 2525,
  "\u2581tells": 2526,
  "\u2581\u30aa": 2527,
  "\u2581\u307e\u3055\u306b": 2528,
  "\u2581recently": 2529,
  "\u2581\u66f8\u304d": 2530,
  "\u306f\u306a\u3044": 2531,
  "\u2581\u535a\u58eb": 2532,
  "\u2581spoke": 2533,
  "\u2581\u4f4f\u3093": 2534,
  "\u3067\u304d\u307e\u3059": 2535,
  "\u2581lie": 2536,
  "\u2581raised": 2537,
  "\u2581\u706b": 2538,
  "\u2581expression": 2539,
  "\u2581anointed": 2540,
  "\u2581\u4ffa\u304c": 2541,
  "\u4eba\u9593": 2542,
  "\u2581Dad": 2543,
  "\u2581prophet": 2544,
  "\u2581continued": 2545,
  "\u2581\u591c": 2546,
  "30": 2547,
  "\u2581seek": 2548,
  "\u2581\u6b7b\u306c": 2549,
  "ry": 2550,
  "\u2581\u76e3\u7763": 2551,
  "\u2581\u98df\u7269": 2552,
  "\u2581cells": 2553,
  "\u2581\u8b66\u5bdf": 2554,
  "est": 2555,
  "\u2581followed": 2556,
  "\u2581willing": 2557,
  "\u2581inspired": 2558,
  "\u2581\u30c6\u30ec\u30d3": 2559,
  "\u4e3b": 2560,
  "\u2581Show": 2561,
  "\u2581crime": 2562,
  "\u5916": 2563,
  "\u2581\u7fd2\u6163": 2564,
  "\u2581minus": 2565,
  "\u2581term": 2566,
  "\u2581\u30a2\u30c0\u30e0": 2567,
  "\u2581points": 2568,
  "\u2581True": 2569,
  "\u2581\u3057\u304b\u3082": 2570,
  "\u2581destruction": 2571,
  "\u2581explain": 2572,
  "\u2581playing": 2573,
  "\u2581$": 2574,
  "\u2581\u4e21\u89aa": 2575,
  "\u2581training": 2576,
  "\u8a71": 2577,
  "\u2581amount": 2578,
  "\u306e\u3067\u3042\u308b": 2579,
  "\u2581\u304f\u3060\u3055\u3063": 2580,
  "\u2581Book": 2581,
  "\u2581window": 2582,
  "\u2581\u76f8\u624b": 2583,
  "\u3057\u3044": 2584,
  "ism": 2585,
  "\u2581sacrifice": 2586,
  "\u79c1\u304c": 2587,
  "\u2581table": 2588,
  "\u2581\u304b\u3064\u3066": 2589,
  "\u2581\u4f1a": 2590,
  "X": 2591,
  "\u2581resurrection": 2592,
  "\u30d9": 2593,
  "\u5024": 2594,
  "\u2581population": 2595,
  "\u2581fuck": 2596,
  "\u2581error": 2597,
  "\u2581saved": 2598,
  "\u2581\u30e9": 2599,
  "\u2581kindness": 2600,
  "\u2581conditions": 2601,
  "\u2581imagine": 2602,
  "\u2581\u307e": 2603,
  "\u2581passed": 2604,
  "\u2581\u7d4c\u6e08": 2605,
  "ri": 2606,
  "\u2581low": 2607,
  "\u2581\u304b\u308c\u3089\u306f": 2608,
  "\u3053\u3046": 2609,
  "\u2581\u30e8\u30d6": 2610,
  "\u2581\u63f4\u52a9": 2611,
  "\u2581\u6210\u5c31": 2612,
  "\u2581\u5927\u52e2": 2613,
  "\u2581\u8056": 2614,
  "\u2581begin": 2615,
  "\u2581fun": 2616,
  "\u2581\u51fa\u6765\u4e8b": 2617,
  "\u2581shot": 2618,
  "\u2581\u9577\u3044": 2619,
  "\u2581Job": 2620,
  "\u2581\u6e80\u8db3": 2621,
  "\u304c\u3042\u3063\u305f": 2622,
  "\u306e\u4e2d\u306b": 2623,
  "\u2581apostles": 2624,
  "\u2581clearly": 2625,
  "\u3092\u4f7f\u3063\u3066": 2626,
  "\u2581gift": 2627,
  "\u304f\u3060\u3055\u3044": 2628,
  "\u2581\u5199\u771f": 2629,
  "\u2581gain": 2630,
  "\u2581\u611b\u3057": 2631,
  "\u2581failed": 2632,
  "\u2581revealed": 2633,
  "\u2581Mary": 2634,
  "\u3042\u306a\u305f\u304c\u305f": 2635,
  "\u2581nature": 2636,
  "\u304b\u308c\u3089": 2637,
  "\u2581efforts": 2638,
  "\u2581creation": 2639,
  "\u3067\u3059\u304c": 2640,
  "\u3068\u8a00\u3046": 2641,
  "\u2581\u52a9\u3051\u308b": 2642,
  "\u304b\u3082\u3057\u308c\u306a\u3044": 2643,
  "\u2581Which": 2644,
  "\u2581rich": 2645,
  "\u30b6": 2646,
  "\u2581\u305f\u304f\u3055\u3093": 2647,
  "\u2581former": 2648,
  "\u2581\u7686\u3055\u3093": 2649,
  "\u2581pass": 2650,
  "\u2581hospital": 2651,
  "\u2581\u4f7f\u3063": 2652,
  "\u3067\u3059\u306d": 2653,
  "\u2581\u98df\u3079": 2654,
  "\u2581pressure": 2655,
  "\u541b": 2656,
  "\u2581\u3064": 2657,
  "\u304b\u308c\u3089\u306b": 2658,
  "\u2581\u30e8\u30fc\u30ed\u30c3\u30d1": 2659,
  "What": 2660,
  "\u2581sit": 2661,
  "\u2581\u60aa\u9b54": 2662,
  "\u2581\u7f8a": 2663,
  "\u2581\u6bce\u65e5": 2664,
  "\u3060\u3051\u3060": 2665,
  "\u258122:": 2666,
  "\u2581drugs": 2667,
  "\u2581meant": 2668,
  "\u2581earlier": 2669,
  "\u306e\u3088\u3046\u306a": 2670,
  "\u2581path": 2671,
  "\u2581\u5f0f": 2672,
  "\u2581\u767a\u898b": 2673,
  "\u2581believed": 2674,
  "\u2581\u7a2e\u985e": 2675,
  "\u3067\u304d\u306a\u3044": 2676,
  "ent": 2677,
  "\u2581minute": 2678,
  "\u2581reasons": 2679,
  "\u2581\u4ed5\u65b9": 2680,
  "50": 2681,
  "\u2581Mark": 2682,
  "\u2581\u5b9a\u3081": 2683,
  "\u2581200": 2684,
  "\u8eab": 2685,
  "\u2581\u6b63\u78ba": 2686,
  "\u3059\u3079\u3066": 2687,
  "\u2581angels": 2688,
  "\u2581road": 2689,
  "\u2581followers": 2690,
  "\u2581individuals": 2691,
  "\u2581mercy": 2692,
  "\u2581judgment": 2693,
  "\u7740": 2694,
  "\u2581regular": 2695,
  "\u2581\u4e00\u756a": 2696,
  "v": 2697,
  "\u2581\u30b8\u30e7\u30f3": 2698,
  "\u2581regarding": 2699,
  "\u2581produce": 2700,
  "ial": 2701,
  "\u2581\u4f55\u3082": 2702,
  "\u2581\u6559\u3048\u308b": 2703,
  "\u2581beyond": 2704,
  "\u3092\u898b\u3066": 2705,
  "\u5929": 2706,
  "\u2581\u4eba\u3073\u3068": 2707,
  "ra": 2708,
  "\u2581everlasting": 2709,
  "\u304b\u3089\u3067\u3059": 2710,
  "\u2581promised": 2711,
  "\u30d1": 2712,
  "\u2581girls": 2713,
  "\u2581final": 2714,
  "\u2581\u53cd\u5fdc": 2715,
  "\u3082\u306e\u3092": 2716,
  "\u2581patient": 2717,
  "\u2581calls": 2718,
  "\u8db3": 2719,
  "\u2581Her": 2720,
  "\u2581sexual": 2721,
  "\u2581returned": 2722,
  "\u2581kid": 2723,
  "\u2581\u91cf": 2724,
  "\u2581\u53cb\u9054": 2725,
  "\u2581\u65c5\u884c": 2726,
  "\u2581positive": 2727,
  "\u2581Daniel": 2728,
  "\u2581allowed": 2729,
  "\u51fa\u3057": 2730,
  "se": 2731,
  "\u2581\u81f3\u308b": 2732,
  "\u2581fish": 2733,
  "\u2581object": 2734,
  "\u306e\u4e2d\u3067": 2735,
  "\u305c": 2736,
  "\u60c5\u5831": 2737,
  "\u2581attack": 2738,
  "\u8a00\u3046": 2739,
  "\u2581moral": 2740,
  "\u2581laws": 2741,
  "\u2581particular": 2742,
  "\u2581risk": 2743,
  "\u2581contact": 2744,
  "\u2581original": 2745,
  "\u2581throughout": 2746,
  "\u306b\u5bfe\u3057\u3066": 2747,
  "\u4e8b\u3092": 2748,
  "\u2581god": 2749,
  "\u2581\u305d\u308c\u305e\u308c": 2750,
  "\u2581\u5c0f": 2751,
  "\u2581education": 2752,
  "\u3044\u306a\u3044": 2753,
  "\u53d6\u308a": 2754,
  "of": 2755,
  "\u2581growing": 2756,
  "\u2581\u6ce8\u76ee": 2757,
  "\u2581honor": 2758,
  "\u2581\u30a8\u30d5\u30a7\u30bd\u30b9": 2759,
  "\u2581mine": 2760,
  "\u2581standing": 2761,
  "\u2581\u90aa\u60aa": 2762,
  "\u2581\u6804\u5149": 2763,
  "\u2581\u6a29\u5a01": 2764,
  "=": 2765,
  "\u2581Devil": 2766,
  "\u2581proper": 2767,
  "rs": 2768,
  "\u2581\u5c0b\u306d": 2769,
  "\u3068\u8a00\u3063\u305f": 2770,
  "\u2581bear": 2771,
  "\u2581\u8a18\u3055": 2772,
  "\u2581answers": 2773,
  "\u2581\u5165\u3063": 2774,
  "\u2581Line": 2775,
  "\u2581pages": 2776,
  "\u2581apply": 2777,
  "\u2581Awake": 2778,
  "\u2581unto": 2779,
  "Do": 2780,
  "\u2581\u4ee3": 2781,
  "\u3042\u306a\u305f\u304c": 2782,
  "\u5834": 2783,
  "\u2581destroyed": 2784,
  "\u2581\u4e8b\u614b": 2785,
  "\u2581Rather": 2786,
  "\u2581\u3042\u307e\u308a": 2787,
  "\u2581\u5b88\u308b": 2788,
  "\u3076": 2789,
  "\u2581Europe": 2790,
  "\u2581condition": 2791,
  "kg": 2792,
  "\u2581homes": 2793,
  "\u2581groups": 2794,
  "\u2581\u30ea": 2795,
  "\u2581Read": 2796,
  "\u2581circumstances": 2797,
  "\u2581total": 2798,
  "\u2581\u547d\u4ee4": 2799,
  "\u706b": 2800,
  "\u2581\u5ba3\u3079\u4f1d\u3048\u308b": 2801,
  "\u2581leaving": 2802,
  "\u2581\u56fd\u5bb6": 2803,
  "\u2581\u7528": 2804,
  "\u30a4\u30f3": 2805,
  "\u2581\u3072": 2806,
  "\u2581secret": 2807,
  "\u2581\u97f3\u697d": 2808,
  "\u2581\u3058\u3083\u3042": 2809,
  "\u2581instance": 2810,
  "\u25818,": 2811,
  "\u306b\u5bfe\u3059\u308b": 2812,
  "\u2581\u305d\u3046\u3044\u3046": 2813,
  "\u2581\u305d\u308c\u304b\u3089": 2814,
  "\u2581\u5927\u4e08\u592b": 2815,
  "\u2581research": 2816,
  "\u2581Hi": 2817,
  "\u2581published": 2818,
  "\u2581accepted": 2819,
  "\u2581\u30ec": 2820,
  "\u2581hot": 2821,
  "\u2581science": 2822,
  "\u308f\u305f\u3057\u305f\u3061": 2823,
  "\u3053\u3068\u3067\u3059": 2824,
  "\u3069": 2825,
  "\u60aa": 2826,
  "\u2581becomes": 2827,
  "\u2581\u5b66\u3076": 2828,
  "less": 2829,
  "\u2581dangerous": 2830,
  "\u2581pick": 2831,
  "\u2581touch": 2832,
  "\u30bd": 2833,
  "\u304b\u3082": 2834,
  "ive": 2835,
  "\u2581Germany": 2836,
  "\u66f8": 2837,
  "\u65b0": 2838,
  "\u2581\u9a5a\u304f": 2839,
  "\u30b1": 2840,
  "\u2581explains": 2841,
  "\u2581lack": 2842,
  "\u2581Over": 2843,
  "\u2581\u5e38": 2844,
  "\u5f7c\u306e": 2845,
  "\u2581community": 2846,
  "\u4ed6\u306e": 2847,
  "\u2581\u9055\u3046": 2848,
  "\u2581values": 2849,
  "\u25813.": 2850,
  "\u2581Earth": 2851,
  "\u2581Was": 2852,
  "\u2581\u7591\u554f": 2853,
  "\u2581Perhaps": 2854,
  "\u2581\u73fe\u5b9f": 2855,
  "\u2581drive": 2856,
  "\u2581Nothing": 2857,
  "\u2581animal": 2858,
  "\u2581Credit": 2859,
  "\u2581\u4ffa": 2860,
  "\u2581\u975e": 2861,
  "\u2581Help": 2862,
  "\u3088\u3046\u306a": 2863,
  "\u2581\u6a21\u7bc4": 2864,
  "\u2581\u74b0\u5883": 2865,
  "\u308f\u306d": 2866,
  "\u2581\u8a00\u3048\u308b": 2867,
  "\u2581becoming": 2868,
  "\u2581bed": 2869,
  "\u2581punishment": 2870,
  "\u5185": 2871,
  "\u2581signs": 2872,
  "\u2581main": 2873,
  "\u69d8": 2874,
  "\u258145": 2875,
  "\u2581Romans": 2876,
  "\u2581flesh": 2877,
  "\u3063\u3066\u3044\u308b": 2878,
  "\u2581project": 2879,
  "\u2581\u3055\u3066": 2880,
  "\u2581\u899a\u3048": 2881,
  "\u2581piece": 2882,
  "\u2581Listen": 2883,
  "\u2581files": 2884,
  "\u2581writing": 2885,
  "co": 2886,
  "\u8fbc\u307f": 2887,
  "\u2581\u3046\u3093": 2888,
  "\u2581\u5fc3\u914d": 2889,
  "\u2581concern": 2890,
  "\u3059\u3079\u3066\u306e": 2891,
  "\u2581\u795e\u6bbf": 2892,
  "\u2581\u592a\u967d": 2893,
  "\u2581justice": 2894,
  "\u2581mouth": 2895,
  "\u2581\u7269\u4e8b": 2896,
  "\u2581influence": 2897,
  "\u2581cold": 2898,
  "\u2581Consider": 2899,
  "\u306b\u3057\u3066": 2900,
  "\u2581cover": 2901,
  "\u2581\u97f3\u4fe1": 2902,
  "\u2581\u8056\u970a": 2903,
  "\u2581proved": 2904,
  "\u52d5": 2905,
  "\u25813,": 2906,
  "\u2581\u9577": 2907,
  "\u2581OK": 2908,
  "\u2581party": 2909,
  "\u2581cancer": 2910,
  "na": 2911,
  "\u5834\u6240": 2912,
  "\u5f7c": 2913,
  "\u2581\u97f3": 2914,
  "\u2581basis": 2915,
  "\u2581\u66f8\u304b": 2916,
  "\u2581\u732e\u8eab": 2917,
  "\u2581;": 2918,
  "\u2581none": 2919,
  "\u2581names": 2920,
  "\u2581\u30c7": 2921,
  "12": 2922,
  "\u2581\u4fe1\u8005": 2923,
  "\u25812,": 2924,
  "\u2581greatest": 2925,
  "\u258136": 2926,
  "\u2581\u30a8\u30ec\u30df\u30e4": 2927,
  "\u2581difference": 2928,
  "\u2581Hebrew": 2929,
  "\u2581sheep": 2930,
  "\u2581covenant": 2931,
  "\u2581Time": 2932,
  "\u2581code": 2933,
  "\u2581\u6700\u9ad8": 2934,
  "\u2581happening": 2935,
  "\u98df": 2936,
  "be": 2937,
  "\u2581\u4ee5\u6765": 2938,
  "\u6728": 2939,
  "\u2581\u6b63\u76f4": 2940,
  "\u306a\u3057": 2941,
  "\u2581military": 2942,
  "\u982d": 2943,
  "\u2581responsibility": 2944,
  "\u2581\u305d\u306e\u4ed6": 2945,
  "\u2581g": 2946,
  "ous": 2947,
  "\u306b\u3088\u308b": 2948,
  "\u2581\u901a\u308a": 2949,
  "\u3053\u3068\u306b": 2950,
  "\u2581\u308f\u304b\u3063\u305f": 2951,
  "\u2581advice": 2952,
  "\u2581\u76ee\u6a19": 2953,
  "\u2581\u5fe0\u7bc0": 2954,
  "all": 2955,
  "\u2581cities": 2956,
  "\u2581\u5168\u54e1": 2957,
  "\u2581\u82e6\u3057\u307f": 2958,
  "\u2581described": 2959,
  "\u2581favor": 2960,
  "\u2581\u305f\u3068\u3048": 2961,
  "\u2581showing": 2962,
  "\u2581Before": 2963,
  "\u30e9\u30f3": 2964,
  "\u2581\u30b5": 2965,
  "\u2581basic": 2966,
  "\u2581pre": 2967,
  "\u2581walking": 2968,
  "\u2581\u3042\u3089": 2969,
  "\u7537": 2970,
  "\u2581document": 2971,
  "\u2581\u5357": 2972,
  "\u2581\u4ed6\u306e": 2973,
  "\u2581helping": 2974,
  "\u2581Hall": 2975,
  "\u2581gun": 2976,
  "\u2581\u826f\u5fc3": 2977,
  "\u2581average": 2978,
  "\u2581\u8133": 2979,
  "\u3082\u306e\u3067\u3059": 2980,
  "\u2581centuries": 2981,
  "\u304b\u3044": 2982,
  "\u2581daily": 2983,
  "\u2581crowd": 2984,
  "\u2581folder": 2985,
  "\u2581role": 2986,
  "\u91cf": 2987,
  "\u2581\u5f93\u3063": 2988,
  "\u2581Select": 2989,
  "\u2581keeping": 2990,
  "\u2581rate": 2991,
  "\u3057\u3066\u304f\u3060\u3055\u3044": 2992,
  "\u591a\u304f\u306e": 2993,
  "\u2581ship": 2994,
  "\u2581nearly": 2995,
  "\u2581Remember": 2996,
  "\u2581Hence": 2997,
  "\u5973": 2998,
  "\u2581leaders": 2999,
  "\u2581dad": 3000,
  "\u2581\u904b\u52d5": 3001,
  "ce": 3002,
  "\u3088\u306d": 3003,
  "\u2581examples": 3004,
  "\u2581trees": 3005,
  "\u2581loss": 3006,
  "\u2581lands": 3007,
  "\u2581noted": 3008,
  "\u2581\u6210\u9577": 3009,
  "\u2581developed": 3010,
  "\u30bb": 3011,
  "\u6226": 3012,
  "\u2581\u5834": 3013,
  "\u2581calling": 3014,
  "\u30c8\u30f3": 3015,
  "\u7f6a": 3016,
  "\u3042\u306a\u305f\u304c\u305f\u304c": 3017,
  "\u30c3\u30c8": 3018,
  "\u2581\u8089": 3019,
  "\u2581Use": 3020,
  "\u2581gold": 3021,
  "\u2581appear": 3022,
  "\u2581immediately": 3023,
  "\u2581\u7279\u8cea": 3024,
  "\u2581\u307e\u3042": 3025,
  "\u2581paper": 3026,
  "\u2581drug": 3027,
  "\u2581access": 3028,
  "\u2581Make": 3029,
  "\u2581\u3070\u304b\u308a": 3030,
  "\u2581Still": 3031,
  "\u2581Holy": 3032,
  "\u2581served": 3033,
  "\u30ef": 3034,
  "\u2581seemed": 3035,
  "\u3057\u304b": 3036,
  "\u2581\u8003\u616e": 3037,
  "\u2581\u8868\u73fe": 3038,
  "\u2581\u958b\u304b": 3039,
  "\u2581\u304f\u308b": 3040,
  "\u306b\u306a\u3063\u3066": 3041,
  "\u2581\u75c5\u9662": 3042,
  "\u2581French": 3043,
  "\u2581\u52b9\u679c": 3044,
  "\u5f62": 3045,
  "\u3069\u3093\u306a": 3046,
  "\u2581sins": 3047,
  "\u2581universe": 3048,
  "\u306a\u3044\u3068": 3049,
  "\u7121": 3050,
  "\u2581Every": 3051,
  "\u2581\u751f\u7269": 3052,
  "!\"": 3053,
  "\u2581Solomon": 3054,
  "\u3068\u540c\u3058": 3055,
  "\u2581reward": 3056,
  "\u2581\u30af\u30ec\u30b8\u30c3": 3057,
  "\u2581machine": 3058,
  "ies": 3059,
  "\u2581\u3054\u81ea\u8eab": 3060,
  "\u30c0\u30fc": 3061,
  "\u3053\u308c\u3092": 3062,
  "\u2581\u56f2\u307f": 3063,
  "\u2581\u6b4c": 3064,
  "\u2581\u76f4\u9762": 3065,
  "\u2581\u62e1\u5927": 3066,
  "\u2581\u4e3b\u5f35": 3067,
  "\u30b7\u30e5": 3068,
  "\u2581\u8981\u6c42": 3069,
  "\u2581tomorrow": 3070,
  "\u2581\u3082\u306e\u307f\u306e\u5854": 3071,
  "\u30ab\u30fc": 3072,
  "\u3067\u304d\u307e\u305b\u3093": 3073,
  "\u25811914": 3074,
  "\u2581\u9ebb\u85ac": 3075,
  "\u5dde": 3076,
  "\u307e\u3060": 3077,
  "\u2581guidance": 3078,
  "\u3042\u306a\u305f\u306b": 3079,
  "\u2581\u30a2\u30d6\u30e9\u30cf\u30e0": 3080,
  "\u2581\u5b66\u3093": 3081,
  "\u8fbc\u3080": 3082,
  "\u2581boys": 3083,
  "\u2581treatment": 3084,
  "\u3067\u3042\u3063\u305f": 3085,
  "\u2581\u6280\u8853": 3086,
  "\u305b\u308b": 3087,
  "\u2581\u4f55\u3092": 3088,
  "\u2581huge": 3089,
  "\u2581\u3086\u304d": 3090,
  "\u2581\u96d1\u8a8c": 3091,
  "\u2581billion": 3092,
  "\u6d77": 3093,
  "lo": 3094,
  "ad": 3095,
  "te": 3096,
  "\u2581danger": 3097,
  "\u2581\u8056\u53e5": 3098,
  "\u2581\u305d\u308c\u3092": 3099,
  "\u2581vital": 3100,
  "\u2581\u30d1\u30d1": 3101,
  "\u2581\u5c02\u9580": 3102,
  "\u4ed5\u4e8b": 3103,
  "\u2581speech": 3104,
  "\u2581spread": 3105,
  "\u2581\u9ce5": 3106,
  "\u2581copy": 3107,
  "\u2581yourselves": 3108,
  "\u2581\u6301\u3061": 3109,
  "\u2581\u2022": 3110,
  "\u2581appointed": 3111,
  "he": 3112,
  "\u2581\u507d\u308a": 3113,
  "\u5f79": 3114,
  "\u2581environment": 3115,
  "\u2581warning": 3116,
  "\u30ea\u30a2": 3117,
  "\u308f\u308c": 3118,
  "In": 3119,
  "go": 3120,
  "\u2581slave": 3121,
  "\u2581confidence": 3122,
  "\u2581\u6cb9\u305d\u305d": 3123,
  "\u4f1a": 3124,
  "\u2581\u3082\u306f\u3084": 3125,
  "\u58f0": 3126,
  "\u2581\u6e96\u5099": 3127,
  "\u2581\u969c\u5bb3": 3128,
  "\u2581connection": 3129,
  "\u304c\u3044\u308b": 3130,
  "one": 3131,
  "\u2581\u2212": 3132,
  "\u2581Us": 3133,
  "\u2581hate": 3134,
  "\u2581quality": 3135,
  "\u2581\u5f53\u7136": 3136,
  "\u2581glory": 3137,
  "\u258134": 3138,
  "\u2581\u8ab0\u3082": 3139,
  "\u2581regard": 3140,
  "\u2581minister": 3141,
  "\u2581\u3072\u3068\u308a": 3142,
  "\u2581filled": 3143,
  "\u2581\u304f\u308c\u308b": 3144,
  "\u2581crazy": 3145,
  "\u2581\u3057\u307e\u3063": 3146,
  "\u2581Times": 3147,
  "\u2581hair": 3148,
  "\u2581dark": 3149,
  "\u2581somebody": 3150,
  "\u2581straight": 3151,
  "\u2581higher": 3152,
  "\u2581\u5e74\u4ee3": 3153,
  "\u2581required": 3154,
  "\u305d\u3046\u3060": 3155,
  "ter": 3156,
  "\u2581sight": 3157,
  "\u2581\u5bfe\u51e6": 3158,
  "\u2581include": 3159,
  "\u2581\u9ad8": 3160,
  "\u3060\u308f": 3161,
  "\u2581race": 3162,
  "\u30cf": 3163,
  "\u2581exercise": 3164,
  "\u2581middle": 3165,
  "\u2581\u3057\u3063\u304b\u308a": 3166,
  "\u2581\u5951\u7d04": 3167,
  "\u2581\u653b\u6483": 3168,
  "\u2581active": 3169,
  "\u304c\u306a\u3044": 3170,
  "\u4e0b\u3055\u3044": 3171,
  "\u8868": 3172,
  "\u2581option": 3173,
  "%": 3174,
  "14:": 3175,
  "\u2581realized": 3176,
  "\u4e8b\u7269": 3177,
  "\u2581Instead": 3178,
  "\u5927\u304d\u306a": 3179,
  "\u2581huh": 3180,
  "\u2581\u5411\u3051": 3181,
  "\u2581\u98df\u4e8b": 3182,
  "\u2581murder": 3183,
  "\u2581\u6319\u3052": 3184,
  "\u2581worse": 3185,
  "\u2581\u3068\u3053\u308d\u304c": 3186,
  "\u2581\u8feb\u5bb3": 3187,
  "ian": 3188,
  "\u2581newspaper": 3189,
  "\u2581youths": 3190,
  "\u30ad\u30fc": 3191,
  "Comment": 3192,
  "\u54c1": 3193,
  "\u2581blessing": 3194,
  "\u2581conscience": 3195,
  "\u306b\u3044\u308b": 3196,
  "\u2581\u304a\u524d\u306e": 3197,
  "\u2581display": 3198,
  "\u30c7\u30fc\u30bf": 3199,
  "\u2581Box": 3200,
  "\u2581Noah": 3201,
  "\u2581art": 3202,
  "age": 3203,
  "ine": 3204,
  "\u2581success": 3205,
  "\u2581\u656c\u610f": 3206,
  "\u90e8": 3207,
  "\u2581\u5c0e\u304d": 3208,
  "\u2581event": 3209,
  "God": 3210,
  "\u2581\u6700\u5927": 3211,
  "ling": 3212,
  "\u2581\u5316": 3213,
  "\u5fc5\u305a": 3214,
  "\u884c\u304f": 3215,
  "id": 3216,
  "\u2581member": 3217,
  "\u25811,2": 3218,
  "\u2581\u5f15\u304d": 3219,
  "\u2581\u9854": 3220,
  "\u2581evening": 3221,
  "\u30d3\u30fc": 3222,
  "\u2581Therefore": 3223,
  "\u2581Though": 3224,
  "\u2581thoughts": 3225,
  "\u2581tonight": 3226,
  "J": 3227,
  "ma": 3228,
  "\u25811,000": 3229,
  "\u2581offered": 3230,
  "ta": 3231,
  "\u2581\u8ab0\u304b": 3232,
  "\u2581\u7528\u3044\u308b": 3233,
  "\u2581opened": 3234,
  "\u8239": 3235,
  "If": 3236,
  "\u2581\u53d6\u308b": 3237,
  "ING": 3238,
  "\u2581\u4e88\u544a": 3239,
  "\u2581\u4ed5\u3048\u308b": 3240,
  "\u305d\u308c\u3067": 3241,
  "ne": 3242,
  "\u258190": 3243,
  "\u2581\u50be\u5411": 3244,
  "\u6d41": 3245,
  "\u258180": 3246,
  "\u2581Once": 3247,
  "\u2581\u305d\u308c\u306b": 3248,
  "\u2581\u30de\u30de": 3249,
  "\u2581aware": 3250,
  "\u308f\u305f\u3057\u305f\u3061\u306f": 3251,
  "\u6700\u3082": 3252,
  "\u9593": 3253,
  "\u2581Open": 3254,
  "\u2581\u5f37\u304f": 3255,
  "ton": 3256,
  "\u304b\u3089\u306e": 3257,
  "\u306a\u306e\u304b": 3258,
  "\u2581\u500d": 3259,
  "\u2581reached": 3260,
  "\u2581\u3082\u305f\u3089\u3057": 3261,
  "\u2581\u90e8": 3262,
  "ized": 3263,
  "\u2581\u3054\u610f\u5fd7": 3264,
  "\u2581price": 3265,
  "\u2581wide": 3266,
  "\u2581technology": 3267,
  "\u2581although": 3268,
  "\u2581\u5927\u304d\u304f": 3269,
  "\u2581Babylon": 3270,
  "\u2581workers": 3271,
  "\u2581develop": 3272,
  "\u2581eating": 3273,
  "\u2581\u75c7": 3274,
  "\u2581qualities": 3275,
  "\u5b66": 3276,
  "\u95a2\u4fc2": 3277,
  "\u2581\u3064\u3064": 3278,
  "\u2581\u6642\u671f": 3279,
  "\u2581concerned": 3280,
  "\u2581activities": 3281,
  "\u2581\u88c1\u5224": 3282,
  "\u30b7\u30fc": 3283,
  "info": 3284,
  "\u2581300": 3285,
  "\u2581=": 3286,
  "\u2581knowing": 3287,
  "\u2581helps": 3288,
  "\u3067\u306f\u306a\u304f": 3289,
  "\u2581global": 3290,
  "\u2581\u8a8d\u8b58": 3291,
  "\u2581arrived": 3292,
  "\u2581\u30a8\u30b8\u30d7\u30c8": 3293,
  "\u3064\u3051": 3294,
  "\u306a\u304c\u3089": 3295,
  "\u2581maintain": 3296,
  "\u2581\u4f3c": 3297,
  "\u2581\u8ad6": 3298,
  "\u3069\u3046": 3299,
  "\u2581suffer": 3300,
  "\u2581Genesis": 3301,
  "\u6587\u5b57": 3302,
  "\u5149": 3303,
  "\u4e57": 3304,
  "\u2581TV": 3305,
  "\u2581sisters": 3306,
  "\u2581University": 3307,
  "\u2581\u8aad\u307f": 3308,
  "\u2581\u4e3b\u8981": 3309,
  "\u2581\u652f\u6301": 3310,
  "\u2581\u6170\u3081": 3311,
  "\u3082\u306e\u307f\u306e\u5854": 3312,
  "\u2581prepared": 3313,
  "\u2581\u5206\u304b\u3063\u305f": 3314,
  "\u2581Joseph": 3315,
  "\u767a": 3316,
  "\u2581St": 3317,
  "\u2581eventually": 3318,
  "\u6a5f": 3319,
  "\u8840": 3320,
  "\u2581congregations": 3321,
  "\u2581\u5341": 3322,
  "\u62cd\u624b": 3323,
  "\u7a7a": 3324,
  "\u2581particularly": 3325,
  "\u2581worldwide": 3326,
  "\u2581languages": 3327,
  "\u25815.": 3328,
  "\u2581chapter": 3329,
  "\u2581\u521d\u671f": 3330,
  "\u2581recognize": 3331,
  "\u8eca": 3332,
  "\u2581\u7ffb\u8a33": 3333,
  "\u4e8b\u306f": 3334,
  "\u2581@": 3335,
  "\u307f\u305f\u3044": 3336,
  "\u2581\u3068\u3082": 3337,
  "\u2581goal": 3338,
  "\u2581\u516c": 3339,
  "\u2581responsible": 3340,
  "\u3092\u898b": 3341,
  "\u2581green": 3342,
  "\u2581\u5b66\u3073": 3343,
  "\u4f55\u3082": 3344,
  "\u2581articles": 3345,
  "\u2581\u3053\u308c\u3092": 3346,
  "\u3057\u3066\u305f": 3347,
  "\u2581\u9078\u629e": 3348,
  "\u2581exist": 3349,
  "\u3057\u304f": 3350,
  "\u2581putting": 3351,
  "\u2581scientists": 3352,
  "ah": 3353,
  "\u2581\u3069\u3061\u3089": 3354,
  "\u2581\u796d\u53f8": 3355,
  "\u2581\u690d\u7269": 3356,
  "11": 3357,
  "\u2581\u5143": 3358,
  "\u2581\u7acb\u3061": 3359,
  "\u2581teacher": 3360,
  "\u2581causes": 3361,
  "\u2581everybody": 3362,
  "21:": 3363,
  "\u2581\u5074": 3364,
  "\u2581\u8a3c\u8a00": 3365,
  "\u9ad8": 3366,
  "\u2581street": 3367,
  "\u2581German": 3368,
  "\u2581\u50cd\u304f": 3369,
  "\u2581\u30d0\u30d3\u30ed\u30f3": 3370,
  "\u2581\u4f7f\u3046": 3371,
  "\u2581mental": 3372,
  "\u2581priests": 3373,
  "\u2581Un": 3374,
  "\u2581\u3048": 3375,
  "\u3084\u308b": 3376,
  "\u3066\u304f\u308c": 3377,
  "\u2581hundreds": 3378,
  "\u2581\u53d6\u3063": 3379,
  "\u5c71": 3380,
  "\u2581\u2192": 3381,
  "\u2581\u5370\u5237": 3382,
  "\u2581Y": 3383,
  "\u2581\u8c4a\u304b": 3384,
  "\u2581\u9032\u3093": 3385,
  "This": 3386,
  "\u2581\u6587\u66f8": 3387,
  "\u3053\u3053\u306b": 3388,
  "\u2581cool": 3389,
  "\u2581related": 3390,
  "\u2581\u8ce2\u660e": 3391,
  "ary": 3392,
  "\u2581\u3075\u3055\u308f\u3057\u3044": 3393,
  "\u2581\u512a\u308c": 3394,
  "\u2581\u4e2d\u56fd": 3395,
  "\u97f3": 3396,
  "\u2581KDE": 3397,
  "\u2581center": 3398,
  "\u2581\u53c2\u52a0": 3399,
  "\u2581\u559c\u3093": 3400,
  "\u258110.": 3401,
  "\u3053\u3068\u304c\u3067\u304d\u307e\u3059": 3402,
  "\u30ed\u30fc": 3403,
  "for": 3404,
  "\u2581pleasure": 3405,
  "\u30ca\u30fc": 3406,
  "\u2581\u7d9a\u3051\u308b": 3407,
  "\u2581\u8a18\u8ff0": 3408,
  "\u2581train": 3409,
  "\u2581\u611f\u3058\u308b": 3410,
  "\u2581international": 3411,
  "\u7b54\u3048": 3412,
  "\u30a2\u30c3\u30e9\u30fc\u306e": 3413,
  "\u2581\u51fa\u3057": 3414,
  "\u3060\u305e": 3415,
  "\u2581species": 3416,
  "\u2581firm": 3417,
  "\u2581\u304b\u304b\u308f\u3089": 3418,
  "\u2581\u8a31\u3057": 3419,
  "\u30ea\u30b9\u30c8": 3420,
  "\u2581France": 3421,
  "\u2581hearing": 3422,
  "\u2581standards": 3423,
  "\u2581island": 3424,
  "\u2581\u5a66\u4eba": 3425,
  "\u6b73": 3426,
  "\u2581\u7834\u58ca": 3427,
  "\u2581\u307e\u307e": 3428,
  "\u3053\u3053\u3067": 3429,
  "\u2581branch": 3430,
  "\u2581t": 3431,
  "\u2581Tower": 3432,
  "\u2581dream": 3433,
  "\u30b2\u30fc\u30e0": 3434,
  "\u2581Move": 3435,
  "\u2581aid": 3436,
  "\u2581km": 3437,
  "\u2581\u3075": 3438,
  "\u2581\u7279\u6a29": 3439,
  "\u5973\u6027": 3440,
  "\u2581agree": 3441,
  "\u2581missing": 3442,
  "\u2581City": 3443,
  "\u2581addition": 3444,
  "\u591c": 3445,
  "\u2581\u30cf": 3446,
  "\u2581blessings": 3447,
  "\u2581\u7f8e\u3057\u3044": 3448,
  "\u2581attend": 3449,
  "\u2581court": 3450,
  "\u30ec\u30f3": 3451,
  "He": 3452,
  "\u2581\u95a2\u9023": 3453,
  "\u2581\u7a7a": 3454,
  "\u2581easily": 3455,
  "\u2581popular": 3456,
  "\u2581\u30de\u30eb\u30b3": 3457,
  "\u30b3\u30f3": 3458,
  "\u2581prayers": 3459,
  "\u2581\u4f1a\u793e": 3460,
  "\u2581foot": 3461,
  "\u2581\u4f1a\u9928": 3462,
  "\u2581\u8ab0\u304c": 3463,
  "\u2581India": 3464,
  "\u2581presence": 3465,
  "\u2581\u8a3c\u660e": 3466,
  "\u540c\u3058": 3467,
  "\u2581experienced": 3468,
  "\u305d\u308c\u304c": 3469,
  "\u2581\u65b0\u305f": 3470,
  "\u2581\u96e3\u3057\u3044": 3471,
  "\u2581concerning": 3472,
  "\u2581protection": 3473,
  "\u2581\u6b8b\u308a": 3474,
  "\u2581\u3082\u3057\u304f\u306f": 3475,
  "\u2581\u5229\u7528": 3476,
  "\u2581claim": 3477,
  "\u4f8b": 3478,
  "\u3067\u3057\u3087\u3046\u304b": 3479,
  "\u2581\u3069\u3046\u3084\u3063\u3066": 3480,
  "ting": 3481,
  "\u2581\u30e6\u30c0": 3482,
  "\u2581planet": 3483,
  "\u2581\u5b9a\u671f": 3484,
  "ci": 3485,
  "\u2581\u304a\u9858\u3044": 3486,
  "\u2581\u306f\u308b\u304b": 3487,
  "\u77f3": 3488,
  "\u2581note": 3489,
  "\u2581\u307f\u4f7f\u3044": 3490,
  "\u2581\u307f\u308b": 3491,
  "\u2581Al": 3492,
  "\u2581\u85ac": 3493,
  "\u2581stopped": 3494,
  "\u2581\u751f\u304d\u308b": 3495,
  "\u2581national": 3496,
  ".\u201d": 3497,
  "\u2581escape": 3498,
  "\u2581\u610f\u898b": 3499,
  "\u2581\u4eca\u306f": 3500,
  "\u2581Matt": 3501,
  "\u2581\u767a\u884c": 3502,
  "by": 3503,
  "\u30ea\u30f3\u30b0": 3504,
  "\u2581IN": 3505,
  "\u2581careful": 3506,
  "\u3057\u306a\u3055\u3044": 3507,
  "\u2581\u71b1\u5fc3": 3508,
  "\u2581Jeremiah": 3509,
  "\u2581Should": 3510,
  "\u2581Up": 3511,
  "\u2581\u521d\u3081": 3512,
  "\u2581earthly": 3513,
  "\u2581North": 3514,
  "\u2581\u9650\u308a": 3515,
  "\u30de\u30fc": 3516,
  "\u2581brings": 3517,
  "\u2581\u53cb": 3518,
  "\u2581measure": 3519,
  "\u2581range": 3520,
  "\u2581ideas": 3521,
  "\u2581\u7c21\u5358": 3522,
  "\u2581heavy": 3523,
  "\u2581comfort": 3524,
  "\u2581statement": 3525,
  "\u2581\u30b9\u30da\u30a4\u30f3": 3526,
  "\u2581correct": 3527,
  "\u2581nine": 3528,
  "\u2581progress": 3529,
  "\u2581\u4e16\u8a71": 3530,
  "\u2581\u4f7f\u308f": 3531,
  "\u2581\u9023\u308c": 3532,
  "\u2581established": 3533,
  "\u3044\u307e\u3057\u305f": 3534,
  "\u6765\u308b": 3535,
  "\u2581\u3053\u308c\u3067": 3536,
  "\u2581\u30d0": 3537,
  "\u2581\u305d\u308c\u3068\u3082": 3538,
  "\u2581\u6b7b\u8005": 3539,
  "\u2581\u8a69": 3540,
  "\u2581Egypt": 3541,
  "\u2581terms": 3542,
  "\u3055\u305b": 3543,
  "\u2581China": 3544,
  "\u2581\u4eba\u53e3": 3545,
  "\u306b\u3088\u308a": 3546,
  "\u2581\u3055\u3055\u3052": 3547,
  "\u2581economic": 3548,
  "\u2581\u5f93\u9806": 3549,
  "\u2581harmony": 3550,
  "\u2581Each": 3551,
  "\u2581pioneer": 3552,
  "\u30b9\u30bf\u30fc": 3553,
  "\u2581thanks": 3554,
  "\u2581dollars": 3555,
  "\u2581\u8840\u6db2": 3556,
  "\u2581priest": 3557,
  "\u2581Later": 3558,
  "\u2581\u5206\u304b\u308b": 3559,
  "os": 3560,
  "\u2581Any": 3561,
  "\u2581seeking": 3562,
  "+": 3563,
  "ir": 3564,
  "\u5168": 3565,
  "\u2581fruit": 3566,
  "\u2581\u3055\u305b\u308b": 3567,
  "\u308f\u305f\u3057\u306f": 3568,
  "\u30d2": 3569,
  "\u2581aren": 3570,
  "\u3053\u305d": 3571,
  "\u3067\u306e": 3572,
  "\u2581turns": 3573,
  "\u2581\u970a\u611f": 3574,
  "ish": 3575,
  "\u2581square": 3576,
  "\u2581effects": 3577,
  "\u2581leading": 3578,
  "\u2581\u5fc3\u81d3": 3579,
  "\u2581survive": 3580,
  "\u2581thou": 3581,
  "\u2581\u7a0b\u5ea6": 3582,
  "\u2581\u3044\u308d\u3044\u308d": 3583,
  "\u4e0a\u306e": 3584,
  "\u660e": 3585,
  "\u2581\u30a2\u30eb\u30b3\u30fc\u30eb": 3586,
  "\u2581\u307f\u5b50": 3587,
  "\u2581behavior": 3588,
  "\u2581spiritually": 3589,
  "\u2581dog": 3590,
  "\u2581\u304d\u3063\u3068": 3591,
  "\u2581\u53f8\u796d": 3592,
  "\u2581promises": 3593,
  "\u2581Never": 3594,
  "\u2581surface": 3595,
  "\u2581\u8ecd": 3596,
  "\u2581\u624b\u8853": 3597,
  "\u3068\u3082": 3598,
  "\u5408\u3046": 3599,
  "\u258123:": 3600,
  "\u2581destroy": 3601,
  "\u2581fulfillment": 3602,
  "\u2581\u60f3\u50cf": 3603,
  "\u2581\u6226\u3044": 3604,
  "\u65b9\u6cd5": 3605,
  "\u2581Ma": 3606,
  "\u2581youth": 3607,
  "\u2581president": 3608,
  "\u306b\u884c\u304f": 3609,
  "\u2581anger": 3610,
  "\u2581appreciation": 3611,
  "\u2581\u516c\u6b63": 3612,
  "\u2581authorities": 3613,
  "\u2581observed": 3614,
  "\u2581\u5831\u3044": 3615,
  "ol": 3616,
  "\u2581plant": 3617,
  "\u2581Ah": 3618,
  "\u2581Surely": 3619,
  "\u2581foretold": 3620,
  "\u2581\u59cb\u307e\u308a": 3621,
  "\u3068\u3053\u308d": 3622,
  "\u2581\u7d50\u8ad6": 3623,
  "\u2581\u30df": 3624,
  "\u60aa\u3044": 3625,
  "\u98a8": 3626,
  "\u2581Pictures": 3627,
  "\u2581design": 3628,
  "\u2581\u30ce\u30a2": 3629,
  "\u306e\u3042\u308b": 3630,
  "\u2581\u65b0\u805e": 3631,
  "\u2581join": 3632,
  "\u2581below": 3633,
  "40": 3634,
  "\u2581paid": 3635,
  "\u2581\u3046\u307e\u304f": 3636,
  "\u2581\u30b3": 3637,
  "\u304b\u3069\u3046\u304b": 3638,
  "\u2581Mom": 3639,
  "\u2581series": 3640,
  "\u2581\u57fa\u3065\u3044": 3641,
  "\u2581glad": 3642,
  "\u2581amazing": 3643,
  "\u2581\u3055\u308c\u308b": 3644,
  "\u2581\u6012\u308a": 3645,
  "\u2581\u56fd\u3005": 3646,
  "\u306b\u304a\u3044\u3066": 3647,
  "\u2581mate": 3648,
  "\u2581victim": 3649,
  "\u2581\u5909\u3048": 3650,
  "\u2581fell": 3651,
  "\u2581\u6d3e": 3652,
  "\u2581\u6df1\u304f": 3653,
  "\u2581\u3059\u308b\u3068": 3654,
  "\u2581\u5317": 3655,
  "\u2581\u77f3": 3656,
  "\u306e\u307f": 3657,
  "\u2581\u6559\u5f92": 3658,
  "\u2581army": 3659,
  "\u85ac": 3660,
  "\u2581weight": 3661,
  "\u3057\u3088\u3046": 3662,
  "li": 3663,
  "\u2581occasion": 3664,
  "\u2581Japanese": 3665,
  "15": 3666,
  "\u2581judge": 3667,
  "\u306f\u305a": 3668,
  "\u3082\u306a\u3044": 3669,
  "\u2581generation": 3670,
  "\u2581\u4ed5\u3048": 3671,
  "\u2581\u3057\u3070\u3057\u3070": 3672,
  "\u2581\u5bb9\u6613": 3673,
  "\u7236": 3674,
  "\u25814,": 3675,
  "\u2581\u79c1\u3082": 3676,
  "\u2581approach": 3677,
  "\u2581\u9032\u6b69": 3678,
  "\u2581\u307f\u540d": 3679,
  "\u2581\u81ea\u52d5": 3680,
  "\u306a\u3051\u308c\u3070": 3681,
  "\u2581appropriate": 3682,
  "\u2581caught": 3683,
  "\u2581churches": 3684,
  "\u2581select": 3685,
  "\u2581handle": 3686,
  "\u2581\u7d20\u6674\u3089\u3057\u3044": 3687,
  "\u2581carried": 3688,
  "No": 3689,
  "\u2581enemy": 3690,
  "\u305f\u3061": 3691,
  "\u2581\u306a\u308c": 3692,
  "\u306a\u306e\u3067\u3059": 3693,
  "\u2581\u307b\u3089": 3694,
  "\u2581produced": 3695,
  "\u2581challenge": 3696,
  "\u2581floor": 3697,
  "\u2581\u8981\u7d20": 3698,
  "\u50b7": 3699,
  "\u2581\u5ba3\u660e": 3700,
  "\u2581store": 3701,
  "\u2581recorded": 3702,
  "\u2581Hebrews": 3703,
  "\u4fe1\u4ef0": 3704,
  "\u258115,": 3705,
  "\u2581\u5f79\u5272": 3706,
  "\u306e\u3060": 3707,
  "\u2581\u305d\u3046\u3059\u308c\u3070": 3708,
  "\u2581\u3064\u3051": 3709,
  "\u2581notice": 3710,
  "\u2581parent": 3711,
  "\u2581\u30a4\u30f3\u30c9": 3712,
  "\u2581\u4efb\u547d": 3713,
  "\u2581\u306c": 3714,
  "\u2581determined": 3715,
  "\u2581vision": 3716,
  "ating": 3717,
  "\u2581blue": 3718,
  "\u2581impossible": 3719,
  "\u2581mom": 3720,
  "\u2581busy": 3721,
  "\u2581\u30a2\u30f3": 3722,
  "\u3059\u308c\u3070": 3723,
  "\u2581expected": 3724,
  "\u25818.": 3725,
  "\u2581\u4f59\u308a": 3726,
  "\u2581500": 3727,
  "\u2581gods": 3728,
  "\u2581studies": 3729,
  "\u2581\u898b\u3048\u308b": 3730,
  "\u2581wind": 3731,
  "\u30a2\u30c3\u30e9\u30fc": 3732,
  "\u2581enemies": 3733,
  "\u2581\u597d\u304d": 3734,
  "\u3044\u3084": 3735,
  "\u2581Sir": 3736,
  "\u2581\u8868\u308f\u3057": 3737,
  "\u2581lines": 3738,
  "\u2581\u5411\u304b\u3063": 3739,
  "\u3057\u305f\u3089": 3740,
  "\u306b\u3068\u3063\u3066": 3741,
  "\u2581notes": 3742,
  "\u5408\u3044": 3743,
  "\u304c\u3042\u308a": 3744,
  "\u3068\u306a\u308b": 3745,
  "\u2581blind": 3746,
  "\u2581\u5927\u62b5": 3747,
  "et": 3748,
  "\u2581studying": 3749,
  "\u2581England": 3750,
  "\u54e1": 3751,
  "\u25817.": 3752,
  "\u2581actions": 3753,
  "\u2581appears": 3754,
  "\u2581d": 3755,
  "\u2581\u305f\u3070\u3053": 3756,
  "\u2581deeds": 3757,
  "\u2581existence": 3758,
  "\u2581paradise": 3759,
  "\u2581\u304b\u306a\u3063": 3760,
  "\u2581\u5b98": 3761,
  "if": 3762,
  "\u2581\u30bd\u30ed\u30e2\u30f3": 3763,
  "\u30d4": 3764,
  "\u2581\u6cd5\u5f8b": 3765,
  "\u2581killing": 3766,
  "\u2581wall": 3767,
  "\u2581\u56db": 3768,
  "like": 3769,
  "ance": 3770,
  "\u3059\u308b\u305f\u3081\u306b": 3771,
  "\u2581\u30de\u30ea\u30a2": 3772,
  "\u2581drinking": 3773,
  "\u2581placed": 3774,
  "\u2581\u756a": 3775,
  "\u308d\u3046": 3776,
  "\u2581empty": 3777,
  "\u2581model": 3778,
  "\u2581\u7acb\u3066": 3779,
  "\u30d9\u30eb": 3780,
  "\u2581benefits": 3781,
  "\u72b6\u614b": 3782,
  "\u2581watching": 3783,
  "\u2581\u5206\u304b\u3063": 3784,
  "\u2581declared": 3785,
  "\u2581charge": 3786,
  "\u2581harm": 3787,
  "\u2581images": 3788,
  "\u2581birds": 3789,
  "\u2581Z": 3790,
  "\u2581obey": 3791,
  "\u2581Ask": 3792,
  "\u5bb6\u65cf": 3793,
  "\u2581rules": 3794,
  "\u3048\u308b": 3795,
  "\u2581\u8c61\u5fb4": 3796,
  "\u8a00\u8449": 3797,
  "\u2581wild": 3798,
  "\u3081\u308b": 3799,
  "\u2581London": 3800,
  "\u2581\u3044\u305a\u308c": 3801,
  "\u4e16": 3802,
  "\u6765": 3803,
  "\u2581Compare": 3804,
  "\u2581bringing": 3805,
  "\u2581\u30d7\u30ed\u30b0\u30e9\u30e0": 3806,
  "\u2581\u4e00\u7dd2\u306b": 3807,
  "\u6a5f\u80fd": 3808,
  "\u2581High": 3809,
  "\u2581\u8eab\u4f53": 3810,
  "\u2581creatures": 3811,
  "\u2581\u88c1\u304d": 3812,
  "\u2581\u90e8\u5c4b": 3813,
  "\u2581\u82b1": 3814,
  "\u672c\u5f53\u306b\u30a2\u30c3\u30e9\u30fc\u306f": 3815,
  "\u2581sky": 3816,
  "\u3079": 3817,
  "\u2581\u57fa\u672c": 3818,
  "\u2581\u6c7a\u610f": 3819,
  "\u2581discovered": 3820,
  "\u5f0f": 3821,
  "\u2581\u7d71\u6cbb": 3822,
  "\u2581La": 3823,
  "\u5225\u306e": 3824,
  "\u2581Other": 3825,
  "\u30ed\u30f3": 3826,
  "\u2581\u6bce\u5e74": 3827,
  "\u2581bodies": 3828,
  "\u2581closer": 3829,
  "\u2581\u306a\u3057": 3830,
  "ty": 3831,
  "\u2581nuclear": 3832,
  "\u2581\u5148\u751f": 3833,
  "\u2581\u5f85\u3063\u3066": 3834,
  "\u2581\u9055\u3044\u3042\u308a": 3835,
  "\u611f\u3058": 3836,
  "\u2581\u7d30\u80de": 3837,
  "\u2581\u5927\u3044\u306b": 3838,
  "\u2581guide": 3839,
  "\u3082\u3063\u3068": 3840,
  "\u258111.": 3841,
  "\u2581distance": 3842,
  "\u2581invited": 3843,
  "\u25815,": 3844,
  "\u2581skin": 3845,
  "\u2581\u3053\u305d": 3846,
  "ted": 3847,
  "\u2581\u30d1": 3848,
  "\u2581\u5f7c\u5973\u304c": 3849,
  "\u3068\u601d\u3044\u307e\u3059": 3850,
  "\u258122,": 3851,
  "\u3066\u304f\u3060\u3055\u3044": 3852,
  "\u2581\u30aa\u30fc\u30b9\u30c8\u30e9\u30ea\u30a2": 3853,
  "\u2581growth": 3854,
  "\u2581\u3053\u3053\u306f": 3855,
  "\u2581\u53d6\u308a\u4e0a\u3052": 3856,
  "\u2581bar": 3857,
  "\u2581\u30d0\u30fc": 3858,
  "\u2581Scriptural": 3859,
  "\u2581\u8aad\u8005": 3860,
  "\u258112.": 3861,
  "\u2581button": 3862,
  "\u2581speed": 3863,
  "men": 3864,
  "\u3092\u4f7f\u3046": 3865,
  "\u610f\u5473": 3866,
  "\u2581Last": 3867,
  "\u2581convention": 3868,
  "\u901a\u308a": 3869,
  "time": 3870,
  "\u2581reality": 3871,
  "da": 3872,
  "\u9078\u629e": 3873,
  "we": 3874,
  "\u2581affect": 3875,
  "\u2581\u308f\u305f\u3063": 3876,
  "\u2581\u6307\u793a": 3877,
  "\u2581\u91cd\u5927": 3878,
  "\u756a": 3879,
  "\u2581forces": 3880,
  "\u738b": 3881,
  "\u30a2\u30c3\u30e9\u30fc\u304c": 3882,
  "\u3055\u308c\u3066\u3044\u307e\u3059": 3883,
  "\u2581increased": 3884,
  "\u2581\u81ea\u5206\u306e": 3885,
  "\u2581fail": 3886,
  "\u2581\u304b\u304b\u3063": 3887,
  "\u2581user": 3888,
  "ha": 3889,
  "\u2581Others": 3890,
  "\u2581specific": 3891,
  "\u2581Children": 3892,
  "\u30bb\u30eb": 3893,
  "\u2581File": 3894,
  "\u306e\u3053\u3068": 3895,
  "\u4ed8\u3051": 3896,
  "\u2581lying": 3897,
  "\u2581talked": 3898,
  "\u2581welcome": 3899,
  "la": 3900,
  "\u2581media": 3901,
  "\u30a2\u30f3": 3902,
  "\u3084\u3063\u305f": 3903,
  "\u547d": 3904,
  "\u2581wine": 3905,
  "\u2581battle": 3906,
  "\u2581lies": 3907,
  "\u611f": 3908,
  "\u2581\u7fa4\u8846": 3909,
  "\u304f\u308c": 3910,
  "\u2581expressed": 3911,
  "\u2581private": 3912,
  "\u2581Red": 3913,
  "\u2581acts": 3914,
  "\u2581\u5165\u308b": 3915,
  "\u2581development": 3916,
  "name": 3917,
  "\u2581Put": 3918,
  "\u2581baptism": 3919,
  "\u2581\u798f\u97f3": 3920,
  "\u2581\u3058\u3083": 3921,
  "\u304b\u306d": 3922,
  "\u306e\u305f\u3081": 3923,
  "ge": 3924,
  "\u2581\u30d1\u30f3": 3925,
  "\u306f\u305a\u3060": 3926,
  "\u2581\u4f5c\u308b": 3927,
  "\u2581\u8ffd\u968f": 3928,
  "\u3042\u306e": 3929,
  "\u2581\u751f\u304d\u65b9": 3930,
  "\u2581contains": 3931,
  "\u2581victims": 3932,
  "\u2581praise": 3933,
  "\u3060\u3051\u3067": 3934,
  "\u2581\u53f3": 3935,
  "\u2581\u7fa4\u308c": 3936,
  "\u2581Sometimes": 3937,
  "\u3066\u304d\u305f": 3938,
  "\u2581\u3072\u3069\u3044": 3939,
  "\u2581warm": 3940,
  "\u2581market": 3941,
  "\u2581\u5927\u6226": 3942,
  "\u2581n": 3943,
  "\u2581literature": 3944,
  "\u25819.": 3945,
  "\u51fa\u6765\u308b": 3946,
  "\u661f": 3947,
  "\u2581prevent": 3948,
  "\u7d42\u308f\u308a": 3949,
  "\u2581\u898f\u6e96": 3950,
  "\u2581setting": 3951,
  "\u2581steps": 3952,
  "\u2581Ha": 3953,
  "\u2581\u51fa\u308b": 3954,
  "\u2581kg": 3955,
  "\u30c6\u30ad\u30b9\u30c8": 3956,
  "\u2581travel": 3957,
  "\u2581\u5efa\u8a2d": 3958,
  "\u2581School": 3959,
  "\u304b\u308c\u3089\u304c": 3960,
  "\u2581Name": 3961,
  "\u2581\u5404": 3962,
  "\u2581\u3064\u3044\u306b": 3963,
  "\u5834\u5408\u306f": 3964,
  "\u2581directly": 3965,
  "\u307e\u3057": 3966,
  "\u2581ain": 3967,
  "\u2581miss": 3968,
  "\u6c11": 3969,
  "ize": 3970,
  "\u2581chosen": 3971,
  "\u25816.": 3972,
  "\u2581Excuse": 3973,
  "\u2581\u98a8": 3974,
  "\u304b\u3063\u305f": 3975,
  "\u2581privilege": 3976,
  "\u2581\u30ab\u30ca\u30c0": 3977,
  "\u2581rain": 3978,
  "\u2581scene": 3979,
  "\u2581\u751f\u5f92": 3980,
  "\u2581\u7d76\u3048": 3981,
  "100": 3982,
  "\u2581style": 3983,
  "\u2581\u6240\u6709": 3984,
  "\u2581student": 3985,
  "\u2581systems": 3986,
  "\u2581\u96e2\u5a5a": 3987,
  "\u2581African": 3988,
  "\u2581\u601d\u3048": 3989,
  "\u2581\u9858\u3044": 3990,
  "\u306a\u308b": 3991,
  "\u2581regularly": 3992,
  "\u2581\u795e\u8056": 3993,
  "\u2581\u4e3b\u4eba": 3994,
  "ig": 3995,
  "\u2581De": 3996,
  "\u2581doctors": 3997,
  "\u2581\u30a4\u30bf\u30ea\u30a2": 3998,
  "\u2581rights": 3999,
  "\u2581\u3053": 4000,
  "\u2581\u308f\u308c\u306f": 4001,
  "\u2581Con": 4002,
  "\u2581Paradise": 4003,
  "ak": 4004,
  "\u2581\u697d\u5712": 4005,
  "\u2581memory": 4006,
  "\u2581practical": 4007,
  "\u00b7": 4008,
  "\u2581win": 4009,
  "\u30c3\u30c9": 4010,
  "\u6b7b\u306c": 4011,
  "\u2581Love": 4012,
  "\u2581\u9283": 4013,
  "\u540d\u524d": 4014,
  "\u2581fighting": 4015,
  "di": 4016,
  "ful": 4017,
  "\u2581\u4e8b\u4ef6": 4018,
  "\u2581\u5165\u308a": 4019,
  "\u2581FBI": 4020,
  "\u3057\u3066\u304f\u308c": 4021,
  "\u306e\u306d": 4022,
  "\u2581Nevertheless": 4023,
  "\u2581pattern": 4024,
  "\u306e\u3053\u3068\u3092": 4025,
  "\u2581.": 4026,
  "\u2581OF": 4027,
  "\u2581Cor": 4028,
  "\u6b8b": 4029,
  "\u2581interests": 4030,
  ">": 4031,
  "\u2581k": 4032,
  "\u2581location": 4033,
  "\u2581\u5927\u5909": 4034,
  "\u258114.": 4035,
  "\u2581con": 4036,
  "\u2581plants": 4037,
  "\u5fc5\u8981": 4038,
  "\u2581emotional": 4039,
  "\u2581Sure": 4040,
  "\u2581\u6307\u6458": 4041,
  "\u8fbc\u307e": 4042,
  "\u2581designed": 4043,
  "\u2581focus": 4044,
  "\u2581issues": 4045,
  "\u2581Has": 4046,
  "\u2581\u9152": 4047,
  "\u3068\u4e00\u7dd2\u306b": 4048,
  "\u671f": 4049,
  "\u2581\u72af\u3057": 4050,
  "\u308f\u3088": 4051,
  "\u30b8\u30fc": 4052,
  "\u77e5\u3089\u306a\u3044": 4053,
  "\u2581West": 4054,
  "\u2581\u6551\u3044": 4055,
  "\u2581\u6210\u54e1": 4056,
  "\u5f7c\u5973": 4057,
  "\u2581\u304a\u304f": 4058,
  "\u5c4b": 4059,
  "ated": 4060,
  "\u2581\u5f37\u529b": 4061,
  "\u2581\u7570\u306a\u3063": 4062,
  "\u5c11\u3057": 4063,
  "\u8005\u3092": 4064,
  "\u2581\u9b5a": 4065,
  "\u2581solution": 4066,
  "\u2581press": 4067,
  "\u2581provides": 4068,
  "\u2581\u81ea\u5df1": 4069,
  "\u2581operation": 4070,
  "\u2581\u624b\u6bb5": 4071,
  "\u5cf6": 4072,
  "\u2581guard": 4073,
  "\u2581\u5727\u529b": 4074,
  "\u7d50\u679c": 4075,
  "\u2581broken": 4076,
  "\u2581\u54c1": 4077,
  "\u2581\u8fd1\u3044": 4078,
  "\u8005\u304c": 4079,
  "\u25818:": 4080,
  "\u2581mountain": 4081,
  "\u2581unless": 4082,
  "\u2581\u30e1\u30b7\u30a2": 4083,
  "\u2581\u8cb4\u91cd": 4084,
  "\u2581\u56de\u5fa9": 4085,
  "\u258137": 4086,
  "\u2581site": 4087,
  "\u2581till": 4088,
  "\u2581sitting": 4089,
  "\u2581\u5efa\u7269": 4090,
  "\u2581wives": 4091,
  "\u2581catch": 4092,
  "\u2581village": 4093,
  "\u2581slow": 4094,
  "\u2581uses": 4095,
  "\u2581\u3053\u3061\u3089": 4096,
  "\u2581\u907f\u3051": 4097,
  "\u2581\u534a": 4098,
  "\u2581\u751f\u547d": 4099,
  "\u53f0": 4100,
  "\u2581salvation": 4101,
  "\u2581\u53e4\u3044": 4102,
  "\u2581accurate": 4103,
  "\u2581legal": 4104,
  "\u2581lower": 4105,
  "\u3055\u308c\u307e\u3057\u305f": 4106,
  "\u2581remains": 4107,
  "\u2581\u805e\u304f": 4108,
  "\u2581British": 4109,
  "\u30b5\u30f3": 4110,
  "\u2581ran": 4111,
  "\u2581\u306a\u3055": 4112,
  "ab": 4113,
  "\u2581sounds": 4114,
  "\u2581\u306a\u3093\u3068": 4115,
  "\u2581starting": 4116,
  "\u2581\u5947\u8de1": 4117,
  "\u2581\u4e8b\u6545": 4118,
  "\u2581holding": 4119,
  "\u305f\u3061\u306f": 4120,
  "\u2581\u5730\u5143": 4121,
  "\u2581damage": 4122,
  "\u2581National": 4123,
  "\u2581raise": 4124,
  "\u2581\u304a\u524d\u304c": 4125,
  "\u2581kinds": 4126,
  "\u2581respond": 4127,
  "\u2581\u30ca": 4128,
  "\u2581\u9ad8\u304f": 4129,
  "\u2581Add": 4130,
  "\u2581personality": 4131,
  "\u2581conversation": 4132,
  "\u2581\u6a29\u5229": 4133,
  "\u3061\u3083\u3093": 4134,
  "\u2581Chinese": 4135,
  "\u2581\u50cd\u3044": 4136,
  "\u2581weapons": 4137,
  "\u2581merely": 4138,
  "\u306a\u308a": 4139,
  "mo": 4140,
  "\u2581decisions": 4141,
  "\u30ac\u30f3": 4142,
  "\u30ec\u30b9": 4143,
  "\u50e7\u8077": 4144,
  "\u2581\u5922": 4145,
  "\u2581remove": 4146,
  "\u2581\u5c11\u5973": 4147,
  "\u9aa8": 4148,
  "\u2581successful": 4149,
  "\u2581Whatever": 4150,
  "\u2581forms": 4151,
  "\u2581Messiah": 4152,
  "line": 4153,
  "\u2581\u8ab0": 4154,
  "\u30d7\u30ed\u30b0\u30e9\u30e0": 4155,
  "\u2581express": 4156,
  "\u2581Rome": 4157,
  "\u306f\u4f55": 4158,
  "\u2581enjoyed": 4159,
  "\u3068\u3044\u3046\u3053\u3068\u3067\u3059": 4160,
  "\u25811970": 4161,
  "\u2581\u898b\u3064\u3051": 4162,
  "\u2581teachers": 4163,
  "\u2581\u306f\u3058\u3081": 4164,
  "\u2581dedicated": 4165,
  "\u6bcd": 4166,
  "\u2581\u30c9": 4167,
  "\u2581\u5f37\u8abf": 4168,
  "\u2581continues": 4169,
  "out": 4170,
  "\u2581\u7279\u5b9a": 4171,
  "\u6587": 4172,
  "\u307c": 4173,
  "\u5143": 4174,
  "\u2581TO": 4175,
  "\u2581\u6e90": 4176,
  "\u901a": 4177,
  "\u2581Hold": 4178,
  "\u2581tribulation": 4179,
  "\u2581listening": 4180,
  "\u4e2d\u306b": 4181,
  "\u2581+": 4182,
  "\u2581\u652f\u3048": 4183,
  "\u2581rise": 4184,
  "\u306b\u95a2\u3059\u308b": 4185,
  "\u2581\u7a81\u7136": 4186,
  "\u3093\u3067": 4187,
  "\u8fbc\u3093": 4188,
  "\u5e74\u9593": 4189,
  "\u258143": 4190,
  "\u2581Something": 4191,
  "\u2581leaves": 4192,
  "\u2581drop": 4193,
  "\u2581\u30a8\u30cd\u30eb\u30ae\u30fc": 4194,
  "\u2581\u5927\u534a": 4195,
  "\u2581factor": 4196,
  "\u2581godly": 4197,
  "\u3093\u3060\u3088": 4198,
  "\u30dd": 4199,
  "\u25816,": 4200,
  "\u25819,": 4201,
  "\u2581Everything": 4202,
  "\u25812,000": 4203,
  "\u2581\u8208\u5473\u6df1\u3044": 4204,
  "im": 4205,
  "\u5f7c\u5973\u306f": 4206,
  "\u2581bank": 4207,
  "\u3063\u3066\u308b": 4208,
  "\u304b\u3082\u3057\u308c\u307e\u305b\u3093": 4209,
  "\u2581\u4eca\u3084": 4210,
  "land": 4211,
  "\u2581\u907f\u3051\u308b": 4212,
  "\u2581\u7f6e\u304b": 4213,
  "\u2581patients": 4214,
  "\u793e\u4f1a": 4215,
  "\u2581\u30db": 4216,
  "\u2581\u6b7b\u4ea1": 4217,
  "\u3057\u307e\u3057\u3087\u3046": 4218,
  "\u2581Canada": 4219,
  "\u2581property": 4220,
  "\u2581response": 4221,
  "\u2581base": 4222,
  "\u304b\u308c\u306e": 4223,
  "\u30a8\u30eb": 4224,
  "\u2581content": 4225,
  "\u2581\u6559\u6388": 4226,
  "\u304b\u308c\u3089\u3092": 4227,
  "\u2581terrible": 4228,
  "\u2581\u3059\u3050\u306b": 4229,
  "\u2581Na": 4230,
  "\u2581stories": 4231,
  "\u2581teachings": 4232,
  "\u3067\u3059\u3088": 4233,
  "\u7b49": 4234,
  "\u2581belief": 4235,
  "\u2581quick": 4236,
  "\u2581boat": 4237,
  "\u30cb\u30a2": 4238,
  "\u2581abuse": 4239,
  "\u2581complex": 4240,
  "\u2581\u5927\u3044\u306a\u308b": 4241,
  "\u2581loyal": 4242,
  "\u306e\u4e0a\u306b": 4243,
  "\u2581limited": 4244,
  "\u2581\u544a\u3052": 4245,
  "\u4ee3": 4246,
  "\u2581\u4f1d\u3048\u308b": 4247,
  "\u4e0a\u3052": 4248,
  "\u578b": 4249,
  "son": 4250,
  "\u2581Soon": 4251,
  "\u2581cross": 4252,
  "\u2581writer": 4253,
  "\u258125:": 4254,
  "\u2581\u7d50\u5c40": 4255,
  "\u2581Am": 4256,
  "\u2581decide": 4257,
  "\u2581\u656c\u8654": 4258,
  "\u258115.": 4259,
  "\u2581desires": 4260,
  "\u2581\u30ac\u30f3": 4261,
  "\u258113.": 4262,
  "\u2581\u610f\u8b58": 4263,
  "\u2581\u4f8b\u3048": 4264,
  "\u2581sacred": 4265,
  "\u2581\u8868": 4266,
  "\u2581heads": 4267,
  "\u6b63": 4268,
  "\u2581somewhere": 4269,
  "\u2581\u4e2d\u5fc3": 4270,
  "\u5909\u66f4": 4271,
  "\u2581honest": 4272,
  "\u3053\u308c\u3089\u306e": 4273,
  "\u2581direct": 4274,
  "\u30ec\u30fc": 4275,
  "\u7acb": 4276,
  "\u2581zero": 4277,
  "\u2581\u30a2\u30eb": 4278,
  "\u2581\u6b69\u307f": 4279,
  "\u75c5": 4280,
  "\u2581pull": 4281,
  "\u3089\u308c\u306a\u3044": 4282,
  "\u2581precious": 4283,
  "ant": 4284,
  "\u2581Eve": 4285,
  "\u2581affected": 4286,
  "\u30bf\u30f3": 4287,
  "\u6575": 4288,
  "\u2581finding": 4289,
  "\u30d5\u30a9\u30eb\u30c0": 4290,
  "\u25aa": 4291,
  "\u3089\u308c": 4292,
  "\u2581forgive": 4293,
  "\u2581\u305f\u3076\u3093": 4294,
  "\u2581spoken": 4295,
  "\u2581broke": 4296,
  "\u2581official": 4297,
  "\u2581\u5de6": 4298,
  "\u2581pictures": 4299,
  "\u2581seriously": 4300,
  "\u304b\u3057\u3089": 4301,
  "\u2581manner": 4302,
  "\u2581\u671d": 4303,
  "\u2581East": 4304,
  "\u5668": 4305,
  "\u2581II": 4306,
  "\u2581\u652f\u90e8": 4307,
  "bo": 4308,
  "\u2581Christianity": 4309,
  "\u3093\u3067\u3059\u304b": 4310,
  "\".": 4311,
  "\u306a\u3044\u308f": 4312,
  "\u2581lay": 4313,
  "\u2581\u62b1\u304f": 4314,
  "\u7d04\u675f": 4315,
  "\u2581entered": 4316,
  "\u2581anyway": 4317,
  "\u2581gas": 4318,
  "\u2581discipline": 4319,
  "\u2581fit": 4320,
  "\u2581importance": 4321,
  "\u2581theme": 4322,
  "\u2581\u52b1\u307e\u3057": 4323,
  "\u2581State": 4324,
  "\u2581wealth": 4325,
  "\u2581\u6620\u753b": 4326,
  "\u2581radio": 4327,
  "\u3055\u305b\u305f": 4328,
  "\u2581\u671f": 4329,
  "\u30b8\u30e3": 4330,
  "\u6709": 4331,
  "\u2581fill": 4332,
  "\u2581\u5bb3": 4333,
  "\u2581occur": 4334,
  "\u2581Fuck": 4335,
  "\u2581sell": 4336,
  "\u2581Australia": 4337,
  "so": 4338,
  "\u2581Finally": 4339,
  "\u2581\u79c1\u306b": 4340,
  "\u3072": 4341,
  "\u8056\u66f8": 4342,
  "Jehovah": 4343,
  "\u2581apart": 4344,
  "\u30d5\u30a1": 4345,
  "\u30da": 4346,
  "\u2581ransom": 4347,
  "\u2581Three": 4348,
  "\u2581standard": 4349,
  "\u2581\u5927\u4eba": 4350,
  "\u8ecd": 4351,
  "\u9054": 4352,
  "\u2581\u98db\u884c": 4353,
  "\u2581\u5bcc": 4354,
  "\u2581song": 4355,
  "\u2581\u6751": 4356,
  "\u306f\u3042\u308a\u307e\u305b\u3093": 4357,
  "\u258117.": 4358,
  "\u2581post": 4359,
  "\u2581\u9054\u3057": 4360,
  "\u2581station": 4361,
  "\u2581\u6e80\u3061": 4362,
  "\u2581suffered": 4363,
  "\u30c3\u30af": 4364,
  "\u2581neighbor": 4365,
  "\u2581supply": 4366,
  "\u2581trip": 4367,
  "\u2581\u304a\u305d\u3089\u304f": 4368,
  "\u2581conclusion": 4369,
  "\u2581\u5207\u308a": 4370,
  "\u306a\u3093\u304b": 4371,
  "\u2581\u3089": 4372,
  "\u2581\u30e1": 4373,
  "\u2581\u751f\u3058\u308b": 4374,
  "\u2581\u8b19\u905c": 4375,
  "\u3059\u304e\u308b": 4376,
  "\u2581\u8a18\u5ff5": 4377,
  "\u95a2\u6570": 4378,
  "\u5165\u308c": 4379,
  "\u91cd": 4380,
  "\u2581returns": 4381,
  "\u2581dear": 4382,
  "\u2581included": 4383,
  "\u2581\u305f\u3044\u3066\u3044": 4384,
  "\u2581\u9032\u5316": 4385,
  "j": 4386,
  "\u2581unique": 4387,
  "\u2581\u30bf": 4388,
  "\u2581\u3057\u3070\u3089\u304f": 4389,
  "\u2581\u304f": 4390,
  "\u2581\u58c1": 4391,
  "\u2581solve": 4392,
  "\u2581\u53c2\u7167": 4393,
  "\u304f\u3089\u3044": 4394,
  "\u308b\u3068": 4395,
  "\u2581answered": 4396,
  "\u2581\u30a8\u30bc\u30ad\u30a8\u30eb": 4397,
  "\u3066\u3082": 4398,
  "\u2581\u306d\u3048": 4399,
  "\u2581objects": 4400,
  "\u2581stupid": 4401,
  "\u2581treat": 4402,
  "\u304b\u308c\u306b": 4403,
  "\u793a": 4404,
  "\u2581Among": 4405,
  "\u2581DNA": 4406,
  "\u306a\u304d\u3083": 4407,
  "\u2581\u76f4\u63a5": 4408,
  "\u2581opening": 4409,
  "\u2581\u5730\u65b9": 4410,
  "\u2581\u98df\u3079\u308b": 4411,
  "\u5148\u751f": 4412,
  "\u2581\u65c5": 4413,
  "\u2581\u6c5a\u67d3": 4414,
  "\u306e\u540d\u524d": 4415,
  "\u2581Stay": 4416,
  "\u2581contrast": 4417,
  "\u2581\u5e73\u5747": 4418,
  "\u3060\u3051\u3069": 4419,
  "\u3092\u6301\u3064": 4420,
  "\u30ac\u30fc": 4421,
  "\u2581preach": 4422,
  "\u5206\u306e": 4423,
  "\u2581capital": 4424,
  "\u2581finished": 4425,
  "\u30b7\u30a2": 4426,
  "\u2581\u898f\u6a21": 4427,
  "\u2581\u3069\u3046\u305e": 4428,
  "\u2581\u8d64\u3061\u3083\u3093": 4429,
  "\u2581Next": 4430,
  "\u2581experiences": 4431,
  "um": 4432,
  "\u258116.": 4433,
  "\u2581mistake": 4434,
  "\u2581\u4f55\u304c": 4435,
  "\u2581\u6ec5\u3073": 4436,
  "25": 4437,
  "\u2581\u305a\u3063\u3068": 4438,
  "\u2581\u30b7": 4439,
  "\u2581easier": 4440,
  "\u2581click": 4441,
  "\u2581\u75db\u307f": 4442,
  "\u2581stars": 4443,
  "\u2581\u52d9\u3081": 4444,
  "our": 4445,
  "\u2581grew": 4446,
  "\u2581\u3057\u308b\u3057": 4447,
  "\u2581\u79fb\u52d5": 4448,
  "\u2581Jacob": 4449,
  "\u3056": 4450,
  "\u2581\u30a8\u30d0": 4451,
  "\u2581\u623b\u3063": 4452,
  "\u2581mountains": 4453,
  "\u2581\u3054\u304f": 4454,
  "\u2581\u6559\u5e2b": 4455,
  "\u9055\u3046": 4456,
  "\u2581angel": 4457,
  "\u2581severe": 4458,
  "\u2581\u3061\u3087\u3046\u3069": 4459,
  "\u2581master": 4460,
  "\u2581moon": 4461,
  "\u2581male": 4462,
  "\u2581\u30b5\u30e0\u30a8\u30eb": 4463,
  "\u2581\u6559\u8a13": 4464,
  "\u2581\u6700\u5584": 4465,
  "\u5217": 4466,
  "eth": 4467,
  "\u2581letters": 4468,
  "\u2581\u518d": 4469,
  "\u2581\u5ba3\u3079\u4f1d\u3048": 4470,
  "\u2581shut": 4471,
  "\u3070\u304b\u308a": 4472,
  "\u2581\u6368\u3066": 4473,
  "\u2581rock": 4474,
  "\u2581feed": 4475,
  "\u2581servant": 4476,
  "\u3092\u6301\u3063\u3066": 4477,
  "\u304b\u3063": 4478,
  "\u2581feels": 4479,
  "\u5b50\u4f9b": 4480,
  "\u2581Footnotes": 4481,
  "\u2581\u3044\u3044\u304b": 4482,
  "\u30da\u30fc\u30b8": 4483,
  "\u258144": 4484,
  "\u2581count": 4485,
  "\u2581seed": 4486,
  "\u305d\u3053\u306b": 4487,
  "\u2581carefully": 4488,
  "\u2581\u30eb": 4489,
  "\u2581\u6975\u3081\u3066": 4490,
  "\u4e00\u7dd2\u306b": 4491,
  "\u3092\u3059\u308b": 4492,
  "\u2581Think": 4493,
  "\u2581\u52c9\u5f37": 4494,
  "\u4eca\u65e5": 4495,
  "ow": 4496,
  "\u2581wear": 4497,
  "\u3089\u306a\u3044": 4498,
  "\u3057\u307e\u305b\u3093": 4499,
  "\u2581Internet": 4500,
  "\u6b21": 4501,
  "\u2581Christmas": 4502,
  "\u2581length": 4503,
  "\u3082\u3042\u308b": 4504,
  "\u2581despite": 4505,
  "\u2581stress": 4506,
  "\u2581useful": 4507,
  "\u2581associated": 4508,
  "\u2581Sea": 4509,
  "\u2581string": 4510,
  "ut": 4511,
  "\u2581\u805e\u304d": 4512,
  "\u3060\u306d": 4513,
  "\u2581Nations": 4514,
  "\u6642\u306f": 4515,
  "\u305f\u304f\u306a\u3044": 4516,
  "\u2581Sam": 4517,
  "\u2581suddenly": 4518,
  "\u52a9\u3051": 4519,
  "\u8a08\u753b": 4520,
  "\u2581\u5049\u5927": 4521,
  "\u2581mass": 4522,
  "\u2581minds": 4523,
  "\u3042\u308a": 4524,
  "\u2581\u8f38\u8840": 4525,
  "\u2581north": 4526,
  "\u2581pure": 4527,
  "\u2581lady": 4528,
  "19": 4529,
  "ster": 4530,
  "\u4f7f\u5f92": 4531,
  "\u2581Young": 4532,
  "\u2581anybody": 4533,
  "\u2581facts": 4534,
  "\u2581traveling": 4535,
  "*": 4536,
  "\u2581Actually": 4537,
  "\u2581fault": 4538,
  "\u2581\u72ac": 4539,
  "\u2581bottom": 4540,
  "\u2581\u540c\u6642": 4541,
  "\u2581\u4ee5\u5916": 4542,
  "\u306a\u305c": 4543,
  "\u2581covered": 4544,
  "\u2581integrity": 4545,
  "\u2581\u533b\u7642": 4546,
  "\u2581requires": 4547,
  "\u308b\u3093\u3060": 4548,
  "\u30d5\u30a3\u30fc\u30eb\u30c9": 4549,
  "\u2581Under": 4550,
  "\u2581foreign": 4551,
  "\u2581\u3055\u307e\u3056\u307e": 4552,
  "\u6559": 4553,
  "\u2581\u4e0d\u5b89": 4554,
  "\u2581Saul": 4555,
  "\u2581previous": 4556,
  "\u2581relief": 4557,
  "\u2581\u5354\u529b": 4558,
  "\u2581double": 4559,
  "\u2581exists": 4560,
  "\u2581\u552f\u4e00": 4561,
  "\u2581\u8a66\u307f": 4562,
  "ence": 4563,
  "\u2581scale": 4564,
  "\u7686": 4565,
  "\u7acb\u3061": 4566,
  "\u2581device": 4567,
  "\u2581persecution": 4568,
  "\u2581\u6211": 4569,
  "\u2581elder": 4570,
  "ex": 4571,
  "\u2581encouraged": 4572,
  "\u2581taste": 4573,
  "\u2581\u3042\u3041": 4574,
  "14": 4575,
  "\u2581\u9593\u9055\u3044": 4576,
  "\u5b9f": 4577,
  "\u2581background": 4578,
  "\u2581dying": 4579,
  "\u2581\u3044\u308c": 4580,
  "\u304a\u3088\u3073": 4581,
  "\u2581\u52c7\u6c17": 4582,
  "\u2581character": 4583,
  "\u2581\u518a": 4584,
  "\u2581\u8abf\u548c": 4585,
  "\u30ae": 4586,
  "\u30b3\u30fc\u30c9": 4587,
  "\u8005\u306b": 4588,
  "\u2581deeply": 4589,
  "\u2581ill": 4590,
  "\u306b\u306a\u308a": 4591,
  "\u2581appeared": 4592,
  "\u2581\u6b63\u3057\u304f": 4593,
  "\u2581\u7de8": 4594,
  "\u2581\u904b\u8ee2": 4595,
  "\u2581\u30b5\u30f3": 4596,
  "\u3092\u8868\u793a": 4597,
  "\u2581constant": 4598,
  "\u2581messages": 4599,
  "\u2581powers": 4600,
  "\u8089": 4601,
  "\u2581\u5e2b": 4602,
  "\u00e9": 4603,
  "\u2581television": 4604,
  "\u2581\u5897\u3048": 4605,
  "\u30b7\u30b9\u30c6\u30e0": 4606,
  "\u2581\u5f7c\u5973\u306e": 4607,
  "\u2581default": 4608,
  "\u2581fulfilled": 4609,
  "\u2581\u89e3\u653e": 4610,
  "\u2581\u9055\u3044": 4611,
  "\u2581totally": 4612,
  "\u2581principle": 4613,
  "\u2581\u826f\u304f": 4614,
  "\u25a0": 4615,
  "\u2581pieces": 4616,
  "\u3064\u304f": 4617,
  "\u696d": 4618,
  "13": 4619,
  "\u2581\u4e8b\u52d9": 4620,
  "\u2581manifest": 4621,
  "\u2581twice": 4622,
  "\u3092\u898b\u305f": 4623,
  "\u2581heat": 4624,
  "\u2581\u80f8": 4625,
  "\u8005\u306e": 4626,
  "\u2581Back": 4627,
  "\u2581dealing": 4628,
  "\u2581hide": 4629,
  "\u2581\u601d\u3048\u308b": 4630,
  "\u2581sharing": 4631,
  "\u2581\u5371\u6a5f": 4632,
  "\u2581\u591a\u6570": 4633,
  "ba": 4634,
  "\u2581root": 4635,
  "\u306e\u306a\u3044": 4636,
  "\u2581July": 4637,
  "\u2581refused": 4638,
  "\u2581Moreover": 4639,
  "\u2581\u50d5\u304c": 4640,
  "\u30b7\u30e3": 4641,
  "\u2581\u611f\u67d3": 4642,
  "\u5c0f\u3055\u306a": 4643,
  "\u2581seconds": 4644,
  "\u3015": 4645,
  "\u2581effective": 4646,
  "\u2581\u6587\u5b57": 4647,
  "\u2581famous": 4648,
  "\u4f7f\u7528": 4649,
  "\u2581\u8868\u308f\u3059": 4650,
  "\u2581ice": 4651,
  "\u2581violent": 4652,
  "\u2581\u51fa\u30a8\u30b8\u30d7\u30c8": 4653,
  "\u30b8\u30a7": 4654,
  "\u6b63\u3057\u3044": 4655,
  "\u2581\u6669": 4656,
  "\u2581accident": 4657,
  "\u2581cry": 4658,
  "\u72ac": 4659,
  "\u2581forced": 4660,
  "\u2581\u901a\u4fe1": 4661,
  "\u2581shoot": 4662,
  "\u2581\u30d5\u30a3\u30ea\u30d4": 4663,
  "\u2581missionary": 4664,
  "\u2581\u547c\u3073": 4665,
  "\u306a\u3044\u3067": 4666,
  "\u2581\u8a66\u7df4": 4667,
  "\u2581\u7121\u8996": 4668,
  "\u258121:": 4669,
  "\u2581assembly": 4670,
  "\u2581\u8cdb\u7f8e": 4671,
  "\u2581warned": 4672,
  "\u2581\u30d9": 4673,
  "\u2581occurred": 4674,
  "\u2581\u5931\u6557": 4675,
  "\u2581Very": 4676,
  "\u2581journey": 4677,
  "\u2581Jack": 4678,
  "\u2581bread": 4679,
  "\u9854": 4680,
  "\u2581beauty": 4681,
  "\u2581\u8ff0\u3079\u308b": 4682,
  "\u71b1": 4683,
  "\u258110,": 4684,
  "\u2581\u6253\u3061": 4685,
  "\u2581\u533b\u5b66": 4686,
  "\u2581\u8003\u3048\u65b9": 4687,
  "\u2581April": 4688,
  "\u30a8\u30e9\u30fc": 4689,
  "\u5f37\u3044": 4690,
  "\u2581\u63d0\u4f9b": 4691,
  "\u2581surprise": 4692,
  "\u306b\u5bfe\u3057": 4693,
  "\uff5e": 4694,
  "\u3061\u3087\u3063\u3068": 4695,
  "\u308c\u305f": 4696,
  "\u51e6\u7406": 4697,
  "\u2581Mother": 4698,
  "\u2581\u4fdd\u8a3c": 4699,
  "\u2581\u5c11\u5e74": 4700,
  "My": 4701,
  "\u2581\u5fdc\u3058": 4702,
  "\u2581games": 4703,
  "\u8abf": 4704,
  "ite": 4705,
  "\u3064\u304b": 4706,
  "\u670d": 4707,
  "\u2581Without": 4708,
  "\u2581advantage": 4709,
  "\u2581\u697d\u3057\u307f": 4710,
  "\u2581ride": 4711,
  "\u2581sides": 4712,
  "\u2581\u3044\u307e": 4713,
  "\u2581\u3059\u3079\u3066\u306e": 4714,
  "\u5b9a": 4715,
  "\u2581News": 4716,
  "\u2581details": 4717,
  "\u2581turning": 4718,
  "\u2581\u30bb": 4719,
  "\u2581highly": 4720,
  "\u3084\u3063\u3066": 4721,
  "\u751f\u6d3b": 4722,
  "\u2581\u4e00\u65e5": 4723,
  "\u2581separate": 4724,
  "\u2581waste": 4725,
  "\u5411": 4726,
  "BAR": 4727,
  "\u2581trial": 4728,
  "\u2581ended": 4729,
  "\u2581\u6838": 4730,
  "\u30e9\u30f3\u30c9": 4731,
  "\u4eba\u3005": 4732,
  "There": 4733,
  "\u2581\u5065\u5168": 4734,
  "\u5ba4": 4735,
  "\u2581behalf": 4736,
  "\u2581\u6570\u591a\u304f": 4737,
  "\u2581dis": 4738,
  "\u2581\u52dd\u5229": 4739,
  "\u2581\u8a31\u3055": 4740,
  "\u5c0f": 4741,
  "\u2581\u59ff": 4742,
  "\u2581\u3053\u308c\u3089\u306e": 4743,
  "And": 4744,
  "\u3055\u305b\u3066": 4745,
  "\u2581General": 4746,
  "\u2581\u6a5f\u95a2": 4747,
  "\u6b21\u306e": 4748,
  "\u306a\u304f\u3066": 4749,
  "\u2581adds": 4750,
  "\u4f4d": 4751,
  "\u60aa\u9b54": 4752,
  "\u72b6": 4753,
  "\u756a\u53f7": 4754,
  "\u2581\u5e83\u304f": 4755,
  "\u2581Fire": 4756,
  "\u2581camp": 4757,
  "\u2581grown": 4758,
  "\u2581\u6700\u7d42": 4759,
  "\u2581\u6a29": 4760,
  "\u30c6\u30f3": 4761,
  "\u2581structure": 4762,
  "Let": 4763,
  "\u30b0\u30eb\u30fc\u30d7": 4764,
  "\u8cea": 4765,
  "\u2581Out": 4766,
  "\u2581divorce": 4767,
  "\u2581\u305d\u306e\u3082\u306e": 4768,
  "\u5144\u5f1f": 4769,
  "\u56f3": 4770,
  "\u2581anywhere": 4771,
  "\u2581assigned": 4772,
  "\u2581hey": 4773,
  "\u2581publication": 4774,
  "\u2581\u578b": 4775,
  "\u2581\u6bba\u4eba": 4776,
  "\u2581\u884c\u3051": 4777,
  "\u7406\u7531": 4778,
  "\u2581\u3069\u3046\u3082": 4779,
  "\u2581\u3072\u3068\u3064": 4780,
  "?)": 4781,
  "\u2581quiet": 4782,
  "\u2581\u9006": 4783,
  "\u2581\u9593\u9055\u3063": 4784,
  "\u2581Sunday": 4785,
  "\u2581darkness": 4786,
  "\u2581encourage": 4787,
  "\u2581genuine": 4788,
  "\u2581larger": 4789,
  "ER": 4790,
  "per": 4791,
  "\u2581devotion": 4792,
  "\u2581\u3044\u3063\u305d\u3046": 4793,
  "\u2581August": 4794,
  "\u307e\u308a": 4795,
  "Z": 4796,
  "\u2581alcohol": 4797,
  "\u2581extra": 4798,
  "\u2581vast": 4799,
  "\u3057\u3066\u3082": 4800,
  "\u2581President": 4801,
  "\u2581\u542b\u3081": 4802,
  "\u2581\u4e00\u4f53": 4803,
  "\u30c7\u30a3\u30fc": 4804,
  "\u30e9\u30a4": 4805,
  "\u4eba\u306b": 4806,
  "me": 4807,
  "\u2581\u56f0\u96e3": 4808,
  "\u89e3": 4809,
  "op": 4810,
  "\u2581practices": 4811,
  "\u2581sub": 4812,
  "\u3001\u300c": 4813,
  "\u2581clothes": 4814,
  "\u2581fly": 4815,
  "\u2581\u6255\u3046": 4816,
  "\u2581female": 4817,
  "\u2581herself": 4818,
  "\u258142": 4819,
  "\u2581assignment": 4820,
  "\u2581\u5f79\u7acb\u3064": 4821,
  "\u2581purposes": 4822,
  "\u2581throw": 4823,
  "\u4e8c": 4824,
  "\u2581Got": 4825,
  "\u2581strange": 4826,
  "\u2581beat": 4827,
  "\u2581\u3054\u5b58\u3058": 4828,
  "\u2581\u30d6\u30e9\u30b8\u30eb": 4829,
  "\u2581\u5f53\u5c40": 4830,
  "\u2581\u71b1": 4831,
  "\u53ea": 4832,
  "\u5f7c\u3089": 4833,
  "\u771f\u7406": 4834,
  "\u8ab0\u304b": 4835,
  "\u2581June": 4836,
  "\u2581blessed": 4837,
  "\u2581\u6b6f": 4838,
  "\u2581factors": 4839,
  "\u2581kings": 4840,
  "\u3060\u3051\u3067\u3059": 4841,
  "\u2581extent": 4842,
  "\u2581potential": 4843,
  "\u25815,000": 4844,
  "\u2581psalmist": 4845,
  "\u2581services": 4846,
  "\u2581product": 4847,
  "\u2581belong": 4848,
  "\u2581garden": 4849,
  "\u2581towards": 4850,
  "\u2581\u9003\u3052": 4851,
  "[": 4852,
  "\u2581temporary": 4853,
  "\u77e5\u3063\u3066\u308b": 4854,
  "AL": 4855,
  "ure": 4856,
  "\u2581request": 4857,
  "\u5f93": 4858,
  "\u2581developing": 4859,
  "\u2581o": 4860,
  "\u2581\u306a\u3093\u3067": 4861,
  "\u2581\u5358\u306b": 4862,
  "\u3057\u304b\u3057": 4863,
  "\u2581task": 4864,
  "\u975e\u5e38\u306b": 4865,
  "\u2581arms": 4866,
  "\u2581grand": 4867,
  "\u2581scientific": 4868,
  "60": 4869,
  "\u2581\u266b": 4870,
  "\u2581\u5668": 4871,
  "\u2581\u7a7a\u6c17": 4872,
  "\u2581Captain": 4873,
  "\u2581sold": 4874,
  "\u2581\u4ee3\u8868": 4875,
  "\u5199\u771f": 4876,
  "\u3069\u3046\u3057\u3066": 4877,
  "\u3089\u3057\u3044": 4878,
  "\u2581\u30b2\u30fc\u30e0": 4879,
  "\u2581round": 4880,
  "\u2581\u5316\u5b66": 4881,
  "\u306b\u5c31\u3044\u3066": 4882,
  "\u2581March": 4883,
  "\u2581theory": 4884,
  "\u2581beliefs": 4885,
  "\u2581region": 4886,
  "\u2581threat": 4887,
  "\u2581\u8ca7\u3057\u3044": 4888,
  "\u5168\u3066\u306e": 4889,
  "\u7fa9": 4890,
  "ka": 4891,
  "\u2581ruin": 4892,
  "\u2581twenty": 4893,
  "\u2581\u30cf\u30a4": 4894,
  "\u5fc3\u914d": 4895,
  "\u2581proof": 4896,
  "\u2581\u9069\u5207": 4897,
  "\u2581coffee": 4898,
  "\u2581Lo": 4899,
  "\u3093\u3058\u3083\u306a\u3044": 4900,
  "\u2581400": 4901,
  "ho": 4902,
  "\u2581application": 4903,
  "\u2581\u4f7f\u3044": 4904,
  "\u30bf\u30eb": 4905,
  "great": 4906,
  "\u2581stick": 4907,
  "\u2581\u30ac\u30e9\u30c6\u30a2": 4908,
  "\u2581\u53d6\u308a\u6c7a\u3081": 4909,
  "\u2581\u8a55\u4fa1": 4910,
  "\u306e\u305f\u3081\u306e": 4911,
  "\u3092\u898b\u308b": 4912,
  "qui": 4913,
  "\u2581failure": 4914,
  "\u2581\u304b\u3064": 4915,
  "\u306e\u3067\u3059\u304b": 4916,
  "\u2581ex": 4917,
  "\u2581houses": 4918,
  "\u2581\u3084\u3059\u3044": 4919,
  "\u2581\u751f\u7523": 4920,
  "\u2581\u975e\u96e3": 4921,
  "\u66f2": 4922,
  "\u6c7a\u3057\u3066": 4923,
  "\u535a\u58eb": 4924,
  "\u258138": 4925,
  "\u2581\u624b\u672c": 4926,
  "\u2581\u81ea": 4927,
  "\u3064\u304d": 4928,
  "vi": 4929,
  "\u2581trade": 4930,
  "\u2581unity": 4931,
  "\u2581\u7acb\u3063": 4932,
  "\u4eba\u3092": 4933,
  "\u2581El": 4934,
  "\u2581mention": 4935,
  "\u2581endure": 4936,
  "\u653b\u6483": 4937,
  "\u2581personally": 4938,
  "\u2581December": 4939,
  "\u2581valuable": 4940,
  "\u8a33": 4941,
  "\u2581plane": 4942,
  "\u9803": 4943,
  "\u2581ma": 4944,
  "\u2581\u897f": 4945,
  "\u2581largest": 4946,
  "\u2581\u7f6e\u3044": 4947,
  "\u2581guilty": 4948,
  "\u2581\u307f\u306a\u3055": 4949,
  "\u30d1\u30fc": 4950,
  "\u2581Mount": 4951,
  "\u2581tongue": 4952,
  "\u2581Everyone": 4953,
  "\u2581View": 4954,
  "\u2581wars": 4955,
  "\u25817,": 4956,
  "\u3092\u53d6\u308a": 4957,
  "\u2581\u5272\u308a\u5f53\u3066": 4958,
  "\u305f\u3093\u3060": 4959,
  "\u2581Ben": 4960,
  "\u2581fields": 4961,
  "\u2581observe": 4962,
  "\u2581governments": 4963,
  "\u2581smoke": 4964,
  "\u5f7c\u3089\u306f": 4965,
  "\u2581method": 4966,
  "\u2581\u3064\u308c": 4967,
  "\u2581household": 4968,
  "\u2581\u9aa8": 4969,
  "\u304b\u3051": 4970,
  "\u3053\u3053": 4971,
  "\u2581everywhere": 4972,
  "\u2581\u307b\u307c": 4973,
  "\u2581financial": 4974,
  "\u2581\u4f55\u3060": 4975,
  "\u306e\u8a2d\u5b9a": 4976,
  "ium": 4977,
  "\u2581Set": 4978,
  "\u2581indicate": 4979,
  "\u2581religions": 4980,
  "\u2581\u30e4": 4981,
  "\u30ea\u30b9": 4982,
  "\u2581committed": 4983,
  "\u2581discuss": 4984,
  "\u2581innocent": 4985,
  "\u2581\u611b\u60c5": 4986,
  "\u751f\u304d": 4987,
  "\u2581blame": 4988,
  "\u2581match": 4989,
  "\u2581pointed": 4990,
  "\u2581river": 4991,
  "\u2581movement": 4992,
  "\u2581\u5efa\u3066": 4993,
  "\u308f\u308c\u304c": 4994,
  "\u2581server": 4995,
  "\u2581applied": 4996,
  "\u2581\u8a2d\u3051": 4997,
  "\u6b4c": 4998,
  "\u7523": 4999,
  "\u2581Note": 5000,
  "\u2581fair": 5001,
  "\u2581\u591a\u5206": 5002,
  "\u2581carrying": 5003,
  "\u601d\u3044": 5004,
  "\u2581\u3042\u3093\u305f": 5005,
  "\u2581\u305f\u3068\u3048\u3070": 5006,
  "\u2581Miss": 5007,
  "\u2581damn": 5008,
  "\u2581improve": 5009,
  "\u2581\u547d\u3058": 5010,
  "\u2581\u6b21\u306e": 5011,
  "\u8ab0": 5012,
  "\u3066\u305f": 5013,
  "\u2581squared": 5014,
  "\u2581release": 5015,
  "\u89d2": 5016,
  "\u2581safety": 5017,
  "\u258114:": 5018,
  "\u2581Similarly": 5019,
  "\u2581Spanish": 5020,
  "\u2581consequences": 5021,
  "\u2581increasing": 5022,
  "\u2581\u6050\u3089\u304f": 5023,
  "\u7406\u89e3": 5024,
  "\u3055\u308c\u3066": 5025,
  "\u6765\u305f": 5026,
  "\u7814\u7a76": 5027,
  "\u2581summer": 5028,
  "\u6211\u3005": 5029,
  "\u2581\u6b66\u5668": 5030,
  "\u306e\u6570": 5031,
  "der": 5032,
  "\u2581shouldn": 5033,
  "\u2581visited": 5034,
  "\u2581\u5931\u3063": 5035,
  "\u9650\u308a": 5036,
  "\u2581majority": 5037,
  "\u2581\u30af": 5038,
  "\u30d5\u30a3": 5039,
  "\u6307": 5040,
  "\u2581culture": 5041,
  "\u2581dinner": 5042,
  "\u2581\u4f5c\u8005": 5043,
  "\u2581removed": 5044,
  "\u306f\u307e\u3060": 5045,
  "\u5f15\u304d": 5046,
  "\u2581writes": 5047,
  "\u2581drawn": 5048,
  "\u2581\u660e\u78ba": 5049,
  "\u2581\u8aa0\u5b9f": 5050,
  "\u2581Enter": 5051,
  "\u2581sweet": 5052,
  "\u2581\u305d\u3046\u304b": 5053,
  "\u2581\u6771": 5054,
  "\u2581\u53ce\u3081": 5055,
  "\u2581YOU": 5056,
  "\u2581appearance": 5057,
  "\u2581\u79e9\u5e8f": 5058,
  "\u610f": 5059,
  "\u2581forgiveness": 5060,
  "\u4e00\u3064": 5061,
  "\u2581Agent": 5062,
  "\u3092\u9078\u629e": 5063,
  "\u984d": 5064,
  "\u2581credit": 5065,
  "\u2581forest": 5066,
  "\u2581\u96c6\u3081": 5067,
  "\u2581\u5fe0\u8aa0": 5068,
  "\u2581killer": 5069,
  "\u2581\u30b3\u30ed\u30b5\u30a4": 5070,
  "\u258146": 5071,
  "\u2581Um": 5072,
  "\u2581\u5358\u306a\u308b": 5073,
  "\u2581driving": 5074,
  "\u2581mode": 5075,
  "\u2581understood": 5076,
  "\u2581version": 5077,
  "\u2581\u96e8": 5078,
  "\u2581released": 5079,
  "\u2581schools": 5080,
  "\u5275\u9020": 5081,
  "\u8005\u3067\u3042\u308b": 5082,
  "\u2581convinced": 5083,
  "\u2581sad": 5084,
  "\u3082\u306e\u306f": 5085,
  "\u2581presented": 5086,
  "\u2581\u4ef6": 5087,
  "\u2581\u52b4\u50cd": 5088,
  "\u3042\u306a\u305f\u304c\u305f\u3092": 5089,
  "\u307f\u305f\u3044\u306a": 5090,
  "ally": 5091,
  "\u2581Le": 5092,
  "\u2581hidden": 5093,
  "\u2581\u4f55\u3067": 5094,
  "\u2581courage": 5095,
  "\u2581\u307e\u308b\u3067": 5096,
  "\u635c\u67fb\u5b98": 5097,
  "\u2581Judah": 5098,
  "\u2581card": 5099,
  "\u2581\u6d2a\u6c34": 5100,
  "\u304b\u3089\u3060": 5101,
  "\u3053\u308c\u304c": 5102,
  "\u7406": 5103,
  "\u2581generally": 5104,
  "\u2581proud": 5105,
  "\u2581greatly": 5106,
  "\u2581\u308f": 5107,
  "\u2581\u3084\u306f\u308a": 5108,
  "\u2581Mexico": 5109,
  "\u2581mere": 5110,
  "\u2581\u50cf": 5111,
  "\u2581\u76f8\u5f53": 5112,
  "\u3053\u3068\u3060": 5113,
  "\u2581finish": 5114,
  "\u2581\u4e09\u3064": 5115,
  "\u2581variety": 5116,
  "\u2581\u7d9a\u304f": 5117,
  "\u3058\u3083\u306a\u3044\u304b": 5118,
  "\u30e2\u30f3": 5119,
  "\u5c45": 5120,
  "\u7d04": 5121,
  "\u2581\u30b5\u30e9": 5122,
  "\u2581\u4f4d\u7f6e": 5123,
  "\u771f\u5b9f": 5124,
  "\u2581stage": 5125,
  "\u2581\u7ba1\u7406": 5126,
  "ni": 5127,
  "ron": 5128,
  "\u2581chief": 5129,
  "\u2581bird": 5130,
  "\u61f2\u7f70": 5131,
  "\u2581\u30ed\u30b7\u30a2": 5132,
  "\u2581\u5e1d\u56fd": 5133,
  "\u3057\u306a\u304b\u3063\u305f": 5134,
  "\u30e1\u30c3\u30bb\u30fc\u30b8": 5135,
  "\u591a\u304f": 5136,
  "\u2581Mrs": 5137,
  "my": 5138,
  "\u2581Someone": 5139,
  "\u2581elements": 5140,
  "\u2581\u30e2": 5141,
  "\u306e\u70ba\u306b": 5142,
  "\u8ab0\u3082": 5143,
  "\u2581\u3054\u3068": 5144,
  "\u2581San": 5145,
  "\u7a2e": 5146,
  "\u898b\u3066": 5147,
  "\u2581Bethel": 5148,
  "\u2581surprised": 5149,
  "\u2581flight": 5150,
  "\u307f\u3093\u306a": 5151,
  "\u2581viewed": 5152,
  "\u2581scared": 5153,
  "\u2581screen": 5154,
  "\u2581track": 5155,
  "\u2581prayed": 5156,
  "\u3068\u3066\u3082": 5157,
  "tic": 5158,
  "\u6620\u753b": 5159,
  "\u2581\u30ed\u30f3\u30c9\u30f3": 5160,
  "\u2581reflect": 5161,
  "\u2581smoking": 5162,
  "\u2581\u9069\u7528": 5163,
  "\u7d44\u7e54": 5164,
  "ca": 5165,
  "\u25819,10": 5166,
  "\u2581tiny": 5167,
  "\u2581\u30b3\u30f3\u30d4\u30e5\u30fc\u30bf\u30fc": 5168,
  "\u2581\u30d4": 5169,
  "\u2581onto": 5170,
  "\u2581September": 5171,
  "\u2581comments": 5172,
  "\u2581association": 5173,
  "\u2581nobody": 5174,
  "\u5974": 5175,
  "\u2581\u8853": 5176,
  "\u308f\u3051": 5177,
  "\u2581arrangement": 5178,
  "\u2581divided": 5179,
  "\u305a\u3063\u3068": 5180,
  "\u5165": 5181,
  "\u3079\u304d": 5182,
  "\u2581\u30b8\u30e3": 5183,
  "\u8cea\u554f": 5184,
  "\u2581\u58eb": 5185,
  "\u2581\u5ff5": 5186,
  "\u2581\u884c": 5187,
  "\u2581reasonable": 5188,
  "\u2581stone": 5189,
  "\u2581\u30c0": 5190,
  "\u30e1\u30fc\u30eb": 5191,
  "\u2581\u533b": 5192,
  "\u2581\u30d2": 5193,
  "\u2581\u660e\u65e5": 5194,
  "\u2581\u697d\u3057\u3044": 5195,
  "\u59bb": 5196,
  ":\u201c": 5197,
  "\u2581\u6709\u540d": 5198,
  "\u2581\u898b\u8fbc\u307f": 5199,
  "\u304d\u305f": 5200,
  "80": 5201,
  "\u2581Brazil": 5202,
  "\u2581communication": 5203,
  "\u2581grateful": 5204,
  "\u2581keeps": 5205,
  "\u2581plans": 5206,
  "\u2581\u3064\u304d": 5207,
  "\u3057\u305f\u308a": 5208,
  "\u2581Brother": 5209,
  "\u2581discussion": 5210,
  "\u2581opposition": 5211,
  "\u76f4": 5212,
  "\u2581\u30e8\u30bb\u30d5": 5213,
  "\u4e2d\u306e": 5214,
  "\u2581relatives": 5215,
  "\u4f5c": 5216,
  "\u02b9": 5217,
  "\u753b\u50cf": 5218,
  "\u3059\u308b\u304b": 5219,
  "\u30c1\u30fc\u30e0": 5220,
  "\u2581map": 5221,
  "\u2581shared": 5222,
  "\u2581balance": 5223,
  "\u6226\u4e89": 5224,
  "\u2581allows": 5225,
  "\u2581secure": 5226,
  "espite": 5227,
  "\u3057\u3066\u3044\u306a\u3044": 5228,
  "\u2581target": 5229,
  "\u2581\u79c1\u3092": 5230,
  "com": 5231,
  "\u2581\u8a00\u53ca": 5232,
  "\u7d19": 5233,
  "\u258139": 5234,
  "\u2581co": 5235,
  "\u79c1\u306b": 5236,
  "\u2581European": 5237,
  "\u2581\u5fcd\u8010": 5238,
  "\u898b\u305f": 5239,
  "\u2581October": 5240,
  "\u2581belongs": 5241,
  "\u2581\u30a6": 5242,
  "\u2581arm": 5243,
  "\u2581types": 5244,
  "\u2581\u30cb\u30e5\u30fc\u30b9": 5245,
  "\u2581\u6709\u76ca": 5246,
  "\u2581dry": 5247,
  "\u3042\u308a\u307e\u3059": 5248,
  "\u5b9f\u884c": 5249,
  "\u2581faced": 5250,
  "\u2581luck": 5251,
  "\u2581\u30c7\u30fc\u30bf": 5252,
  "\u5909\u6570": 5253,
  "Applause": 5254,
  "\u25811990": 5255,
  "\u2581Check": 5256,
  "\u2581US": 5257,
  "\u2581exact": 5258,
  "\u2581whoever": 5259,
  "\u2581\u500b": 5260,
  "\u2581\u898b\u3066": 5261,
  "\u2581\u9001\u3063": 5262,
  "\u53f3": 5263,
  "16": 5264,
  "\u2581flock": 5265,
  "\u2581possibly": 5266,
  "\u2581\u5352\u696d": 5267,
  "\u2581\u8a18\u61b6": 5268,
  "\u72b6\u6cc1": 5269,
  "\u77e5\u3063\u3066\u3044\u308b": 5270,
  "Q": 5271,
  "\u306f\u3044": 5272,
  "\u2581lesson": 5273,
  "\u2581\u5b9f\u73fe": 5274,
  "\u2581accounts": 5275,
  "\u2581\u8a95\u751f": 5276,
  "\u4e8b\u4ef6": 5277,
  "\u2581January": 5278,
  "\u2581weak": 5279,
  "\u2581\u4e3b\u6a29": 5280,
  "\u4fe1\u8005": 5281,
  "\u2581familiar": 5282,
  "\u2581\u5bc4\u4ed8": 5283,
  "\u516c": 5284,
  "\u2581URL": 5285,
  "\u4e0a\u3067": 5286,
  "\u2581Nice": 5287,
  "\u8aac\u660e": 5288,
  "\u2581\u5730\u9707": 5289,
  "\u2581\u598a\u5a20": 5290,
  "\u2581\u99ac": 5291,
  "\u2581pro": 5292,
  "\u2581\u6d41\u308c": 5293,
  "\u5ea7": 5294,
  "\u2581literally": 5295,
  "\u2581reference": 5296,
  "\u2581\u6c38\u4e45": 5297,
  "\u2581sake": 5298,
  "\u2581\u6025": 5299,
  "old": 5300,
  "\u2581Peace": 5301,
  "\u81ea": 5302,
  "\u2581closed": 5303,
  "\u2581database": 5304,
  "ED": 5305,
  "When": 5306,
  "\u304c\u5fc5\u8981\u3060": 5307,
  "\u592b": 5308,
  "\u2581calm": 5309,
  "\u2581causing": 5310,
  "\u2581dialogue": 5311,
  "\u2581\u304a\u304b\u3052": 5312,
  "\u2581\u60a3\u96e3": 5313,
  "\u2581\u3068\u308a\u308f\u3051": 5314,
  "\u258114,": 5315,
  "\u2581angry": 5316,
  "\u2581deliver": 5317,
  "\u2581\u57fa\u3065\u304f": 5318,
  "\u2581aside": 5319,
  "\u606f\u5b50": 5320,
  "\u2581perform": 5321,
  "\u2581\u5224\u65ad": 5322,
  "\u3093\u3060\u308d": 5323,
  "\u2581helpful": 5324,
  "\u25813,4": 5325,
  "\u2581items": 5326,
  "\u2581treated": 5327,
  "\u3053\u3068\u304c\u3067\u304d\u308b": 5328,
  "\u5e97": 5329,
  "\u2581weren": 5330,
  "eg": 5331,
  "\u2581soldiers": 5332,
  "\u5f7c\u5973\u306e": 5333,
  "\u898b\u308b": 5334,
  "AR": 5335,
  "\u2581\u30e1\u30ad\u30b7\u30b3": 5336,
  "\u2581\u4f55\u3089\u304b": 5337,
  "\u30fc\u30f3": 5338,
  "\u30c1\u30e3": 5339,
  "\u2581shape": 5340,
  "\u2581basically": 5341,
  "\u2581\u914d\u5076": 5342,
  "\u3059\u304e": 5343,
  "\u2581Truth": 5344,
  "\u8a00\u3063\u3066": 5345,
  "\u2581\u3084\u3042": 5346,
  "\u2581\u8fd1\u3065\u3044": 5347,
  "\u258118.": 5348,
  "\u2581actual": 5349,
  "\u2581mark": 5350,
  "\u305f\u3060": 5351,
  "\u3088\u3046\u3060": 5352,
  "\u2581\u5f79": 5353,
  "\u2581\u3072\u3069\u304f": 5354,
  "\u30a2\u30e1\u30ea\u30ab": 5355,
  "\u6a29": 5356,
  "\u30db": 5357,
  "\u63a5\u7d9a": 5358,
  "ang": 5359,
  "\u306e\u8a71": 5360,
  "\u2581leads": 5361,
  "\u2581\u8f09\u305b": 5362,
  "\u2581partner": 5363,
  "\u2581worst": 5364,
  "\u2581\u50cd\u304b": 5365,
  "\u30b5\u30fc": 5366,
  "\u4ef2\u9593": 5367,
  "\u6587\u5b57\u5217": 5368,
  "\u74b0\u5883": 5369,
  "\u2581humble": 5370,
  "\u2581imitate": 5371,
  "\u30d3\u30eb": 5372,
  "\u2581film": 5373,
  "\u2581played": 5374,
  "\u2581jobs": 5375,
  "\u8056": 5376,
  "\u3042\u306a\u305f\u3092": 5377,
  "\u6751": 5378,
  "\u2581\u8ab0\u304b\u304c": 5379,
  "70": 5380,
  "that": 5381,
  "izing": 5382,
  "\u2581\u7d76\u5bfe": 5383,
  "\u306d\u3048": 5384,
  "\u2581camera": 5385,
  "\u2581Michael": 5386,
  "\u2581\u81ea\u6bba": 5387,
  "\u258148": 5388,
  "\u2581\u6211\u3005\u306e": 5389,
  "\u2581require": 5390,
  "\u884c\u3063\u305f": 5391,
  "\u2581\u52d5\u6a5f": 5392,
  "\u2581\u5e7c\u3044": 5393,
  "\u2581\u63cf\u5199": 5394,
  "\u2581translation": 5395,
  "\u2581\u53f0": 5396,
  "\u2581\u5927\u7d71\u9818": 5397,
  "\u2581deny": 5398,
  "\u2581\u4f1d\u7d71": 5399,
  "\u2581\u5916\u56fd": 5400,
  "\u5168\u90e8": 5401,
  "\u2581career": 5402,
  "\u2581smaller": 5403,
  "\u3092\u5f97\u308b": 5404,
  "\u2581\u6c17\u5206": 5405,
  "\u9ce5": 5406,
  "\u2581Center": 5407,
  "\u2581tired": 5408,
  "\u547d\u4ee4": 5409,
  "\u2581meat": 5410,
  "end": 5411,
  "\u2581\u30e1\u30c3\u30bb\u30fc\u30b8": 5412,
  "\u6700\u521d\u306e": 5413,
  "\u2581healthy": 5414,
  "\u2581quit": 5415,
  "\u2581reveal": 5416,
  "\u2581\u751f\u6daf": 5417,
  "\u3059\u308b\u306e\u306f": 5418,
  "pe": 5419,
  "\u3053\u3068\u306f\u306a\u3044": 5420,
  "\u306f\u3042\u308b": 5421,
  "\u2581\u985e": 5422,
  "\u2581\u3054\u3081\u3093\u306a\u3055\u3044": 5423,
  "\u2581\u4f5c\u696d": 5424,
  "\u6280\u8853": 5425,
  "\u8a18\u9332": 5426,
  "\u25814,000": 5427,
  "\u2581walked": 5428,
  "\u2581\u5c0b\u306d\u308b": 5429,
  "\u9283": 5430,
  "\u2581\u60aa\u970a": 5431,
  "\u3064\u307e\u308a": 5432,
  "\u653e": 5433,
  "\u2581\u30c8": 5434,
  "\u2581\u5211\u52d9": 5435,
  "\u2581products": 5436,
  "\u2581\u4e0d\u8db3": 5437,
  "\u2581\u9023\u7d61": 5438,
  "\u9b42": 5439,
  "\u3066\u306f\u306a\u3089\u306a\u3044": 5440,
  "\u2581missionaries": 5441,
  "\u307e\u308b": 5442,
  "\u4f55\u3092": 5443,
  "\u2581Italy": 5444,
  "\u771f": 5445,
  "\u2581\u5b50\u5b6b": 5446,
  "\u2581Master": 5447,
  "\u2581trained": 5448,
  "\u2581\u3059\u3054\u3044": 5449,
  "\u2581\u50d5\u306e": 5450,
  "\u2581Both": 5451,
  "\u2581\u305b\u3088": 5452,
  "\u5165\u308a": 5453,
  "\u2581Jo": 5454,
  "\u2581network": 5455,
  "\u2581\u3008": 5456,
  "\u2581\u8d64": 5457,
  "\u65b9\u304c": 5458,
  "\u7b2c": 5459,
  "\u2581records": 5460,
  "\u2581\u7570\u306a\u308b": 5461,
  "\u308f\u304b\u308b": 5462,
  "\u2581determine": 5463,
  "\u2581remained": 5464,
  "\u2581\u4f34\u3046": 5465,
  "\u2581\u5168\u3066": 5466,
  "\u3093\u3060\u3051\u3069": 5467,
  "\u30a2\u30fc": 5468,
  "\u2581estimated": 5469,
  "\u2581\u304b\u304b\u308b": 5470,
  "\u968a": 5471,
  "\u2581Samuel": 5472,
  "\u2581prepare": 5473,
  "\u2581waters": 5474,
  "\u2581\u767d": 5475,
  "\u2581\u77e5\u3089\u305b": 5476,
  "\u8ca0": 5477,
  "\u2581\u5ba2": 5478,
  "\u2581attended": 5479,
  "\u2581magazines": 5480,
  "\u2581degrees": 5481,
  "\u2581milk": 5482,
  "\u3067\u304d\u305f": 5483,
  "\u258111,": 5484,
  "\u2581construction": 5485,
  "\u2581\u4e16\u4ee3": 5486,
  "\u3075": 5487,
  "\u25813,000": 5488,
  "\u2581consideration": 5489,
  "\u2581\u661f": 5490,
  "\u30aa\u30d7\u30b7\u30e7\u30f3": 5491,
  "\u4ed8\u304d": 5492,
  "\u2581changing": 5493,
  "\u2581\u9060\u304f": 5494,
  "\u5e74\u306b": 5495,
  "\u6d3b\u52d5": 5496,
  "\u2581formed": 5497,
  "\u5c40": 5498,
  "\u2581sword": 5499,
  "\u2581\u6587\u5316": 5500,
  "\u2581\u9858\u3063": 5501,
  "\u306f\u8a00\u3063\u305f": 5502,
  "\u2581\u7dda": 5503,
  "\u2581dust": 5504,
  "\u2581\u4eba\u7a2e": 5505,
  "\u2581\u4f4f\u6c11": 5506,
  "\u2581\u53ca\u307c\u3057": 5507,
  "\u2581\u5f7c\u3092": 5508,
  "\u2581younger": 5509,
  "\u2581\u306a\u304a": 5510,
  "\u2581soil": 5511,
  "\u2581bitch": 5512,
  "\u2581\u304a\u4e0e\u3048": 5513,
  "\u2581\u30b7\u30b9\u30c6\u30e0": 5514,
  "\u2581\u62bc\u3057": 5515,
  "\u307e\u3063": 5516,
  "\u30e2\u30fc\u30c9": 5517,
  "\u4fe1": 5518,
  "\u2581International": 5519,
  "\u2581attempt": 5520,
  "\u2581includes": 5521,
  "\u2581south": 5522,
  "\u3060\u3068\u601d\u3046": 5523,
  "\u2581loves": 5524,
  "\u2581unable": 5525,
  "\u2581walls": 5526,
  "18": 5527,
  "ler": 5528,
  "\u2581\u63a2\u3057": 5529,
  "\u2581\u671b\u3093": 5530,
  "\u884c\u52d5": 5531,
  "\u2581Britain": 5532,
  "\u96e8": 5533,
  "you": 5534,
  "\u2581evolution": 5535,
  "\u5074": 5536,
  "\u2581\u8a3c\u3057": 5537,
  "\u304c\u3042\u3063\u3066": 5538,
  "\u306b\u304a\u3051\u308b": 5539,
  "ran": 5540,
  "\u2581\u305f\u304f": 5541,
  "vo": 5542,
  "\u2581\u7b56": 5543,
  "\u2581\u8a9e\u308b": 5544,
  "\u2581Jane": 5545,
  "\u2581\u53ca\u307c\u3059": 5546,
  "\u306e\u4e2d": 5547,
  "\u5a18": 5548,
  "\u2581online": 5549,
  "\u3009": 5550,
  "\u3053\u3068\u3082": 5551,
  "\u2581Soviet": 5552,
  "\u30c3\u30d7": 5553,
  "\u2581eternal": 5554,
  "\u2581\u7948\u308b": 5555,
  "\u30b8\u30e5": 5556,
  "\u2581meal": 5557,
  "\u2581\u30b9\u30c8\u30ec\u30b9": 5558,
  "\u7a0b": 5559,
  "\u2581California": 5560,
  "\u6559\u3048": 5561,
  "\u2581joined": 5562,
  "\u2581properly": 5563,
  "\u2581\u4f5c\u308a": 5564,
  "\u305f\u306e": 5565,
  "\u3092\u898b\u3064\u3051\u305f": 5566,
  "\u258141": 5567,
  "\u2581Page": 5568,
  "\u3092\u9078\u629e\u3057\u307e\u3059": 5569,
  "\u30a2\u30eb": 5570,
  "\u2581Save": 5571,
  "\u2581dedication": 5572,
  "\u2581apparently": 5573,
  "\u2581cars": 5574,
  "\u2581\u6b21\u3044": 5575,
  "mer": 5576,
  "\u2581chose": 5577,
  "\u2581\u5b9f\u306f": 5578,
  "\u2581board": 5579,
  "\u2581marry": 5580,
  "\u2581recognized": 5581,
  "\u2581AIDS": 5582,
  "\u2581faces": 5583,
  "\u2581resources": 5584,
  "\u3092\u884c\u3046": 5585,
  "\u8a00\u3063\u3066\u3084\u308b\u304c\u3044\u3044": 5586,
  "\u2581\u59d4\u54e1": 5587,
  "\u2581\u6094\u3044\u6539\u3081": 5588,
  "\u58f2": 5589,
  "\u2581opposite": 5590,
  "\u304b\u304b\u308b": 5591,
  "\u2581funny": 5592,
  "\u2581\u8d77\u304d\u308b": 5593,
  "\u81ea\u7531": 5594,
  "\u2581\u53d7\u3051\u5165\u308c\u308b": 5595,
  "\u2581\u7387": 5596,
  "\u2581\u8a98\u60d1": 5597,
  "\u8a00\u8a9e": 5598,
  "\u2581150": 5599,
  "\u2581\u7533\u547d\u8a18": 5600,
  "\u30ec\u30d9\u30eb": 5601,
  "\u2581otherwise": 5602,
  "\u3059\u308b\u3053\u3068": 5603,
  "\u30bb\u30f3": 5604,
  "\u65e9\u304f": 5605,
  "\u25811980": 5606,
  "\u2581\u8d85": 5607,
  "\u2014": 5608,
  "\u5175": 5609,
  "\u2581\u306e\u307f": 5610,
  "\u2581\u9280\u884c": 5611,
  "\u258116,": 5612,
  "\u306f\u3053\u306e": 5613,
  "\u2581wake": 5614,
  "\u2581\u55ab\u7159": 5615,
  "\u8a08\u7b97": 5616,
  "\u5f37": 5617,
  "\u2581admit": 5618,
  "\u2581\u3054\u308d": 5619,
  "\u2581\u77e5\u3063\u3066\u308b": 5620,
  "\u258137:": 5621,
  "\u5fc5\u8981\u304c\u3042\u308a\u307e\u3059": 5622,
  "\u2581significant": 5623,
  "\u80fd\u529b": 5624,
  "\u2581\u6642\u3005": 5625,
  "\u534a": 5626,
  "\u7d20\u6674\u3089\u3057\u3044": 5627,
  "\u2581\u5e97": 5628,
  "ner": 5629,
  "\u2581cope": 5630,
  "\u3088\u3044": 5631,
  "\u64cd\u4f5c": 5632,
  "\u2581diseases": 5633,
  "\u2581print": 5634,
  "\u2581clergy": 5635,
  "\u2581ears": 5636,
  "ists": 5637,
  "\u2581\u30da": 5638,
  "\u2581Messenger": 5639,
  "\u2581\u305f\u3044\u3078\u3093": 5640,
  "\u2581Health": 5641,
  "\u2581ends": 5642,
  "\u2581streets": 5643,
  "\u30af\u30b9": 5644,
  "\u2581college": 5645,
  "\u306b\u3059\u308b": 5646,
  "\u5922": 5647,
  "\u7aef": 5648,
  "\u2581\u30ec\u30d3": 5649,
  "\u2581\u4eba\u7269": 5650,
  "\u2581\u65cf": 5651,
  "\u306a\u3093\u3067\u3059": 5652,
  "\u2581Blurb": 5653,
  "\u2581\u59cb\u3081\u308b": 5654,
  "\u2581Black": 5655,
  "\u2581\u8907\u96d1": 5656,
  "\u305f\u304f": 5657,
  "\u306a\u3055\u308c\u308b": 5658,
  "\u3092\u6bba\u3057\u305f": 5659,
  "\u201d": 5660,
  "\u2581\u50b7": 5661,
  "\u2581\u307b\u3093\u306e": 5662,
  "\u5730\u57df": 5663,
  "\u6cbb": 5664,
  "\u2581fresh": 5665,
  "\u2581neighbors": 5666,
  "\u2581probability": 5667,
  "\u5104": 5668,
  "\u2581noticed": 5669,
  "\u30d1\u30b9": 5670,
  "\u30d7\u30ed\u30b8\u30a7\u30af\u30c8": 5671,
  "\u2581star": 5672,
  "\u2581compared": 5673,
  "\u2581contain": 5674,
  "\u2581overcome": 5675,
  "\u2581\u6cb9": 5676,
  "\u2581fat": 5677,
  "\u2581\u88c5\u7f6e": 5678,
  "\u2581Being": 5679,
  "\u2581\u98df\u7ce7": 5680,
  "\u8a00\u3044": 5681,
  "\u2581Mo": 5682,
  "\u51fa\u3055": 5683,
  "\u2581um": 5684,
  "\u2581w": 5685,
  "\u2581Asia": 5686,
  "\u52d9": 5687,
  "\u2581blow": 5688,
  "\u2581essential": 5689,
  "\u2581\u771f\u5263": 5690,
  "\u2581\u8cc7\u683c": 5691,
  "\u2581commanded": 5692,
  "\u2581\u4e00\u5c64": 5693,
  "\u5473": 5694,
  "\u3059\u308b\u3053\u3068\u304c\u3067\u304d\u307e\u3059": 5695,
  "\u2581_": 5696,
  "\u3053\u3068\u3067": 5697,
  "\u2581Western": 5698,
  "\u2581anti": 5699,
  "\u2581favorite": 5700,
  "\u2581\u3069\u3046\u3057\u305f": 5701,
  "\u2581\u4e86\u89e3": 5702,
  "\u2581\u904e\u304e": 5703,
  "\u2581\u3082\u3063\u3068\u3082": 5704,
  "\u2581\u4ed8\u3051": 5705,
  "\u3068\u3044\u3046\u3053\u3068": 5706,
  "\u2581\u6bba\u3057": 5707,
  "\u2581\u79c1\u9054\u306f": 5708,
  "\u2581boss": 5709,
  "\u2581thinks": 5710,
  "\u30ab\u30f3": 5711,
  "For": 5712,
  "\u2581\u5168\u5730": 5713,
  "\u2581\u9577\u304f": 5714,
  "\u30e0\u30fc\u30b5\u30fc": 5715,
  "\u500b": 5716,
  "\u540c": 5717,
  "\u2581\u3076\u3069\u3046": 5718,
  "\u2581Ra": 5719,
  "\u258120.": 5720,
  "\u2581encouragement": 5721,
  "\u2581wedding": 5722,
  "\u58eb": 5723,
  "\u2581agreed": 5724,
  "\u78ba\u8a8d": 5725,
  "\u2581fourth": 5726,
  "\u3044\u307e\u305b\u3093": 5727,
  "\u3092\u6301\u3063\u3066\u3044\u308b": 5728,
  "ga": 5729,
  "\u304f\u308b": 5730,
  "\u2581\u4ee5\u4e0b": 5731,
  "\u2581gathered": 5732,
  "\u2581starts": 5733,
  "\u2581link": 5734,
  "que": 5735,
  "\u258112,": 5736,
  "\u2581definitely": 5737,
  "\u2581officials": 5738,
  "\u2581\u6a2a": 5739,
  "\u2581worried": 5740,
  "\u2581\u4e0d\u601d\u8b70": 5741,
  "\u9ad8\u3044": 5742,
  "\u306c": 5743,
  "\u2581Ezekiel": 5744,
  "\u2581degree": 5745,
  "\u2581poverty": 5746,
  "\u2581\u305d\u3046\u306d": 5747,
  "\u2581examine": 5748,
  "\u306f\u3069\u3046": 5749,
  "\u4eba\u7269": 5750,
  "\u6761\u4ef6": 5751,
  "but": 5752,
  "\u2581bought": 5753,
  "\u2581\u30d9\u30c6\u30eb": 5754,
  "\u2581opinion": 5755,
  "\u2581resurrected": 5756,
  "\u2581attending": 5757,
  "\u2581painful": 5758,
  "\u2581\u7e70\u308a\u8fd4\u3057": 5759,
  "\u7537\u6027": 5760,
  "\u2581\u8a00\u3063\u3066\u3084\u308b\u304c\u3044\u3044": 5761,
  "\u2581mail": 5762,
  "\u2581inhabitants": 5763,
  "\u2581impressed": 5764,
  "\u2581involves": 5765,
  "\u2581weather": 5766,
  "\u2581\u4f5c\u3063": 5767,
  "\u7bb1": 5768,
  "\u2581\u30c9\u30a2": 5769,
  "\u793e": 5770,
  "min": 5771,
  "\u2581thy": 5772,
  "\u3014": 5773,
  "\u8a00": 5774,
  "\u2581\u30c6\u30b5\u30ed\u30cb\u30b1": 5775,
  "\u307e\u3059\u304b": 5776,
  "\u5b66\u6821": 5777,
  "\u5b98": 5778,
  "\u2581\u6a19\u6e96": 5779,
  "\u304c\u3044\u3044": 5780,
  "\u521d\u3081\u3066": 5781,
  "\u2581\u542b\u3080": 5782,
  "\u3057\u3066\u304d\u305f": 5783,
  "\u5f7c\u304c": 5784,
  "\u2581stood": 5785,
  "\u2581\u3060\u308a": 5786,
  "\u2581\u4eba\u683c": 5787,
  "\u2581\u5f15\u7528": 5788,
  "hi": 5789,
  "\u2581HTML": 5790,
  "\u2581losing": 5791,
  "\u2581\u3068\u306b\u304b\u304f": 5792,
  "\u3001\"": 5793,
  "\u3055\u3048": 5794,
  "\u2581Ni": 5795,
  "\u2581\u898b\u305b": 5796,
  "\u2581\u6b32\u671b": 5797,
  "\u30a8\u30f3": 5798,
  "RE": 5799,
  "\u2581imperfect": 5800,
  "\u3057\u304b\u306a\u3044": 5801,
  "\u30b8\u30f3": 5802,
  "\u2581dress": 5803,
  "\u306b\u884c\u3063\u3066": 5804,
  "\u8b66\u544a": 5805,
  "\u2581obviously": 5806,
  "\u2581paying": 5807,
  "\u3066\u3044\u306a\u3044": 5808,
  "\u30c3\u30af\u30b9": 5809,
  "\u5206\u304b\u308b": 5810,
  "\u9055\u3044": 5811,
  "\u2581audience": 5812,
  "\u2581\u958b\u767a": 5813,
  "ke": 5814,
  "\u2581\u6ce2": 5815,
  "\u5370": 5816,
  "\u2581critical": 5817,
  "\u2581\u30c7\u30a3": 5818,
  "\u4ee5\u4e0a": 5819,
  "\u8fba": 5820,
  "\u2581\u4e0a\u3052": 5821,
  "\u541b\u306e": 5822,
  "\u76ee\u306b": 5823,
  "\u2581\u3053\u308c\u304b\u3089": 5824,
  "\u2581\u679c\u305f\u3059": 5825,
  "\u2581atmosphere": 5826,
  "\u2581describe": 5827,
  "\u2581\u5076\u50cf": 5828,
  "\u2581\u63d0\u6848": 5829,
  "\u2581\u6ce8\u610f\u6df1\u304f": 5830,
  "\u2581\u304a\u3088\u305d": 5831,
  "\u2581\u4f1a\u8a71": 5832,
  "\u2581indicates": 5833,
  "\u2581Hell": 5834,
  "\u2581truck": 5835,
  "\u2581\u59cb\u307e\u3063": 5836,
  "\u2581souls": 5837,
  "\u2581\u6c17\u3065\u304d": 5838,
  "\u2581\u6d99": 5839,
  "\u306f\u3069\u3053": 5840,
  "\u2581cast": 5841,
  "IN": 5842,
  "lu": 5843,
  "\u2581\u571f": 5844,
  "\u2581\u9001\u308a": 5845,
  "\u2581sincere": 5846,
  "\u2581weapon": 5847,
  "\u2581demand": 5848,
  "org": 5849,
  "\u2581\u30a2\u30b8\u30a2": 5850,
  "\u6b7b\u3093\u3060": 5851,
  "\u2581Frank": 5852,
  "\u2581\u6fc0\u3057\u3044": 5853,
  "\u5e74\u306e": 5854,
  "\u8005\u306b\u306f": 5855,
  "\u2581offering": 5856,
  "ass": 5857,
  "\u2581Call": 5858,
  "\u2581organized": 5859,
  "\u3092\u4e0e\u3048": 5860,
  "\u2581magic": 5861,
  "\u305f\u308a": 5862,
  "\u30c6\u30a3\u30fc": 5863,
  "\u6210": 5864,
  "\u2581\u89b3\u5bdf": 5865,
  "\u5ddd": 5866,
  "200": 5867,
  "\u2581affairs": 5868,
  "\u77e5\u8b58": 5869,
  "\u2581\u4ea4\u308f\u308a": 5870,
  "\u305d\u308c\u306b": 5871,
  "\u306a\u306e\u3067": 5872,
  "\u968e": 5873,
  "\u2581\u73fe\u5728\u306e": 5874,
  "\u2581row": 5875,
  "\u2581evident": 5876,
  "\u2581\u305d\u306e\u5f8c": 5877,
  "\u2581granted": 5878,
  "\u3059\u3079\u304d": 5879,
  "\u2581obvious": 5880,
  "\u2581extremely": 5881,
  "\u2581\u5175\u58eb": 5882,
  "\u2581\u7de8\u96c6": 5883,
  "\u2581hungry": 5884,
  "\u2581mission": 5885,
  "\u2581trials": 5886,
  "\u2581\u795e\u7d4c": 5887,
  "\u2581Ex": 5888,
  "\u306a\u3063\u3066": 5889,
  "\u30b9\u30bf": 5890,
  "\u4eba\u3067": 5891,
  "\u2581income": 5892,
  "\u2581apartment": 5893,
  "\u2581bigger": 5894,
  "\u2581section": 5895,
  "\u5909\u5316": 5896,
  "pa": 5897,
  "\u2581rejoice": 5898,
  "\u30cc": 5899,
  "\u4e00\u4eba": 5900,
  "\u2581horse": 5901,
  "\u2581\u308a\u3063\u3071": 5902,
  "\u2581\u6a5f\u80fd": 5903,
  "ities": 5904,
  "\u2581Spain": 5905,
  "\u5371\u967a": 5906,
  "\u6301\u3061": 5907,
  "\u7387": 5908,
  "\u8ad6": 5909,
  "\u2581swear": 5910,
  "\u2581views": 5911,
  "\u2581\u4ee3\u308f\u308a": 5912,
  "\u305d\u3093\u306a": 5913,
  "\u5909": 5914,
  "\u8077": 5915,
  "day": 5916,
  "\u5225": 5917,
  "\u2581additional": 5918,
  "\u2581delivered": 5919,
  "\u2581River": 5920,
  "\u2581glass": 5921,
  "\u2581\u5e78\u3044": 5922,
  "\u2581associate": 5923,
  "\u2581connected": 5924,
  "\u2581\u4f9b\u7d66": 5925,
  "\u30d5\u30a7": 5926,
  "\u2581production": 5927,
  "\u2581receiving": 5928,
  "\u2581wearing": 5929,
  "\u3064\u3082\u308a": 5930,
  "\u2581Ephesians": 5931,
  "\u258175": 5932,
  "\u306e\u9593\u306b": 5933,
  "\u2581super": 5934,
  "\u3057\u3066\u4e0b\u3055\u3044": 5935,
  "\u2581\u4f1a\u8b70": 5936,
  "\u2581industry": 5937,
  "\u2581rejected": 5938,
  "\u2581tool": 5939,
  "\u2581\u5e02\u6c11": 5940,
  "\u3068\u601d\u3063\u305f": 5941,
  "\u2581feature": 5942,
  "\u2581seat": 5943,
  "\u2581\u90e8\u65cf": 5944,
  "\u3068\u3057\u3066\u3082": 5945,
  "\u3088\u3046\u3068": 5946,
  "way": 5947,
  "\u2581\"%1\"": 5948,
  "\u30ea\u30f3\u30af": 5949,
  "\u2581bag": 5950,
  "\u2581throne": 5951,
  "\u2581wood": 5952,
  "con": 5953,
  "\u2581flow": 5954,
  "sh": 5955,
  "\u2581contrary": 5956,
  "\u2581status": 5957,
  "\u2581\u9053\u8def": 5958,
  "\u3066\u4e0b\u3055\u3044": 5959,
  "\u3089\u305b": 5960,
  "\u5730\u7344": 5961,
  "\u66f8\u304d": 5962,
  "\u8868\u793a": 5963,
  "\u2581unit": 5964,
  "\u79d2": 5965,
  "\u2581permission": 5966,
  "\u90e8\u5206": 5967,
  "\u2581\u30d3\u30eb": 5968,
  "\u3092\u6bba\u3059": 5969,
  "\u6e21": 5970,
  "tro": 5971,
  "\u2581Fine": 5972,
  "\u2581relations": 5973,
  "\u2581\u4eca\u65e5\u306f": 5974,
  "\u2581\u6050\u308d\u3057\u3044": 5975,
  "\u2581\u65bd\u8a2d": 5976,
  "\u306e\u4ef2\u9593": 5977,
  "\u82b1": 5978,
  "500": 5979,
  "\u2581\u5206\u91ce": 5980,
  "\u2581\u8857": 5981,
  "\u3092\u3057\u305f": 5982,
  "\u2581clothing": 5983,
  "\u2581weird": 5984,
  "\u2581\u304b\u308c\u306f": 5985,
  "\u2581Way": 5986,
  "\u2581\u53ce\u5bb9": 5987,
  "\u3044\u304f": 5988,
  "\u308b\u304b": 5989,
  "\u5b87\u5b99": 5990,
  "\u2581characters": 5991,
  "000": 5992,
  "ship": 5993,
  "\u2581ring": 5994,
  "\u2581web": 5995,
  "\u5e30": 5996,
  "\u2581ocean": 5997,
  "\u2581Besides": 5998,
  "\u2581citizens": 5999,
  "\u2581column": 6000,
  "\u2581speaks": 6001,
  "\u2581\u7d42\u308f\u308b": 6002,
  "\u307e\u305b\u3093\u3067\u3057\u305f": 6003,
  "\u7136": 6004,
  "\u8fd1": 6005,
  "\u2581Professor": 6006,
  "\u2581\u5264": 6007,
  "\u2581\u767a\u5c55": 6008,
  "\u307f\u305f\u3044\u306b": 6009,
  "\u9006": 6010,
  "\u9996": 6011,
  "\u2581suicide": 6012,
  "\u2581\u307f\u8a00\u8449": 6013,
  "\u3092\u8ffd\u52a0": 6014,
  "ber": 6015,
  "\u2581decades": 6016,
  "\u2581studied": 6017,
  "tion": 6018,
  "\u2581\u30cb": 6019,
  "\u2581\u30d9\u30f3": 6020,
  "\u2581\u4e57\u3063": 6021,
  "\u30b6\u30fc": 6022,
  "\u2581\u306a\u3093": 6023,
  "\u2581\u8a8d\u3081\u308b": 6024,
  "\u3042\u308a\u307e\u305b\u3093": 6025,
  "\"?": 6026,
  "\u2581\u8abf\u6574": 6027,
  "\u2581CD": 6028,
  "\u2581\u73fe\u308f\u308c": 6029,
  "\u30b8\u30e3\u30fc": 6030,
  "\u30d6\u30eb": 6031,
  "\u2581\u62b5\u6297": 6032,
  "\u2581Find": 6033,
  "\u2581spot": 6034,
  "\u2581\u8d08\u308a\u7269": 6035,
  "\u8857": 6036,
  "\u2581\u6804\u990a": 6037,
  "\u2581\u6839\u62e0": 6038,
  "\u76ee\u7684": 6039,
  "\u8ab0\u304c": 6040,
  "\u2581compare": 6041,
  "\u2581slaves": 6042,
  "\u2581\u6c7a\u3081": 6043,
  "\u308c\u306a\u3044": 6044,
  "\u30c9\u30ad\u30e5\u30e1\u30f3\u30c8": 6045,
  "\u985e": 6046,
  "\u2581labor": 6047,
  "\u2581winter": 6048,
  "\u2581surgery": 6049,
  "\u2581\u6b8b\u5ff5": 6050,
  "\u3044\u3064\u3082": 6051,
  "\u304b\u3089\u306d": 6052,
  "\u7bc4\u56f2": 6053,
  "\u258126:": 6054,
  "\u2581\u4e8b\u5178": 6055,
  "\u30bb\u30c3\u30c8": 6056,
  "\u2581\u5468\u56f2": 6057,
  "How": 6058,
  "\u2581overseer": 6059,
  "\u2581territory": 6060,
  "\u2581\u3082\u3089\u3046": 6061,
  "\u6765\u3066": 6062,
  "\u2581bus": 6063,
  "\u2581November": 6064,
  "\u2581delight": 6065,
  "\u2581depression": 6066,
  "\u2581\u984c\u3059\u308b": 6067,
  "\u2581fix": 6068,
  "\u2581movie": 6069,
  "\u2581\u3042\u306a\u305f\u306b": 6070,
  "\u2581\u9078\u3076": 6071,
  "\u3067\u304d": 6072,
  "\u2581conflict": 6073,
  "\u304c\u3042\u308c\u3070": 6074,
  "\u2581displayed": 6075,
  "\u2581suppose": 6076,
  "\u2581\u30a4\u30f3": 6077,
  "\u2581\u5e7e\u767e": 6078,
  "\u2581\u662f\u8a8d": 6079,
  "\u2581\u6c5a\u308c": 6080,
  "\u2581\u6e1b\u5c11": 6081,
  "\u2581\u78ba\u304b\u306b": 6082,
  "\u2581\u4fdd\u3061": 6083,
  "\u2581\u5bfe\u8c61": 6084,
  "\u30c4\u30fc\u30eb": 6085,
  "\u258121.": 6086,
  "\u2581\u30aa\u30fc": 6087,
  "\u2581\u79d8\u5bc6": 6088,
  "\u2581\u8179": 6089,
  "\u308b\u306e": 6090,
  "\u2581\u6050\u308c\u308b": 6091,
  "\u2581\u5f93\u3044": 6092,
  "\u6148\u60b2": 6093,
  "\u2581Shut": 6094,
  "\u30c6\u30b9\u30c8": 6095,
  "\u2581limit": 6096,
  "\u2581skills": 6097,
  "\u2581\u30ed\u30fc": 6098,
  "\u30b2": 6099,
  "\u5553\u5178": 6100,
  "ph": 6101,
  "\u2581demons": 6102,
  "\u2581\u975e\u5e38\u306b": 6103,
  "\u60c5\u5831\u3092": 6104,
  "\u2581absolutely": 6105,
  "\u2581planning": 6106,
  "\u306b\u3064\u3044\u3066\u306f": 6107,
  "\u30ce\u30fc": 6108,
  "\u30d0\u30f3": 6109,
  "\u5165\u529b": 6110,
  "\u77e5": 6111,
  "\u884c\u3063\u3066": 6112,
  "\u2581\u540c\u610f": 6113,
  "\u30d3\u30e5\u30fc": 6114,
  "\u65ad": 6115,
  "\u2581gifts": 6116,
  "\u305a\u306b": 6117,
  "bi": 6118,
  "\u2581\u3064\u306e": 6119,
  "\u2581\u5185\u5bb9": 6120,
  "\u2581\u5230\u6765": 6121,
  "\u3068\u304d\u306b": 6122,
  "\u2581adults": 6123,
  "\u2581\u5143\u6c17": 6124,
  "\u2581burning": 6125,
  "\u2581traditional": 6126,
  "\u2581\u767a\u8868": 6127,
  "\u3082\u306e\u3060": 6128,
  "\u2581Nobody": 6129,
  "\u2581Pharaoh": 6130,
  "\u2581subjects": 6131,
  "\u2581excellent": 6132,
  "\u2581policy": 6133,
  "\u2581\u4e2d\u6bd2": 6134,
  "\u2581Too": 6135,
  "\u2581Wow": 6136,
  "\u2581\u3082\u305f\u3089\u3055": 6137,
  "\u2581\u52d5\u304b\u3055": 6138,
  "\u2581\u5e74\u9f62": 6139,
  "\u2581impact": 6140,
  "\u2581Welcome": 6141,
  "\u2581block": 6142,
  "\u2581claims": 6143,
  "\u2581\u6559\u7406": 6144,
  "\u2581assume": 6145,
  "\u2581quoted": 6146,
  "\u2581\u5909\u3048\u308b": 6147,
  "\u2581\u7740": 6148,
  "\u4ea4": 6149,
  "mp": 6150,
  "\u2581driver": 6151,
  "\u79c1\u305f\u3061\u306f": 6152,
  "\u7a4d": 6153,
  "\u2581Try": 6154,
  "\u2581duty": 6155,
  "\u2581prefer": 6156,
  "\u2581visible": 6157,
  "\u53cb\u4eba": 6158,
  "\u6211\u3005\u306f": 6159,
  "\u2581hardly": 6160,
  "\u2581\u4e21\u65b9": 6161,
  "\u2581\u5ba3\u8a00": 6162,
  "\u4f1a\u793e": 6163,
  "\u6ce2": 6164,
  "\u2581\u6709\u5bb3": 6165,
  "\u2581\u30d5": 6166,
  "\u2581\u8010\u3048": 6167,
  "\u2581\u901a\u5e38": 6168,
  "\u30012": 6169,
  "\u30e1\u30f3": 6170,
  "\u2581identify": 6171,
  "\u2581tears": 6172,
  "\u2581\u3053\u3063\u3061": 6173,
  "\u2581\u6b8b\u3063": 6174,
  "\u2581Work": 6175,
  "\u2581dance": 6176,
  "\u2581\u3069\u3046\u304b": 6177,
  "\u65e5\u306b": 6178,
  "\u30e9\u30a4\u30f3": 6179,
  "\u5207\u308a": 6180,
  "\u2581afternoon": 6181,
  "\u2581\u5e7e\u3089\u304b": 6182,
  "\u2581\u8abf\u3079\u308b": 6183,
  "\u306e\u4e00\u90e8": 6184,
  "\u671d": 6185,
  "\u2581programs": 6186,
  "\u7121\u3044": 6187,
  "\u2581hath": 6188,
  "\u2581tend": 6189,
  "\u2581Family": 6190,
  "\u2581survey": 6191,
  "\u2581\u6027\u7684": 6192,
  "\u2581affection": 6193,
  "\u2581\u4fe1\u3058\u308b": 6194,
  "\u2581Latin": 6195,
  "\u2581\u5f15\u304d\u7d9a\u304d": 6196,
  "\u3060\u3057": 6197,
  "\u2581Through": 6198,
  ")...": 6199,
  "\u2581methods": 6200,
  "\u2581torment": 6201,
  "\u2581\u30ad": 6202,
  "\u5bfe": 6203,
  "\u2581Russian": 6204,
  "\u2581\u8155": 6205,
  "\u5b89\u5168": 6206,
  "\u601d\u3046": 6207,
  "gen": 6208,
  "\u2581bomb": 6209,
  "\u2581en": 6210,
  "\u5bb3": 6211,
  "\u2581\u6700": 6212,
  "\u2581\u78ba\u8a8d": 6213,
  "\u2581referred": 6214,
  "\u2581House": 6215,
  "\u2581elderly": 6216,
  "\u3059\u308b\u3093\u3060": 6217,
  "\u30b7\u30e7\u30f3": 6218,
  "nd": 6219,
  "\u2581worldly": 6220,
  "\u97f3\u697d": 6221,
  "han": 6222,
  "\u2581Mar": 6223,
  "\u2581\u5909\u308f\u308a": 6224,
  "\u5728": 6225,
  "ac": 6226,
  "\u2581begins": 6227,
  "\u2581superior": 6228,
  "\u30e9\u30b9": 6229,
  "\u5408": 6230,
  "\u2581offspring": 6231,
  "\u5207\u308c": 6232,
  "\u2581\u91cd": 6233,
  "\u2581campaign": 6234,
  "\u2581passing": 6235,
  "\u2581situations": 6236,
  "\u2581\u670d": 6237,
  "\u2581\u96c6\u307e\u308a": 6238,
  "\u5c0e\u304d": 6239,
  "\u2581officer": 6240,
  "\u3042\u3063\u305f": 6241,
  "\u2581\u8fd1\u3065\u304f": 6242,
  "\u3092\u4f5c\u6210": 6243,
  "\u30c8\u30ea": 6244,
  "ator": 6245,
  "\u2581moves": 6246,
  "\u2581\u304b\u304b\u308a": 6247,
  "\u2581\u3064\u304f": 6248,
  "\u2581\u5712": 6249,
  "\u2581\u902e\u6355": 6250,
  "\u2581\u88ab\u5bb3": 6251,
  "\u3084\u3064": 6252,
  "\u7530": 6253,
  "\u884c\u304d": 6254,
  "\u8981\u7d20": 6255,
  "\u2581\u30ab\u30fc": 6256,
  "\u2581\u52d5\u304d": 6257,
  "\u2581\u5375": 6258,
  "\u2581\u7cfb": 6259,
  "\u805e\u3044\u3066": 6260,
  "\u2581Shit": 6261,
  "\u2581crisis": 6262,
  "\u2581\u4eca\u5ea6": 6263,
  "\u90fd\u5e02": 6264,
  "\u2581prophets": 6265,
  "\u2581rid": 6266,
  "\u2581\u5225\u306e": 6267,
  "\u4f4d\u7f6e": 6268,
  "\u7d50\u5a5a": 6269,
  "\u2581mighty": 6270,
  "\u2581Gilead": 6271,
  "\u2581\u547c\u3093": 6272,
  "\u96fb\u8a71": 6273,
  "\u2581levels": 6274,
  "\u2581pounds": 6275,
  "cause": 6276,
  "\u2581context": 6277,
  "\u2581obedience": 6278,
  "\u2581\u898b\u89e3": 6279,
  "\u258147": 6280,
  "\u2581describes": 6281,
  "\u2581plain": 6282,
  "\u2581r": 6283,
  "\u2581\u30b1": 6284,
  "\u3057\u305f\u306e": 6285,
  "ja": 6286,
  "with": 6287,
  "\u2581traffic": 6288,
  "\u2581\u30cd": 6289,
  "\u2581\u6700\u521d\u306e": 6290,
  "off": 6291,
  "\u30c1\u30a7\u30c3\u30af": 6292,
  "\u2581\u707d\u3044": 6293,
  "\u2581acting": 6294,
  "\u2581bound": 6295,
  "\u2581tax": 6296,
  "\u500d": 6297,
  "\u2581sending": 6298,
  "\u2581features": 6299,
  "\u2581suggest": 6300,
  "\u2581\u843d\u3061": 6301,
  "\u2581\u8d16\u3044": 6302,
  "\u51fa\u6765\u306a\u3044": 6303,
  "\u541b\u306f": 6304,
  "\u99ac": 6305,
  "\u2581White": 6306,
  "\u308f\u304c": 6307,
  "\u6025": 6308,
  "\u2581located": 6309,
  "\u2581\u5b88\u308a": 6310,
  "\u2581\u6bba\u3055": 6311,
  "\u2581\u767e\u79d1": 6312,
  "ley": 6313,
  "\u258119.": 6314,
  "\u305d\u3046\u3067\u3059": 6315,
  "\u2581obtain": 6316,
  "\u304a\u91d1": 6317,
  "\u884c\u70ba": 6318,
  "\u2581adult": 6319,
  "\u2581verse": 6320,
  "\u2581\u6301\u305f": 6321,
  "\u2581\u8cdc\u7269": 6322,
  "\u30ab\u30eb": 6323,
  "\u53cb\u9054": 6324,
  "\u2581expressions": 6325,
  "\u2581professional": 6326,
  "\u2581\u3081": 6327,
  "\u2581\u30bf\u30a4\u30e0\u30ba": 6328,
  "\u91cd\u8981\u306a": 6329,
  "17": 6330,
  "ee": 6331,
  "\u2581leader": 6332,
  "\u2581\u6a5f\u68b0": 6333,
  "\u30e1\u30c7\u30a3\u30a2": 6334,
  "\u5e73\u548c": 6335,
  "\u305f\u3061\u304c": 6336,
  "\u30c3\u30b7\u30e5": 6337,
  "\u2581constantly": 6338,
  "\u2581\u6e56": 6339,
  "\u3053\u308c\u3089": 6340,
  "\u3068\u5171\u306b": 6341,
  "\u2581honey": 6342,
  "\u2581\u3059\u307f\u307e\u305b\u3093": 6343,
  "\u258113,": 6344,
  "\u2581cash": 6345,
  "\u2581\u5ca9": 6346,
  "\u2581\u898b\u3044\u3060\u3059": 6347,
  "not": 6348,
  "\u2581remnant": 6349,
  "\u2581\u5730\u4f4d": 6350,
  "\u2581\u5e7b": 6351,
  "\u2581disaster": 6352,
  "\u2581provision": 6353,
  "\u2581stake": 6354,
  "\u2581\u30b3\u30f3": 6355,
  "\u2581\u30de\u30fc": 6356,
  "\u2581\u80cc": 6357,
  "\u2581\u884c\u304b": 6358,
  "\u304c\u3044": 6359,
  "\u3063\u3068": 6360,
  "\u5b9a\u7fa9": 6361,
  "\u2581\u6bb5\u968e": 6362,
  "\u2581\u6c17\u3065\u3044": 6363,
  "\u2581\u7d75": 6364,
  "\u2581\u7121\u7406": 6365,
  "\u305d\u308c\u304b\u3089": 6366,
  "\u70ba": 6367,
  "\u2581Web": 6368,
  "\u2581illness": 6369,
  "\u2581performed": 6370,
  "\u2581\u9b45\u529b": 6371,
  "\u3057\u3066\u306a\u3044": 6372,
  "\u6d3e": 6373,
  "\u2581laid": 6374,
  "\u2581medicine": 6375,
  "\u2581\u305f\u3063": 6376,
  "\u2581\u5468\u308a": 6377,
  "\u8ee2": 6378,
  "\u2581Men": 6379,
  "\u2581\u56fd\u9023": 6380,
  "\u2581\u96a3\u4eba": 6381,
  "ub": 6382,
  "\u2581flying": 6383,
  "\u2581represent": 6384,
  "\u2581\u3044\u3051": 6385,
  "\u2581\u307e\u3059\u307e\u3059": 6386,
  "\u2581\u5f7c\u306b": 6387,
  "\\": 6388,
  "\u2581professor": 6389,
  "\u2581\u6211\u3005\u304c": 6390,
  "\u2581\u904e\u3054\u3057": 6391,
  "\u30a2\u30c3\u30e9\u30fc\u306b": 6392,
  "\u3059\u308b\u306b\u306f": 6393,
  "\u958b\u59cb": 6394,
  "\u2581agent": 6395,
  "\u2581pride": 6396,
  "\u2581truths": 6397,
  "\u2581victory": 6398,
  "\u2581\u305d\u3053\u306b": 6399,
  "\u4e00\u756a": 6400,
  "\u2581claimed": 6401,
  "\u2581\u541b\u306b": 6402,
  "\u2581\u5b89\u5b9a": 6403,
  "\u4fdd\u5b58": 6404,
  "\u2581format": 6405,
  "\u2581title": 6406,
  "\u2581automatically": 6407,
  "\u2581\u304b\u305f": 6408,
  "\u3046\u3093": 6409,
  "\u866b": 6410,
  "\u2581options": 6411,
  "\u3053\u3068\u306b\u306a\u308b": 6412,
  "\u4e8b\u304c": 6413,
  "\u304c\u5fc5\u8981\u3067\u3059": 6414,
  "\u81ea\u7136": 6415,
  "\u2581\u8449": 6416,
  "\u2581worshipers": 6417,
  "\u30aa\u30f3": 6418,
  "\u2581\u5168\u3066\u306e": 6419,
  "\u2581\u6839": 6420,
  "\u2581Text": 6421,
  "\u2581\u30af\u30ea\u30b9\u30de\u30b9": 6422,
  "\u30d5\u30a3\u30eb\u30bf": 6423,
  "\u2581multiple": 6424,
  "\u2581sets": 6425,
  "\u2581\u518a\u5b50": 6426,
  "\u2581\u79c1\u306b\u306f": 6427,
  "\u6570\u5b57": 6428,
  "\u25811960": 6429,
  "\u25812000": 6430,
  "\u2581\u30ac": 6431,
  "\u2581\u4e8b\u304c\u3089": 6432,
  "\u6559\u80b2": 6433,
  "\u9031\u9593": 6434,
  "\u2581capable": 6435,
  "\u2581\u3084\u3081\u308d": 6436,
  "\u306b\u3088\u308b\u3068": 6437,
  "\u89aa": 6438,
  "\u2581arrested": 6439,
  "\u306f\u7121\u3044": 6440,
  "\u53d6\u308b": 6441,
  "ably": 6442,
  "\u2581Har": 6443,
  "\u30df\u30fc": 6444,
  "\u2581\u5171\u540c": 6445,
  "\u306e\u4e2d\u306e": 6446,
  "\u30a6\u30a3\u30f3\u30c9\u30a6": 6447,
  "\u5168\u3066": 6448,
  "\u653f\u5e9c": 6449,
  "\u2581\u30bd": 6450,
  "\u5f8c\u306b": 6451,
  "\u2581loyalty": 6452,
  "\u4e0a\u304c\u308a": 6453,
  "\u3082\u306a\u304f": 6454,
  "\u8a3c\u62e0": 6455,
  "\u2581element": 6456,
  "\u2581\u610f\u56f3": 6457,
  "\u53bb\u308b": 6458,
  "\u843d": 6459,
  "\u30ed\u30c3\u30af": 6460,
  "\u2581patience": 6461,
  "\u2581\u7acb\u6d3e": 6462,
  "\u306a\u3051\u308c\u3070\u306a\u3089\u306a\u3044": 6463,
  "\u3092\u898b\u3064\u3051\u308b": 6464,
  "\u53cd\u5fdc": 6465,
  "\u2581Rev": 6466,
  "\u2581faster": 6467,
  "\u2581mothers": 6468,
  "\u2581smart": 6469,
  "\u2581\u6b63\u5f53": 6470,
  "\u5de6": 6471,
  "\u2581\u7267\u5e2b": 6472,
  "\u8fd4\u3057": 6473,
  "\u2581companies": 6474,
  "\u2581currently": 6475,
  "\u2581sat": 6476,
  "\u2581\u7a2e\u3005": 6477,
  "\u2581prophecies": 6478,
  "\u2581guided": 6479,
  "\u2581orders": 6480,
  "\u2581reaction": 6481,
  "\u3059\u308b\u306e": 6482,
  "\u3068\u3053\u3057\u3048": 6483,
  "\u306b\u5411\u304b\u3063\u3066": 6484,
  "\u2581\u30c8\u30f3": 6485,
  "\u2581\u3068\u3044\u3046": 6486,
  "\u2581\u767a": 6487,
  "\u2581\u8a2d\u8a08": 6488,
  "\u2581\u8aed\u3057": 6489,
  "\u304c\u5fc5\u8981": 6490,
  "\u7cfb": 6491,
  "\u2581Whether": 6492,
  "\u2581Ten": 6493,
  "\u2581highest": 6494,
  "\u5831\u544a": 6495,
  "\u7d4c\u9a13": 6496,
  "\u2581beast": 6497,
  "\u2581verses": 6498,
  "\u2581\u5f1f": 6499,
  "\u691c\u7d22": 6500,
  "\u2581grave": 6501,
  "\u2581replied": 6502,
  "\u2581\u307b\u3093\u3068\u3046": 6503,
  "\u3067\u304d\u307e\u305b\u3093\u3067\u3057\u305f": 6504,
  "\u2581load": 6505,
  "\u2581\u6b63\u5f0f": 6506,
  "\u2581corner": 6507,
  "\u2581\u30a2\u30fc": 6508,
  "\u2581Ps": 6509,
  "\u2581lasting": 6510,
  "\u2581symbol": 6511,
  "\u5931\u6557": 6512,
  "\u2581Biblical": 6513,
  "\u2581Error": 6514,
  "\u2581silver": 6515,
  "\u2581unusual": 6516,
  "\u2581\u69d8\u5b50": 6517,
  "\u2581\u795e\u3005": 6518,
  "\u30c8\u30eb": 6519,
  "\u2581equipment": 6520,
  "\u2581settings": 6521,
  "\u2581\u5230\u7740": 6522,
  "\u2581besides": 6523,
  "\u2581criminal": 6524,
  "\u2581season": 6525,
  "\u2581\u5144": 6526,
  "\u3042\u3042": 6527,
  "\u30a8\u30cd\u30eb\u30ae\u30fc": 6528,
  "\u2581tests": 6529,
  "\u3057\u306a\u3044\u3068": 6530,
  "\u3092\u6307\u5b9a\u3057\u307e\u3059": 6531,
  "\u571f": 6532,
  "\u6700\u5f8c\u306e": 6533,
  "ff": 6534,
  "\u2581ear": 6535,
  "\u2581\u5927\u91cf": 6536,
  "\u2581\u8650\u5f85": 6537,
  "\u30c0\u30f3": 6538,
  "\u2581Edit": 6539,
  "\u2581beneficial": 6540,
  "\u2581v": 6541,
  "\u2581\u304a\u7236\u3055\u3093": 6542,
  "\u2581\u8a2a\u308c": 6543,
  "\u2581Brooklyn": 6544,
  "\u2581therein": 6545,
  "\u2581\u4f5c\u3089": 6546,
  "\u2581\u5f85\u3066": 6547,
  "\u2581\u6271\u3046": 6548,
  "\u304b\u308a": 6549,
  "\u30bc": 6550,
  "\u2581Almighty": 6551,
  "All": 6552,
  "\u2581sand": 6553,
  "\u2581\u4e21": 6554,
  "\u2581\u5730\u56f3": 6555,
  "\u90e8\u5c4b": 6556,
  "\u2581diet": 6557,
  "\u2581\u30d7\u30ed": 6558,
  "\u4e71": 6559,
  "\u8005\u305f\u3061": 6560,
  "\u2581marked": 6561,
  "\u2581ministers": 6562,
  "\u2581discussed": 6563,
  "\u30b5\u30a4\u30ba": 6564,
  "\u2581h": 6565,
  "\u2581\u5165\u308c\u308b": 6566,
  "\u2581\u61f2\u3089\u3057\u3081": 6567,
  "\u2581listed": 6568,
  "\u2581photo": 6569,
  "\u2581\u6b20\u3051": 6570,
  "\u2581\u98db\u3073": 6571,
  "\u306e\u5834\u5408": 6572,
  "\u2581\u30cb\u30e5\u30fc": 6573,
  "\u2581\u53ca\u3076": 6574,
  "\u2581buildings": 6575,
  "\u2581instruction": 6576,
  "\u2581\u540c\u60c5": 6577,
  "\u2581remaining": 6578,
  "\u305f\u3081\u306e": 6579,
  "\u2581February": 6580,
  "\u2581George": 6581,
  "\u2581\u88cf": 6582,
  "\u2581\u4e88\u5b9a": 6583,
  "\u2581\u96fb\u6c17": 6584,
  "\u2581temperature": 6585,
  "\u2581\u3084\u3081\u3066": 6586,
  "\u2581\u5de5\u5834": 6587,
  "\u2581\u679c\u305f\u3057": 6588,
  "\u2581\u79c1\u305f\u3061\u304c": 6589,
  "\u3053\u3093\u306a": 6590,
  "\u2581babies": 6591,
  "\u2581\u8a73\u7d30": 6592,
  "\u2581pleased": 6593,
  "\u2581\u304a\u5b50\u3055\u3093": 6594,
  "\u2581\u307b": 6595,
  "\u2581\u6307": 6596,
  "\u2581\u8208\u5473": 6597,
  "ization": 6598,
  "\u964d": 6599,
  "\u2581ID": 6600,
  "\u304c\u3042\u308a\u307e\u305b\u3093": 6601,
  "\u914d": 6602,
  "lin": 6603,
  "\u2581illustration": 6604,
  "\u2581missed": 6605,
  "\u2581\u4eca\u307e\u3067": 6606,
  "\u305f\u3081\u3067\u3042\u308b": 6607,
  "\u2581exposed": 6608,
  "\u96e2": 6609,
  "\u2581Russia": 6610,
  "\u2581bearing": 6611,
  "\u2581daughters": 6612,
  "\u2581host": 6613,
  "\u2581push": 6614,
  "\u5168\u54e1": 6615,
  "\u2581puts": 6616,
  "\u2581secular": 6617,
  "\u3066\u304f\u308c\u308b": 6618,
  "\u306a\u3044\u3088": 6619,
  "\u5f7c\u3092": 6620,
  "\u2581nearby": 6621,
  "\u2581teeth": 6622,
  "\u2581\u7206\u767a": 6623,
  "They": 6624,
  "\u2581BY": 6625,
  "\u2581remarkable": 6626,
  "\u77e5\u308b": 6627,
  "\u2581spring": 6628,
  "\u2581\u62b1\u3048": 6629,
  "\u3093\u3060\u308d\u3046": 6630,
  "\u539f": 6631,
  "\u2581Robert": 6632,
  "\u2581Tim": 6633,
  "\u2581\u671b\u307f": 6634,
  "\u2581\u6df1\u523b": 6635,
  "\u53cb": 6636,
  "\u5927\u7d71\u9818": 6637,
  "\u2581Furthermore": 6638,
  "\u2581upset": 6639,
  "ble": 6640,
  "\u2581reject": 6641,
  "\u8a18": 6642,
  "\u2581jump": 6643,
  "\u2581lots": 6644,
  "\u2581\u623b\u308b": 6645,
  "\u2581goals": 6646,
  "\u2581\u610f\u5fd7": 6647,
  "\u2581\u7d9a\u3044": 6648,
  "\u2581functions": 6649,
  "\u305d\u3053\u3067": 6650,
  "\u30a4\u30a8\u30b9": 6651,
  "\u2581creating": 6652,
  "\u2581\u3053\u3053\u3067\u306f": 6653,
  "\u2581\u5236\u5fa1": 6654,
  "\u2581\u5f79\u7acb\u3061": 6655,
  "\u306e\u4e8b": 6656,
  "\u2581invisible": 6657,
  "\u2581relative": 6658,
  "\u2581\u4f9d\u7136": 6659,
  "\u2581\u8a9e\u3089": 6660,
  "\u2581heed": 6661,
  "\u2581\u30b3\u30fc\u30d2\u30fc": 6662,
  "\u3057\u305f\u3093\u3060": 6663,
  "\u5c64": 6664,
  "red": 6665,
  "\u2581peaceful": 6666,
  "\u2581\u5b9f\u9a13": 6667,
  "\u306e\u6c11": 6668,
  "\u2581urged": 6669,
  "\u2581\u4e00\u6642": 6670,
  "\u3055\u3089\u306b": 6671,
  "\u30b5\u30a4\u30c8": 6672,
  "\u30c7\u30f3": 6673,
  "\u89b3": 6674,
  "\u2581copies": 6675,
  "\u2581publications": 6676,
  "\u2581publishers": 6677,
  "\u2581\u30b5\u30e0": 6678,
  "\u2581Paris": 6679,
  "\u2581\u30b9\u30dd\u30fc\u30c4": 6680,
  "\u2581\u5927\u4e08\u592b\u304b": 6681,
  "\u306a\u3044\u306e\u304b": 6682,
  "\u2581agreement": 6683,
  "\u2581\u65b9\u5411": 6684,
  "\u306f\u3082\u3046": 6685,
  "\u25811950": 6686,
  "\u2581burned": 6687,
  "\u2581afford": 6688,
  "\u2581completed": 6689,
  "\u3092\u4e0e\u3048\u308b": 6690,
  "\u2581finds": 6691,
  "\u2581fuel": 6692,
  "\u2581supported": 6693,
  "\u2581\u30d0\u30b9": 6694,
  "\u2581\u30d3": 6695,
  "\u2581\u4eca\u5f8c": 6696,
  "\u2581\u5e78\u305b": 6697,
  "\u2581\u7570": 6698,
  "\u30c7\u30fc\u30bf\u30d9\u30fc\u30b9": 6699,
  "\u76f8\u624b": 6700,
  "\u2581\u3053\u3093\u306b\u3061\u306f": 6701,
  "\u2581\u5206\u304b\u3063\u3066\u308b": 6702,
  "\u30d1\u30f3": 6703,
  "\u2581director": 6704,
  "\u2581\u6bba\u3059": 6705,
  "\u2581\u9577\u5e74": 6706,
  "\u6a5f\u4f1a": 6707,
  "ld": 6708,
  "\u2581closely": 6709,
  "\u2581\u7248": 6710,
  "\u2581\u3044\u304f": 6711,
  "\u2581\u59b9": 6712,
  "\u2581\u7279\u5fb4": 6713,
  "\u2581\u80cc\u666f": 6714,
  "\u6c7a": 6715,
  "\u2581\u30b7\u30e5": 6716,
  "\u2581\u53eb\u3073": 6717,
  "\u2581legs": 6718,
  "\u2581\u7a4d\u6975": 6719,
  "\u30011": 6720,
  "\u2581sacrifices": 6721,
  "\u2581users": 6722,
  "\u2581\u5927\u4e08\u592b\u3060": 6723,
  "\u2581\u6599\u7406": 6724,
  "\u2581\u795e\u5b66": 6725,
  "\u30cd\u30c3\u30c8": 6726,
  "\u5e2d": 6727,
  "\u2581\u8a71\u3057\u5408\u3044": 6728,
  "\u2581Alex": 6729,
  "\u2581item": 6730,
  "\u2581\u7528\u610f": 6731,
  "\u2581\u8cc7\u6599": 6732,
  "\u3092\u4f5c\u308b": 6733,
  "\u2581Mm": 6734,
  "\u2581ought": 6735,
  "\u304b\u3051\u308b": 6736,
  "office": 6737,
  "\u2581keys": 6738,
  "\u2581Footnote": 6739,
  "\u2581\u305d\u306e\u307e\u307e": 6740,
  "\u2581\u6bdb": 6741,
  "\u2581\u89aa\u65cf": 6742,
  "\u2581commands": 6743,
  "\u2581expensive": 6744,
  "\u2581solid": 6745,
  "\u2581\u3055\u3055\u3052\u308b": 6746,
  "\u3063\u3066\u3053\u3068": 6747,
  "\u9375": 6748,
  "\u96e3": 6749,
  "\u258155": 6750,
  "\u2581saving": 6751,
  "\u2581\u30a8\u30a4\u30ba": 6752,
  "\u2581\u6210\u308b": 6753,
  "\u2581\u30af\u30ea\u30b9": 6754,
  "\u2581\u30dc": 6755,
  "\u2581\u5931\u793c": 6756,
  "va": 6757,
  "\u2581farm": 6758,
  "\u2581\u514b\u670d": 6759,
  "\u2581\u540c\u6027": 6760,
  "\u2581\u60b2\u3057\u307f": 6761,
  "\u2581\u8a08\u7b97": 6762,
  "\u2581\u8cb7\u3044": 6763,
  "\u30b1\u30fc": 6764,
  "\u2581immorality": 6765,
  "\u2581burn": 6766,
  "\u2581identity": 6767,
  "\u2581struck": 6768,
  "\u3089\u308c\u3066\u3044\u308b": 6769,
  "\u6839": 6770,
  "pi": 6771,
  "\u2581iron": 6772,
  "\u2581\u9020\u3089": 6773,
  "\u30d8": 6774,
  "\u2581Run": 6775,
  "\u8981": 6776,
  "\u2581Catholics": 6777,
  "\u2581Whoa": 6778,
  "\u2581picked": 6779,
  "\u2581\u3055\u3089\u3055": 6780,
  "\u2581\u53b3\u3057\u3044": 6781,
  "\u2581\u9928": 6782,
  "\u2581custom": 6783,
  "\u2581indicated": 6784,
  "\u2581\u5c40": 6785,
  "\u306e\u554f\u984c": 6786,
  "\u4e88\u5b9a": 6787,
  "\u5f3e": 6788,
  "\u2581\u753b\u50cf": 6789,
  "\u8a71\u3057": 6790,
  "\u91ce": 6791,
  "ious": 6792,
  "ver": 6793,
  "\u2581\u5974\u306f": 6794,
  "\u2581\u6210\u3057\u9042\u3052": 6795,
  "\u305d\u3053": 6796,
  "\u2581identified": 6797,
  "\u305f\u308f": 6798,
  "\u2581commit": 6799,
  "\u2581engage": 6800,
  "\u2581ordered": 6801,
  "\u2581\u8cbb\u7528": 6802,
  "\u2581\u901a": 6803,
  "\u6e08\u307f": 6804,
  "\u2581\u3053\u3046\u3044\u3046": 6805,
  "\u2581\u5f37\u3081": 6806,
  "\u30ac\u30b9": 6807,
  "\u5929\u4f7f": 6808,
  "\u2581Hmm": 6809,
  "\u2581\u30c6\u30ad\u30b9\u30c8": 6810,
  "\u2581\u5206\u88c2": 6811,
  "\u2581\u6df7\u4e71": 6812,
  "\u6c17\u6301\u3061": 6813,
  "\u7ba1\u7406": 6814,
  "\u2581Americans": 6815,
  "\u2581loose": 6816,
  "\u2581recall": 6817,
  "\u2581\u3086\u3048": 6818,
  "\u2581\u50be\u3051": 6819,
  "\u8abf\u67fb": 6820,
  "\u2581emotions": 6821,
  "\u2581\u30b0": 6822,
  "\u2581\u4ed8\u304d": 6823,
  "\u2581Again": 6824,
  "\u2581Joshua": 6825,
  "\u2581\u3053\u306e\u3088\u3046\u306a": 6826,
  "\u2581\u30cf\u30fc": 6827,
  "\u2581\u98df\u3079\u7269": 6828,
  "\u307e\u305a": 6829,
  "ug": 6830,
  "\u8a31\u53ef": 6831,
  "ina": 6832,
  "\u2581replace": 6833,
  "\u2581\u5b9f\u884c": 6834,
  "\u5148\u306b": 6835,
  "\u7d44": 6836,
  "\u2581entry": 6837,
  "\u2581\u30a8\u30eb": 6838,
  "\u5f37\u304f": 6839,
  "\u7247": 6840,
  "\u2581acceptable": 6841,
  "\u2581\u6761\u4ef6": 6842,
  "si": 6843,
  "\u2581defined": 6844,
  "\u30a6\u30b9": 6845,
  "\u6b20": 6846,
  "\u2581\u4e00\u751f": 6847,
  "\u958b\u767a": 6848,
  "\u2581\u5236\u9650": 6849,
  "\u2581\u5263": 6850,
  "\u4e0a\u306b": 6851,
  "\u6df1\u3044": 6852,
  "\u2581Were": 6853,
  "\u2581encouraging": 6854,
  "\u3042\u306a\u305f\u65b9": 6855,
  "\u2581Long": 6856,
  "\u2581\u4e2d\u592e": 6857,
  "\u2581\u96c6\u4e2d": 6858,
  "\u2581Faith": 6859,
  "\u2581Henry": 6860,
  "\u2581\u307f\u306a\u3057": 6861,
  "\u2581\u3080": 6862,
  "\u306e\u3067\u3057\u3087\u3046\u304b": 6863,
  "\u3089\u308c\u3066": 6864,
  "\u2581advance": 6865,
  "\u2581friendship": 6866,
  "\u2581salt": 6867,
  "\u2581\u5730\u7344": 6868,
  "\u258127:": 6869,
  "\u2581gather": 6870,
  "\u2581preached": 6871,
  "\u2581spending": 6872,
  "\u3067\u3042\u3089\u308c\u308b": 6873,
  "\u5730\u7403": 6874,
  "\u7834": 6875,
  "\u970a": 6876,
  "year": 6877,
  "\u2581AND": 6878,
  "\u2581obedient": 6879,
  "\u2581\u308f\u305f\u308b": 6880,
  "\u5927\u5b66": 6881,
  "\u2581Land": 6882,
  "\u2581Looks": 6883,
  "\u2581signal": 6884,
  "\u2581\u5408\u308f\u305b": 6885,
  "\u2581Close": 6886,
  "\u2581En": 6887,
  "\u2581costs": 6888,
  "\u2581dropped": 6889,
  "\u2581refuse": 6890,
  "\u2581successfully": 6891,
  "\u2581\u6255\u3063": 6892,
  "\u2581\u7acb\u3064": 6893,
  "\u52d5\u7269": 6894,
  "\u82e5\u3044": 6895,
  "\u2581resulted": 6896,
  "\u2581\u3042\u308c\u306f": 6897,
  "\u2581\u5f7c\u3089\u304c": 6898,
  "\u2581Little": 6899,
  "\u2581\u601d\u3044\u51fa\u3057": 6900,
  "\u30d9\u30f3": 6901,
  "\u2581chemical": 6902,
  "\u2581depends": 6903,
  "\u2581\u884c\u304f\u305e": 6904,
  "\u306f\u3068\u3066\u3082": 6905,
  "Why": 6906,
  "\u2581Big": 6907,
  "\u2581instructions": 6908,
  "\u2581providing": 6909,
  "\u2581\u305d\u3046\u3060\u306a": 6910,
  "\u2581\u30ac\u30b9": 6911,
  "\u2581\u30b8\u30e7\u30fc": 6912,
  "\u30b9\u30bf\u30a4\u30eb": 6913,
  "\u30fc\u30eb": 6914,
  "\u2581Version": 6915,
  "\u2581hole": 6916,
  "\u2581\u30c1\u30fc\u30e0": 6917,
  "\u73fe\u5728\u306e": 6918,
  "\u2581believing": 6919,
  "\u2581entirely": 6920,
  "\u2581invitation": 6921,
  "\u2581\u5b66\u751f": 6922,
  "\u2581Second": 6923,
  "\u2581arrest": 6924,
  "\u2581\u3084\u308a": 6925,
  "\u2581\u30d4\u30fc\u30bf\u30fc": 6926,
  "That": 6927,
  "ko": 6928,
  "\u2581entitled": 6929,
  "\u2581virus": 6930,
  "\u2581\u7537\u5973": 6931,
  "\u30b5\u30fc\u30d3\u30b9": 6932,
  "\u5fc5\u8981\u304c\u3042\u308b": 6933,
  "\u2581Court": 6934,
  "\u2581border": 6935,
  "\u2581strike": 6936,
  "\u2581\u6700\u5f8c\u306b": 6937,
  "\u3055\u307e": 6938,
  "\u8def": 6939,
  "\u8fbc\u3093\u3067": 6940,
  "\u91ce\u90ce": 6941,
  "\u2581Sarah": 6942,
  "\u2581distress": 6943,
  "\u2581possibility": 6944,
  "\u2581\u5909\u308f\u3063": 6945,
  "\u3092\u8868\u793a\u3059\u308b": 6946,
  "\u2581Clearly": 6947,
  "\u2581approval": 6948,
  "\u2581central": 6949,
  "\u2581\u5343": 6950,
  "\u2581fathers": 6951,
  "\u306a\u304f\u306a\u308b": 6952,
  "\u2581$1": 6953,
  "\u2581doors": 6954,
  "\u2581\u8a89\u308c": 6955,
  "\u5b58\u5728": 6956,
  "\u767d": 6957,
  "\u2581ball": 6958,
  "\u2581\u4ed6\u306b": 6959,
  "\u2581\u56e3\u4f53": 6960,
  "\u2581\u6628\u5e74": 6961,
  "\u3055\u308c\u3066\u308b": 6962,
  "\u6210\u529f": 6963,
  "\u2581distribution": 6964,
  "\u2581marvelous": 6965,
  "\u2581\u4f9d\u5b58": 6966,
  "\u2581exchange": 6967,
  "\u2581hatred": 6968,
  "\u2581lucky": 6969,
  "\u2581\u30b8\u30e3\u30c3\u30af": 6970,
  "mon": 6971,
  "\u2581ignore": 6972,
  "\u2581yesterday": 6973,
  "\u2581\u51fa\u3059": 6974,
  "\u2581\u79c1\u9054": 6975,
  "\u3082\u306e\u3067\u3042\u308b": 6976,
  "\u7acb\u3064": 6977,
  "\u2581\u601d\u3044\u3084\u308a": 6978,
  "\u2581\u8077": 6979,
  "\u63a5": 6980,
  "\u9280\u884c": 6981,
  "\u2581\u5931\u308f": 6982,
  "\u2581\u5bdd": 6983,
  "\u2581\u75c7\u72b6": 6984,
  "\u2581\u81ea\u5206\u3067": 6985,
  "\u805e\u3044\u305f": 6986,
  "\u2581pollution": 6987,
  "\u2581sovereignty": 6988,
  "\u2581\u5229\u5df1": 6989,
  "\u2581commercial": 6990,
  "\u2581concluded": 6991,
  "\u2581suit": 6992,
  "\u2581\u4e0d\u53ef\u80fd": 6993,
  "\u2581\u5de8\u5927": 6994,
  "\u88c5\u7f6e": 6995,
  "\u2581pregnant": 6996,
  "ative": 6997,
  "gu": 6998,
  "\u2581bunch": 6999,
  "\u2581fought": 7000,
  "\u2581hoping": 7001,
  "\u2581\u98df": 7002,
  "\u3092\u524a\u9664": 7003,
  "\u7d20": 7004,
  "ap": 7005,
  "\u2581hang": 7006,
  "\u304d\u3063\u3068": 7007,
  "\u2581argument": 7008,
  "\u2581drawing": 7009,
  "\u2581\u62db\u5f85": 7010,
  "\u2581compassion": 7011,
  "\u2581snow": 7012,
  "\u2581steal": 7013,
  "\u2581struggle": 7014,
  "\u2581\u7fbd": 7015,
  "\u2581\u884c\u3053\u3046": 7016,
  "\u7acb\u3066": 7017,
  "\u2581ruler": 7018,
  "\u2581\u5f37\u5236": 7019,
  "\u2581\u7a74": 7020,
  "\u3092\u6301\u3061": 7021,
  "\u25810.": 7022,
  "\u2581sought": 7023,
  "\u9662": 7024,
  "les": 7025,
  "\u2581prospect": 7026,
  "\u2581\u5217\u738b": 7027,
  "\u2581\u7537\u5b50": 7028,
  "\u30b7\u30f3": 7029,
  "\u2581menu": 7030,
  "\u2581ships": 7031,
  "\u2581\u53ce\u7a6b": 7032,
  "\u2581\u5e8a": 7033,
  "\u5e2b": 7034,
  "\u6e96\u5099": 7035,
  "\u8981\u6c42": 7036,
  "tor": 7037,
  "\u2581Union": 7038,
  "\u306f\u3057\u306a\u3044": 7039,
  "\u2581somehow": 7040,
  "\u2581staff": 7041,
  "\u2581\u7dca\u6025": 7042,
  "\u2581tons": 7043,
  "\u4eba\u751f": 7044,
  "tu": 7045,
  "\u2581bones": 7046,
  "\u2581experts": 7047,
  "\u2581roof": 7048,
  "\u2581\u5206\u304b\u3089\u306a\u3044": 7049,
  "\u5317": 7050,
  "\u2581\u9996": 7051,
  "\u2581None": 7052,
  "\u2581colour": 7053,
  "\u2581satisfaction": 7054,
  "\u2581\u8ecd\u968a": 7055,
  "\u30ec\u30a4": 7056,
  "\u89e3\u6c7a": 7057,
  "ot": 7058,
  "\u2581height": 7059,
  "\u2581sleeping": 7060,
  "\u2581author": 7061,
  "\u2581breath": 7062,
  "\u2581\u3082\u3046\u4e00\u5ea6": 7063,
  "\u304a\u524d": 7064,
  "\u30e8": 7065,
  "\u8a71\u3057\u305f": 7066,
  "\u25816,7": 7067,
  "\u2581sudden": 7068,
  "\u2581\u305d": 7069,
  "\u5357": 7070,
  "\u8033": 7071,
  "\u9aea": 7072,
  "\u2581tools": 7073,
  "\u2581\u3057\u3082\u3079": 7074,
  "\u5b57": 7075,
  "\u2581600": 7076,
  "\u51e1\u3066\u306e": 7077,
  "\u78ba\u304b\u306b": 7078,
  "\u826f\u304f": 7079,
  "new": 7080,
  "\u2581password": 7081,
  "\u2581\u3053\u3089": 7082,
  "\u8996": 7083,
  "CC": 7084,
  "OR": 7085,
  "\u2581\u3042\u305a\u304b\u308b": 7086,
  "\u2581Phil": 7087,
  "\u2581primary": 7088,
  "ID": 7089,
  "\u2581description": 7090,
  "\u2581printed": 7091,
  "\u2581printing": 7092,
  "\u2581creature": 7093,
  "\u2581directed": 7094,
  "\u2581unknown": 7095,
  "\u30c1\u30f3": 7096,
  "\u30cb\u30e5\u30fc\u30b9": 7097,
  "24": 7098,
  "\u2581\u30a2\u30a4\u30b3\u30f3": 7099,
  "\u2581\u30ae\u30ec\u30a2\u30c7": 7100,
  "\u30d0\u30a4": 7101,
  "\u2581Send": 7102,
  "\u2581react": 7103,
  "\u306a\u304a": 7104,
  "\u4e3b\u3088": 7105,
  "\u8003\u3048\u308b": 7106,
  "90": 7107,
  "\u2581union": 7108,
  "\u2581checked": 7109,
  "\u2581refer": 7110,
  "\u2581\u30c8\u30e9\u30c3\u30af": 7111,
  "\u2581\u4e8b\u60c5": 7112,
  "\u30c3\u30c4": 7113,
  "\u96e3\u3057\u3044": 7114,
  "\u2581PHP": 7115,
  "\u2581l": 7116,
  "\u3059\u3050": 7117,
  "\u306e\u65b9\u304c": 7118,
  "\u2581lab": 7119,
  "\u2581\u56f3\u7248": 7120,
  "\u3066\u3057\u307e\u3063\u305f": 7121,
  "\u2581emergency": 7122,
  "\u2581politics": 7123,
  "\u2581\u305d\u308c\u3067\u306f": 7124,
  "\u30ed\u30fc\u30c9": 7125,
  "\u8a08": 7126,
  "good": 7127,
  "\u2581Hav": 7128,
  "\u2581Tom": 7129,
  "\u2581smell": 7130,
  "\u2581verily": 7131,
  "\u2581\u30af\u30bd": 7132,
  "\u3061\u3083": 7133,
  "\u904e\u304e": 7134,
  "\u2581habits": 7135,
  "\u5e78\u305b": 7136,
  "\u6c0f": 7137,
  "\u30ab\u30e1\u30e9": 7138,
  "\u5185\u306e": 7139,
  "\u2581flowers": 7140,
  "\u2581strengthen": 7141,
  "\u2581stayed": 7142,
  "\u2581\u671b\u3080": 7143,
  "\u2581\u8868\u308f\u308c": 7144,
  "Yes": 7145,
  "\u2581Remove": 7146,
  "\u2581tea": 7147,
  "\u2581\u9a5a\u304d": 7148,
  "iv": 7149,
  "\u2581extreme": 7150,
  "\u2581\u898b\u3044\u3060\u3057": 7151,
  "\u8074": 7152,
  "ice": 7153,
  "\u2581Had": 7154,
  "\u2581debt": 7155,
  "\u2581edge": 7156,
  "\u2581\u30de\u30f3": 7157,
  "\u2581\u53f2": 7158,
  "\u2581\u304b\u3051\u308b": 7159,
  "\u2581\u7d42\u308f\u3063": 7160,
  "\u4eba\u305f\u3061": 7161,
  "\u6cb9": 7162,
  "\u75c5\u6c17": 7163,
  "\u25812,3": 7164,
  "\u2581opportunities": 7165,
  "\u306e\u5bb6": 7166,
  "\u4e92\u3044\u306b": 7167,
  "\u8868\u73fe": 7168,
  "To": 7169,
  "\u2581\u6255\u3044": 7170,
  "\u2581input": 7171,
  "\u2581\u6539\u5584": 7172,
  "\u3059\u308b\u8005": 7173,
  "\u2581Republic": 7174,
  "\u2581\u539f": 7175,
  "\u2581\u5f53\u305f\u308a": 7176,
  "\u7269\u3092": 7177,
  "action": 7178,
  "\u2581variable": 7179,
  "\u2581\u6b21\u306b": 7180,
  "\u30ab\u30fc\u30c9": 7181,
  "\u7559": 7182,
  "\u969b": 7183,
  "\u2581\u30bb\u30f3\u30c1": 7184,
  "\u2581\u6050\u6016": 7185,
  "\u3066\u306a\u3044": 7186,
  "\u2581Number": 7187,
  "\u258117,": 7188,
  "\u2581\u691c\u67fb": 7189,
  "\u4e09": 7190,
  "\u2581Start": 7191,
  "\u2581selfish": 7192,
  "\u2581\u82e6\u75db": 7193,
  "\u2581\u3068\u3044\u3046\u306e\u306f": 7194,
  "\u2581\u306e\u3061": 7195,
  "\u2581\u30d0\u30ab": 7196,
  "\u2581\u53cd\u6620": 7197,
  "\u2581\u9000\u3051": 7198,
  "\u58c1": 7199,
  "ard": 7200,
  "\u2581Bar": 7201,
  "\u2581Isaac": 7202,
  "\u2581abandoned": 7203,
  "\u2581confident": 7204,
  "\u3059\u3050\u306b": 7205,
  "\u30b8\u30e7\u30f3": 7206,
  "\u30d0\u30ab": 7207,
  "\u8b66\u5bdf": 7208,
  "\u2581valid": 7209,
  "\u2581\u30b8\u30e7": 7210,
  "\u2581\u8b66\u5b98": 7211,
  "ud": 7212,
  "\u2581\u3044\u3089": 7213,
  "\u2581\u3086\u3063\u304f\u308a": 7214,
  "\u308b\u308f": 7215,
  "\u5f97": 7216,
  "\u2581Google": 7217,
  "\u50d5": 7218,
  "\u6050\u308c": 7219,
  "bar": 7220,
  "\u2581\u77f3\u6cb9": 7221,
  "\u2581\u7d50\u3070": 7222,
  "\u677f": 7223,
  "\u2581accomplish": 7224,
  "\u2581outstanding": 7225,
  "\u2581\u308f\u304b\u3089\u306a\u3044": 7226,
  "\u2581\u5927\u304d\u3044": 7227,
  "\u2581\u8a31\u53ef": 7228,
  "\u843d\u3061": 7229,
  "\u2581Indian": 7230,
  "\u2581Old": 7231,
  "\u6b69": 7232,
  "\u2581\u4eba\u6c17": 7233,
  "let": 7234,
  "\u2581Imagine": 7235,
  "\u554f": 7236,
  "\u70ba\u306b": 7237,
  "\u2581\u4f5c\u7528": 7238,
  "\u9593\u306b": 7239,
  "\u2581immoral": 7240,
  "\u2581\u805e\u3053\u3048": 7241,
  "\u2581\u8ffd\u3044": 7242,
  "\u4ed6": 7243,
  "PHP": 7244,
  "che": 7245,
  "\u2581Dis": 7246,
  "\u2581\u6b63": 7247,
  "\u2581Ko": 7248,
  "\u2581Search": 7249,
  "\u2581origin": 7250,
  "\u2581\u6628\u65e5": 7251,
  "\u2581arranged": 7252,
  "\u2581harvest": 7253,
  "\u2581\u6e05\u3044": 7254,
  "\u30ad\u30ea\u30b9\u30c8": 7255,
  "\u30c6\u30fc\u30d6\u30eb": 7256,
  "\u826f\u304b\u3063\u305f": 7257,
  "\u2581pioneers": 7258,
  "\u2581\u3046\u3048": 7259,
  "\u2581\u7d9a\u304d": 7260,
  "\u5b89": 7261,
  "\u2581\u591a": 7262,
  "\u9032": 7263,
  "\u2581cup": 7264,
  "\u306f\u3069\u3053\u3060": 7265,
  "\u2581Pet": 7266,
  "\u2581capacity": 7267,
  "\u5b97\u6559": 7268,
  "led": 7269,
  "pro": 7270,
  "\u2581Often": 7271,
  "\u591a": 7272,
  "\u7d30\u80de": 7273,
  "\u2581\u30d8\u30a4": 7274,
  "\u2581heading": 7275,
  "\u2581sing": 7276,
  "\u2581\u30a2\u30ea": 7277,
  "\u2581\u53f8\u4f1a": 7278,
  "\u8b70\u8ad6": 7279,
  "\u258123.": 7280,
  "\u2581Certainly": 7281,
  "\u2581pulled": 7282,
  "\u2581\u5f8c\u308d": 7283,
  "\u30a4\u30eb": 7284,
  "\u30b0\u30e9\u30d5": 7285,
  "\u4e07\u30c9\u30eb": 7286,
  "\u4ed5\u4e8b\u3092": 7287,
  "\u5e8a": 7288,
  "\u80b2": 7289,
  "\u8a87": 7290,
  "\u2581Human": 7291,
  "\u2581endurance": 7292,
  "\u2581goodness": 7293,
  "\u2581\u3064\u304b": 7294,
  "\u2581\u5bfe\u7167": 7295,
  "\u306a\u3044\u304b": 7296,
  "\u82e6": 7297,
  "ile": 7298,
  "\u2581leg": 7299,
  "\u2581\u54f2\u5b66": 7300,
  "\u6bba": 7301,
  "\u258119,": 7302,
  "\u2581disciple": 7303,
  "\u2581colors": 7304,
  "\u3057\u3066\u304f\u308c\u308b": 7305,
  "\u306a\u304f\u3066\u3082": 7306,
  "45": 7307,
  "\u2581\u591a\u304f\u306e": 7308,
  "\u2581\u98f2\u307f": 7309,
  "\u306b\u306a\u308a\u307e\u3057\u305f": 7310,
  "\u4e00\u3064\u306e": 7311,
  "\u597d\u304d": 7312,
  "\u3092\u8fd4\u3057\u307e\u3059": 7313,
  "\u53f7": 7314,
  "\u8d77": 7315,
  "\u2581\u6c11\u65cf": 7316,
  "\u2581\u793c\u62dd": 7317,
  "\u2581\u8a73\u3057\u304f": 7318,
  "\u3042\u3089\u3086\u308b": 7319,
  "\u30aa\u30fc": 7320,
  "\u5712": 7321,
  "\u2581coast": 7322,
  "\u2581husbands": 7323,
  "\u2581output": 7324,
  "\u2581whereas": 7325,
  "\u2581\u606f": 7326,
  "\u4e8c\u4eba": 7327,
  "\u2581End": 7328,
  "\u2581circle": 7329,
  "\u2581\u4eab\u53d7": 7330,
  "\u2581\u590f": 7331,
  "\u2581\u30ea\u30b9\u30c8": 7332,
  "\u2581\u4e73": 7333,
  "\u2581\u5584": 7334,
  "\u3066\u3044\u307e\u3057\u305f": 7335,
  "\u79fb\u52d5": 7336,
  "\u2581Star": 7337,
  "\u2581cat": 7338,
  "\u2581materials": 7339,
  "\u2581\u6b8b\u3057": 7340,
  "\u79d1\u5b66": 7341,
  "\u2581essentially": 7342,
  "\u2581\u5c11\u306a\u3044": 7343,
  "\u3068\u601d\u3063\u3066": 7344,
  "\u2581dwell": 7345,
  "\u30eb\u30fc": 7346,
  "\u2581Death": 7347,
  "\u2581\u805e\u304b": 7348,
  "\u2581insight": 7349,
  "\u2581\u5b9f\u969b\u306b": 7350,
  "\u2581\u77e5\u3089\u306a\u3044": 7351,
  "\u2581\u79c1\u305f\u3061\u306e": 7352,
  "\u2581\u7dca\u5f35": 7353,
  "\u2581\u7dcf": 7354,
  "\u2581\u8cea": 7355,
  "ever": 7356,
  "ise": 7357,
  "\u2581\u5f81\u670d": 7358,
  "\u306a\u3044\u306e": 7359,
  "00": 7360,
  "\u2581Insert": 7361,
  "\u3068\u3044\u3046\u306e\u306f": 7362,
  "\u4eba\u3060": 7363,
  "\u8a71\u3092": 7364,
  "ical": 7365,
  "\u2581Lu": 7366,
  "\u2581prime": 7367,
  "\u258120,": 7368,
  "\u2581Nor": 7369,
  "\u2581circuit": 7370,
  "\u2581district": 7371,
  "\u2581mistakes": 7372,
  "\u2581slowly": 7373,
  "\u9580": 7374,
  "\u2581climate": 7375,
  "\u2581fixed": 7376,
  "\u2581\u8b1b\u6f14": 7377,
  "\u3092\u898b\u3064\u3051": 7378,
  "\u2581attacks": 7379,
  "\u2581east": 7380,
  "\u2581replaced": 7381,
  "\u4f5c\u696d": 7382,
  "\u2581biggest": 7383,
  "\u2581burden": 7384,
  "\u2581cure": 7385,
  "\u3066\u3057\u307e\u3046": 7386,
  "\u2581Walter": 7387,
  "\u2581\u6570\u5b57": 7388,
  "\u2581\u69cb\u6210": 7389,
  "\u4fe1\u983c": 7390,
  "\u3092\u3057\u3066": 7391,
  "\u30dc\u30bf\u30f3": 7392,
  "\u72af\u7f6a": 7393,
  "\u4ef6": 7394,
  "\u81ea\u3089": 7395,
  "\u2581deaths": 7396,
  "\u2581\u8a87\u308a": 7397,
  "\u2581differences": 7398,
  "\u2581neck": 7399,
  "\u2581\u3064\u3065\u3051": 7400,
  "\u73fe\u5728": 7401,
  "\u2581armies": 7402,
  "\u2581manager": 7403,
  "\u2581fulfill": 7404,
  "\u2581\u5f53": 7405,
  "\u30bf\u30a4": 7406,
  "\u805e\u304d": 7407,
  "\u2581Parents": 7408,
  "\u2581considering": 7409,
  "\u2581etc": 7410,
  "\u2581\u4e94": 7411,
  "\u2581\u5100\u5f0f": 7412,
  "\u2581\u53d6\u308c": 7413,
  "ier": 7414,
  "\u2581Huh": 7415,
  "\u2581\u308f\u304b\u3063\u3066\u308b": 7416,
  "\u2581\u7a93": 7417,
  "\u306b\u6765\u305f": 7418,
  "\u30bf\u30a4\u30d7": 7419,
  "\u30d5\u30a1\u30fc": 7420,
  "\u897f": 7421,
  "As": 7422,
  "Be": 7423,
  "\u2581Mike": 7424,
  "\u2581birthday": 7425,
  "\u3042\u308a\u304c\u3068\u3046": 7426,
  "\u3059\u308b\u5fc5\u8981\u304c\u3042\u308a\u307e\u3059": 7427,
  "\u30e9\u30e0": 7428,
  "\u529b\u3092": 7429,
  "\u2581Queen": 7430,
  "\u30a2\u30eb\u30de\u30f3": 7431,
  "au": 7432,
  "\u3068\u306a\u308a\u307e\u3059": 7433,
  "\u4ee5\u4e0a\u306e": 7434,
  "\u8cb8": 7435,
  "\u2581documents": 7436,
  "\u2581holds": 7437,
  "\u2581shop": 7438,
  "\u2581stands": 7439,
  "\u2581\u30d1\u30e9\u30c0\u30a4\u30b9": 7440,
  "\u3042\u308c": 7441,
  "\u5b9f\u969b\u306b": 7442,
  "\u2581divide": 7443,
  "\u2581researchers": 7444,
  "\u25816,000": 7445,
  "\u2581touched": 7446,
  "\u2581\u60aa\u884c": 7447,
  "\u754c": 7448,
  "ec": 7449,
  "\u2581explanation": 7450,
  "\u2581refuge": 7451,
  "\u2581\u5ba4": 7452,
  "\u8af8": 7453,
  "\u2581\u898b\u3064\u3051\u308b": 7454,
  "\u770c": 7455,
  "are": 7456,
  "pos": 7457,
  "\u25811973": 7458,
  "\u2581Bill": 7459,
  "\u2581follows": 7460,
  "\u2581meters": 7461,
  "\u2581united": 7462,
  "\u2581\u5404\u5730": 7463,
  "\u2581\u5426\u5b9a": 7464,
  "\u5f31": 7465,
  "\u2581nervous": 7466,
  "\u3042\u308b\u3044\u306f": 7467,
  "\u306e\u8272": 7468,
  "\u2581establish": 7469,
  "\u2581mad": 7470,
  "\u2581\u30bd\u9023": 7471,
  "po": 7472,
  "\u306e\u9593": 7473,
  "\u6c7a\u5b9a": 7474,
  "\u2581Icon": 7475,
  "\u2581breaking": 7476,
  "\u2581humility": 7477,
  "\u2581spite": 7478,
  "\u2581storm": 7479,
  "\u79c1\u305f\u3061": 7480,
  "\u805e\u304f": 7481,
  "\u2581complicated": 7482,
  "\u5229": 7483,
  "\u2581owe": 7484,
  "\u306a\u306e\u3088": 7485,
  "\u3089\u308c\u307e\u3059": 7486,
  "\u30e2\u30c7\u30eb": 7487,
  "\u2581Everybody": 7488,
  "\u2581entertainment": 7489,
  "\u2581lights": 7490,
  "\u2581park": 7491,
  "\u2581\u672a": 7492,
  "\u5927\u4e08\u592b": 7493,
  "\u5e0c\u671b": 7494,
  "\u2581oxygen": 7495,
  "\u2581~": 7496,
  "\u30ad\u30f3": 7497,
  "\u52d5\u304d": 7498,
  "\u2581Home": 7499,
  "\u5e30\u308b": 7500,
  "\u2581Gen": 7501,
  "\u2581comment": 7502,
  "\u2581mature": 7503,
  "\u2581shepherd": 7504,
  "\u2581sports": 7505,
  "\u2581\u53f8\u6559": 7506,
  "\u2581\u618e\u3057\u307f": 7507,
  "\u52b9\u679c": 7508,
  "\u2581introduced": 7509,
  "\u2581relationships": 7510,
  "\u2581\u9054\u6210": 7511,
  "color": 7512,
  "\u2581Happy": 7513,
  "\u2581witnessing": 7514,
  "\u2581\u304a\u6bcd\u3055\u3093": 7515,
  "\u5343": 7516,
  "\u6253\u3061": 7517,
  "\u8a71\u3059": 7518,
  "\u258149": 7519,
  "\u2581Charles": 7520,
  "\u2581evidently": 7521,
  "\u2581excuse": 7522,
  "\u2581\u611b\u3055": 7523,
  "\u5341": 7524,
  "\u5727": 7525,
  "\u2581Bring": 7526,
  "\u2581Detective": 7527,
  "\u2581Down": 7528,
  "\u2581hasn": 7529,
  "\u2581locked": 7530,
  "\u2581\u4ed8\u3044": 7531,
  "\u2581mid": 7532,
  "\u2581rivers": 7533,
  "\u2581\u3069\u3046\u3057\u305f\u306e": 7534,
  "\u30d5\u30a1\u30f3": 7535,
  "\u2581Leave": 7536,
  "\u2581Ms": 7537,
  "\u2581\u63a8\u5b9a": 7538,
  "\u2581\u7dad\u6301": 7539,
  "\u2581\u96e3": 7540,
  "\u3078\u3068": 7541,
  "\u308b\u306e\u306f": 7542,
  "\u4f5c\u6210": 7543,
  "\u671b": 7544,
  "\u2581\u6570\u3005": 7545,
  "\u5618": 7546,
  "\u2581specified": 7547,
  "\u2581\u5bfe": 7548,
  "\u2581\u9ad8\u3055": 7549,
  "\u30b5\u30a4": 7550,
  "\u2581\u3056\u308b": 7551,
  "mi": 7552,
  "\u2581plenty": 7553,
  "\u2581sources": 7554,
  "\u2581\u30d6": 7555,
  "\u2581\u9375": 7556,
  "\u30f6\u6708": 7557,
  "\u8003\u3048\u3066": 7558,
  "\u2581Damn": 7559,
  "\u2581angle": 7560,
  "\u2581strive": 7561,
  "\u304c\u3042\u308b\u306e": 7562,
  "ST": 7563,
  "back": 7564,
  "\u544a\u3052": 7565,
  "ten": 7566,
  "\u2581UN": 7567,
  "\u2581kidding": 7568,
  "\u3092\u5909\u66f4": 7569,
  "IS": 7570,
  "cha": 7571,
  "\u2581Science": 7572,
  "\u2581\u30e8\u30b7\u30e5\u30a2": 7573,
  "\u2581\u7269\u8a9e": 7574,
  "\u2581\u9650\u3089": 7575,
  "\u30f4\u30a3": 7576,
  "\u2581Richard": 7577,
  "\u2581\u8d77\u3053\u3057": 7578,
  "\u2581\u9023\u90a6": 7579,
  "\u3042\u3093\u305f": 7580,
  "\u2581remote": 7581,
  "\u2581reveals": 7582,
  "\u2581threatened": 7583,
  "\u3068\u306a\u308a": 7584,
  "Yeah": 7585,
  "\u2581fruits": 7586,
  "\u2581stuck": 7587,
  "\u2581succeed": 7588,
  "\u3066\u3044\u304f": 7589,
  "\u30d7\u30ed": 7590,
  "\u2581liked": 7591,
  "\u2581unbelievers": 7592,
  "\u2581\u306a\u3093\u3066": 7593,
  "\u2581\u30d3\u30c7\u30aa": 7594,
  "\u2581corruption": 7595,
  "\u2581\u30b5\u30fc\u30d0": 7596,
  "\u2581\u7236\u3055\u3093": 7597,
  "\u2581multiply": 7598,
  "\u2581numerous": 7599,
  "\u2581\u8868\u660e": 7600,
  "\u3060\u3051\u3067\u306a\u304f": 7601,
  "\u30ca\u30f3": 7602,
  "\u53ef\u80fd\u306a": 7603,
  "\u2581facing": 7604,
  "\u2581rulers": 7605,
  "\u2581sufficient": 7606,
  "\u2581\u3044\u308f\u3086\u308b": 7607,
  "\u2581\u5730\u9762": 7608,
  "\u56e3": 7609,
  "\u2212": 7610,
  "\u2581caring": 7611,
  "\u2581\u3082\u3057\u3082\u3057": 7612,
  "\u2581\u3092\u8fd4\u3057\u307e\u3059": 7613,
  "\u30c9\u30a2": 7614,
  "\u2581noise": 7615,
  "\u2581sugar": 7616,
  "\u3084\u3063\u3066\u308b": 7617,
  "\u25811974": 7618,
  "\u2581Verily": 7619,
  "\u3089\u3093": 7620,
  "\u51fa\u305b": 7621,
  "\u6765\u4e16": 7622,
  "\u6a19\u6e96": 7623,
  "get": 7624,
  "ong": 7625,
  "\u2581habit": 7626,
  "\u2581\u30ab\u30ea\u30d5\u30a9\u30eb\u30cb\u30a2": 7627,
  "\u2581\u6bd4\u3079": 7628,
  "\u304b\u308c\u304c": 7629,
  "\u304b\u308c\u3092": 7630,
  "\u4fa1\u5024": 7631,
  "\u518d": 7632,
  "mar": 7633,
  "\u2581eggs": 7634,
  "\u2581yellow": 7635,
  "\u30d6\u30e9": 7636,
  "ki": 7637,
  "\u2581oh": 7638,
  "\u2581visiting": 7639,
  "\u3092\u3082\u3063\u3066": 7640,
  "\u5e02\u6c11": 7641,
  "\u6771": 7642,
  "ti": 7643,
  "\u2581\u3088\u304b\u3063\u305f": 7644,
  "\u2581\u30ad\u30e3": 7645,
  "\u30ec\u30c3\u30c8": 7646,
  "\u2581\u4fe1\u6761": 7647,
  "\u53e4\u3044": 7648,
  "\u697d\u5712": 7649,
  "\u6b32": 7650,
  "\u6d88": 7651,
  "ging": 7652,
  "\u30c1\u30e3\u30fc": 7653,
  "\u2581likewise": 7654,
  "\u2581translated": 7655,
  "\u2581\u53cd\u9006": 7656,
  "\u2581\u8ddd\u96e2": 7657,
  "\u2581abundance": 7658,
  "\u2581dreams": 7659,
  "\u2581\u307e\u3063\u305f\u304f": 7660,
  "\u2581\u6cd5\u738b": 7661,
  "\u2581\u6d3b\u7528": 7662,
  "\",": 7663,
  "\u2581pursue": 7664,
  "\u2581reaching": 7665,
  "\u2581refers": 7666,
  "\u2581\u30e1\u30fc\u30eb": 7667,
  "\u51fa\u3057\u305f": 7668,
  "\u2581prophetic": 7669,
  "\u2581\u6551\u51fa": 7670,
  "\u2581\u8a2d\u5b9a": 7671,
  "\u30c3\u30c1": 7672,
  "\u2581\u304a\u307e\u3048": 7673,
  "\u2581\u9244": 7674,
  "\u306b\u5165\u308b": 7675,
  "\u671b\u307f": 7676,
  "\u753a": 7677,
  "IC": 7678,
  "\u2581Prophet": 7679,
  "\u2581\u3042\u3052": 7680,
  "\u2581\u304d\u308c\u3044": 7681,
  "\u3057\u3066\u308b\u306e": 7682,
  "\u6570\u5024": 7683,
  "City": 7684,
  "str": 7685,
  "\u25815,6": 7686,
  "\u2581anxiety": 7687,
  "\u2581pair": 7688,
  "\u2581\u8150\u6557": 7689,
  "\u3069\u306e": 7690,
  "\u2581contribute": 7691,
  "SE": 7692,
  "\u2581stronger": 7693,
  "\u4f5c\u308a": 7694,
  "35": 7695,
  "\u2581northern": 7696,
  "Cause": 7697,
  "\u2581bright": 7698,
  "\u2581\u77ed\u3044": 7699,
  "\u2581120": 7700,
  "\u2581\u5408\u8a08": 7701,
  "\u3055\u308c\u306a\u3044": 7702,
  "\u59cb\u3081\u305f": 7703,
  "\u738b\u56fd": 7704,
  "\u7528\u306e": 7705,
  "\u79c1\u305f\u3061\u306e": 7706,
  "ip": 7707,
  "ng": 7708,
  "\u2581assured": 7709,
  "\u2581mile": 7710,
  "\u2581route": 7711,
  "\u3063\u3066\u3044\u305f": 7712,
  "bit": 7713,
  "\u2581investigation": 7714,
  "\u2581warn": 7715,
  "\u2581\u8fce\u3048": 7716,
  "\u306b\u3057\u305f": 7717,
  "\u8fd4\u3059": 7718,
  "\u2581\u5927\u304d\u3055": 7719,
  "\u2581\u6a29\u529b": 7720,
  "\u2581\u901a\u3063": 7721,
  "\u9650": 7722,
  "\u2581sickness": 7723,
  "\u2581\u9577\u3055": 7724,
  "\u81ea\u5206\u3067": 7725,
  "\u2581praying": 7726,
  "\u3067\u3042\u308b\u3068": 7727,
  "\u56de\u308a": 7728,
  "\u671f\u5f85": 7729,
  "\u901f": 7730,
  "\u2581dogs": 7731,
  "\u2581\u307b\u3057\u3044": 7732,
  "\u307f\u305f\u3044\u3060": 7733,
  "\u2581headed": 7734,
  "\u2581\u51ac": 7735,
  "\u2581\u968a": 7736,
  "\u5e02": 7737,
  "\u25811919": 7738,
  "\u2581\u5171\u901a": 7739,
  "\u2581\u5f90\u3005": 7740,
  "\u30a2\u30d7\u30ea\u30b1\u30fc\u30b7\u30e7\u30f3": 7741,
  "\u2581inner": 7742,
  "\u2581motion": 7743,
  "\u2581physically": 7744,
  "\u2581\u4f55\u306e": 7745,
  "\u2581\u75b2\u308c": 7746,
  "\u5408\u3063": 7747,
  "\u2581Delete": 7748,
  "\u2581\u767a\u751f": 7749,
  "\u2581\u958b\u59cb": 7750,
  "\u629c\u3051": 7751,
  "\u2581cultivate": 7752,
  "\u2581selling": 7753,
  "\u2581visitors": 7754,
  "\u2581\u30e8\u30ca": 7755,
  "\u2581\u5348\u5f8c": 7756,
  "\u3092\u53d7\u3051": 7757,
  "\u7f8e\u54b2": 7758,
  "\u9000": 7759,
  "\u2581letting": 7760,
  "\u2581\u3044\u3063\u305f\u3044": 7761,
  "\u2581\u98f2\u3080": 7762,
  "\u3084\u304b": 7763,
  "har": 7764,
  "lan": 7765,
  "\u2581desert": 7766,
  "\u2581falling": 7767,
  "\u2581\u2019?": 7768,
  "\u2581\u9ed2": 7769,
  "\u5408\u308f\u305b": 7770,
  "\u8b77": 7771,
  "\u2581\u3042\u3093\u305f\u306f": 7772,
  "\u2581\u7bb1": 7773,
  "ring": 7774,
  "\u2581Click": 7775,
  "\u2581brief": 7776,
  "\u2581frequently": 7777,
  "\u2581\u725b": 7778,
  "\u2581\u9078\u3070": 7779,
  "\u304c\u7121\u3044": 7780,
  "\u306e\u5f8c": 7781,
  "\u52d5\u4f5c": 7782,
  "ev": 7783,
  "\u2581clock": 7784,
  "\u30ef\u30f3": 7785,
  "\u4fdd\u8b77": 7786,
  "\u8a18\u53f7": 7787,
  "\u2581comfortable": 7788,
  "\u2581ha": 7789,
  "\u2581soft": 7790,
  "\u2581\u30c6\u30a3": 7791,
  "\u3057\u305f\u3053\u3068": 7792,
  "\u258172": 7793,
  "\u2581Translation": 7794,
  "\u2581port": 7795,
  "\u3059\u308b\u306a": 7796,
  "\u30b3\u30de\u30f3\u30c9": 7797,
  "\u258122.": 7798,
  "\u2581responded": 7799,
  "\u2581riches": 7800,
  "\u2581tab": 7801,
  "\u2581\u958b\u3051": 7802,
  "\u697d": 7803,
  "\u2581Nick": 7804,
  "\u2581Settings": 7805,
  "\u2581civil": 7806,
  "\u2581nose": 7807,
  "\u2581\u3059\u3054\u304f": 7808,
  "\u3057\u3066\u3044\u307e\u3057\u305f": 7809,
  "\u82f1": 7810,
  "log": 7811,
  "\u2581cop": 7812,
  "\u2581searching": 7813,
  "\u2581sentence": 7814,
  "\u2581worthy": 7815,
  "\u2581\u30c6": 7816,
  "\u3066\u304f\u308b": 7817,
  "\u2581Street": 7818,
  "\u8155": 7819,
  "\u2581\u3054\u3081\u3093": 7820,
  "\u2581\u30ec\u30a4": 7821,
  "\u2581\u65e5\u66dc": 7822,
  "\u5f85\u3063\u3066": 7823,
  "ach": 7824,
  "use": 7825,
  "\u2581\u304b\u306d": 7826,
  "\u2581\u4ffa\u306b": 7827,
  "\u2581\u5931\u3044": 7828,
  "\u2581\u6587": 7829,
  "\u3067\u3082\u306a\u3044": 7830,
  "\u2581challenges": 7831,
  "\u2581equation": 7832,
  "\u91cd\u8981": 7833,
  "\u5370\u5237": 7834,
  "\u78ba\u7387": 7835,
  "\u2581Ar": 7836,
  "\u3058\u3083\u306a\u304b\u3063\u305f": 7837,
  "\u30b0\u30eb": 7838,
  "\u8133": 7839,
  "ana": 7840,
  "\u2581disbelieve": 7841,
  "\u2581\u3042\u3044\u3060": 7842,
  "\u2581\u3044\u3064\u304b": 7843,
  "\u2581\u4e00\u4eba": 7844,
  "\u524d\u306e": 7845,
  "\u8ffd": 7846,
  "\u2581Joe": 7847,
  "\u2581\u8aac": 7848,
  "\u4e8b\u5b9f": 7849,
  "\u5411\u304d": 7850,
  "\u2581Truly": 7851,
[...]
