{
  "</s>": 0,
  "<unk>": 1,
  ".": 2,
  ",": 3,
  "'": 4,
  "?": 5,
  "\u2581I": 6,
  "\u2581-": 7,
  "s": 8,
  "\u2581you": 9,
  "\u2581the": 10,
  "\u2581to": 11,
  "\u2581\u05d0\u05ea": 12,
  "\u2581\u05dc\u05d0": 13,
  "\u2581a": 14,
  "!": 15,
  "\u2581\u05d0\u05e0\u05d9": 16,
  "\u2581\u05d6\u05d4": 17,
  "...": 18,
  "t": 19,
  "\u2581of": 20,
  "\u2581it": 21,
  "\u2581that": 22,
  "\u2581and": 23,
  "\u2581\u05de\u05d4": 24,
  "\u2581in": 25,
  "\u2581\u05d0\u05ea\u05d4": 26,
  "\u2581You": 27,
  "\u2581is": 28,
  "\u2581me": 29,
  "\u2581\"": 30,
  "m": 31,
  "-": 32,
  "\u2581\u05e2\u05dc": 33,
  "\u2581\u05d4\u05d5\u05d0": 34,
  "\u2581for": 35,
  "\u2581on": 36,
  "re": 37,
  "\u2581\u05e9\u05dc": 38,
  "\u2581this": 39,
  "\u2581\u05dc\u05d9": 40,
  "\u2581was": 41,
  "\u2581we": 42,
  "\u2581have": 43,
  "\u2581your": 44,
  "\u2581know": 45,
  "\u2581be": 46,
  "\u2581my": 47,
  "\u05d4": 48,
  "\u2581not": 49,
  "\u2581It": 50,
  "\u2581with": 51,
  "\u05d9\u05dd": 52,
  "\u2581do": 53,
  "\u2581What": 54,
  "\u2581are": 55,
  "\u2581can": 56,
  "\u2581\u05dc\u05da": 57,
  "\u2581he": 58,
  "\u2581what": 59,
  "\u2581don": 60,
  "\u2581\u05db\u05dc": 61,
  "\u2581\u05d0\u05d1\u05dc": 62,
  "\u2581just": 63,
  "\u2581\u05db\u05df": 64,
  "\u05d9": 65,
  "\u2581\u05d9\u05e9": 66,
  "\u2581We": 67,
  "\u05d5": 68,
  "\u2581And": 69,
  "\u2581\u05e9\u05dc\u05d9": 70,
  "\u2581\u05e2\u05dd": 71,
  "\u2581out": 72,
  "\u05ea": 73,
  "\u2581like": 74,
  "\u2581all": 75,
  "\u2581here": 76,
  "ll": 77,
  "\u2581\u05d4\u05d9\u05d0": 78,
  "\u2581about": 79,
  "\u2581No": 80,
  "\u2581\u05d0\u05dd": 81,
  "\u2581\u05e9\u05dc\u05da": 82,
  "\u2581get": 83,
  "\u2581right": 84,
  "\"": 85,
  "\u2581\u05d4\u05d9\u05d4": 86,
  "\u2581up": 87,
  "\u2581\u05d1\u05e1\u05d3\u05e8": 88,
  "\u2581\u05d1": 89,
  "\u2581him": 90,
  "\u2581The": 91,
  "\u2581.": 92,
  "\u2581\u05d5": 93,
  "\u2581\u05d4": 94,
  "\u2581\u05d8\u05d5\u05d1": 95,
  "\u2581He": 96,
  "\u2581at": 97,
  "\u2581\u05dc": 98,
  "\u2581\u05d0\u05e0\u05d7\u05e0\u05d5": 99,
  "\u2581\u05e8\u05d5\u05e6\u05d4": 100,
  "\u2581her": 101,
  "\u2581there": 102,
  "\u2581That": 103,
  "\u2581\u05d0\u05d6": 104,
  "\u2581go": 105,
  "\u2581": 106,
  "\u2581Oh": 107,
  "\u2581one": 108,
  "\u2581got": 109,
  "\u2581so": 110,
  "\u2581Yeah": 111,
  "\u05d5\u05ea": 112,
  "\u2581\u05d9\u05d5\u05d3\u05e2": 113,
  "ve": 114,
  "\u2581they": 115,
  "\u2581but": 116,
  "d": 117,
  "\u2581\u05d4\u05dd": 118,
  ":": 119,
  "\u2581\u05d9\u05db\u05d5\u05dc": 120,
  "\u2581\u05e8\u05e7": 121,
  "\u2581think": 122,
  "\u2581no": 123,
  "\u2581want": 124,
  "\u2581\u05d0\u05d5\u05ea\u05d5": 125,
  "\u2581\u05d2": 126,
  "\u2581\u05d9\u05d5\u05ea\u05e8": 127,
  "\u2581his": 128,
  "\u2581\u05d0\u05d5\u05ea\u05da": 129,
  "\u2581\u05d0\u05d5": 130,
  "\u2581if": 131,
  "\u2581from": 132,
  "\u2581she": 133,
  "\u2581gonna": 134,
  "\u2581as": 135,
  "\u2581So": 136,
  "\u2581(": 137,
  "\u2581\u05e9": 138,
  "\u2581Well": 139,
  "\u2581But": 140,
  "\u2581will": 141,
  "\u2581\u05de": 142,
  "\u2581now": 143,
  "\u2581an": 144,
  "\u2581\u05dc\u05d4\u05d9\u05d5\u05ea": 145,
  "\u2581\u05d4\u05d6\u05d4": 146,
  "\u2581\u05db\u05d0\u05df": 147,
  ".\"": 148,
  "\u2581\u05e9\u05d0\u05e0\u05d9": 149,
  "\u2581see": 150,
  "\u2581\u05d0\u05d5\u05ea\u05d9": 151,
  "\u2581back": 152,
  "\u2581us": 153,
  "\u2581going": 154,
  "\u2581time": 155,
  "\u2581\u05d0\u05d7\u05d3": 156,
  "\u2581were": 157,
  "\u2581did": 158,
  "\u2581them": 159,
  "\u2581\u05e2\u05db\u05e9\u05d9\u05d5": 160,
  "\u2581'": 161,
  "\u2581?": 162,
  "\u2581\u05dc\u05de\u05d4": 163,
  "\u2581\u05d0\u05dc": 164,
  "\u2581\u05db\u05de\u05d5": 165,
  "\u2581need": 166,
  "\u2581would": 167,
  "\u2581This": 168,
  "\u2581\u05de\u05e9\u05d4\u05d5": 169,
  "\u2581been": 170,
  "\u2581had": 171,
  "\u2581good": 172,
  "\u2581\u05e6\u05e8\u05d9\u05da": 173,
  ")": 174,
  "\u2581who": 175,
  "\u2581\u05db\u05da": 176,
  "\u2581She": 177,
  "\u2581\u05dc\u05d5": 178,
  "\u2581\u05dc\u05e2\u05e9\u05d5\u05ea": 179,
  "\u2581our": 180,
  "\u2581or": 181,
  "ing": 182,
  "\u2581They": 183,
  "\u2581\u05de\u05d9": 184,
  "\u2581\u05d4\u05d9\u05d9": 185,
  "\u2581Hey": 186,
  "\u2581Okay": 187,
  "\u2581A": 188,
  "\u2581\u05dc\u05e0\u05d5": 189,
  "\u2581when": 190,
  "\u2581some": 191,
  "\u2581\u05d0\u05d9\u05da": 192,
  "\u2581How": 193,
  "\u2581could": 194,
  "\u2581\u05d0\u05d9\u05df": 195,
  "\u2581\u05db\u05d3\u05d9": 196,
  "\u2581\u266a": 197,
  "\u2581by": 198,
  "\u2581how": 199,
  "\u2581\u05db\u05d9": 200,
  "\u2581\u05e9\u05d0\u05ea\u05d4": 201,
  "\u2581\u05e0\u05db\u05d5\u05df": 202,
  "\u2581man": 203,
  "\u2581didn": 204,
  "\u2581\u05e9\u05dd": 205,
  "\u2581take": 206,
  "\u2581way": 207,
  "\u2581come": 208,
  "\u2581say": 209,
  "\u2581\u05d7\u05d5\u05e9\u05d1": 210,
  "\u2581\u05d6\u05d0\u05ea": 211,
  "\u2581\u05e9\u05d4\u05d5\u05d0": 212,
  "\u2581\u05db\u05de\u05d4": 213,
  "\u2581tell": 214,
  "\u2581down": 215,
  "\u2581really": 216,
  "\u2581something": 217,
  "\u2581more": 218,
  "\u2581\u05e4\u05e9\u05d5\u05d8": 219,
  "\u2581has": 220,
  "\u2581\u05dc\u05d4": 221,
  "\u2581\u05ea\u05d5\u05d3\u05d4": 222,
  "\u05d0\u05e0\u05d9": 223,
  "\u2581make": 224,
  "\u2581\u05d6\u05d5": 225,
  "\u2581Yes": 226,
  "\u05dd": 227,
  "\u2581\u05d2\u05dd": 228,
  "\u2581\u05d0\u05d5\u05ea\u05d4": 229,
  "\u2581[": 230,
  "\u2581Why": 231,
  "\u05db\u05df": 232,
  "\u2581All": 233,
  "\u2581\u05d4\u05d0\u05dd": 234,
  "\u2581\u05e9\u05d6\u05d4": 235,
  "\u2581\u05d4\u05d9\u05d9\u05ea\u05d9": 236,
  "\u2581\u05d0\u05d5\u05dc\u05d9": 237,
  "\u2581There": 238,
  "\u2581over": 239,
  "\u2581people": 240,
  "\u2581mean": 241,
  "\u2581If": 242,
  "\u2581\u05d9\u05d5\u05d3\u05e2\u05ea": 243,
  "\u2581Come": 244,
  "\u05e0\u05d5": 245,
  "\u2581\u05d3\u05d1\u05e8": 246,
  "\u2581\u05d1\u05d0\u05de\u05ea": 247,
  "\u05dc\u05d0": 248,
  "\u2581little": 249,
  "\u2581too": 250,
  "\u2581God": 251,
  "\u2581...": 252,
  "\u2581\u05e9\u05dc\u05d5": 253,
  "\u2581said": 254,
  "\u2581\u05e2\u05d5\u05e9\u05d4": 255,
  "\u2581then": 256,
  "\u2581never": 257,
  "\u2581off": 258,
  "\u2581let": 259,
  "\u2581Let": 260,
  "\u2581should": 261,
  "\u2581\u05d5\u05d0\u05e0\u05d9": 262,
  "ed": 263,
  "\u2581doing": 264,
  "\u2581\u05e9\u05dc\u05e0\u05d5": 265,
  "\u2581\u05db\u05d1\u05e8": 266,
  "\u2581\u05e2\u05d5\u05d3": 267,
  "\u2581thing": 268,
  "\u2581\u05e9\u05dc\u05d0": 269,
  "\u2581look": 270,
  "\u2581Don": 271,
  "]": 272,
  "\u05de\u05d4": 273,
  "\u2581Do": 274,
  "\u2581okay": 275,
  "\u2581\u05e0\u05e8\u05d0\u05d4": 276,
  "\u2581\u05d4\u05d5\u05dc\u05da": 277,
  "y": 278,
  "\u2581\u05de\u05d0\u05d5\u05d3": 279,
  "\u2581only": 280,
  "\u2581\u05dc\u05e4\u05e0\u05d9": 281,
  "\u2581\u05e2\u05d3": 282,
  "\u2581into": 283,
  "\u2581My": 284,
  "\u2581their": 285,
  "\u2581love": 286,
  "\u2581am": 287,
  "\u2581\u05d0\u05dc\u05d5\u05d4\u05d9\u05dd": 288,
  "\u2581\u05d4\u05e8\u05d1\u05d4": 289,
  "\u2581where": 290,
  "\u2581two": 291,
  "\u2581\u05d0\u05d5\u05de\u05e8": 292,
  "\u2581\u05e9\u05d4": 293,
  "\u2581Now": 294,
  "\u2581any": 295,
  "\u2581help": 296,
  "\u05e8": 297,
  "\u2581very": 298,
  "\u2581why": 299,
  "\u2581find": 300,
  "\u2581much": 301,
  "\u2581\u05d9\u05d4\u05d9\u05d4": 302,
  "I": 303,
  "\u2581\u05d6\u05de\u05df": 304,
  "\u2581\u05e4\u05e2\u05dd": 305,
  "\u2581sorry": 306,
  "\u2581work": 307,
  "\u2581Just": 308,
  "\u2581even": 309,
  "\u2581!": 310,
  "\u2581life": 311,
  "\u2581\u05d0\u05ea\u05dd": 312,
  "\u2581because": 313,
  "\u2581\u05e2\u05d3\u05d9\u05d9\u05df": 314,
  "\u2581\u05de\u05de\u05e9": 315,
  "\u2581\u05d9\u05db\u05d5\u05dc\u05d4": 316,
  "--": 317,
  "\u2581\u05d0\u05d4": 318,
  "\u2581\u05d5\u05d1\u05db\u05df": 319,
  "\u2581\u05d1\u05d1\u05e7\u05e9\u05d4": 320,
  "\u2581than": 321,
  "\u05df": 322,
  "\u2581these": 323,
  "\u2581\u05d0\u05d5\u05ea\u05dd": 324,
  "\u2581,": 325,
  "\u2581day": 326,
  "\u2581still": 327,
  "\u2581\u05d5\u05d4": 328,
  "\u2581other": 329,
  "\u2581Look": 330,
  "\u05ea\u05d9": 331,
  "\u2581talk": 332,
  "\u2581\u05e7\u05e6\u05ea": 333,
  "\u2581first": 334,
  "\u2581give": 335,
  "\u2581sure": 336,
  "\u2581anything": 337,
  "\u2581\u05dc\u05e8\u05d0\u05d5\u05ea": 338,
  "\u2581\u05e7\u05d3\u05d9\u05de\u05d4": 339,
  "\u2581\u05d9": 340,
  "\u2581\u05d0": 341,
  "\u2581Where": 342,
  "\u2581\u05d1\u05db\u05dc": 343,
  "\u2581\u05de\u05d9\u05e9\u05d4\u05d5": 344,
  "\u05dc": 345,
  "\u2581before": 346,
  "\u2581Are": 347,
  "\u2581\u05d0\u05d9\u05e4\u05d4": 348,
  "\u2581\u05d4\u05d9\u05d5": 349,
  "\u2581\u05de\u05e8": 350,
  "\u2581thought": 351,
  "\u2581\u05d0\u05e3": 352,
  "\u05d6\u05d4": 353,
  "\u2581\u05d4\u05d9\u05d9\u05ea\u05d4": 354,
  "\u05d5\u05df": 355,
  "er": 356,
  "\u05d1": 357,
  "\u2581Thank": 358,
  "\u2581\u05e9\u05d9\u05e9": 359,
  "\u2581night": 360,
  "\u2581\u05dc\u05dc\u05db\u05ea": 361,
  "\u2581well": 362,
  "\u2581call": 363,
  "\u2581In": 364,
  "\u2581\u05d0\u05e0\u05e9\u05d9\u05dd": 365,
  "\u2581home": 366,
  "\u2581\u05db": 367,
  "\u2581Mr": 368,
  "\u2581again": 369,
  "\u2581\u05d4\u05db\u05dc": 370,
  "\u2581guy": 371,
  "\u2581Who": 372,
  "\u2581\u05e9\u05d4\u05d9\u05d0": 373,
  "\u2581Not": 374,
  "\u2581\u05dc\u05e2\u05d6\u05d0\u05d6\u05dc": 375,
  "\u2581\u05d4\u05e0\u05d4": 376,
  "\u2581told": 377,
  "\u2581things": 378,
  "\u2581those": 379,
  "\u2581\u05e9\u05d5\u05d1": 380,
  "\u2581last": 381,
  "a": 382,
  "\u2581\u05dc\u05d3\u05d1\u05e8": 383,
  "\u2581\u05e4\u05d4": 384,
  "\u2581put": 385,
  "\u2581away": 386,
  "\u2581years": 387,
  "\u2581\u05e6\u05e8\u05d9\u05db\u05d9\u05dd": 388,
  "\u2581\u05d4\u05d9\u05d5\u05dd": 389,
  "\u2581\u05d7\u05d9\u05d9\u05d1": 390,
  "\u2581\u05e6\u05e8\u05d9\u05db\u05d4": 391,
  "\u2581Get": 392,
  "\u2581\u05d0\u05d1\u05d0": 393,
  "\u2581\u05d1\u05d5": 394,
  "\u2581guys": 395,
  "\u2581\u05d1\u05d3\u05d9\u05d5\u05e7": 396,
  "\u2581Your": 397,
  "\u2581\u05d4\u05d9\u05d9\u05ea": 398,
  "\u2581Can": 399,
  "\u2581\u05d9\u05db\u05d5\u05dc\u05d9\u05dd": 400,
  "\u2581\u05d0\u05d7\u05e8": 401,
  "e": 402,
  "\u2581\u05d0\u05d7\u05ea": 403,
  "\u2581better": 404,
  "\u2581around": 405,
  "\u2581\u05de\u05e6\u05d8\u05e2\u05e8": 406,
  "\u2581\u05d7\u05e9\u05d1\u05ea\u05d9": 407,
  "\u2581name": 408,
  "\u2581made": 409,
  "\u05da": 410,
  "\u2581long": 411,
  "\u2581Good": 412,
  "\u2581ever": 413,
  "\u2581\u05e9\u05dc\u05d4": 414,
  "\u2581\u05dc\u05d4\u05dd": 415,
  "\u2581\u05d0\u05d5\u05d4\u05d1": 416,
  "\u2581doesn": 417,
  "\u2581great": 418,
  "\u2581\u05e9\u05d0\u05ea": 419,
  "\u2581\u05d4\u05d5": 420,
  "\u2581after": 421,
  "\u05e7": 422,
  "\u2581\u05ea": 423,
  "\u2581\u05dc\u05d6\u05d4": 424,
  "\u2581won": 425,
  "\u2581\u05d0\u05e4\u05d9\u05dc\u05d5": 426,
  "\u2581\u05d1\u05d5\u05d0": 427,
  "\u2581\u05e9\u05d5\u05dd": 428,
  "\u2581place": 429,
  "\u2581When": 430,
  "\u2581\u05e7\u05e8\u05d4": 431,
  "\u2581kind": 432,
  "\u2581Go": 433,
  "\u2581\u05de\u05d3\u05d9": 434,
  "\u2581feel": 435,
  "\u2581always": 436,
  "\u2581\u05ea\u05de\u05d9\u05d3": 437,
  ";": 438,
  "\u2581\u05d0\u05de\u05e8": 439,
  "\u2581through": 440,
  "S": 441,
  "\u2581\u05d7\u05d5\u05e9\u05d1\u05ea": 442,
  "\u2581keep": 443,
  "\u2581does": 444,
  "\u2581believe": 445,
  "\u2581new": 446,
  "\u05d2": 447,
  "\u2581must": 448,
  "\u2581\u05d9\u05d5\u05dd": 449,
  "\u2581lot": 450,
  "\u2581\u05d0\u05de\u05d0": 451,
  "\u2581\u05e9\u05d4\u05dd": 452,
  "\u2581\u05d1\u05df": 453,
  "\u2581being": 454,
  "\u2581\u05de\u05ea": 455,
  "\u2581Did": 456,
  "\u2581\u05d4\u05d0\u05dc\u05d4": 457,
  "\u2581nothing": 458,
  "\u05e1": 459,
  "\u2581done": 460,
  "\u2581\u05d1\u05d8\u05d5\u05d7": 461,
  "\u2581\u05d0\u05d7\u05e8\u05d9": 462,
  "\u2581please": 463,
  "\u2581everything": 464,
  "\u2581\u05d5\u05d0\u05d6": 465,
  "\u2581\u05d1\u05d2\u05dc\u05dc": 466,
  "\u2581wanted": 467,
  "\u2581\u05d7\u05d1\u05e8": 468,
  "\u2581\u05e6": 469,
  "\u05d9\u05ea": 470,
  "\u2581Uh": 471,
  "\u2581\u05d0\u05d3\u05d5\u05e0\u05d9": 472,
  "\u2581\u05d3": 473,
  "\u2581might": 474,
  "\u2581\u05d0\u05d3\u05dd": 475,
  "\u2581\u05e7\u05d5\u05e8\u05d4": 476,
  "\u2581money": 477,
  "\u2581\u05d4\u05d6\u05d0\u05ea": 478,
  "\u2581happened": 479,
  "in": 480,
  "\u2581\u05d4\u05d6\u05de\u05df": 481,
  "\u2581own": 482,
  "\u2581\u05d0\u05d9": 483,
  "\u2581\u05d3\u05d9": 484,
  "\u2581world": 485,
  "\u2581uh": 486,
  "\u2581\u05e8\u05d5\u05d0\u05d4": 487,
  "\u2581\u05e9\u05d0\u05e0\u05d7\u05e0\u05d5": 488,
  "\u2581Maybe": 489,
  "\u2581talking": 490,
  "\u2581\u05be": 491,
  "\u2581which": 492,
  "\u2581stop": 493,
  "\u2581found": 494,
  "\u2581house": 495,
  "\u2581\u05db\u05d5\u05dc\u05dd": 496,
  "\u2581coming": 497,
  "\u2581\u05d0\u05d9\u05ea\u05da": 498,
  "\u2581bad": 499,
  "\u2581hear": 500,
  "\u2581left": 501,
  "\u2581old": 502,
  "\u2581wrong": 503,
  "\u2581Then": 504,
  "\u2581big": 505,
  "\u2581came": 506,
  "\u2581\u05d1\u05d1\u05d9\u05ea": 507,
  "\u2581trying": 508,
  "\u2581every": 509,
  "\u2581kill": 510,
  "\u2581\u05d1\u05d8\u05d7": 511,
  "ly": 512,
  "\u2581\u05d3\u05d1\u05e8\u05d9\u05dd": 513,
  "n": 514,
  "\u2581someone": 515,
  "\u2581\u05d3\u05e8\u05da": 516,
  "\u2581girl": 517,
  "\u2581Please": 518,
  "\u2581course": 519,
  "\u2581hell": 520,
  "\u2581\u05e8\u05d2\u05e2": 521,
  "\u2581another": 522,
  "\u2581else": 523,
  "\u2581\u05d4\u05d3\u05d1\u05e8": 524,
  "\u2581\u05d1\u05d9\u05d5\u05ea\u05e8": 525,
  "\u2581yeah": 526,
  "\u2581understand": 527,
  "\u2581\u05e9\u05dc\u05d5\u05dd": 528,
  "\u2581getting": 529,
  "\u2581leave": 530,
  "\u2581\u05d0\u05e0\u05d5": 531,
  "\u2581dead": 532,
  "\u2581family": 533,
  "\u2581three": 534,
  "\u05d0\u05ea\u05d4": 535,
  "\u2581For": 536,
  "\u2581car": 537,
  "\u2581fine": 538,
  "\u2581may": 539,
  "\u2581\u05e0": 540,
  "\u2581\u05d0\u05d5\u05ea\u05e0\u05d5": 541,
  "\u2581father": 542,
  "\u2581\u05dc\u05e2\u05d6\u05d5\u05e8": 543,
  "\u2581\u05de\u05d1\u05d9\u05df": 544,
  "\u2581\u05d0\u05de\u05e8\u05ea\u05d9": 545,
  "\u2581enough": 546,
  "\u2581\u05d0\u05d5\u05e7\u05d9\u05d9": 547,
  "\u2581\u05d8\u05d5\u05d1\u05d4": 548,
  "\u2581\u05d0\u05d9\u05d6\u05d4": 549,
  "\u2581care": 550,
  "\u2581Because": 551,
  "\u2581looking": 552,
  "\u2581\u05ea\u05e8\u05d0\u05d4": 553,
  "\u2581\u05db\u05e9": 554,
  "\u2581\u05d4\u05db\u05d9": 555,
  "\u2581same": 556,
  "\u2581To": 557,
  "l": 558,
  "\u2581sir": 559,
  "\u2581\u05d1\u05d5\u05d0\u05d5": 560,
  "\u2581\u05d1\u05d6\u05d4": 561,
  "\u2581went": 562,
  "o": 563,
  "\u2581wasn": 564,
  "\u05de": 565,
  "\u2581i": 566,
  "\u2581\u05dc\u05db\u05dd": 567,
  "\u2581\u05de\u05e1\u05e4\u05d9\u05e7": 568,
  "\u2581\u05dc\u05d3\u05e2\u05ea": 569,
  "\u2581Here": 570,
  "\u2581isn": 571,
  "\u2581\u05ea\u05d4\u05d9\u05d4": 572,
  "\u2581\u05d0\u05dc\u05d4": 573,
  "\u2581\u05d0\u05da": 574,
  "\u2581real": 575,
  "\u2581\u05d1\u05e9\u05d1\u05d9\u05dc": 576,
  "\u2581\u05dc\u05e7\u05d7\u05ea": 577,
  "\u2581\u05d1\u05d4": 578,
  "\u2581many": 579,
  "\u2581job": 580,
  "\u2581Right": 581,
  "\u2581son": 582,
  "\u2581today": 583,
  "\u2581best": 584,
  "\u2581\u05de\u05e7\u05d5\u05dd": 585,
  "\u2581\u05e9\u05e0\u05d9": 586,
  "\u2581ask": 587,
  "\u2581\u05d9\u05d5\u05d3\u05e2\u05d9\u05dd": 588,
  "\u2581friend": 589,
  "\u2581\u05de\u05ea\u05db\u05d5\u05d5\u05df": 590,
  "\u2581saw": 591,
  "\u2581show": 592,
  "\u2581together": 593,
  "\u2581\u05d5\u05d6\u05d4": 594,
  "\u2581\u05de\u05d6\u05d4": 595,
  "\u2581\u05e9\u05e0\u05d9\u05dd": 596,
  "\u2581wait": 597,
  "\u2581Hi": 598,
  "\u2581mother": 599,
  "\u2581\u05ea\u05df": 600,
  "\u2581\u05db\u05d6\u05d4": 601,
  "\u2581fucking": 602,
  "\u2581remember": 603,
  "\u2581maybe": 604,
  "\u2581\u05d1\u05d9": 605,
  "\u2581yourself": 606,
  "\u2581next": 607,
  "\u2581\u05dc\u05d5\u05de\u05e8": 608,
  "i": 609,
  "\u2581\u05dc\u05e7\u05d1\u05dc": 610,
  "\u2581\u05d5\u05dc\u05d0": 611,
  "al": 612,
  "\u2581\u05e7\u05e9\u05d4": 613,
  "\u2581stay": 614,
  "\u2581wanna": 615,
  "\u2581mind": 616,
  "\u2581called": 617,
  "\u2581idea": 618,
  "\u2581\u05d0\u05d9\u05ea\u05d9": 619,
  "\u2581\u05d0\u05d5\u05db\u05dc": 620,
  "\u2581baby": 621,
  "\u2581\u05d0\u05e4\u05e9\u05e8": 622,
  "\u2581\u05d1\u05d0": 623,
  "\u2581\u05db\u05db\u05d4": 624,
  "\u05d9\u05d4": 625,
  "\u2581took": 626,
  "\u2581\u05d4\u05d9\u05ea\u05d4": 627,
  "\u2581One": 628,
  "\u2581knew": 629,
  "\"?": 630,
  "\u2581\u05d2\u05d3\u05d5\u05dc": 631,
  "\u2581\u05d1\u05dc\u05d9": 632,
  "\u2581\u05dc\u05de\u05e6\u05d5\u05d0": 633,
  "\u2581used": 634,
  "\u2581gotta": 635,
  "\u2581whole": 636,
  "\u2581Wait": 637,
  "\u2581Thanks": 638,
  "\u2581room": 639,
  "\u2581\u05db\u05d0\u05d9\u05dc\u05d5": 640,
  "\u2581\u05e9\u05dc\u05d4\u05dd": 641,
  "\u2581shit": 642,
  "\u2581head": 643,
  "\u2581\u05d4\u05d6\u05d5": 644,
  "\u2581\u05d5\u05dc": 645,
  "\u2581nice": 646,
  "\u2581\u05db\u05dc\u05d5\u05dd": 647,
  "\u2581\u05d4\u05d1\u05d9\u05ea\u05d4": 648,
  "\u2581\u05dc\u05db\u05d0\u05df": 649,
  "\u2581\u05dc\u05d4\u05d2\u05d9\u05d3": 650,
  "\u2581already": 651,
  "\u2581Hello": 652,
  "\u2581C": 653,
  "\u2581\u05d4\u05de": 654,
  "A": 655,
  "\u2581try": 656,
  "\u2581\u05e2\u05dc\u05d9\u05d9": 657,
  "\u2581seen": 658,
  "\u25811": 659,
  "\u2581heard": 660,
  "\u2581actually": 661,
  "\u2581also": 662,
  "\u05d0\u05ea": 663,
  "\u2581use": 664,
  "\u2581\u05d1\u05d9\u05ea": 665,
  "\u2581saying": 666,
  "\u2581most": 667,
  "\u2581wouldn": 668,
  "\u2581\u05e2\u05dc\u05d9\u05d5": 669,
  "\u2581S": 670,
  "\u2581guess": 671,
  "\u2581#": 672,
  "\u2581\u05d5\u05d0\u05ea": 673,
  "\u2581\u05de\u05d3\u05d1\u05e8": 674,
  "\u2581ago": 675,
  "\u2581boy": 676,
  "\u2581\u05e2\u05d1\u05d5\u05e8": 677,
  "\u2581\u05dc\u05db\u05dc": 678,
  "\u2581\u05de\u05e0\u05e1\u05d4": 679,
  "\u2581\u05d5\u05d4\u05d5\u05d0": 680,
  "\u2581woman": 681,
  "\u2581\u05dc\u05ea\u05ea": 682,
  "\u2581hard": 683,
  "\u2581\u05dc\u05d1": 684,
  "\u2581without": 685,
  "\u2581problem": 686,
  "\u2581As": 687,
  "\u2581killed": 688,
  "\u2581pretty": 689,
  "\u2581\u05d5\u05d0\u05ea\u05d4": 690,
  "\u2581live": 691,
  "\u2581move": 692,
  "\u05d0": 693,
  "\u2581few": 694,
  "\u2581start": 695,
  "\u2581Sorry": 696,
  "\u2581\u05d9\u05e4\u05d4": 697,
  "\u2581school": 698,
  "\u2581\u05e8\u05d0\u05d9\u05ea\u05d9": 699,
  "\u2581wife": 700,
  "\u2581Of": 701,
  "\u258120": 702,
  "\u2581yet": 703,
  "\u2581\u05db\u05d0\u05e9\u05e8": 704,
  "\u2581days": 705,
  "\u05d7": 706,
  "\u2581men": 707,
  "\u2581Or": 708,
  "\u2581\u05d4\u05d0\u05de\u05ea": 709,
  "\u2581\u05dc\u05e2\u05d5\u05dc\u05dd": 710,
  "\u2581\u05e8\u05d5\u05e6\u05d9\u05dd": 711,
  "\u2581end": 712,
  "\u2581morning": 713,
  "b": 714,
  "\u2581both": 715,
  "\u2581\u05d0\u05d5\u05de\u05e8\u05ea": 716,
  "\u2581says": 717,
  "\u2581while": 718,
  "\u2581part": 719,
  "r": 720,
  "\u2581\u05d9\u05d4\u05d5\u05d4": 721,
  "\u2581meet": 722,
  "\u2581\u05de\u05e6\u05d8\u05e2\u05e8\u05ea": 723,
  "\u2581\u05de\u05de\u05e0\u05d9": 724,
  "\u2581D": 725,
  "\u2581\u05de\u05d5\u05ea\u05e7": 726,
  "\u2581\u05d0\u05d5\u05d4\u05d1\u05ea": 727,
  "\u2581\u05d4\u05d1\u05d7\u05d5\u05e8": 728,
  "\u2581ready": 729,
  "\u05e0\u05d9": 730,
  "\u2581\u05d4\u05dc\u05d9\u05dc\u05d4": 731,
  "\u2581friends": 732,
  "\u2581\u05d0\u05d7\u05d9": 733,
  "\u2581\u05de\u05e1\u05e4\u05e8": 734,
  "\u2581case": 735,
  "\u2581Jehovah": 736,
  "\u2581':": 737,
  "\u2581\u05db\u05de\u05d5\u05d1\u05df": 738,
  "\u2581such": 739,
  "\u2581Jesus": 740,
  "\u2581\u05e2\u05d5\u05e9\u05d9\u05dd": 741,
  "c": 742,
  "\u2581\u05d1\u05d3\u05e8\u05da": 743,
  "\u2581\u05dc\u05e9\u05dd": 744,
  "\u2581\u05d9\u05dc\u05d3": 745,
  "\u2581\u05d4\u05d5\u05dc\u05db\u05d9\u05dd": 746,
  "\u2581\u05e0\u05d4\u05d3\u05e8": 747,
  "\u2581\u05d9\u05d3\u05d9": 748,
  "\u2581Like": 749,
  "\u2581\u05d6\u05d4\u05d5": 750,
  "T": 751,
  "\u2581\u05dc\u05dc\u05d0": 752,
  "\u2581second": 753,
  "\u05d9\u05e9": 754,
  "\u2581\u05db\u05e1\u05e3": 755,
  "\u2581wants": 756,
  "\u2581until": 757,
  "\u2581See": 758,
  "\u2581\u05d1\u05e0\u05d9": 759,
  "\u2581under": 760,
  "\u2581fuck": 761,
  "\u2581gone": 762,
  "\u2581Have": 763,
  "\u2581\u05e2\u05d1\u05d5\u05d3\u05d4": 764,
  "\u2581myself": 765,
  "\u2581face": 766,
  "\u2581Dr": 767,
  "\u2581*": 768,
  "\u2581matter": 769,
  "\u2581run": 770,
  "\u2581\u05de\u05e8\u05d2\u05d9\u05e9": 771,
  "\u2581working": 772,
  "\u2581\u05de\u05e2\u05d5\u05dc\u05dd": 773,
  "\u2581phone": 774,
  "\u2581\u05e2\u05e9\u05d4": 775,
  "\u2581B": 776,
  "\u2581\u05de\u05d5\u05db\u05df": 777,
  "\u2581\u05dc\u05d2\u05d1\u05d9": 778,
  "\u2581\u05e2\u05dc\u05d9\u05da": 779,
  "\u2581year": 780,
  "\u2581having": 781,
  "\u2581\u05ea\u05d2\u05d9\u05d3": 782,
  "\u2581OK": 783,
  "\u2581play": 784,
  "\u2581\u05d7\u05dc\u05e7": 785,
  "\u2581anyone": 786,
  "th": 787,
  "\u2581person": 788,
  "\u2581\u05e0\u05de\u05e6\u05d0": 789,
  "\u2581\u05de\u05db\u05d0\u05df": 790,
  "\u2581\u05e8\u05e2": 791,
  "\u2581haven": 792,
  "\u2581\u05d1\u05d9\u05df": 793,
  "\u2581tonight": 794,
  "\u2581thinking": 795,
  "\u2581\u05d0\u05db\u05e4\u05ea": 796,
  "D": 797,
  "\u2581brother": 798,
  "\u2581\u05d1\u05da": 799,
  "\u05d0\u05dc": 800,
  "\u2581\u05e0\u05d7\u05de\u05d3": 801,
  "\u2581stuff": 802,
  "\u2581hand": 803,
  "\u05db\u05da": 804,
  "\u05dc\u05d4": 805,
  "\u2581hope": 806,
  "\u2581\u05e2\u05d5\u05d1\u05d3": 807,
  "\u2581\u05d0\u05d9\u05e9": 808,
  "\u2581bit": 809,
  "\u2581Take": 810,
  "\u2581\u05e0\u05d5\u05db\u05dc": 811,
  "\u2581means": 812,
  "\u2581deal": 813,
  "\u2581alone": 814,
  "\u2581\u05dc\u05e6\u05d0\u05ea": 815,
  "\u2581\u05d1\u05d5\u05d0\u05d9": 816,
  "\u2581\u05d0\u05de\u05e8\u05ea": 817,
  "\u2581bring": 818,
  "\u2581lost": 819,
  "\u2581\u05dc\u05d0\u05d7\u05e8": 820,
  "\u2581\u05dc\u05e1\u05e4\u05e8": 821,
  "\u2581\u05d1\u05d6\u05de\u05df": 822,
  "\u2581\u05e8\u05e6\u05d9\u05ea\u05d9": 823,
  "\u2581each": 824,
  "\u2581dad": 825,
  "\u05d4\u05d5\u05d0": 826,
  "\u2581kids": 827,
  "\u2581\u05e1\u05dc\u05d9\u05d7\u05d4": 828,
  "\u2581true": 829,
  "\u2581kid": 830,
  "\u2581\u05de\u05d4\u05e8": 831,
  "\u05d8": 832,
  "\u05de\u05d9": 833,
  "C": 834,
  "\u2581\u05d0\u05d9\u05ea\u05d5": 835,
  "\u2581\u05d4\u05d7\u05d9\u05d9\u05dd": 836,
  "es": 837,
  "\u2581Tell": 838,
  "\u2581die": 839,
  "\u2581couldn": 840,
  "\u2581\u05de\u05ea\u05d9": 841,
  "\u2581Dad": 842,
  "\u2581\u05e9\u05ea": 843,
  "\u2581happy": 844,
  "\u2581\u05d4\u05df": 845,
  "\u05db": 846,
  "\u2581since": 847,
  "\u2581gave": 848,
  "\u2581once": 849,
  "\u258110": 850,
  "\u05e9": 851,
  "man": 852,
  "\u2581heart": 853,
  "\u2581\u05d5\u05d1": 854,
  "on": 855,
  "\u2581\u05e9\u05e0\u05d4": 856,
  "\u2581business": 857,
  "\u05e6": 858,
  "\u2581happen": 859,
  "\u2581door": 860,
  "\u2581point": 861,
  "\u2581\u05e2\u05e9\u05d9\u05ea\u05d9": 862,
  "\u05d3": 863,
  "\u2581\u05d3\u05e7\u05d5\u05ea": 864,
  "\u2581Really": 865,
  "\u2581\u05d1\u05de\u05e7\u05d5\u05dd": 866,
  "\u2581\u05de\u05d7\u05e8": 867,
  "\u2581\u05d1\u05e9\u05d1\u05d9\u05dc\u05da": 868,
  "\u2581\u05d7\u05d9\u05d9\u05dd": 869,
  "\u2581\u05e9\u05d1": 870,
  "\u25813": 871,
  "\u2581M": 872,
  "\u2581P": 873,
  "\u2581\u05e1\u05d5\u05e3": 874,
  "\u2581\u05db\u05d3\u05d0\u05d9": 875,
  "\u2581mom": 876,
  "\u2581supposed": 877,
  "\u05d1\u05e1\u05d3\u05e8": 878,
  "\u2581\u05e9\u05dc\u05db\u05dd": 879,
  "\u2581\u05de\u05db\u05d9\u05e8": 880,
  "\u2581\u05d0\u05de\u05d5\u05e8": 881,
  "\u2581Stop": 882,
  "\u2581\u05d4\u05d0": 883,
  "\u2581\u05d1\u05db\u05dc\u05dc": 884,
  "\u2581\u05e0\u05e9\u05de\u05e2": 885,
  "\u2581\u05de\u05e9\u05e0\u05d4": 886,
  "\u2581\u05dc\u05d7\u05d6\u05d5\u05e8": 887,
  "\u2581\u05e2\u05e9\u05d9\u05ea": 888,
  "\u2581minutes": 889,
  "an": 890,
  "\u2581death": 891,
  "\u2581probably": 892,
  "\u2581\u05d7\u05db\u05d4": 893,
  "\u2581knows": 894,
  "\u05d9\u05df": 895,
  "\u2581\u05d1\u05ea": 896,
  "\u2581times": 897,
  "\u2581\u05d4\u05d1\u05d0": 898,
  "\u2581\u05d1\u05e2\u05d9\u05d4": 899,
  "\u2581thank": 900,
  "\u05d4\u05d9\u05d9": 901,
  "\u2581taking": 902,
  "\u2581\u05e0\u05dc\u05da": 903,
  "\u2581\u05d4\u05d1\u05d9\u05ea": 904,
  "\u2581later": 905,
  "\u25812": 906,
  "\u2581yes": 907,
  "\u2581change": 908,
  "u": 909,
  "\u2581turn": 910,
  "\u2581\u05d4\u05e2\u05d5\u05dc\u05dd": 911,
  "or": 912,
  "\u2581\u05d7\u05d9\u05d9\u05d1\u05ea": 913,
  "\u2581\u05d4\u05e8\u05d0\u05e9\u05d5\u05df": 914,
  "\u2581\u05dc\u05d0\u05df": 915,
  "\u2581huh": 916,
  "\u2581\u05de\u05d0\u05de\u05d9\u05df": 917,
  "\u2581listen": 918,
  "\u2581Listen": 919,
  "\u2581\u05dc\u05de\u05e2\u05e9\u05d4": 920,
  "\u2581\u05dc\u05d4\u05e8\u05d5\u05d2": 921,
  "\u05d9\u05d9": 922,
  "\u2581\u05d7\u05d9\u05d9\u05d1\u05d9\u05dd": 923,
  "\u2581T": 924,
  "\u2581\u05d0\u05e9\u05e8": 925,
  "\u2581\u05d1\u05d7\u05d5\u05e8": 926,
  "\u2581against": 927,
  "\u2581\u05e2": 928,
  "\u2581different": 929,
  "\u2581\u05d9\u05d3\u05e2\u05ea\u05d9": 930,
  "\u2581open": 931,
  "\u2581word": 932,
  "\u2581\u05d2\u05d1\u05e8": 933,
  "\u2581making": 934,
  "\u2581\u05e9\u05de\u05d7": 935,
  "em": 936,
  "\u2581\u05e2\u05dc\u05d9": 937,
  "\u2581\u05e7\u05dc": 938,
  "\u2581everyone": 939,
  "\u2581worry": 940,
  "\u05d0\u05d5": 941,
  "\u05e0\u05d4": 942,
  "\u2581late": 943,
  "M": 944,
  "\u2581makes": 945,
  "\u2581\u05e9\u05d9": 946,
  "\u2581\u05d6\u05d5\u05db\u05e8": 947,
  "\u2581\u05d4\u05d3\u05d1\u05e8\u05d9\u05dd": 948,
  "\u2581crazy": 949,
  "\u2581\u05d4\u05d0\u05e0\u05e9\u05d9\u05dd": 950,
  "\u2581\u05de\u05de\u05da": 951,
  "\u2581far": 952,
  "\u2581Give": 953,
  "P": 954,
  "\u2581blood": 955,
  "\u2581hurt": 956,
  "\u2581set": 957,
  "\u2581soon": 958,
  "\u2581\u05d7\u05e9\u05d5\u05d1": 959,
  "\u2581\u05e7\u05d5\u05d3\u05dd": 960,
  "\u2581At": 961,
  "\u2581\u05e0\u05d5": 962,
  "\u2581body": 963,
  "\u2581tomorrow": 964,
  "\u2581\u05d2\u05d1\u05e8\u05ea": 965,
  "\u2581\u05d4\u05d2\u05d9\u05e2": 966,
  "\u05d9\u05d5": 967,
  "\u2581\u05e4\u05d9": 968,
  "\u05c3": 969,
  "\u2581\u05d4\u05d5\u05dc\u05db\u05ea": 970,
  "\u2581\u05d4\u05de\u05e7\u05d5\u05dd": 971,
  "\u2581\u05d1\u05d7\u05d9\u05d9\u05dd": 972,
  "\u2581\u05ea\u05d5\u05db\u05dc": 973,
  "\u2581asked": 974,
  "\u2581Mom": 975,
  "\u2581inside": 976,
  "\u2581O": 977,
  "=": 978,
  "\u2581\u05dc\u05d1\u05d3": 979,
  "\u2581\u05d4\u05d9\u05d9\u05e0\u05d5": 980,
  "\u2581\u05de\u05e7\u05d5\u05d5\u05d4": 981,
  "\u2581\u05de\u05d0\u05d6": 982,
  "\u2581\u05d9\u05dc\u05d3\u05d9\u05dd": 983,
  "\u2581minute": 984,
  "\u2581number": 985,
  "\u2581close": 986,
  "\u05d9\u05d5\u05ea": 987,
  "\u2581five": 988,
  "\u2581\u05db\u05de\u05e2\u05d8": 989,
  "\u2581\u05d0\u05dc\u05d0": 990,
  "\u2581G": 991,
  "\u2581\u05d4\u05e1\u05e4\u05e8": 992,
  "E": 993,
  "\u2581exactly": 994,
  "\u2581water": 995,
  "\u2581\u05dc\u05d1\u05d5\u05d0": 996,
  "\u2581game": 997,
  "\u2581hours": 998,
  "\u2581chance": 999,
  "\u2581\u05de\u05e0\u05d9\u05d7": 1000,
  "\u2581\u05d4\u05d3\u05e8\u05da": 1001,
  "\u2581\u05e0\u05e2\u05e9\u05d4": 1002,
  "\u2581\u05d1\u05de\u05e9\u05da": 1003,
  "\u2581\u05e7\u05d8\u05df": 1004,
  "\u2581least": 1005,
  "\u2581\u05d6": 1006,
  "\u2581fun": 1007,
  "\u2581story": 1008,
  "\u2581hit": 1009,
  "\u2581looks": 1010,
  "\u2581\u05d4\u05e9\u05e0\u05d9": 1011,
  "\u2581\u05db\u05e0\u05e8\u05d0\u05d4": 1012,
  "en": 1013,
  "\u2581\u05dc\u05d7\u05e9\u05d5\u05d1": 1014,
  "\u2581important": 1015,
  "\u2581\u05d4\u05d7\u05d5\u05e6\u05d4": 1016,
  "\u2581\u05d1\u05d7\u05d6\u05e8\u05d4": 1017,
  "\u2581ain": 1018,
  "\u2581side": 1019,
  "\u2581truth": 1020,
  "\u2581\u05ea\u05e2\u05e9\u05d4": 1021,
  "\u2581hands": 1022,
  "\u2581E": 1023,
  "\u2581\u05d4\u05db\u05e1\u05e3": 1024,
  "\u2581children": 1025,
  "\u2581week": 1026,
  "\u2581\u05d9\u05d7\u05d3": 1027,
  "\u2581\u05e1\u05e4\u05e8": 1028,
  "\u2581His": 1029,
  "\u2581Nothing": 1030,
  "\u05dc\u05d9": 1031,
  "\u05e0\u05d9\u05dd": 1032,
  "\u2581\u05d1\u05d7\u05d9\u05d9\u05da": 1033,
  "\u2581read": 1034,
  "\u2581Me": 1035,
  "\u2581\u05d4\u05e2\u05d1\u05d5\u05d3\u05d4": 1036,
  "\u2581hold": 1037,
  "\u2581\u05d4\u05e8\u05d0\u05e9\u05d5\u05e0\u05d4": 1038,
  "\u2581reason": 1039,
  "\u2581\u05d0\u05d7\u05e8\u05ea": 1040,
  "\u2581shot": 1041,
  "\u2581\u05dc\u05d2\u05de\u05e8\u05d9": 1042,
  "\u2581\u05dc\u05d1\u05d9\u05ea": 1043,
  "\u2581\u05de\u05d0\u05d5\u05d7\u05e8": 1044,
  "\u2581\u05d4\u05db\u05d5\u05dc": 1045,
  "\u2581party": 1046,
  "\u2581New": 1047,
  "B": 1048,
  "\u2581Excuse": 1049,
  "\u2581eyes": 1050,
  "\u2581\u05d3\u05d5\u05dc\u05e8": 1051,
  "\u2581\u05d8": 1052,
  "\u2581With": 1053,
  "\u05db\u05d9": 1054,
  "\u2581\u05db\u05dc\u05d5\u05de\u05e8": 1055,
  "\u2581\u05d0\u05de\u05e8\u05d4": 1056,
  "\u2581F": 1057,
  "\u2581between": 1058,
  "\u2581check": 1059,
  "\u258115": 1060,
  "\u2581\u05e2\u05dc\u05d9\u05e0\u05d5": 1061,
  "\u2581question": 1062,
  "\u2581\u05e8\u05d1": 1063,
  "\u2581\u05dc\u05d4\u05d2\u05d9\u05e2": 1064,
  "\u2581started": 1065,
  "\u2581\u05de\u05d3\u05d5\u05e2": 1066,
  "\u2581pay": 1067,
  "\u2581\u05de\u05d4\u05dd": 1068,
  "\u2581high": 1069,
  "\u2581\u05de\u05d2\u05d9\u05e2": 1070,
  "\u05d1\u05d9": 1071,
  "\u2581gets": 1072,
  "\u2581\u05dc\u05e2\u05d1\u05d5\u05d3": 1073,
  "\u2581]": 1074,
  "\u2581rest": 1075,
  "\u2581\u05e9\u05e0": 1076,
  "\u2581office": 1077,
  "\u2581\u05e2\u05e6\u05de\u05da": 1078,
  "\u2581able": 1079,
  "\u2581Um": 1080,
  "\u2581daughter": 1081,
  "\u2581four": 1082,
  "\u2581\u05d1\u05d0\u05d5\u05e4\u05df": 1083,
  "\u2581\u05d0\u05dc\u05d5": 1084,
  "\u2581Tom": 1085,
  "it": 1086,
  "\u25815": 1087,
  "\u2581\u05e9\u05de\u05e2\u05ea\u05d9": 1088,
  "\u2581\u05d1\u05d8\u05d5\u05d7\u05d4": 1089,
  "\u05d0\u05d6": 1090,
  "\u2581needs": 1091,
  "\u2581\u05dc\u05e9\u05de\u05d5\u05e2": 1092,
  "\u2581\u05dc\u05de\u05e2\u05dc\u05d4": 1093,
  "\u2581\u05d5\u05de": 1094,
  "\u2581anymore": 1095,
  "\u2581\u05d7\u05d3\u05e9": 1096,
  "\u2581\u05d4\u05d9": 1097,
  "\u2581eat": 1098,
  "\u2581couple": 1099,
  "\u05ea\u05d5\u05d3\u05d4": 1100,
  "\u2581though": 1101,
  "\u2581trust": 1102,
  "\u2581On": 1103,
  "\u2581fight": 1104,
  "\u2581\u05de\u05e7\u05d1\u05dc": 1105,
  "\u2581\u05d1\u05e8\u05d5\u05e8": 1106,
  "\u2581\u05d1\u05e8\u05d2\u05e2": 1107,
  "\u2581Ah": 1108,
  "\u2581comes": 1109,
  "\u2581beautiful": 1110,
  "\u2581mine": 1111,
  "\u2581telling": 1112,
  "\u05e8\u05d9": 1113,
  "\u2581\u05e9\u05d1\u05d5": 1114,
  "\u2581\u05e9\u05ea\u05d9": 1115,
  "\u05d8\u05d5\u05d1": 1116,
  "\u2581\u05e1": 1117,
  "\u2581husband": 1118,
  "\u258130": 1119,
  "\u2581\u05dc\u05e4\u05d7\u05d5\u05ea": 1120,
  "\u2581\u05e9\u05d4\u05d9\u05d4": 1121,
  "\u05d0\u05d9": 1122,
  "\u2581\u05dc\u05d9\u05dc\u05d4": 1123,
  "\u2581watch": 1124,
  "\u2581\u05db\u05e4\u05d9": 1125,
  "\u2581\u05d4\u05d4": 1126,
  "\u05d5\u05e0\u05d9": 1127,
  "\u2581town": 1128,
  "\u2581ass": 1129,
  "\u2581tried": 1130,
  "\u2581\u05de\u05e1": 1131,
  "\u2581line": 1132,
  "\u2581\u05db\u05e2\u05ea": 1133,
  "\u2581\u05e9\u05dc\u05d5\u05e9": 1134,
  "\u2581\u05d5\u05de\u05d4": 1135,
  "\u2581sleep": 1136,
  "\u2581young": 1137,
  "\u2581\u05ea\u05e8\u05d0\u05d9": 1138,
  "\u2581\u05d0\u05dc\u05d9\u05d9": 1139,
  "\u2581died": 1140,
  "\u2581\u05d0\u05dc\u05d9\u05da": 1141,
  "\u2581\u05d0\u05d4\u05d9\u05d4": 1142,
  "h": 1143,
  "\u2581Will": 1144,
  "\u2581\u05d0\u05d9\u05e9\u05d4": 1145,
  "\u2581\u05d5\u05d0\u05dd": 1146,
  "\u2581\u05d4\u05ea": 1147,
  "\u2581power": 1148,
  "\u2581\u05de\u05d5\u05d6\u05e8": 1149,
  "\u2581\u05dc\u05de\u05d8\u05d4": 1150,
  "\u2581\u05d4\u05e2\u05e8\u05d1": 1151,
  "\u2581met": 1152,
  "\u2581Sure": 1153,
  "\u2581easy": 1154,
  "\u2581news": 1155,
  "\u2581\u05e9\u05d0": 1156,
  "\u2581behind": 1157,
  "cause": 1158,
  "\u2581half": 1159,
  "\u2581walk": 1160,
  "p": 1161,
  "\u2581\u05d7": 1162,
  "\u2581fire": 1163,
  "\u2581These": 1164,
  "\u2581\u05e9\u05e2\u05d5\u05ea": 1165,
  "\u2581\u05e2\u05e8\u05d1": 1166,
  "\u2581goes": 1167,
  "\u05e1\u05d9": 1168,
  "\u2581police": 1169,
  "le": 1170,
  "\u2581\u05dc\u05d4\u05d1\u05d9\u05d0": 1171,
  "k": 1172,
  "\u2581L": 1173,
  "ic": 1174,
  "\u2581months": 1175,
  "\u2581gun": 1176,
  "\u2581\u05de\u05d1\u05d9\u05e0\u05d4": 1177,
  "\u2581\u05d4\u05e2\u05d9\u05e8": 1178,
  "\u2581break": 1179,
  "\u2581\u05de\u05d6\u05dc": 1180,
  "\u2581\u05d1\u05d4\u05d7\u05dc\u05d8": 1181,
  "\u2581\u05de\u05e7\u05e8\u05d4": 1182,
  "\u2581safe": 1183,
  "\u2581\u05de\u05d5\u05e9\u05d2": 1184,
  "\u2581\u05e7\u05e9\u05e8": 1185,
  "\u2581book": 1186,
  "\u2581team": 1187,
  "\u2581s": 1188,
  "\u2581\u05e7": 1189,
  "\u2581afraid": 1190,
  "\u2581plan": 1191,
  "\u05d6": 1192,
  "\u2581\u05d5\u05d5\u05d0\u05d5": 1193,
  "\u2581\u05dc\u05d4\u05d9\u05e9\u05d0\u05e8": 1194,
  ",\"": 1195,
  "\u2581\u05d0\u05ea\u05de\u05d5\u05dc": 1196,
  "\u2581somebody": 1197,
  "\u2581hate": 1198,
  "\u258119": 1199,
  "\u2581hey": 1200,
  "\u2581um": 1201,
  "\u2581\u05d1\u05d7\u05d5\u05e5": 1202,
  "\u2581\u05d1\u05d9\u05d5\u05dd": 1203,
  "\u05e4\u05d9": 1204,
  "\u2581moment": 1205,
  "\u05e2\u05dc": 1206,
  "\u2581wish": 1207,
  "\u2581fact": 1208,
  "\u2581\u05d1\u05e9\u05d1\u05d9\u05dc\u05d9": 1209,
  "\u2581\u05d0\u05dc\u05d9": 1210,
  "\u2581\u05d1\u05ea\u05d5\u05da": 1211,
  "\u2581full": 1212,
  "\u2581\u05d1\u05e2\u05d5\u05dc\u05dd": 1213,
  "\u2581\u05d4\u05d0\u05d3\u05dd": 1214,
  "\u2581free": 1215,
  "\u2581brought": 1216,
  "\u2581Be": 1217,
  "\u2581\u05e1\u05d5\u05d2": 1218,
  "\u2581John": 1219,
  "\u2581\u05d9\u05de\u05d9\u05dd": 1220,
  "\u2581\u05db\u05d5\u05dc\u05e0\u05d5": 1221,
  "\u2581\u05d0\u05d7\u05e8\u05d9\u05dd": 1222,
  "\u2581drink": 1223,
  "\u2581\u05d7\u05d9": 1224,
  "\u2581\u05d4\u05d0\u05d7\u05e8\u05d5\u05df": 1225,
  "\u2581cut": 1226,
  "\u2581\u05d1\u05d9\u05d7\u05d3": 1227,
  "ra": 1228,
  "\u2581\u05d7\u05d1\u05e8\u05d9\u05dd": 1229,
  "\u2581\u05d0\u05ea\u05df": 1230,
  "\u258118": 1231,
  "am": 1232,
  "\u2581W": 1233,
  "\u2581married": 1234,
  "\u25814": 1235,
  "\u2581child": 1236,
  "\u2581\u05d0\u05d5\u05d9": 1237,
  "to": 1238,
  "\u2581parents": 1239,
  "\u2581Our": 1240,
  "\u2581whatever": 1241,
  "\u2581\u05dc\u05db\u05df": 1242,
  "\u2581sister": 1243,
  "\u2581speak": 1244,
  "O": 1245,
  "\u2581\u05d1\u05dc\u05d9\u05dc\u05d4": 1246,
  "ers": 1247,
  "\u2581city": 1248,
  "\u2581\u05d1\u05dc\u05ea\u05d9": 1249,
  "\u05db\u05dd": 1250,
  "ie": 1251,
  "\u2581waiting": 1252,
  "\u258112": 1253,
  "\u2581\u05d0\u05dc\u05d9\u05d5": 1254,
  "\u05d0\u05dd": 1255,
  "\u2581\u05de\u05de\u05e0\u05d5": 1256,
  "\u05e3": 1257,
  "\u2581\u05d5\u05d4\u05d9\u05d0": 1258,
  "\u2581\u05dc\u05e9\u05d0\u05d5\u05dc": 1259,
  "\u2581alive": 1260,
  "\u2581Mrs": 1261,
  "\u2581\u05d4\u05d0\u05d9\u05e9": 1262,
  "\u2581\u05de\u05df": 1263,
  "the": 1264,
  "\u2581\u05d4\u05e9\u05dd": 1265,
  "\u2581\u05d1\u05e2\u05d5\u05d3": 1266,
  "\u2581food": 1267,
  "\u2581\u05d4\u05dc\u05d5": 1268,
  "\u2581front": 1269,
  "\u2581\u05d4\u05d9\u05dc\u05d3": 1270,
  "\u2581\u05dc\u05e9\u05de\u05d5\u05e8": 1271,
  "\u2581Which": 1272,
  "\u2581shall": 1273,
  "\u05de\u05df": 1274,
  "\u2581\u05d4\u05d9\u05db\u05df": 1275,
  "\u2581save": 1276,
  "\u2581\u05de\u05db\u05dc": 1277,
  "\u2581answer": 1278,
  "\u2581\u05dc\u05d4\u05d1\u05d9\u05df": 1279,
  "\u2581sit": 1280,
  "\u2581almost": 1281,
  "\u2581clear": 1282,
  "\u2581\u05dc\u05de\u05e2\u05df": 1283,
  "\u2581cool": 1284,
  "\u2581girls": 1285,
  "\u2581\u05d0\u05e2\u05e9\u05d4": 1286,
  "\u2581\u05e8\u05d0\u05d9\u05ea": 1287,
  "\u05d4\u05dd": 1288,
  "\u2581everybody": 1289,
  "\u2581\u05d0\u05d9\u05ea\u05d4": 1290,
  "\u2581\u05d1\u05e7\u05e9\u05e8": 1291,
  "\u2581Great": 1292,
  "\u2581either": 1293,
  "\u2581l": 1294,
  "\u2581\u05d8\u05d5\u05d1\u05d9\u05dd": 1295,
  "\u2581women": 1296,
  "\u2581Bible": 1297,
  "\u2581\u05e2\u05e6\u05de\u05d9": 1298,
  "\u2581\u05e2\u05dc\u05d9\u05d4": 1299,
  "\u05dc\u05de\u05d4": 1300,
  "\u2581\u05d4\u05d0\u05dc\u05d5": 1301,
  "\u2581\u05d9\u05d4\u05d9\u05d5": 1302,
  "\u2581\u05db\u05e8\u05d2\u05e2": 1303,
  "\u2581\u05d5\u05ea": 1304,
  "\u2581\u05e2\u05d5\u05de\u05d3": 1305,
  "\u2581stand": 1306,
  "\u2581Man": 1307,
  "\u2581\u05d1\u05d5\u05e7\u05e8": 1308,
  "\u2581lives": 1309,
  "\u2581outside": 1310,
  "\u2581\u05e8\u05d1\u05d4": 1311,
  "R": 1312,
  "\u2581Would": 1313,
  "\u2581human": 1314,
  "\u2581war": 1315,
  "\u05d0\u05df": 1316,
  "\u2581\u05d7\u05d6\u05e8\u05d4": 1317,
  "\u2581\u05d4\u05d1\u05e2\u05d9\u05d4": 1318,
  "\u2581Some": 1319,
  "\u2581sent": 1320,
  "\u2581stupid": 1321,
  "\u2581\u05ea\u05e7\u05e9\u05d9\u05d1": 1322,
  "and": 1323,
  "\u2581\u05d4\u05d9\u05d7\u05d9\u05d3": 1324,
  "\u2581Jack": 1325,
  "\u2581himself": 1326,
  "\u2581\u05e8\u05d0\u05e9": 1327,
  "\u2581bed": 1328,
  "\u05e4\u05d4": 1329,
  "\u2581\u05dc\u05e4\u05e2\u05de\u05d9\u05dd": 1330,
  "f": 1331,
  "\u2581\u05d1\u05d7\u05d3\u05e8": 1332,
  "\u2581trouble": 1333,
  "\u2581\u05d9\u05e7\u05e8\u05d4": 1334,
  "\u2581\u05d4\u05d0\u05d7\u05e8\u05d5\u05e0\u05d4": 1335,
  "\u2581\u05d4\u05d7\u05d1\u05e8": 1336,
  "\u2581aren": 1337,
  "\u2581\u05d5\u05e2\u05db\u05e9\u05d9\u05d5": 1338,
  "\u2581\u05d2\u05d3\u05d5\u05dc\u05d4": 1339,
  "\u2581\u05ea\u05d7\u05ea": 1340,
  "\u2581\u05dc\u05e4\u05d9": 1341,
  "\u2581\u05d4\u05e4\u05e2\u05dd": 1342,
  "\u2581Mm": 1343,
  "\u2581\u05d0\u05d9\u05d6\u05d5": 1344,
  "\u2581living": 1345,
  "\u2581R": 1346,
  "\u2581hot": 1347,
  "\u2581\u05d7\u05e8\u05d0": 1348,
  "\u2581six": 1349,
  "\u2581miss": 1350,
  "\u2581running": 1351,
  "\u2581\u05d5\u05d2\u05dd": 1352,
  "\u2581\u05de\u05d9\u05d3": 1353,
  "\u2581\u05d4\u05d9\u05dc\u05d3\u05d9\u05dd": 1354,
  "ar": 1355,
  "\u2581\u05de\u05e9\u05d7\u05e7": 1356,
  "\u2581\u05de\u05d7\u05d5\u05e5": 1357,
  "\u2581order": 1358,
  "\u2581\u05d4\u05e2\u05e0\u05d9\u05d9\u05df": 1359,
  "\u2581K": 1360,
  "...\"": 1361,
  "\u2581light": 1362,
  "\u2581\u05e8\u05e2\u05d9\u05d5\u05df": 1363,
  "\u2581\u05e7\u05d8\u05e0\u05d4": 1364,
  "F": 1365,
  "\u2581After": 1366,
  "\u2581\u05d4\u05e1\u05d9\u05d1\u05d4": 1367,
  "us": 1368,
  "\u2581\u05d7\u05d9\u05d9": 1369,
  "\u2581\u05dc\u05d4\u05e9\u05d9\u05d2": 1370,
  "\u2581\u05dc\u05db\u05da": 1371,
  "\u2581\u05e9\u05dc\u05d5\u05e9\u05d4": 1372,
  "\u2581buy": 1373,
  "\u2581bitch": 1374,
  "\u05d9\u05d9\u05df": 1375,
  "\u05d4\u05d9\u05d0": 1376,
  "\u2581\u05e7\u05d7": 1377,
  "\u2581Nice": 1378,
  "\u25816": 1379,
  "\u2581doctor": 1380,
  "\u2581sex": 1381,
  "\u2581\u05e9\u05d9\u05d4\u05d9\u05d4": 1382,
  "\u2581Two": 1383,
  "\u2581\u05dc\u05d4\u05e9\u05ea\u05de\u05e9": 1384,
  "\u2581Fuck": 1385,
  "\u05d5\u05e8": 1386,
  "\u2581\u05dc\u05de\u05d5\u05ea": 1387,
  "\u2581re": 1388,
  "\u2581pick": 1389,
  "\u2581become": 1390,
  "\u2581feeling": 1391,
  "\u2581\u05e6\u05d5\u05d3\u05e7": 1392,
  "\u2581Wow": 1393,
  "\u2581forget": 1394,
  "el": 1395,
  "\u2581dinner": 1396,
  "\u2581\u05d0\u05ea\u05db\u05dd": 1397,
  "\u2581\u05e0\u05d5\u05e8\u05d0": 1398,
  "\u2581\u05e9\u05d0\u05ea\u05dd": 1399,
  "\u2581\u05dc\u05d4\u05d9\u05db\u05e0\u05e1": 1400,
  "\u2581\u05db\u05d9\u05e6\u05d3": 1401,
  "\u2581\u05d1\u05e4\u05e2\u05dd": 1402,
  "\u2581\u05dc\u05e2\u05d6\u05d5\u05d1": 1403,
  "\u2581promise": 1404,
  "\u2581\u05dc\u05d0\u05db\u05d5\u05dc": 1405,
  "\u2581\u05e0\u05d2\u05d3": 1406,
  "You": 1407,
  "\u2581quite": 1408,
  "\u2581past": 1409,
  "\u2581taken": 1410,
  "\u2581\u05e7\u05e8\u05d5\u05d1": 1411,
  "\u2581\u05d9\u05d5\u05e4\u05d9": 1412,
  "\u2581\u05dc\u05e2\u05e6\u05d5\u05e8": 1413,
  "\u2581\u05d4\u05d1\u05df": 1414,
  "\u2581funny": 1415,
  "\u2581\u05d0\u05d5\u05de\u05e8\u05d9\u05dd": 1416,
  "\u2581ahead": 1417,
  "\u05d5\u05e8\u05d2": 1418,
  "N": 1419,
  "\u2581Hold": 1420,
  "\u05d5\u05e0\u05d9\u05dd": 1421,
  "\u2581control": 1422,
  "The": 1423,
  "\u2581\u05d5\u05d4\u05dd": 1424,
  "\u2581lose": 1425,
  "\u2581\u05e9\u05de": 1426,
  "\u2581boys": 1427,
  "g": 1428,
  "\u2581\u05d9\u05e9\u05d5\u05e2": 1429,
  "\u2581\u05d1\u05e0\u05d0\u05d3\u05dd": 1430,
  "\u2581Got": 1431,
  "\u2581sense": 1432,
  "\u2581\u05d4\u05e8\u05d2\u05e2": 1433,
  "\u2581\u05d0\u05de\u05d9\u05ea\u05d9": 1434,
  "\u2581Sir": 1435,
  "\u2581un": 1436,
  "\u2581\u05dc\u05d5\u05e7\u05d7": 1437,
  "\u2581known": 1438,
  "\u2581\u05d7\u05d6\u05e7": 1439,
  "\u2581country": 1440,
  "la": 1441,
  "\u2581\u05d4\u05d3\u05dc\u05ea": 1442,
  "\u2581\u05ea\u05e4\u05e1\u05d9\u05e7": 1443,
  "\u2581\u05dc\u05d9\u05d3": 1444,
  "\u05de\u05ea": 1445,
  "up": 1446,
  "\u2581hour": 1447,
  "\u2581\u05dc\u05e7\u05e8\u05d5\u05d0": 1448,
  "\u2581\u05d9\u05db\u05d5\u05dc\u05ea\u05d9": 1449,
  "\u2581damn": 1450,
  "\u2581sick": 1451,
  "\u2581\u05d1\u05d0\u05d5\u05ea\u05d5": 1452,
  "\u2581\u05d4\u05de\u05e9\u05e4\u05d7\u05d4": 1453,
  "G": 1454,
  "\u2581\u05d4\u05d9\u05d7\u05d9\u05d3\u05d4": 1455,
  "\u2581\u05dc\u05d7\u05d9\u05d5\u05ea": 1456,
  "\u2581\u05e4\u05d7\u05d5\u05ea": 1457,
  "\u2581\u05d5\u05d9\u05e9": 1458,
  "\u2581words": 1459,
  "\u05d0\u05e0\u05d7\u05e0\u05d5": 1460,
  "\u2581possible": 1461,
  "\u2581serious": 1462,
  "\u2581\u05d1\u05e4\u05e0\u05d9\u05dd": 1463,
  "\u2581\u05d1\u05e9\u05dd": 1464,
  "\u2581dog": 1465,
  "\u2581\u05e4\u05e0\u05d9\u05dd": 1466,
  "\u2581\u05de\u05d0\u05e9\u05e8": 1467,
  "\u05d0\u05d9\u05df": 1468,
  "\u2581figure": 1469,
  "\u2581J": 1470,
  "\u2581asking": 1471,
  "\u2581cannot": 1472,
  "\u2581Keep": 1473,
  "is": 1474,
  "z": 1475,
  "\u2581\u05e9\u05db\u05dc": 1476,
  "\u2581\u05e9\u05d0\u05d9\u05df": 1477,
  "L": 1478,
  "\u2581\u05e8\u05d9\u05d9": 1479,
  "\u05d0\u05d1\u05dc": 1480,
  "\u2581\u05d7\u05d5\u05e9\u05d1\u05d9\u05dd": 1481,
  "x": 1482,
  "\u2581along": 1483,
  "\u2581\u05d2\u05e8\u05d5\u05e2": 1484,
  "\u2581happens": 1485,
  "\u2581\u05d4\u05e8\u05d0\u05e9": 1486,
  "\u2581\u05d4\u05d7\u05d1\u05e8\u05d4": 1487,
  "\u2581seems": 1488,
  "\u2581\u05d5\u05db\u05dc": 1489,
  "\u2581hair": 1490,
  "\u2581YOU": 1491,
  "\u2581\u05de\u05de\u05d4": 1492,
  "\u05de\u05e8": 1493,
  "\u2581\u05de\u05d0\u05d3": 1494,
  "\u2581\u05d7\u05de\u05e9": 1495,
  "\u2581perfect": 1496,
  "\u2581\u05de\u05e2\u05dc": 1497,
  "\u2581\u05e4\u05e2\u05de\u05d9\u05dd": 1498,
  "w": 1499,
  "\u2581Does": 1500,
  "\u2581\u05e8\u05d1\u05d9\u05dd": 1501,
  "son": 1502,
  "\u2581\u05dc\u05e2\u05d1\u05d5\u05e8": 1503,
  "\u2581\u05d4\u05d8\u05d5\u05d1": 1504,
  "\u05d9\u05e0\u05d4": 1505,
  "\u2581Even": 1506,
  "\u2581meeting": 1507,
  "\u2581\u05ea\u05e8\u05d0\u05d5": 1508,
  "\u2581\u05e7\u05d5\u05e8\u05d0\u05d9\u05dd": 1509,
  "\u05d3\u05d9": 1510,
  "\u2581\u05d7\u05d5\u05e5": 1511,
  "\u2581sound": 1512,
  "\u2581send": 1513,
  "\u05e8\u05e7": 1514,
  "\u2581\u05de\u05ea\u05db\u05d5\u05d5\u05e0\u05ea": 1515,
  "\u2581\u05db\u05d4": 1516,
  "\u2581Miss": 1517,
  "\u2581H": 1518,
  "\u2581\u05d0\u05d1\u05d9": 1519,
  "\u2581\u05ea\u05e0\u05d9": 1520,
  "\u05e0\u05d8": 1521,
  "\u2581\u05d7\u05e6\u05d9": 1522,
  "\u2581\u05d9\u05d5\u05e6\u05d0": 1523,
  "\u2581\u05d4\u05d2\u05d3\u05d5\u05dc": 1524,
  "\u2581system": 1525,
  "\u05d0\u05d9\u05d9": 1526,
  "\u2581\u05e0\u05e8\u05d0\u05d9\u05ea": 1527,
  "\u2581Put": 1528,
  "\u2581anyway": 1529,
  "\u2581\u05de\u05e8\u05d2\u05d9\u05e9\u05d4": 1530,
  "\u2581questions": 1531,
  "\u2581\u05de\u05ea\u05d4": 1532,
  "H": 1533,
  "\u2581weeks": 1534,
  "\u05e4\u05ea": 1535,
  "\u2581\u05e7\u05e8": 1536,
  "\u2581others": 1537,
  "\u05d1\u05e8": 1538,
  "\u05d9\u05d9\u05dd": 1539,
  "\u2581An": 1540,
  "\u2581murder": 1541,
  "\u2581million": 1542,
  "\u2581\u05e1\u05ea\u05dd": 1543,
  "\u2581\u05dc\u05e0\u05e1\u05d5\u05ea": 1544,
  "\u2581\u05d7\u05d5\u05d3\u05e9\u05d9\u05dd": 1545,
  "\u2581\u05d0\u05d3\u05d9\u05e8\u05d9\u05dd": 1546,
  "\u05e7\u05d9": 1547,
  "\u2581Ma": 1548,
  "\u2581\u05de\u05d3\u05d4\u05d9\u05dd": 1549,
  "\u2581company": 1550,
  "\u2581\u05d5\u05e0": 1551,
  "\u2581\u05dc\u05d2\u05e8\u05d5\u05dd": 1552,
  "\u2581leaving": 1553,
  "\u2581\u05dc\u05d4\u05ea\u05d7\u05d9\u05dc": 1554,
  "\u05de\u05ea\u05d9": 1555,
  "\u2581\u05d0\u05e8\u05d5\u05d7\u05ea": 1556,
  "\u2581seem": 1557,
  "\u2581\u05d0\u05d4\u05d1\u05d4": 1558,
  "\u2581\u05de\u05d3\u05d1\u05e8\u05d9\u05dd": 1559,
  "\u2581\u05dc\u05e9\u05d7\u05e7": 1560,
  "\u2581drive": 1561,
  "\u2581\u05de\u05d5": 1562,
  "\u2581learn": 1563,
  "\u2581\u05e8\u05d0\u05d4": 1564,
  "\u2581\u05e0\u05d2\u05de\u05e8": 1565,
  "\u2581\u05e0\u05d9\u05ea\u05df": 1566,
  "\u2581needed": 1567,
  "\u2581\u05d7\u05d1\u05e8\u05d4": 1568,
  "\u2581\u05dc\u05d4\u05de\u05e9\u05d9\u05da": 1569,
  "\u2581By": 1570,
  "\u2581\u05d9\u05dc\u05d3\u05d4": 1571,
  "\u2581special": 1572,
  "\u2581Everything": 1573,
  "\u2581thanks": 1574,
  "\u2581\u05de\u05e6\u05d7\u05d9\u05e7": 1575,
  "\u2581\u05d5\u05d0\u05e0\u05d7\u05e0\u05d5": 1576,
  "\u05e0\u05d9\u05ea": 1577,
  "\u2581ones": 1578,
  "\u05d0\u05d4": 1579,
  "\u05dc\u05d5": 1580,
  "\u2581\u05de\u05d7\u05d3\u05e9": 1581,
  "\u2581\u05dc\u05e0\u05e6\u05d7": 1582,
  "\u2581small": 1583,
  "\u2581\u05d3\u05dd": 1584,
  "\u2581black": 1585,
  "\u2581\u05d5\u05d9": 1586,
  "\u05d9\u05da": 1587,
  "\u2581\u05dc\u05e9\u05d9\u05dd": 1588,
  "\u2581date": 1589,
  "\u2581playing": 1590,
  "\u2581\u05e8\u05d5\u05d7": 1591,
  "\u2581\u05de\u05e2\u05d8": 1592,
  "\u2581\u05de\u05e6\u05d0\u05ea\u05d9": 1593,
  "\u2581anybody": 1594,
  "\u05db\u05dc": 1595,
  "\u2581\u05e9\u05d4\u05d9\u05d9\u05ea\u05d9": 1596,
  "\u2581worked": 1597,
  "you": 1598,
  "\u2581honey": 1599,
  "\u2581\u05dc\u05d2": 1600,
  "\u2581\u05e1\u05d9\u05db\u05d5\u05d9": 1601,
  "\u2581future": 1602,
  "?\"": 1603,
  "\u2581de": 1604,
  "\u2581shouldn": 1605,
  "\u2581sort": 1606,
  "\u2581\u05e9\u05d5\u05d5\u05d4": 1607,
  "\u2581touch": 1608,
  "\u2581win": 1609,
  "\u2581Fine": 1610,
  "\u2581\u05d4\u05d1\u05d5\u05e7\u05e8": 1611,
  "\u2581\u05e0\u05e9\u05d9\u05dd": 1612,
  "\u05d9\u05e0\u05d5": 1613,
  "\u2581\u05d4\u05d1\u05d0\u05d4": 1614,
  "\u2581\u05de\u05e4\u05e0\u05d9": 1615,
  "\u2581\u05dc\u05e4\u05d2\u05d5\u05e9": 1616,
  "\u2581\u05e8": 1617,
  "\u2581top": 1618,
  "\u05d8\u05d9": 1619,
  "\u2581choice": 1620,
  "\u2581Was": 1621,
  "\u2581\u05de\u05dc\u05d0": 1622,
  "\u2581Her": 1623,
  "\u2581\u05d0\u05d5\u05ea\u05df": 1624,
  "\u2581fast": 1625,
  "\u258150": 1626,
  "\u2581shut": 1627,
  "\u2581\u05de\u05ea\u05d7\u05ea": 1628,
  "\u2581\u05e0\u05d5\u05ea\u05df": 1629,
  "\u2581\u05d1\u05ea\u05d5\u05e8": 1630,
  "\u2581\u05d4\u05e8": 1631,
  "\u2581\u05db\u05d5\u05d7": 1632,
  "\u2581weird": 1633,
  "Cause": 1634,
  "\u2581\u05d0\u05d9\u05de\u05d0": 1635,
  "\u2581\u05d1\u05d9\u05d9": 1636,
  "\u2581_": 1637,
  "\u2581\u05d9\u05d5": 1638,
  "\u2581sign": 1639,
  "\u2581Something": 1640,
  "\u2581\u05e7\u05d5": 1641,
  "\u2581From": 1642,
  "\u2581lady": 1643,
  "\u2581works": 1644,
  "\u2581\u05e7\u05d9\u05d1\u05dc\u05ea\u05d9": 1645,
  "\u2581\u05d0\u05d9\u05e0\u05d5": 1646,
  "\u2581\u05e1\u05d9\u05d1\u05d4": 1647,
  "\u2581felt": 1648,
  "\u2581lie": 1649,
  "\u2581\u05dc\u05e7\u05d7": 1650,
  "\u2581.\"": 1651,
  "\u2581\u05e9\u05de\u05d5": 1652,
  "\u2581less": 1653,
  "\u2581\u05dc\u05d9\u05e9\u05d5\u05df": 1654,
  "able": 1655,
  "\u2581\u05d1\u05e6\u05d5\u05e8\u05d4": 1656,
  "\u2581hospital": 1657,
  "\u2581\u05e2\u05dc\u05d9\u05d9\u05da": 1658,
  "\u2581Bye": 1659,
  "\u2581N": 1660,
  "\u2581\u05db\u05dc\u05dc": 1661,
  "\u2581\u05de\u05d5\u05db\u05e0\u05d4": 1662,
  "\u2581\u05e2\u05e6\u05de\u05d5": 1663,
  "\u2581Paul": 1664,
  "\u2581\u05de\u05e4\u05d4": 1665,
  "\u2581Christ": 1666,
  "\u2581\u05d1\u05d4\u05dd": 1667,
  "\u05e9\u05dc": 1668,
  "\u2581calling": 1669,
  "\u2581\u05dc\u05d1\u05d3\u05d5\u05e7": 1670,
  "\u2581\u05dc\u05ea\u05d5\u05da": 1671,
  "\u2581\u05e9\u05d0\u05dc\u05d4": 1672,
  "\u2581\u05e9\u05d5\u05e0\u05d4": 1673,
  "\u2581\u05e9\u05e2\u05d4": 1674,
  "\u2581scared": 1675,
  "\u2581\u05de\u05ea\u05d7\u05d9\u05dc": 1676,
  "\u2581\u05e1\u05d9": 1677,
  "\u2581\u05e0\u05d4\u05d9\u05d4": 1678,
  "\u2581\u05d0\u05e4\u05e9\u05e8\u05d9": 1679,
  "\u2581air": 1680,
  "\u2581\u05d4\u05d0\u05e8\u05e5": 1681,
  "What": 1682,
  "\u2581\u05e9\u05de\u05d9\u05e9\u05d4\u05d5": 1683,
  "\u2581clean": 1684,
  "\u2581\u05d1\u05e0\u05d5\u05d2\u05e2": 1685,
  "ation": 1686,
  "\u2581ma": 1687,
  "\u2581\u05d4\u05d1\u05e0\u05ea\u05d9": 1688,
  "\u2581music": 1689,
  "no": 1690,
  "\u2581Lord": 1691,
  "\u2581\u05d1\u05e7\u05e8\u05d5\u05d1": 1692,
  "\u2581information": 1693,
  "/": 1694,
  "\u2581Could": 1695,
  "\u2581glad": 1696,
  "\u05d6\u05d5": 1697,
  "\u2581\u05d2\u05e8": 1698,
  "\u05d0\u05e7": 1699,
  "\u2581\u05db\u05e9\u05d0\u05e0\u05d9": 1700,
  "\u25818": 1701,
  "\u25817": 1702,
  "\u2581given": 1703,
  "\u2581\u05d1\u05d1\u05d5\u05e7\u05e8": 1704,
  "\u2581Very": 1705,
  "\u2581\u05de\u05e9\u05e4\u05d7\u05d4": 1706,
  "\u2581luck": 1707,
  "\u2581Help": 1708,
  "\u2581\u05dc\u05de": 1709,
  "\u2581David": 1710,
  "\u2581\u05d6\u05e7\u05d5\u05e7": 1711,
  "\u2581Sam": 1712,
  "\u2581\u05d1\u05e2\u05dc\u05d9": 1713,
  "\u2581\u05db\u05d0\u05dc\u05d4": 1714,
  "\u2581happening": 1715,
  "2": 1716,
  "\u2581\u05dc\u05d7\u05db\u05d5\u05ea": 1717,
  "\u2581longer": 1718,
  "\u2581\u05db\u05d3\u05d5\u05e8": 1719,
  "\u2581\u05d1\u05e2\u05e8\u05da": 1720,
  "\u2581\u05dc\u05de\u05e8\u05d5\u05ea": 1721,
  "\u2581\u05dc\u05de\u05d9": 1722,
  "\u2581\u05d6\u05d5\u05e0\u05d4": 1723,
  "\u2581\u05d1\u05e2\u05d1\u05e8": 1724,
  "\u2581white": 1725,
  "\u2581\u05e9\u05d0\u05dd": 1726,
  "\u2581\u05e2\u05d6\u05e8\u05d4": 1727,
  "\u2581kidding": 1728,
  "\u2581\u05de\u05e6\u05d1": 1729,
  "\u2581Michael": 1730,
  "\u2581\u05e1\u05d9\u05e4\u05d5\u05e8": 1731,
  "\u2581=": 1732,
  "\u2581moving": 1733,
  "\u2581\u05d7\u05e1\u05e8": 1734,
  "\u2581\u05de\u05d9\u05dd": 1735,
  "\u2581\u05d1\u05e8": 1736,
  "\u2581\u05d4\u05d7\u05d3\u05e9": 1737,
  "ur": 1738,
  "\u2581\u05d7\u05d3\u05e9\u05d5\u05ea": 1739,
  "\u2581giving": 1740,
  "\u2581U": 1741,
  "\u2581Peter": 1742,
  "\u2581THE": 1743,
  "\u2581shoot": 1744,
  "\u05de\u05d9\u05dd": 1745,
  "\u2581\u05db\u05e9\u05d4": 1746,
  "\u05e4\u05d5": 1747,
  "\u2581\u05e2\u05dc\u05d9\u05d4\u05dd": 1748,
  "\u2581Shut": 1749,
  "\u2581\u05d0\u05e9": 1750,
  "\u2581\u05e9\u05de\u05e2\u05ea": 1751,
  "\u2581\u05dc\u05d4\u05e6\u05d9\u05dc": 1752,
  "\u2581building": 1753,
  "\u2581Make": 1754,
  "\u2581Any": 1755,
  "\u2581secret": 1756,
  "\u2581loved": 1757,
  "\u2581Stay": 1758,
  "\u2581Whoa": 1759,
  "\u2581\u05d3\u05e2\u05ea\u05da": 1760,
  "\u2581\u05d7\u05d5\u05d6\u05e8": 1761,
  "\u2581May": 1762,
  "\u2581First": 1763,
  "\u2581turned": 1764,
  "\u2581\u05de\u05d7\u05e4\u05e9": 1765,
  "\u2581eye": 1766,
  "\u2581finally": 1767,
  "\u2581ten": 1768,
  "\u2581\u05d4\u05de\u05db\u05d5\u05e0\u05d9\u05ea": 1769,
  "\u2581\u05d4\u05d6\u05d3\u05de\u05e0\u05d5\u05ea": 1770,
  "\u2581People": 1771,
  "\u2581\u05db\u05db\u05dc": 1772,
  "\u2581\u05e2\u05d1\u05e8": 1773,
  "\u2581looked": 1774,
  "\u2581\u05d4\u05dc\u05da": 1775,
  "\u2581weren": 1776,
  "\u2581fault": 1777,
  "\u2581\u05de\u05d2\u05e0\u05d9\u05d1": 1778,
  "\u2581\u05d9\u05d3\u05e2": 1779,
  "\u2581York": 1780,
  "\u2581piece": 1781,
  "\u2581Those": 1782,
  "\u2581\u05e8\u05d5\u05d1": 1783,
  "\u2581\u05d4\u05d2": 1784,
  "\u2581\u05e9\u05e9": 1785,
  ").": 1786,
  "\u2581\u05dc\u05d4\u05e8\u05d2\u05d9\u05e9": 1787,
  "ting": 1788,
  "\u2581takes": 1789,
  "\u2581\u05e9\u05d0\u05d5\u05dc\u05d9": 1790,
  "\u2581Actually": 1791,
  "\u2581\u05de\u05d0\u05de\u05d9\u05e0\u05d4": 1792,
  "\u2581\u05dc\u05dc\u05de\u05d5\u05d3": 1793,
  "\u2581\u05e9\u05db\u05df": 1794,
  "\u2581Captain": 1795,
  "\u2581\u05dc\u05d4\u05e8\u05d0\u05d5\u05ea": 1796,
  "\u2581\u05e9\u05d5\u05de\u05e2": 1797,
  "\u05d0\u05e1": 1798,
  "\u2581\u05e8\u05e6\u05d7": 1799,
  "\u05dc\u05e1": 1800,
  "\u2581seeing": 1801,
  "\u2581\u05e2\u05e0\u05d9\u05d9\u05df": 1802,
  "\u2581Never": 1803,
  "\u2581\u05e1\u05e4\u05e7": 1804,
  "\u2581\u05d2\u05de\u05d5\u05e8": 1805,
  "\u2581\u05e0\u05db\u05e0\u05e1": 1806,
  "\u2581early": 1807,
  "\u2581\u05de\u05d5\u05dc": 1808,
  "\u2581\u05e9\u05d6\u05d5": 1809,
  "\u2581\u05de\u05d3\u05d1\u05e8\u05ea": 1810,
  "\u2581V": 1811,
  "\u2581\u05e0\u05d5\u05e1\u05e3": 1812,
  "\u2581\u05d7\u05d3\u05e8": 1813,
  "\u2581\u05dc\u05d4\u05ea\u05e8\u05d0\u05d5\u05ea": 1814,
  "\u2581law": 1815,
  "\u2581\u05d1\u05de\u05e7\u05e8\u05d4": 1816,
  "\u2581\u05de\u05d9\u05dc\u05d9\u05d5\u05df": 1817,
  "\u2581\u05dc\u05d4\u05e4\u05e1\u05d9\u05e7": 1818,
  "\u2581\u05e8\u05d0\u05e9\u05d5\u05df": 1819,
  "\u2581list": 1820,
  "\u05de\u05d5\u05ea": 1821,
  "\u2581protect": 1822,
  "_": 1823,
  "\u2581\u05d4\u05e1\u05d9\u05e4\u05d5\u05e8": 1824,
  "\u2581missing": 1825,
  "\u2581\u05d1\u05e2\u05dc": 1826,
  "\u2581\u05d0\u05dc\u05da": 1827,
  "\u2581\u05de\u05d0\u05d9\u05ea\u05e0\u05d5": 1828,
  "\u2581\u05d4\u05dc\u05d0": 1829,
  "\u2581Shit": 1830,
  "K": 1831,
  "\u2581/": 1832,
  "\u2581changed": 1833,
  "\u2581Damn": 1834,
  "\u2581\u05e9\u05d0\u05dc\u05d5\u05ea": 1835,
  "\u2581\u05d1\u05de\u05d4": 1836,
  "\u05e4": 1837,
  "\u2581\u05e4\u05e0\u05d9": 1838,
  "\u2581'.": 1839,
  "\u05ea\u05dd": 1840,
  "\u2581\u05d3\u05d5\u05d3": 1841,
  "\u2581sounds": 1842,
  "\u2581worth": 1843,
  "\u2581\u05dc\u05e7\u05e0\u05d5\u05ea": 1844,
  "\u2581\u05e0\u05ea\u05df": 1845,
  "\u2581evidence": 1846,
  "\u2581\u05de\u05d8\u05d5\u05e8\u05e3": 1847,
  "\u2581\u05d1\u05e0\u05d5": 1848,
  "\u2581y": 1849,
  "\u05e0": 1850,
  "\u2581\u05ea\u05d2\u05d9\u05d3\u05d9": 1851,
  "\u2581\u05e9\u05d1\u05d5\u05e2": 1852,
  "\u2581\u05de\u05ea\u05d5\u05da": 1853,
  "\u2581\u05e9\u05de\u05d9": 1854,
  "\u2581message": 1855,
  "\u2581catch": 1856,
  "\u2581\u05de\u05db\u05d9\u05e8\u05d4": 1857,
  "\u2581land": 1858,
  "\u2581\u05e8\u05e6\u05d9\u05e0\u05d9": 1859,
  "\u2581\u05de\u05e1\u05d5\u05d2\u05dc": 1860,
  "\u2581bet": 1861,
  "\u2581\u05e4\u05e0\u05d9\u05de\u05d4": 1862,
  "\u2581\u05e7\u05d5\u05e8\u05d0": 1863,
  "\u2581picture": 1864,
  "\u2581\u05d4\u05de\u05e6\u05d1": 1865,
  "\u2581\u05de\u05e9\u05dd": 1866,
  "\u05d5\u05e1": 1867,
  "\u2581\u05de\u05d9\u05d3\u05e2": 1868,
  "\u2581\u05d1\u05db\u05da": 1869,
  "\u05e9\u05d4": 1870,
  "\u2581\u05d1\u05e2\u05d9\u05e8": 1871,
  "\u2581explain": 1872,
  "\u2581\u05dc\u05d4\u05ea": 1873,
  "\u2581somewhere": 1874,
  "\u05d2\u05dd": 1875,
  "\u05d3\u05d4": 1876,
  "\u2581\u05d4\u05ea\u05db\u05d5\u05d5\u05e0\u05ea\u05d9": 1877,
  "\u2581\u05d1\u05de": 1878,
  "ro": 1879,
  "\u2581\u05d1\u05de\u05d9\u05d5\u05d7\u05d3": 1880,
  "\u2581Only": 1881,
  "\u2581\u05dc\u05d4\u05d2\u05df": 1882,
  "\u2581step": 1883,
  "\u2581\u05d5\u05d0": 1884,
  "\u2581\u05e9\u05d0\u05e0\u05d5": 1885,
  "\u2581write": 1886,
  "\u2581worse": 1887,
  "\u2581security": 1888,
  "\u2581Whatever": 1889,
  "\u2581\u05e0\u05d9\u05e1\u05d9\u05ea\u05d9": 1890,
  "%": 1891,
  "\u2581\u05ea\u05e1\u05ea\u05db\u05dc": 1892,
  "\u2581\u05de\u05d5\u05e7\u05d3\u05dd": 1893,
  "\u2581entire": 1894,
  "\u2581\u05db\u05d9\u05e3": 1895,
  "\u2581\u05de\u05d0\u05d7\u05d5\u05e8\u05d9": 1896,
  "\u2581feet": 1897,
  "\u2581meant": 1898,
  "\u2581\u05d7\u05d3\u05e9\u05d4": 1899,
  "\u258116": 1900,
  "\u2581mouth": 1901,
  "\u2581\u05e8\u05e6\u05d4": 1902,
  "\u2581\u05d4\u05dc\u05d1": 1903,
  "\u25819": 1904,
  "ion": 1905,
  "\u05e8\u05d3": 1906,
  "\u05e2": 1907,
  "\u2581\u05d1\u05e0\u05d5\u05ea": 1908,
  "\u2581\u05e9\u05dc\u05d5\u05de\u05da": 1909,
  "\u2581\u05e6\u05d5\u05d5\u05ea": 1910,
  "\u2581pain": 1911,
  "\u2581\u05dc\u05d4\u05ea\u05e7\u05e9\u05e8": 1912,
  "\u2581class": 1913,
  "\u2581\u05d5\u05e9": 1914,
  "\u05d4\u05d5": 1915,
  "\u2581sweet": 1916,
  "all": 1917,
  "\u2581till": 1918,
  "\u2581Charlie": 1919,
  "\u2581straight": 1920,
  "\u2581follow": 1921,
  "\u2581\u05db\u05de\u05d5\u05da": 1922,
  "\u2581\u05dc\u05d0\u05e0\u05e9\u05d9\u05dd": 1923,
  "\u2581\u05d6\u05d5\u05db\u05e8\u05ea": 1924,
  "\u2581\u05d2\u05d5\u05e8\u05dd": 1925,
  "\u2581ship": 1926,
  "\u2581cold": 1927,
  "\u2581\u05d4\u05dc\u05dc\u05d5": 1928,
  "\u2581\u05d5\u05dc\u05d4": 1929,
  "\u258117": 1930,
  "\u2581dream": 1931,
  "\u2581boss": 1932,
  "\u2581\u05d4\u05de\u05e4\u05e7\u05d3": 1933,
  "\u2581amazing": 1934,
  "\u2581\u05dc\u05d4\u05d5\u05e6\u05d9\u05d0": 1935,
  "\u2581handle": 1936,
  "\u2581\u05dc\u05d4\u05d0\u05de\u05d9\u05df": 1937,
  "\u2581using": 1938,
  "\u2581earth": 1939,
  "\u2581\u05d7\u05db\u05d9": 1940,
  "\u2581\u05d1\u05e6\u05d3": 1941,
  "\u2581\u05d1\u05e8\u05d0\u05e9": 1942,
  "\u2581\u05d1\u05e2\u05d9\u05d5\u05ea": 1943,
  "\u2581\u05d4\u05e7\u05d8\u05df": 1944,
  "\u258140": 1945,
  "\u2581\u05d9\u05e6\u05d0": 1946,
  "\u2581\u05de\u05db\u05df": 1947,
  "\u2581test": 1948,
  "\u2581e": 1949,
  "\u2581Every": 1950,
  "\u2581\u05e9\u05e7\u05e8\u05d4": 1951,
  "\u2581pull": 1952,
  "\u2581\u05de\u05d1\u05d8\u05d9\u05d7": 1953,
  "\u2581\u05d0\u05de\u05e8\u05d5": 1954,
  "\u2581\u05dc\u05d4\u05ea\u05de\u05d5\u05d3\u05d3": 1955,
  "\u2581oh": 1956,
  "\u05d9\u05de\u05d9": 1957,
  "\u2581personal": 1958,
  "\u2581\u05d0\u05e1\u05d5\u05e8": 1959,
  "\u2581\u05de\u05e7": 1960,
  "\u2581sometimes": 1961,
  "\u2581Al": 1962,
  "\u2581\u05ea\u05d9": 1963,
  "\u2581strong": 1964,
  "\u05ea\u05d5": 1965,
  "\u2581coffee": 1966,
  "\u2581\u05de\u05e2\u05d1\u05e8": 1967,
  "\u2581\u05d4\u05d8\u05dc\u05e4\u05d5\u05df": 1968,
  "\u2581\u05d0\u05d7": 1969,
  "\u05d1\u05d4": 1970,
  "\u2581\u05d7\u05ea\u05d9\u05db\u05ea": 1971,
  "\u2581lead": 1972,
  "\u2581return": 1973,
  "\u2581wedding": 1974,
  "\u2581\u05db\u05d1\u05d5\u05d3": 1975,
  "\u05db\u05d9\u05dd": 1976,
  "\u2581Someone": 1977,
  "\u2581\u05e9\u05ea\u05d9\u05d9\u05dd": 1978,
  "\u2581\u05dc\u05e2\u05d1\u05d5\u05d3\u05d4": 1979,
  "\u2581kept": 1980,
  "\u05d9\u05d4\u05dd": 1981,
  "\u2581single": 1982,
  "\u2581\u05de\u05e2\u05d5\u05dc\u05d4": 1983,
  "\u2581fall": 1984,
  "\u2581broke": 1985,
  "\u2581Nobody": 1986,
  "\u2581\u05ea\u05d3\u05d0\u05d2": 1987,
  "\u2581god": 1988,
  "\u2581rather": 1989,
  "\u2581\u05ea\u05d5\u05da": 1990,
  "\u2581\u05d8\u05e2\u05d5\u05ea": 1991,
  "\u2581\u05d0\u05e0\u05d2": 1992,
  "ia": 1993,
  "\u2581history": 1994,
  "\u2581mistake": 1995,
  "\u2581\u05e0\u05e4\u05dc\u05d0": 1996,
  "\u2581\u05e9\u05de\u05d7\u05d4": 1997,
  "\u2581voice": 1998,
  "\u2581lucky": 1999,
  "\u2581watching": 2000,
  "\u2581worried": 2001,
  "\u2581during": 2002,
  "\u258114": 2003,
  "\u2581bar": 2004,
  "\u2581red": 2005,
  "\u2581Am": 2006,
  "\u2581\u05d4\u05d0\u05d9": 2007,
  "\u2581American": 2008,
  "ch": 2009,
  "\u2581\u05e9\u05d5\u05e0\u05d0": 2010,
  "\u2581lying": 2011,
  "\u2581talked": 2012,
  "\u2581dance": 2013,
  "\u2581\u05d3\u05d9\u05df": 2014,
  "\u2581welcome": 2015,
  "\u2581nobody": 2016,
  "\u2581state": 2017,
  "\u2581\u05e7\u05d5\u05dc": 2018,
  "\u2581TO": 2019,
  "\u05de\u05d5": 2020,
  "\u2581\u05d0\u05d9\u05ea\u05e0\u05d5": 2021,
  "No": 2022,
  "\u2581totally": 2023,
  "\u05d8\u05e8": 2024,
  "\u2581report": 2025,
  "\u2581\u05d1\u05d7\u05d5\u05e8\u05d4": 2026,
  "\u2581Frank": 2027,
  "\u2581\u05d4\u05e0\u05e9\u05d9\u05d0": 2028,
  "\u2581\u05d0\u05d9\u05e0\u05da": 2029,
  "\u2581Call": 2030,
  "\u2581\u05d2\u05d1\u05e8\u05d9\u05dd": 2031,
  "\u2581\u05d4\u05d0\u05d9\u05e9\u05d4": 2032,
  "\u2581\u05d0\u05d5\u05e8": 2033,
  "\u2581\u05d9\u05e9\u05e8": 2034,
  "\u2581\u05db\u05e9\u05d4\u05d5\u05d0": 2035,
  "\u2581situation": 2036,
  "\u2581\u05de\u05d9\u05d9\u05e7\u05dc": 2037,
  "\u2581\u05d1\u05e8\u05e6\u05d9\u05e0\u05d5\u05ea": 2038,
  "\u2581street": 2039,
  "\u2581\u05d0\u05e7\u05d7": 2040,
  "\u2581\u05dc\u05db\u05d9": 2041,
  "\u2581Ha": 2042,
  "ta": 2043,
  "\u2581brain": 2044,
  "\u2581ride": 2045,
  "\u2581spend": 2046,
  "\u2581\u05d1\u05d7\u05d9\u05d9": 2047,
  "\u2581\u05db\u05e9\u05d0\u05ea\u05d4": 2048,
  "\u2581\u05de\u05e2\u05e8\u05db\u05ea": 2049,
  "\u2581Hmm": 2050,
  "\u2581\u05d4\u05db\u05d1\u05d5\u05d3": 2051,
  "\u2581\u05d5\u05e2\u05dc": 2052,
  "\u2581\u05d1\u05e9\u05e0\u05ea": 2053,
  "\u2581dear": 2054,
  "\u2581About": 2055,
  "\u2581Y": 2056,
  "\u2581\u05de\u05d5\u05db\u05e0\u05d9\u05dd": 2057,
  "v": 2058,
  "\u2581\u05d7\u05d5\u05dc\u05d4": 2059,
  "\u2581100": 2060,
  "\u2581\u05d0\u05e0\u05d0": 2061,
  "\u2581\u05d0\u05d5\u05d4\u05d1\u05d9\u05dd": 2062,
  "\u2581king": 2063,
  "\u2581\u05e2\u05e6\u05d5\u05e8": 2064,
  "\u2581\u05dc\u05e4\u05d4": 2065,
  "ist": 2066,
  "\u2581\u05dc\u05d4\u05db\u05d9\u05e8": 2067,
  "te": 2068,
  "\u2581Father": 2069,
  "\u2581\u05d4\u05d9\u05d3": 2070,
  "\u2581ground": 2071,
  "\u2581\u05e4\u05d9\u05d8\u05e8": 2072,
  "\u05e1\u05d8\u05e8": 2073,
  "\u2581\u05de\u05e2\u05e0\u05d9\u05d9\u05df": 2074,
  "\u2581p": 2075,
  "\u2581mad": 2076,
  "\u2581ran": 2077,
  "\u2581\u05e9\u05d0\u05d9": 2078,
  "\u2581movie": 2079,
  "\u2581act": 2080,
  "il": 2081,
  "\u2581caught": 2082,
  "\u2581\u05e9\u05d0\u05de\u05e8\u05ea\u05d9": 2083,
  "\u2581\u05dc\u05e7\u05e8\u05d5\u05ea": 2084,
  "\u2581\u05e8\u05d5\u05d0\u05d9\u05dd": 2085,
  "W": 2086,
  "\u2581Re": 2087,
  "\u2581\u05d4\u05d0\u05dc": 2088,
  "\u2581table": 2089,
  "\u2581prison": 2090,
  "\u2581bag": 2091,
  "\u2581cover": 2092,
  "\u2581\u05e9\u05d4\u05d9\u05d9\u05ea": 2093,
  "\u258111": 2094,
  "\u05e0\u05d5\u05ea": 2095,
  "\u2581\u05d1\u05de\u05e6\u05d1": 2096,
  "na": 2097,
  "\u2581month": 2098,
  "\u2581\u05d7\u05d2": 2099,
  "\u2581\u05e4\u05e8\u05e0\u05e7": 2100,
  "\u2581\u05e7\u05e9\u05d5\u05e8": 2101,
  "\u2581key": 2102,
  "\u2581ex": 2103,
  "\u2581Looks": 2104,
  "\u2581Remember": 2105,
  "\u2581\u05d9\u05d3\u05e2\u05ea": 2106,
  "\u2581hang": 2107,
  "\u2581short": 2108,
  "\u2581box": 2109,
  "\u2581\u05e9\u05d0\u05d5\u05db\u05dc": 2110,
  "\u2581buddy": 2111,
  "\u2581road": 2112,
  "\u2581beat": 2113,
  "ine": 2114,
  "\u2581\u05ea\u05d5\u05dd": 2115,
  "\u2581\u05e6\u05d5\u05d7\u05e7": 2116,
  "\u2581decided": 2117,
  "\u2581throw": 2118,
  "\u2581relationship": 2119,
  "\u2581drop": 2120,
  "\u2581completely": 2121,
  "\u2581\u05dc\u05d9\u05e6\u05d5\u05e8": 2122,
  "\u2581\u05dc\u05de\u05e7\u05d5\u05dd": 2123,
  "\u2581\u05dc\u05e9\u05d1\u05ea": 2124,
  "\u2581\u05d9\u05d5\u05e8\u05e7": 2125,
  "\u2581\u05de\u05d5\u05e6\u05d0": 2126,
  "\u2581\u05d9\u05d3": 2127,
  "\u2581Everybody": 2128,
  "\u2581\u05d0\u05e8\u05d1\u05e2": 2129,
  "\u2581\u05de\u05de\u05e0\u05d4": 2130,
  "\u2581Mike": 2131,
  "\u2581middle": 2132,
  "\u2581\u05d9\u05d9": 2133,
  "\u2581\u05d4\u05d7\u05dc\u05e7": 2134,
  "\u2581attack": 2135,
  "\u2581\u05e2\u05e9\u05e8": 2136,
  "un": 2137,
  "\u2581birthday": 2138,
  "\u2581Move": 2139,
  "*": 2140,
  "\u2581near": 2141,
  "\u2581\u05e0\u05e9\u05d0\u05e8": 2142,
  "ry": 2143,
  "\u2581\u05dc\u05e9\u05ea\u05d5\u05ea": 2144,
  "\u2581\u05d0\u05e8\u05d0\u05d4": 2145,
  "\u2581\u05d4\u05de\u05e9\u05d8\u05e8\u05d4": 2146,
  "\u2581\u05d2\u05d1\u05e8\u05ea\u05d9": 2147,
  "\u2581\u05de\u05d5\u05e9\u05dc\u05dd": 2148,
  "\u2581busy": 2149,
  "\u2581\u05d4\u05d1\u05ea": 2150,
  "\u2581\u05e9\u05de\u05d4": 2151,
  "\u2581\u05d0\u05dc\u05e3": 2152,
  "3": 2153,
  "\u2581Three": 2154,
  "\u2581\u05dc\u05d4\u05e4\u05d5\u05da": 2155,
  "\u05e0\u05db\u05d5\u05df": 2156,
  "\u2581\u05dc\u05d7\u05dc\u05d5\u05d8\u05d9\u05df": 2157,
  "\u2581\u05d1\u05d0\u05ea\u05d9": 2158,
  "\u05e0\u05ea": 2159,
  "\u05e8\u05e1": 2160,
  "\u2581\u05e0\u05ea\u05e8\u05d0\u05d4": 2161,
  "\u2581\u05dc\u05d2\u05dc\u05d5\u05ea": 2162,
  "\u2581age": 2163,
  "\u258125": 2164,
  "\u2581offer": 2165,
  "\u2581\u05d0\u05d2\u05d9\u05d3": 2166,
  "\u2581d": 2167,
  "\u05d0\u05d9\u05da": 2168,
  "\u2581Everyone": 2169,
  "\u2581pass": 2170,
  "\u2581\u05dc\u05e2\u05e6\u05de\u05d9": 2171,
  "\u2581\u05dc\u05e9\u05dc\u05dd": 2172,
  "\u2581King": 2173,
  "\u2581\u05dc\u05d3\u05d0\u05d5\u05d2": 2174,
  "\u2581floor": 2175,
  "\u2581\u05d4\u05de\u05e9\u05e4\u05d8": 2176,
  "\u2581space": 2177,
  "\u05d8\u05d4": 2178,
  "\u2581Daddy": 2179,
  "\u2581upon": 2180,
  "um": 2181,
  "\u2581\u05d1\u05d0\u05d4": 2182,
  "\u05e7\u05d4": 2183,
  "\u2581share": 2184,
  "\u2581cell": 2185,
  "\u2581f": 2186,
  "\u05e4\u05d5\u05ea": 2187,
  "\u2581\u05d4\u05d7\u05d5\u05dc\u05d9\u05dd": 2188,
  "\u2581anywhere": 2189,
  "\u2581record": 2190,
  "\u2581Mary": 2191,
  "\u2581realize": 2192,
  "ne": 2193,
  "\u2581across": 2194,
  "\u2581\u05ea\u05ea": 2195,
  "\u2581\u05de\u05d9\u05d9\u05e7": 2196,
  "\u2581\u05de\u05d9\u05df": 2197,
  "\u2581\u05d4\u05de\u05d5\u05df": 2198,
  "\u2581wrote": 2199,
  "\u2581\u05d1\u05e2\u05e6\u05dd": 2200,
  "\u2581\u05d0\u05dc\u05d9\u05e0\u05d5": 2201,
  "\u2581\u05dc\u05d8\u05e4\u05dc": 2202,
  "\u2581George": 2203,
  "\u2581dark": 2204,
  "\u2581expect": 2205,
  "\u2581\u05e7\u05e4\u05d8\u05df": 2206,
  "ir": 2207,
  "\u2581\u05dc\u05d7\u05d3\u05e8": 2208,
  "\u2581killer": 2209,
  "\u2581moved": 2210,
  "\u2581killing": 2211,
  "\u2581area": 2212,
  "\u05d1\u05d0\u05de\u05ea": 2213,
  "\u2581ya": 2214,
  "\u2581forever": 2215,
  "\u2581\u05d0\u05e6\u05dc": 2216,
  "\u2581problems": 2217,
  "\u2581\u05d4\u05ea\u05d7\u05ea": 2218,
  "\u2581\u05d0\u05d9\u05e0\u05d9": 2219,
  "\u2581\u05de\u05d9\u05dc\u05d4": 2220,
  "1": 2221,
  "hmm": 2222,
  "ies": 2223,
  "ity": 2224,
  "\u2581\u05e0\u05d9": 2225,
  "\u2581\u05dc\u05e2\u05e6\u05de\u05da": 2226,
  "at": 2227,
  "\u2581\u05ea\u05d5\u05db\u05dc\u05d9": 2228,
  "\u2581Joe": 2229,
  "\u2581born": 2230,
  "ian": 2231,
  "\u2581\u05d0\u05d9\u05d3\u05d9\u05d5\u05d8": 2232,
  "\u2581\u05de\u05d7\u05db\u05d4": 2233,
  "\u2581\u05e7\u05e4\u05d4": 2234,
  "\u2581page": 2235,
  "\u2581\u05dc\u05d1\u05d7\u05d5\u05e8": 2236,
  "Y": 2237,
  "\u05d9\u05dc": 2238,
  "\u2581\u05dc\u05e9\u05e0\u05d5\u05ea": 2239,
  "\u05e1\u05d5\u05df": 2240,
  "\u2581fix": 2241,
  "\u05d9\u05e0\u05d2": 2242,
  "\u258124": 2243,
  "\u2581wearing": 2244,
  "U": 2245,
  "\u2581group": 2246,
  "\u2581cop": 2247,
  "\u2581\u05e1\u05d5": 2248,
  "\u2581swear": 2249,
  "co": 2250,
  "ah": 2251,
  "\u2581\u05e8\u05d7\u05d5\u05e7": 2252,
  "ri": 2253,
  "\u2581c": 2254,
  "\u2581service": 2255,
  "\u2581Think": 2256,
  "\u2581Huh": 2257,
  "\u2581\u05d5\u05d0\u05dc": 2258,
  "\u2581\u05dc\u05d7\u05e4\u05e9": 2259,
  "\u2581wear": 2260,
  "\u2581\u05d5\u05d2": 2261,
  "\u2581crime": 2262,
  "\u2581appreciate": 2263,
  "\u2581\u05d4\u05d4\u05d5\u05d0": 2264,
  "ling": 2265,
  "\u2581\u05d4\u05e9\u05e0\u05d4": 2266,
  "\u2581Ben": 2267,
  "\u2581\u05d9\u05d9\u05ea\u05db\u05df": 2268,
  "\u2581Isn": 2269,
  "\u2581missed": 2270,
  "\u2581\u05e9\u05e6\u05e8\u05d9\u05da": 2271,
  "\u2581\u05d0\u05dc\u05d9\u05d4": 2272,
  "ton": 2273,
  "\u2581song": 2274,
  "\u2581\u05de\u05e0\u05d9\u05d7\u05d4": 2275,
  "\u258113": 2276,
  "ad": 2277,
  "\u2581victim": 2278,
  "\u2581Christmas": 2279,
  "\u2581\u05e0\u05e2\u05d9\u05dd": 2280,
  "\u2581normal": 2281,
  "\u2581smart": 2282,
  "\u2581\u05d4\u05d1\u05d7\u05d5\u05e8\u05d4": 2283,
  "\u2581\u05d1\u05de\u05d4\u05dc\u05da": 2284,
  "\u2581\u05e2\u05d5\u05d1\u05d3\u05ea": 2285,
  "\u2581\u05d4\u05de\u05e9\u05d7\u05e7": 2286,
  "\u2581saved": 2287,
  "\u2581\u05d3\u05d5": 2288,
  "\u2581field": 2289,
  "\u2581\u05dc\u05de\u05d9\u05e9\u05d4\u05d5": 2290,
  "\u2581\u05d4\u05ea\u05d9\u05e7": 2291,
  "\u2581\u05e2\u05e9\u05d5": 2292,
  "\u2581\u05e9\u05e0\u05d9\u05db\u05dd": 2293,
  "\u2581certain": 2294,
  "\u2581Next": 2295,
  "\u2581\u05e0\u05d0": 2296,
  "\u05e8\u05dc\u05d9": 2297,
  "\u2581Say": 2298,
  "\u2581dangerous": 2299,
  "\u2581respect": 2300,
  "\u2581\u05d8\u05d5\u05dd": 2301,
  "da": 2302,
  "\u2581fear": 2303,
  "\u2581\u05e9\u05e8\u05d4": 2304,
  "\u05d5\u05d1": 2305,
  "\u2581Watch": 2306,
  "\u2581\u05d4\u05de\u05dc\u05da": 2307,
  "\u2581\u05d0\u05d9\u05dc\u05d5": 2308,
  "V": 2309,
  "\u05d1\u05d8\u05d7": 2310,
  "\u2581\u05e9\u05d1\u05d5\u05e2\u05d5\u05ea": 2311,
  "\u2581finish": 2312,
  "\u2581apartment": 2313,
  "\u2581became": 2314,
  "\u2581wonder": 2315,
  "\u2581\u05dc\u05d4\u05d5\u05d3\u05d5\u05ea": 2316,
  "\u05d1\u05df": 2317,
  "\u2581seven": 2318,
  "\u2581\u05db\u05dc\u05d1": 2319,
  "\u2581girlfriend": 2320,
  "\u2581terrible": 2321,
  "\u2581government": 2322,
  "\u2581\u05db\u05ea\u05d1": 2323,
  "\u2581De": 2324,
  "\u2581sitting": 2325,
  "\u05d9\u05d3": 2326,
  "\u2581\u05dc\u05e2\u05de\u05d5\u05d3": 2327,
  "\u05e7\u05e1": 2328,
  "\u2581paid": 2329,
  "\u2581\u05e0\u05e9\u05e7": 2330,
  "\u2581peace": 2331,
  "\u2581\u05e2\u05d5\u05d6\u05e8": 2332,
  "do": 2333,
  "ce": 2334,
  "\u2581\u05de\u05e9\u05d5\u05dd": 2335,
  "\u05e7\u05d5": 2336,
  "\u2581simple": 2337,
  "ha": 2338,
  "\u2581\u05de\u05d9\u05d5\u05d7\u05d3": 2339,
  "\u2581\u05d7\u05d1\u05dc": 2340,
  "\u2581accident": 2341,
  "\u2581Welcome": 2342,
  "\u2581\u05d8\u05d5\u05d1\u05d5\u05ea": 2343,
  "go": 2344,
  "\u2581\u05d4\u05e4\u05e0\u05d9\u05dd": 2345,
  "\u2581blow": 2346,
  "\u2581\u05dc\u05e4\u05d2\u05d5\u05e2": 2347,
  "\u2581spirit": 2348,
  "\u2581court": 2349,
  "\u2581position": 2350,
  "\u2581\u05dc\u05ea\u05e4\u05d5\u05e1": 2351,
  "\u05d9\u05d9\u05de\u05e1": 2352,
  "\u2581calls": 2353,
  "\u2581t": 2354,
  "\u2581tired": 2355,
  "\u2581spent": 2356,
  "\u2581present": 2357,
  "\u2581\u05dc\u05d6\u05d5\u05d6": 2358,
  "\u2581yesterday": 2359,
  "\u2581faith": 2360,
  "\u2581James": 2361,
  "\u2581\u05dc\u05e1": 2362,
  "\u2581sell": 2363,
  "\u2581\u05e9\u05d5\u05d8\u05e8": 2364,
  "one": 2365,
  "\u05d0\u05e8": 2366,
  "\u2581\u05dc\u05d4\u05e1\u05d1\u05d9\u05e8": 2367,
  "\u2581attention": 2368,
  "\u2581force": 2369,
  "\u2581More": 2370,
  "\u2581stopped": 2371,
  "\u2581involved": 2372,
  "\u2581card": 2373,
  "\u2581\u05e0\u05e2\u05dc\u05dd": 2374,
  "\u05d5\u05e0\u05d5\u05ea": 2375,
  "\u2581\u05d4\u05e0\u05db\u05d5\u05df": 2376,
  "\u2581charge": 2377,
  "\u2581cause": 2378,
  "\u2581President": 2379,
  "\u2581\u05d0\u05dc\u05d9\u05d9\u05da": 2380,
  "\u2581careful": 2381,
  "\u2581ring": 2382,
  "\u2581\u05de\u05d0\u05d5\u05ea": 2383,
  "\u2581dude": 2384,
  "\u05e4\u05d9\u05dd": 2385,
  "\u2581\u05dc\u05d4\u05d7\u05d6\u05d9\u05e8": 2386,
  "\u2581boyfriend": 2387,
  "\u2581\u05d4\u05de\u05d5\u05d5\u05ea": 2388,
  "\u2581support": 2389,
  "\u2581\u05d4\u05ea\u05d9\u05e0\u05d5\u05e7": 2390,
  "\u2581\u05d4\u05d2\u05d9\u05d5\u05e0\u05d9": 2391,
  "\u2581\u05e4\u05d5\u05dc": 2392,
  "\u2581\u05e0\u05d9\u05d5": 2393,
  "\u2581\u05d4\u05de\u05e7\u05e8\u05d0": 2394,
  "\u2581\u05d1\u05d0\u05de\u05e6\u05e2": 2395,
  "\u2581\u05de\u05e2\u05de\u05d3": 2396,
  "\u2581imagine": 2397,
  "\u2581wonderful": 2398,
  "\u2581poor": 2399,
  "\u2581\u05d4\u05d3\u05dd": 2400,
  "\u2581ball": 2401,
  "be": 2402,
  "\u05db\u05d4": 2403,
  "\u2581\u05e2\u05e9\u05d9\u05e0\u05d5": 2404,
  "\u05d5\u05dc\u05d9": 2405,
  "\u2581\u05e9\u05e0\u05d5\u05db\u05dc": 2406,
  "ul": 2407,
  "\u2581example": 2408,
  "\u2581\u05d8\u05d9\u05e4\u05e9": 2409,
  "\u05d2\u05e8": 2410,
  "J": 2411,
  "\u2581\u05ea\u05e2\u05e9\u05d9": 2412,
  "\u2581\u05de\u05db\u05dd": 2413,
  "\u2581\u05e9\u05e0\u05d9\u05e0\u05d5": 2414,
  "\u2581TV": 2415,
  "\u2581\u05de\u05ea\u05d9\u05dd": 2416,
  "\u2581\u05de\u05ea\u05d5\u05e7": 2417,
  "\u2581\u05dc\u05d0\u05e3": 2418,
  "\u2581\u05e6\u05d5\u05e8\u05da": 2419,
  "\u2581marriage": 2420,
  "\u2581proud": 2421,
  "\u05d9\u05d9\u05e7": 2422,
  "\u2581\u05d3\u05d5\u05e7\u05d8\u05d5\u05e8": 2423,
  "\u2581\u05de\u05d9\u05d3\u05d9": 2424,
  "\u05d3\u05d5": 2425,
  "\u2581partner": 2426,
  "\u2581Ooh": 2427,
  "\u2581\u05d0\u05de\u05d5\u05e8\u05d4": 2428,
  "\u2581\u05d4\u05d7": 2429,
  "\u2581hasn": 2430,
  "se": 2431,
  "\u2581\u05d9\u05e2\u05e9\u05d4": 2432,
  "\u2581public": 2433,
  "\u05d1\u05d5": 2434,
  "\u2581\u05d0\u05d9\u05ea\u05dd": 2435,
  "\u2581\u05ea\u05d4\u05d9\u05d9": 2436,
  "\u2581\u05d4\u05e7\u05d5": 2437,
  "\u2581bought": 2438,
  "\u2581lawyer": 2439,
  "\u2581\u05de\u05ea\u05d5\u05e7\u05d4": 2440,
  "\u2581forward": 2441,
  "\u2581\u05d4\u05e9\u05d1\u05d5\u05e2": 2442,
  "\u2581lunch": 2443,
  "\u2581\u05e2\u05d1\u05d3": 2444,
  "\u2581\u05d1\u05e2\u05e6\u05de\u05d9": 2445,
  "\u2581\u05e9\u05de\u05ea": 2446,
  "\u2581Agent": 2447,
  "\u2581self": 2448,
  "\u2581\u05d8\u05dc\u05e4\u05d5\u05df": 2449,
  "\u2581\u05d9\u05db\u05d5\u05dc\u05ea": 2450,
  "\u05e0\u05e1": 2451,
  "\u05db\u05ea": 2452,
  "\u2581\u05dc\u05d1\u05df": 2453,
  "\u05dc\u05da": 2454,
  "\u2581\u05e1\u05dc\u05d7": 2455,
  "\u2581\u05d4\u05dc\u05d5\u05d5\u05d0\u05d9": 2456,
  "\u2581ha": 2457,
  "5": 2458,
  "\u2581\u05d1\u05e9\u05d1\u05d5\u05e2": 2459,
  "\u2581definitely": 2460,
  "\u2581Yo": 2461,
  "\u2581\u05e6\u05e2\u05d9\u05e8": 2462,
  "old": 2463,
  "\u2581\u05d0\u05db\u05df": 2464,
  "\u2581\u05de\u05d2": 2465,
  "\u2581\u05d1\u05d7\u05d5\u05e8\u05d9\u05dd": 2466,
  "\u2581\u05d7\u05e9\u05d1\u05ea": 2467,
  "\u2581\u05de\u05d0\u05d9\u05e4\u05d4": 2468,
  "\u05d9\u05d8": 2469,
  "\u2581\u05e9\u05d0\u05de\u05e8\u05ea": 2470,
  "ter": 2471,
  "\u05d9\u05d3\u05d9": 2472,
  "\u2581St": 2473,
  "\u2581,\"": 2474,
  "\u05d9\u05e7": 2475,
  "\u2581fair": 2476,
  "\u2581paper": 2477,
  "\u05d0\u05d7\u05d3": 2478,
  "\u2581\u05dc\u05d4\u05e9\u05d0\u05d9\u05e8": 2479,
  "\u2581contact": 2480,
  "\u2581\u05d4\u05e8\u05d2": 2481,
  "\u2581\u05d4\u05d4\u05d5\u05e8\u05d9\u05dd": 2482,
  "\u2581\u05d0\u05d9\u05e0\u05e0\u05d9": 2483,
  "\u2581La": 2484,
  "\u2581FBI": 2485,
  "\u2581\u05dc\u05e8\u05d2\u05e2": 2486,
  "\u2581\u05e2\u05dc\u05d5\u05dc": 2487,
  "\u2581\u05d0\u05d7\u05d6\u05d5\u05e8": 2488,
  "\u2581\u05de\u05e8\u05d9": 2489,
  "\u2581often": 2490,
  "\u2581\u05d4\u05e0": 2491,
  "\u05e0\u05e8": 2492,
  "\u2581\u05dc\u05db\u05d5\u05dc\u05dd": 2493,
  "\u05de\u05e0\u05d5": 2494,
  "\u2581\u05d4\u05de\u05d3\u05d9\u05e0\u05d4": 2495,
  "\u2581clothes": 2496,
  "\u2581\u05d7\u05db\u05dd": 2497,
  "\u2581Back": 2498,
  "\u2581named": 2499,
  "\u2581within": 2500,
  "\u2581eight": 2501,
  "\u2581Anything": 2502,
  "\u2581soul": 2503,
  "ment": 2504,
  "\u2581\u05e8\u05d1\u05d5\u05ea": 2505,
  "\u2581plane": 2506,
  "\u2581\u05d2\u05d1\u05d5\u05d4": 2507,
  "\u2581\u05d1\u05e1\u05d5\u05e3": 2508,
  "\u2581trip": 2509,
  "\u2581\u05d4\u05d9\u05d8\u05d1": 2510,
  "\u2581\u05dc\u05d1\u05e7\u05e9": 2511,
  "\u2581~": 2512,
  "ate": 2513,
  "\u2581cops": 2514,
  "\u2581\u05d0\u05e6\u05d8\u05e8\u05da": 2515,
  "\u2581\u05ea\u05e7\u05e9\u05d9\u05d1\u05d9": 2516,
  "ING": 2517,
  "\u2581deep": 2518,
  "\u2581\u05de\u05e6\u05d0": 2519,
  "\u2581wake": 2520,
  "\u2581\u05d2\u05d1": 2521,
  "\u2581seat": 2522,
  "\u2581Henry": 2523,
  "we": 2524,
  "\u2581America": 2525,
  "\u2581\u05d4\u05e9\u05e0\u05d9\u05dd": 2526,
  "\u2581\u05e2\u05d5\u05d1\u05d3\u05d9\u05dd": 2527,
  "\u2581Ok": 2528,
  "\u2581gift": 2529,
  "\u2581ways": 2530,
  "\u2581Earth": 2531,
  "\u05e6\u05d9": 2532,
  "\u2581fell": 2533,
  "\u2581\u05e9\u05e0\u05d9\u05d5\u05ea": 2534,
  "\u2581learned": 2535,
  "\u05d5\u05d5\u05d4": 2536,
  "\u2581themselves": 2537,
  "\u2581interested": 2538,
  "\u2581Anyway": 2539,
  "\u2581quick": 2540,
  "\u2581agree": 2541,
  "ley": 2542,
  "\u05e0\u05d2": 2543,
  "\u05d5\u05d9\u05d5\u05ea": 2544,
  "\u05e4\u05e2\u05dd": 2545,
  "\u2581\u05ea\u05d5\u05db\u05e0\u05d9\u05ea": 2546,
  "\u2581\u05de\u05e6\u05e4\u05d4": 2547,
  "\u05d0\u05d5\u05dc\u05d9": 2548,
  "\u2581ice": 2549,
  "\u2581prove": 2550,
  "\u2581seconds": 2551,
  "\u2581\u05d6\u05d5\u05d2": 2552,
  "\u2581\u05d0\u05d5\u05e4\u05df": 2553,
  "\u2581honor": 2554,
  "\u2581\u05e2\u05d5\u05dc\u05d4": 2555,
  "\u2581Big": 2556,
  "\u2581Over": 2557,
  "\u05d3\u05e8": 2558,
  "\u2581\u05e0\u05de\u05e6\u05d0\u05ea": 2559,
  "\u2581\u05e0\u05de\u05e6\u05d0\u05d9\u05dd": 2560,
  "\u2581\u05dc\u05d4\u05e1\u05ea\u05db\u05dc": 2561,
  "\u2581stick": 2562,
  "\u2581feels": 2563,
  "\u2581Leave": 2564,
  "\u2581truck": 2565,
  "\u2581\u05d6\u05d5\u05d4\u05d9": 2566,
  "\u2581\u05d4\u05e0\u05e8\u05d9": 2567,
  "\u2581\u05d0\u05d1\u05d9\u05da": 2568,
  "\u05e9\u05dc\u05d5\u05dd": 2569,
  "\u2581\u05d4\u05de\u05d5\u05d7": 2570,
  "\u2581instead": 2571,
  "\u2581\u05e0\u05e6\u05d8\u05e8\u05da": 2572,
  "\u2581\u05d0\u05d9\u05d9": 2573,
  "\u2581video": 2574,
  "\u2581third": 2575,
  "\u2581\u05dc\u05d0\u05d7\u05e8\u05d5\u05e0\u05d4": 2576,
  "ness": 2577,
  "\u2581blue": 2578,
  "\u2581\u05de\u05d9\u05e1": 2579,
  "\u2581mess": 2580,
  "\u2581Sometimes": 2581,
  "\u2581boat": 2582,
  "\u2581\u05d8\u05e8": 2583,
  "\u2581\u05ea\u05d9\u05e0\u05d5\u05e7": 2584,
  "as": 2585,
  "\u2581Since": 2586,
  "ty": 2587,
  "\u2581\u05d4\u05e8\u05e2\u05d9\u05d5\u05df": 2588,
  "\u2581favor": 2589,
  "\u2581\u05e1\u05d1\u05d9\u05d1": 2590,
  "\u2581Still": 2591,
  "\u2581store": 2592,
  "\u2581hide": 2593,
  "\u2581forgot": 2594,
  "\u2581standing": 2595,
  "he": 2596,
  "\u2581\u05d1\u05de\u05e9\u05e8\u05d3": 2597,
  "by": 2598,
  "\u2581\u05e9\u05e0\u05d9\u05d9\u05d4": 2599,
  "\u2581\u05de\u05d1\u05e7\u05e9": 2600,
  "\u2581Ray": 2601,
  "\u2581interesting": 2602,
  "\u2581join": 2603,
  "\u2581starting": 2604,
  "\u2581evening": 2605,
  "out": 2606,
  "\u2581study": 2607,
  "\u2581\u05d1\u05e2\u05e6\u05de\u05da": 2608,
  "\u05e4\u05e8": 2609,
  "\u2581\u05d4\u05de\u05ea": 2610,
  "\u2581\u05d4\u05e7\u05d8\u05e0\u05d4": 2611,
  "\u2581\u05e9\u05de\u05e2": 2612,
  "\u2581window": 2613,
  "\u25811,": 2614,
  "\u2581experience": 2615,
  "\u2581\u05d9\u05e9\u05df": 2616,
  "\u2581\u05db\u05d5\u05dc\u05db\u05dd": 2617,
  "\u2581\u05e9\u05d1\u05d4": 2618,
  "\u2581\u05d4\u05d7\u05d3\u05e9\u05d4": 2619,
  "\u05e8\u05ea": 2620,
  "\u2581hotel": 2621,
  "et": 2622,
  "\u2581\u05e7\u05d9\u05d1\u05dc": 2623,
  "\u2581Red": 2624,
  "\u2581decision": 2625,
  "\u2581Doctor": 2626,
  "\u2581president": 2627,
  "\u2581\u05de\u05d9\u05e9\u05d4\u05d9": 2628,
  "\u2581risk": 2629,
  "\u2581board": 2630,
  "\u2581\u05d4\u05d5\u05d3\u05e2\u05d4": 2631,
  "\u2581o": 2632,
  "\u2581m": 2633,
  "\u2581smell": 2634,
  "\u2581\u05d4\u05d0\u05e7\u05d3\u05d7": 2635,
  "\u2581patient": 2636,
  "\u2581Didn": 2637,
  "\u2581\u05d4\u05e6": 2638,
  "\u2581\u05e6\u05d0": 2639,
  "\u2581\u05ea\u05d7\u05d6\u05d5\u05e8": 2640,
  "\u2581\u05e0\u05d5\u05e1\u05e4\u05ea": 2641,
  "\u2581\u05d4\u05d0\u05de\u05d9\u05ea\u05d9": 2642,
  "\u05e4\u05d5\u05e8": 2643,
  "\u2581\u05e8\u05d5\u05e4\u05d0": 2644,
  "\u2581fish": 2645,
  "\u2581club": 2646,
  "\u2581X": 2647,
  "\u2581computer": 2648,
  "\u2581\u05e2\u05e9\u05ea\u05d4": 2649,
  "\u2581\u05e8\u05d9\u05e6": 2650,
  "less": 2651,
  "\u2581scene": 2652,
  "\u2581\u05ea\u05d1\u05d9\u05d0": 2653,
  "\u2581\u05e7\u05d1\u05dc": 2654,
  "\u2581\u05e9\u05d9\u05db\u05d5\u05dc": 2655,
  "\u2581broken": 2656,
  "\u2581\u05d4\u05d5\u05d3": 2657,
  "4": 2658,
  "\u2581Max": 2659,
  "\u2581\u05e9\u05dc\u05d7": 2660,
  "\u2581holding": 2661,
  "\u2581\u05dc\u05d1\u05e8\u05d5\u05d7": 2662,
  "\u2581college": 2663,
  "\u2581gentlemen": 2664,
  "\u2581\u05de\u05db\u05d5\u05e0\u05d9\u05ea": 2665,
  "\u2581\u05de\u05db\u05d9\u05d5\u05d5\u05df": 2666,
  "\u2581\u05e0\u05d9\u05e7": 2667,
  "\u2581count": 2668,
  "\u2581\u05e9\u05d2": 2669,
  "\u2581honest": 2670,
  "\u2581\u05e9\u05e2\u05e9\u05d9\u05ea": 2671,
  "\u05d9\u05d9\u05d4": 2672,
  "\u05e2\u05dd": 2673,
  "\u2581\u05d4\u05d9\u05d3\u05d9\u05d9\u05dd": 2674,
  "\u05db\u05d5\u05ea": 2675,
  "\u2581kiss": 2676,
  "\u05d4\u05d0\u05dd": 2677,
  "\u2581\u05d4\u05d2\u05d1": 2678,
  "\u2581quiet": 2679,
  "\u2581wall": 2680,
  "\u05d0\u05dc\u05d5\u05d4\u05d9\u05dd": 2681,
  "\u2581\u05de\u05d5\u05d5\u05ea": 2682,
  "\u2581\u05dc\u05e4\u05ea\u05d5\u05d7": 2683,
  "\u2581surprise": 2684,
  "\u05d0\u05e8\u05dc\u05d9": 2685,
  "\u05d5\u05d0\u05d9": 2686,
  "\u2581walking": 2687,
  "\u2581sea": 2688,
  "\u2581\u05d9\u05e9\u05e0\u05d4": 2689,
  "\u2581\u05d0\u05e7\u05d3\u05d7": 2690,
  "\u2581calm": 2691,
  "ka": 2692,
  "\u2581miles": 2693,
  "\u05d0\u05d5\u05ea": 2694,
  "\u2581\u05de\u05e1\u05d5\u05db\u05df": 2695,
  "\u2581excuse": 2696,
  "\u05d5\u05e9": 2697,
  "\u2581rules": 2698,
  "\u2581\u05d7\u05dd": 2699,
  "\u2581Once": 2700,
  "It": 2701,
  "\u2581Open": 2702,
  "\u2581\u05d4\u05d9\u05dc\u05d3\u05d4": 2703,
  "\u2581\u05dc\u05e6\u05e4\u05d5\u05ea": 2704,
  "\u2581Alex": 2705,
  "\u2581train": 2706,
  "\u2581\u05d1\u05e9\u05e8": 2707,
  "\u2581\u05e1\u05e7\u05e1": 2708,
  "\u2581Honey": 2709,
  "\u2581\u05de\u05e7\u05e1": 2710,
  "\u2581\u05dc\u05d0\u05d8": 2711,
  "\u2581Christian": 2712,
  "\u2581\u05e0\u05e7\u05e8\u05d0": 2713,
  "\u2581\u05db\u05d6\u05d0\u05ea": 2714,
  "\u05e7\u05d8": 2715,
  "\u2581\u05de\u05e0\u05d4\u05dc": 2716,
  "\u2581\u05d0\u05d4\u05d1\u05ea\u05d9": 2717,
  "\u2581\u05ea\u05e8\u05e6\u05d4": 2718,
  "\u2581lived": 2719,
  "\u2581\u05dc\u05d0\u05e8\u05d5\u05d7\u05ea": 2720,
  "\u2581\u05d3\u05e7\u05d4": 2721,
  "\u2581figured": 2722,
  "\u2581&": 2723,
  "\u2581\u05d4\u05e7\u05d8\u05e2": 2724,
  "\u2581\u05e9\u05d4\u05d9\u05d5": 2725,
  "\u2581\u05d0\u05e9\u05ea\u05d9": 2726,
  "\u2581\u05d1\u05e9\u05e2\u05d4": 2727,
  "\u2581\u05dc\u05d0\u05dc": 2728,
  "\u2581\u05ea\u05e0\u05d5": 2729,
  "\u2581Last": 2730,
  "\u05d0\u05e8\u05d3": 2731,
  "\u2581fighting": 2732,
  "\u2581Time": 2733,
  "\u2581difficult": 2734,
  "\u2581\u05d4\u05d2\u05d3\u05d5\u05dc\u05d4": 2735,
  "\u2581helping": 2736,
  "\u2581cash": 2737,
  "\u2581bank": 2738,
  "\u2581enjoy": 2739,
  "\u2581\u05d0\u05e1": 2740,
  "\u2581\u05d9\u05ea": 2741,
  "\u2581\u05e9\u05e8": 2742,
  "\u2581arrest": 2743,
  "\u2581private": 2744,
  "\u05d1\u05ea": 2745,
  "\u2581IT": 2746,
  "\u2581\u05e9\u05d0\u05e8": 2747,
  "\u2581Should": 2748,
  "\u2581\u05d9\u05d5\u05db\u05dc": 2749,
  "\u2581\u05dc\u05ea": 2750,
  "\u2581Sit": 2751,
  "\u2581\u05de\u05e0\u05e1\u05d9\u05dd": 2752,
  "\u05d0\u05e0\u05d2": 2753,
  "\u2581\u05e2\u05d5\u05d1\u05e8": 2754,
  "\u2581\u05e1\u05e8\u05d8": 2755,
  "\u2581none": 2756,
  "\u2581\u05d3\u05e8": 2757,
  "\u2581letter": 2758,
  "\u2581\u05de\u05ea\u05d0\u05d9\u05dd": 2759,
  "\u2581\u05ea\u05de\u05d5\u05e0\u05d4": 2760,
  "\u2581\u05d1\u05db\u05dc\u05d0": 2761,
  "\u2581\u05de\u05e9\u05d5\u05d2\u05e2": 2762,
  "\u2581\u05d4\u05ea\u05d7\u05d9\u05dc": 2763,
  "\u2581doubt": 2764,
  "\u2581\u05d4\u05e1\u05e8\u05d8": 2765,
  "\u2581\u05d1\u05e4\u05e0\u05d9": 2766,
  "\u2581\u05dc\u05e1\u05d9\u05d9\u05dd": 2767,
  "\u2581crap": 2768,
  "\u2581\u05d4\u05de\u05d5": 2769,
  "ive": 2770,
  "\u2581jail": 2771,
  "\u05d9\u05e0\u05d9": 2772,
  "\u2581Somebody": 2773,
  "\u2581\u05de\u05d7\u05e4\u05e9\u05d9\u05dd": 2774,
  "\u2581\u05dc\u05d4\u05d7\u05d6\u05d9\u05e7": 2775,
  "\u2581Detective": 2776,
  "\u2581favorite": 2777,
  "\u2581\u05dc\u05e9\u05dc\u05d5\u05d7": 2778,
  "\u2581sad": 2779,
  "ol": 2780,
  "\u2581\u05de\u05e9": 2781,
  "\u2581putting": 2782,
  "\u2581mission": 2783,
  "\u2581\u05de\u05d3\u05d5\u05d1\u05e8": 2784,
  "\u2581\u05d4\u05e9\u05d0\u05e8": 2785,
  "\u2581\u05de\u05e6\u05d5\u05d9\u05df": 2786,
  "\u2581\u05dc\u05e9\u05e2\u05d1\u05e8": 2787,
  "\u2581\u05e8\u05d3": 2788,
  "\u2581\u05e1\u05de\u05d9\u05dd": 2789,
  "\u05e9\u05d9": 2790,
  "\u2581\u05d4\u05d7\u05d1\u05e8\u05d9\u05dd": 2791,
  "\u2581stuck": 2792,
  "\u2581\u05d0\u05d4\u05d4": 2793,
  "\u2581dress": 2794,
  "\u2581drunk": 2795,
  "\u2581Perhaps": 2796,
  "\u2581ourselves": 2797,
  "\u2581dying": 2798,
  "\u2581\u05d9\u05e2\u05d6\u05d5\u05e8": 2799,
  "\u2581station": 2800,
  "\u2581\u05d4\u05e9\u05d0\u05dc\u05d4": 2801,
  "\u2581\u05de\u05dc": 2802,
  "\u2581teach": 2803,
  "\u05e8\u05d9\u05dd": 2804,
  "\u2581helped": 2805,
  "\u2581Jane": 2806,
  "\u2581\u05d4\u05d0\u05d7\u05e8\u05d9\u05dd": 2807,
  "\u2581\u05d9\u05e9\u05e8\u05d0\u05dc": 2808,
  "\u2581\u05d4\u05dc\u05db\u05ea\u05d9": 2809,
  "\u2581\u05d9\u05d3\u05d9\u05d9\u05dd": 2810,
  "\u2581low": 2811,
  "\u05e0\u05d3\u05e8": 2812,
  "\u2581Mark": 2813,
  "\u2581\u05d4\u05d2\u05d5\u05e3": 2814,
  "\u2581angry": 2815,
  "\u2581unless": 2816,
  "\u2581\u05d3\u05e0\u05d9": 2817,
  "\u2581\u05d4\u05de\u05d9\u05dd": 2818,
  "\u2581\u05e6\u05d5\u05d3\u05e7\u05ea": 2819,
  "\u2581sun": 2820,
  "\u2581owe": 2821,
  "\u2581\u05db\u05dc\u05d9": 2822,
  "me": 2823,
  "We": 2824,
  "\u2581\u05e2\u05d5\u05e8\u05da": 2825,
  "\u2581\u05d4\u05d1\u05e8\u05d9\u05ea": 2826,
  "\u2581\u05d4\u05e4\u05d4": 2827,
  "\u2581\u05d7\u05d3\u05e9\u05d9\u05dd": 2828,
  "\u2581finished": 2829,
  "\u2581\u05d7\u05df": 2830,
  "\u2581\u05e9\u05d5\u05e0\u05d9\u05dd": 2831,
  "\u2581\u05e9\u05e2\u05e9\u05d9\u05ea\u05d9": 2832,
  "\u2581tough": 2833,
  "\u2581upset": 2834,
  "\u2581\u05d4\u05e1": 2835,
  "\u2581weapon": 2836,
  "ma": 2837,
  "\u2581suppose": 2838,
  "\u2581\u05d9\u05d0\u05dc\u05dc\u05d4": 2839,
  "\u2581Check": 2840,
  "\u2581whoa": 2841,
  "\u2581\u05e0\u05d5\u05d7": 2842,
  "\u2581\u05d1\u05e9\u05e0\u05d4": 2843,
  "\u2581Son": 2844,
  "\u05d5\u05dc": 2845,
  "\u2581loves": 2846,
  "de": 2847,
  "\u2581\u05e7\u05e6\u05e8": 2848,
  "\u2581\u05de\u05e6\u05dc\u05d9\u05d7": 2849,
  "\u2581\u05d7\u05de\u05d5\u05d3": 2850,
  "\u2581\u05d6\u05e7\u05d5\u05e7\u05d9\u05dd": 2851,
  "\u2581address": 2852,
  "\u2581\u05ea\u05dc\u05d5\u05d9": 2853,
  "\u2581visit": 2854,
  "\u2581brothers": 2855,
  "\u2581\u05d0\u05d2\u05d1": 2856,
  "\u2581\u05e9\u05d0\u05e3": 2857,
  "\u2581certainly": 2858,
  "\u2581\u05de\u05e0\u05ea": 2859,
  "\u05e8\u05d4": 2860,
  "\u2581feelings": 2861,
  "\u2581ladies": 2862,
  "\u2581\u05e2\u05d3\u05d9\u05e3": 2863,
  "\u2581fly": 2864,
  "\u2581\u05d4\u05e9\u05e0\u05d9\u05d9\u05d4": 2865,
  "\u2581\u05dc\u05d7\u05e5": 2866,
  "\u05ea\u05d4": 2867,
  "\u2581\u05dc\u05ea\u05e7\u05df": 2868,
  "\u2581\u05dc\u05d4\u05d9": 2869,
  "\u2581\u05e0\u05e9\u05d1\u05e2": 2870,
  "\u2581\u05d0\u05e8\u05d1\u05e2\u05d4": 2871,
  "ran": 2872,
  "\u2581Ms": 2873,
  "\u2581showed": 2874,
  "\u05d5\u05d9": 2875,
  "\u2581Dude": 2876,
  "\u2581\u05d1\u05dc": 2877,
  "ig": 2878,
  "\u2581whether": 2879,
  "\u2581\u05d1\u05d9\u05dc": 2880,
  "\u2581evil": 2881,
  "\u2581\u05d2\u05e8\u05dd": 2882,
  "\u2581build": 2883,
  "\u2581\u05d8\u05e8\u05d9": 2884,
  "year": 2885,
  "\u2581co": 2886,
  "\u2581\u05e8\u05e6\u05d9\u05ea": 2887,
  "\u2581file": 2888,
  "\u2581difference": 2889,
  "\u2581\u05e9\u05d1\u05e2": 2890,
  "\u2581\u05d0\u05d5\u05e7\u05d9": 2891,
  "\u2581\u05e2\u05d5\u05dc\u05dd": 2892,
  "\u2581\u05d4\u05e8\u05d9": 2893,
  "id": 2894,
  "\u2581\u05e9\u05e7\u05d8": 2895,
  "\u2581rock": 2896,
  "\u2581\u05d6\u05d9\u05df": 2897,
  "\u2581\u05e9\u05d9\u05d7\u05d4": 2898,
  "\u2581hundred": 2899,
  "\u2581\u05d7\u05d6\u05e8": 2900,
  "\u2581\u05e9\u05de\u05d5\u05e0\u05d4": 2901,
  "\u2581machine": 2902,
  "\u2581English": 2903,
  "\u2581\u05d1\u05d0\u05de\u05e6\u05e2\u05d5\u05ea": 2904,
  "\u2581driving": 2905,
  "\u2581French": 2906,
  "\u2581\u05d0\u05e0\u05e9\u05d9": 2907,
  "\u2581\u05d1\u05d0\u05d9\u05dd": 2908,
  "\u05d8\u05d5": 2909,
  "\u2581\u05e9\u05e0\u05d9\u05d9\u05dd": 2910,
  "\u2581\u05d0\u05dc\u05db\u05e1": 2911,
  "\u2581Before": 2912,
  "\u2581drugs": 2913,
  "\u2581cute": 2914,
  "\u2581Out": 2915,
  "\u2581\u05e4\u05e8\u05e7": 2916,
  "\u2581\u05d4\u05e7": 2917,
  "\u2581\u05e9\u05d9\u05e0\u05d5\u05d9": 2918,
  "\u2581gives": 2919,
  "\u2581\u05d1\u05e2\u05d1\u05d5\u05d3\u05d4": 2920,
  "\u2581worst": 2921,
  "\u2581\u05e9\u05ea\u05d4\u05d9\u05d4": 2922,
  "\u2581\u05de\u05e7\u05d1\u05dc\u05d9\u05dd": 2923,
  "\u2581\u05de\u05e1\u05ea\u05db\u05dc": 2924,
  "\u2581\u05de\u05d0\u05d7\u05d5\u05e8": 2925,
  "\u2581grow": 2926,
  "\u2581\u05de\u05d1\u05d8": 2927,
  "\u2581\u05dc\u05d4\u05d9\u05dc\u05d7\u05dd": 2928,
  "\u2581Yep": 2929,
  "\u2581type": 2930,
  "\u2581Try": 2931,
  "\u2581Love": 2932,
  "\u2581\u05dc\u05db\u05d5": 2933,
  "\u2581liked": 2934,
  "\u2581\u05d4\u05d7\u05d5\u05e7": 2935,
  "\u2581following": 2936,
  "\u2581\u05d1\u05dc\u05d1\u05d3": 2937,
  "\u2581\u05d1\u05e1\u05d1\u05d9\u05d1\u05d4": 2938,
  "\u2581\u05e1\u05d9\u05e4\u05e8": 2939,
  "ent": 2940,
  "\u2581huge": 2941,
  "\u2581planet": 2942,
  "\u2581\u05ea\u05de\u05e9\u05d9\u05da": 2943,
  "\u2581\u05e2\u05e9\u05d5\u05d9": 2944,
  "\u2581Nick": 2945,
  "\u2581\u05dc\u05d1\u05e6\u05e2": 2946,
  "\u2581\u05e0\u05d3\u05d1\u05e8": 2947,
  "\u2581\u05d0\u05d9\u05e9\u05d9": 2948,
  "\u2581Guys": 2949,
  "\u2581Mo": 2950,
  "\u2581\u05e9\u05d5\u05d0\u05dc": 2951,
  "\u2581drug": 2952,
  "\u2581accept": 2953,
  "\u2581\u05dc\u05d9\u05e8\u05d5\u05ea": 2954,
  "\u2581\u05e2\u05d5\u05d6\u05d1": 2955,
  "\u2581\u05d4\u05e8\u05db\u05d1": 2956,
  "\u2581\u05d3\u05d9\u05d1\u05e8\u05ea\u05d9": 2957,
  "\u2581\u05e9\u05e2\u05d1\u05e8": 2958,
  "line": 2959,
  "\u2581\u05de\u05e4\u05d7\u05d3": 2960,
  "\u2581foot": 2961,
  "Yeah": 2962,
  "ass": 2963,
  "\u05d5\u05e0\u05e1": 2964,
  "\u2581bunch": 2965,
  "\u2581\u05d4\u05d0\u05d1\u05d0": 2966,
  "\u2581rich": 2967,
  "\u2581tree": 2968,
  "\u2581names": 2969,
  "\u2581\u05e9\u05e8\u05d0\u05d9\u05ea\u05d9": 2970,
  "\u2581\u05dc\u05de\u05e9\u05d8\u05e8\u05d4": 2971,
  "\u2581\u05e7\u05e8\u05d0": 2972,
  "\u2581\u05e2\u05de\u05d5\u05e7": 2973,
  "\u05e5": 2974,
  "\u2581\u05d0\u05de\u05d5\u05e8\u05d9\u05dd": 2975,
  "\u2581United": 2976,
  "\u2581\u05db\u05d5\u05d0\u05d1": 2977,
  "\u2581final": 2978,
  "\u2581listening": 2979,
  "der": 2980,
  "\u2581\u05ea\u05e6\u05d8\u05e8\u05da": 2981,
  "ci": 2982,
  "\u2581keeping": 2983,
  "\u2581Jimmy": 2984,
  "\u05d0\u05d9\u05e4\u05d4": 2985,
  "\u2581code": 2986,
  "\u05d5\u05d5\u05d9": 2987,
  "\u2581Mother": 2988,
  "\u05d9\u05d6": 2989,
  "\u2581marry": 2990,
  "\u2581usually": 2991,
  "\u2581\u05ea\u05d9\u05e8\u05d2\u05e2": 2992,
  "\u05d9\u05e1": 2993,
  "\u2581\u05dc\u05d4\u05e2\u05d1\u05d9\u05e8": 2994,
  "\u2581\u05d1\u05ea\u05d9": 2995,
  "\u2581\u05d7\u05d5\u05e4\u05e9\u05d9": 2996,
  "lo": 2997,
  "\u05e7\u05e8": 2998,
  "\u2581\u05d5\u05d0\u05d9\u05df": 2999,
  "\u2581\u05dc\u05d7\u05d9\u05d9\u05dd": 3000,
  "\u2581\u05d0\u05d3": 3001,
  "\u2581books": 3002,
  "\u2581\u05d4\u05d7\u05d3\u05e8": 3003,
  "\u2581track": 3004,
  "\u2581\u05db\u05ea\u05d5\u05d1": 3005,
  "ber": 3006,
  "\u2581grab": 3007,
  "\u2581strange": 3008,
  "\u2581\u05d1\u05e2\u05e8\u05d1": 3009,
  "\u2581bus": 3010,
  "\u2581\u05e4": 3011,
  "\u2581art": 3012,
  "\u2581..": 3013,
  "\u2581Too": 3014,
  "\u2581\u05d4\u05d0\u05e9": 3015,
  "\u2581\u05e9\u05d0\u05dc": 3016,
  "\u2581\u05e1\u05d0\u05dd": 3017,
  "\u2581fat": 3018,
  "\u2581\u05d3\u05d5\u05de\u05d4": 3019,
  "\u2581\u05ea\u05d7\u05e9\u05d5\u05d1": 3020,
  "\u2581hi": 3021,
  "\u2581Bo": 3022,
  "\u2581\u05e4\u05e2\u05d5\u05dc\u05d4": 3023,
  "\u2581Show": 3024,
  "\u2581sleeping": 3025,
  "\u2581\u05de\u05e6\u05d0\u05ea": 3026,
  "\u2581\u05d1\u05e1\u05d5\u05e4\u05d5": 3027,
  "\u2581\u05d1\u05d0\u05d6\u05d5\u05e8": 3028,
  "\u2581\u05d0\u05e8\u05d5\u05da": 3029,
  "\u2581hungry": 3030,
  "\u2581pressure": 3031,
  "\u2581\u05d4\u05de\u05d5\u05dc\u05d3": 3032,
  "\u2581\u05e0\u05e7\u05d9": 3033,
  "\u2581gas": 3034,
  "ish": 3035,
  "\u2581\u05d0\u05d9\u05e0\u05dd": 3036,
  "\u2581\u05d4\u05d7\u05dc": 3037,
  "\u2581beginning": 3038,
  "\u2581reading": 3039,
  "\u2581energy": 3040,
  "ga": 3041,
  "\u2581joke": 3042,
  "\u2581\u05e2\u05d1\u05d5\u05e8\u05da": 3043,
  "\u2581hoping": 3044,
  "\u2581local": 3045,
  "\u2581\u05dc\u05d5\u05d5\u05d3\u05d0": 3046,
  "\u2581\u05e0\u05ea\u05ea\u05d9": 3047,
  "\u2581choose": 3048,
  "\u2581\u05d0\u05d7\u05d5\u05d6": 3049,
  "\u2581\u05d2\u05d0\u05d4": 3050,
  "age": 3051,
  "\u2581\u05d4\u05d1\u05d5\u05e1": 3052,
  "\u2581\u05e6\u05d5": 3053,
  "\u05d9\u05d5\u05dd": 3054,
  "\u2581slow": 3055,
  "\u05e7\u05dc": 3056,
  "\u2581\u05d5\u05e2\u05d5\u05d3": 3057,
  "\u05d9\u05e3": 3058,
  "\u2581round": 3059,
  "\u2581\u05e0\u05d9\u05e1\u05d4": 3060,
  "\u2581\u05db\u05d0\u05d1": 3061,
  "\u2581\u05e7\u05d5\u05d5\u05d9\u05df": 3062,
  "\u2581\u05d1\u05d0\u05d5": 3063,
  "\u2581Un": 3064,
  "\u2581\u05dc\u05d1\u05e0\u05d5\u05ea": 3065,
  "\u2581consider": 3066,
  "\u2581wine": 3067,
  "\u2581\u05d4\u05d5\u05d2\u05df": 3068,
  "\u2581\u05e9\u05d7\u05d5\u05e8": 3069,
  "\u2581medical": 3070,
  "\u05e4\u05d5\u05dc": 3071,
  "est": 3072,
  "\u2581star": 3073,
  "\u2581\u05ea\u05d9\u05e7": 3074,
  "\u2581\u05dc\u05db\u05ea\u05d5\u05d1": 3075,
  "\u2581\u05d1\u05d9\u05e0\u05d9\u05e0\u05d5": 3076,
  "\u2581\u05d4\u05ea\u05d5\u05db\u05e0\u05d9\u05ea": 3077,
  "\u2581\u05d4\u05d1\u05d0\u05ea\u05d9": 3078,
  "\u2581\u05e4\u05e8\u05d9": 3079,
  "ant": 3080,
  "\u2581\u05d6\u05db\u05d5\u05ea": 3081,
  "\u2581\u05de\u05e4\u05d7\u05d9\u05d3": 3082,
  "\u2581client": 3083,
  "\u2581willing": 3084,
  "\u2581promised": 3085,
  "\u2581\u05d8\u05d9": 3086,
  "\u2581magic": 3087,
  "\u2581arm": 3088,
  "\u2581\u05d4\u05de\u05d9\u05dc\u05d4": 3089,
  "\u2581\u05d4\u05dc\u05d0\u05d4": 3090,
  "\u05e7\u05d5\u05e8": 3091,
  "\u05e1\u05d4": 3092,
  "\u2581\u05d4\u05d1\u05d0\u05d9\u05dd": 3093,
  "\u05e7\u05d3\u05d9\u05de\u05d4": 3094,
  "\u05dc\u05ea": 3095,
  "\u2581built": 3096,
  "\u2581\u05d4\u05e2\u05d9\u05e0\u05d9\u05d9\u05dd": 3097,
  "\u2581\u05de\u05e1\u05d9\u05d1\u05d4": 3098,
  "ge": 3099,
  "\u2581eating": 3100,
  "\u2581\u05e4\u05d9\u05dc": 3101,
  "\u2581\u05e7\u05e8\u05d1": 3102,
  "\u2581Bill": 3103,
  "\u2581reach": 3104,
  "\u2581\u05e9\u05de\u05d5\u05e8": 3105,
  "\u05dc\u05d9\u05dd": 3106,
  "\u2581\u05d5\u05d5\u05d9\u05dc": 3107,
  "of": 3108,
  "\u2581afternoon": 3109,
  "\u2581\u05de\u05e1\u05d1\u05d9\u05d1": 3110,
  "\u2581\u05db\u05e9\u05d4\u05d9\u05d9\u05ea\u05d9": 3111,
  "\u2581account": 3112,
  "\u2581Five": 3113,
  "\u2581\u05de\u05d8\u05e8": 3114,
  "\u2581\u05ea\u05dc\u05da": 3115,
  "\u2581\u05de\u05d9\u05e0\u05d9": 3116,
  "\u2581\u05d0\u05d7\u05d5\u05ea\u05d9": 3117,
  "\u2581idiot": 3118,
  "\u2581pregnant": 3119,
  "\u2581level": 3120,
  "\u2581\u05de\u05d0\u05d7\u05e8": 3121,
  "\u2581\u05de\u05dc\u05d0\u05d4": 3122,
  "\u2581conversation": 3123,
  "\u2581fired": 3124,
  "\u2581\u05d1\u05d5\u05d1": 3125,
  "\u2581Israel": 3126,
  "-1": 3127,
  "\u2581\u05d1\u05d0\u05d5\u05ea\u05d4": 3128,
  "\u2581\u05de\u05e6\u05d0\u05e0\u05d5": 3129,
  "\u2581\u05de\u05dc\u05d1\u05d3": 3130,
  "\u2581further": 3131,
  "\u2581\u05e1\u05d9\u05de\u05df": 3132,
  "\u2581\u05d1\u05d2": 3133,
  "\u2581\u05d1\u05d4\u05e6\u05dc\u05d7\u05d4": 3134,
  "\u2581\u05d4\u05d8\u05d5\u05d1\u05d4": 3135,
  "\u2581camera": 3136,
  "\u2581form": 3137,
  "\u2581cat": 3138,
  "ner": 3139,
  "\u2581\u05d1\u05e7\u05d5\u05e9\u05d9": 3140,
  "\u05d0\u05e3": 3141,
  "\u2581\u05d5\u05d3\u05d0\u05d9": 3142,
  "\u2581\u05e9\u05ea\u05d5\u05db\u05dc": 3143,
  "\u2581\u05e9\u05d5\u05de\u05e8": 3144,
  "\u2581g": 3145,
  "\u2581\u05ea\u05de\u05d5\u05e0\u05d5\u05ea": 3146,
  "\u2581\u05e2\u05d5\u05de\u05d3\u05d9\u05dd": 3147,
  "\u2581\u05e4\u05d5": 3148,
  "\u2581\u05e9\u05d9\u05dd": 3149,
  "\u2581access": 3150,
  "\u2581\u05d7\u05d9\u05d4": 3151,
  "\u2581quit": 3152,
  "\u05d7\u05ea": 3153,
  "mo": 3154,
  "\u2581mention": 3155,
  "\u2581push": 3156,
  "\u2581pleasure": 3157,
  "\u2581\u05e6\u05e2\u05d3": 3158,
  "\u2581picked": 3159,
  "\u2581church": 3160,
  "\u05db\u05d5": 3161,
  "\u05d1\u05d5\u05d0": 3162,
  "\u2581witness": 3163,
  "\u2581destroy": 3164,
  "\u2581\u05d4\u05e2\u05d5\u05d1\u05d3\u05d4": 3165,
  "\u2581\u05d4\u05d0\u05d5\u05e8": 3166,
  "\u2581lab": 3167,
  "\u2581\u05e9\u05d0\u05d5\u05de\u05e8": 3168,
  "\u2581\u05d4\u05de\u05de": 3169,
  "\u2581Up": 3170,
  "\u2581allowed": 3171,
  "\u05d2\u05d9": 3172,
  "\u2581herself": 3173,
  "\u2581\u05ea\u05d0": 3174,
  "\u2581\u05e8\u05d9\u05e7": 3175,
  "\u2581\u05d1\u05d9\u05d3\u05d9": 3176,
  "\u2581steal": 3177,
  "\u2581\u05d4\u05d9\u05d9\u05ea\u05dd": 3178,
  "\u2581passed": 3179,
  "\u2581\u05db\u05de\u05d5\u05e0\u05d9": 3180,
  "\u2581\u05d1\u05de\u05db\u05d5\u05e0\u05d9\u05ea": 3181,
  "\u2581shop": 3182,
  "\u2581continue": 3183,
  "\u2581\u05d0\u05d7\u05e8\u05d5\u05ea": 3184,
  "\u2581\u05d4\u05e8\u05d2\u05e9\u05ea\u05d9": 3185,
  "my": 3186,
  "\u05d0\u05dc\u05d9": 3187,
  "\u05d0\u05d1\u05d0": 3188,
  "\u2581stole": 3189,
  "\u2581staying": 3190,
  "\u2581\u05d4\u05d9\u05dd": 3191,
  "6": 3192,
  "\u2581blame": 3193,
  "\u2581gay": 3194,
  "\u2581Danny": 3195,
  "\u2581\u05d0\u05d3\u05d5\u05df": 3196,
  "\u2581officer": 3197,
  "\u05de\u05e9": 3198,
  "\u2581\u05db\u05e8\u05d8\u05d9\u05e1": 3199,
  "\u2581bathroom": 3200,
  "\u2581extra": 3201,
  "\u2581spot": 3202,
  "\u05e4\u05ea\u05d9": 3203,
  "\u2581\u05de\u05e2\u05d3\u05d9\u05e3": 3204,
  "\u2581Mmm": 3205,
  "\u2581AND": 3206,
  "\u2581notice": 3207,
  "\u2581\u05d1\u05e9\u05e7\u05d8": 3208,
  "\u2581\u05d0\u05de\u05ea": 3209,
  "\u05e9\u05ea": 3210,
  "\u2581search": 3211,
  "\u05e1\u05d8": 3212,
  "\u2581Sarah": 3213,
  "RE": 3214,
  "\u2581\u05d7\u05d9\u05d9\u05da": 3215,
  "\u2581Exactly": 3216,
  "\u2581common": 3217,
  "po": 3218,
  "\u2581bomb": 3219,
  "\u2581\u05d5\u05dc\u05db\u05df": 3220,
  "\u2581\u05de\u05ea\u05d7\u05d9\u05dc\u05d9\u05dd": 3221,
  "\u2581Has": 3222,
  "\u2581\u05d4\u05ea\u05e7\u05e9\u05e8": 3223,
  "\u00e9": 3224,
  "\u05de\u05e1": 3225,
  "\u2581\u05e9\u05d4\u05d5": 3226,
  "im": 3227,
  "\u2581\u05e9\u05e7\u05e8": 3228,
  "\u2581\u05de\u05dc\u05d7\u05de\u05d4": 3229,
  "\u2581\u05dc\u05e9\u05d5\u05dd": 3230,
  "land": 3231,
  "\u2581bigger": 3232,
  "\u2581beer": 3233,
  "\u2581General": 3234,
  "\u05e7\u05d5\u05dc": 3235,
  "\u05e9\u05dd": 3236,
  "\u2581seriously": 3237,
  "\u2581pro": 3238,
  "os": 3239,
  "\u2581hole": 3240,
  "\u05db\u05de\u05d4": 3241,
  "\u05d9\u05e8": 3242,
  "\u2581\u05db\u05d6\u05d5": 3243,
  "\u2581\u05de\u05d5\u05db\u05e8": 3244,
  "\u2581\u05de\u05e8\u05d0\u05d4": 3245,
  "\u2581\u05e9\u05d8\u05d5\u05d9\u05d5\u05ea": 3246,
  "\u25812.": 3247,
  "\u2581\u05d3\u05e0\u05d9\u05d0\u05dc": 3248,
  "\u2581Witnesses": 3249,
  "bo": 3250,
  "\u2581\u05e2\u05e1\u05e7": 3251,
  "\u2581Daniel": 3252,
  "\u2581army": 3253,
  "ca": 3254,
  "\u2581\u05dc\u05e0\u05e1\u05d5\u05e2": 3255,
  "\u2581\u05d4\u05e0\u05e9\u05e7": 3256,
  "\u2581fit": 3257,
  "\u2581\u05de\u05db\u05d9\u05e8\u05d9\u05dd": 3258,
  "\u2581\u05dc\u05d4\u05d5\u05db\u05d9\u05d7": 3259,
  "\u2581judge": 3260,
  "\u2581dollars": 3261,
  "\u2581\u05db\u05dc\u05d1\u05d4": 3262,
  "\u258121": 3263,
  "\u2581among": 3264,
  "\u05d1\u05d9\u05ea": 3265,
  "\u2581speaking": 3266,
  "\u2581\u05d1\u05d8\u05dc\u05e4\u05d5\u05df": 3267,
  "va": 3268,
  "\u2581deserve": 3269,
  "\u2581gold": 3270,
  "\u2581States": 3271,
  "\u2581\u05d4\u05d5\u05e4\u05da": 3272,
  "\u2581\u05de\u05e9\u05ea\u05de\u05e9": 3273,
  "\u05d1\u05d5\u05dc": 3274,
  "\u2581\u05d1\u05d5\u05d5\u05d3\u05d0\u05d9": 3275,
  "\u2581kick": 3276,
  "ff": 3277,
  "\u2581wondering": 3278,
  "\u2581\u05d4\u05db\u05d5\u05d7": 3279,
  "\u05d4\u05e0\u05d4": 3280,
  "\u2581\u05d0\u05ea\u05e7\u05e9\u05e8": 3281,
  "\u2581match": 3282,
  "\u258100": 3283,
  "\u2581\u05d1\u05e8\u05d9": 3284,
  "\u2581\u05dc\u05d0\u05d1\u05d3": 3285,
  "\u2581lovely": 3286,
  "\u258160": 3287,
  "\u2581innocent": 3288,
  "ow": 3289,
  "\u2581jump": 3290,
  "\u2581City": 3291,
  "\u2581\u05d6\u05e7\u05d5\u05e7\u05d4": 3292,
  "\u2581forgive": 3293,
  "\u2581\u05d1\u05e8\u05d9\u05e8\u05d4": 3294,
  "\u05e2\u05d3": 3295,
  "\u2581\u05d0\u05d9\u05e0\u05d4": 3296,
  "\u2581thousand": 3297,
  "\u2581\u05dc\u05d4\u05e0\u05d9\u05d7": 3298,
  "\u2581\u05d4\u05d0\u05d4\u05d1\u05d4": 3299,
  "\u2581\u05d4\u05d3\u05d9\u05df": 3300,
  "\u2581Bob": 3301,
  "\u2581\u05dc\u05d1\u05e7\u05e8": 3302,
  "\u2581surprised": 3303,
  "\u2581double": 3304,
  "\u2581\u05d1\u05d0\u05d9\u05d6\u05d4": 3305,
  "\u2581view": 3306,
  "\u2581agent": 3307,
  "\u2581\u05e9\u05dc\u05d9\u05d8\u05d4": 3308,
  "\u2581Want": 3309,
  "\u2581\u05e2\u05d5\u05e0\u05d4": 3310,
  "\u2581\u05e1\u05d2\u05df": 3311,
  "\u2581\u05d4\u05de\u05d9\u05d3\u05e2": 3312,
  "rs": 3313,
  "\u2581weekend": 3314,
  "\u2581\u05d0\u05d7\u05d5\u05e8\u05d4": 3315,
  "\u2581\u05d9\u05d2\u05d9\u05e2": 3316,
  "\u2581\u05e9\u05d5\u05e0\u05d0\u05ea": 3317,
  "\u2581\u05d4\u05d7\u05e8\u05d0": 3318,
  "\u2581played": 3319,
  "\u2581\u05db\u05d9\u05d5\u05dd": 3320,
  "off": 3321,
  "\u2581\u05e2\u05e9\u05e8\u05d4": 3322,
  "\u2581text": 3323,
  "\u2581\u05d4\u05e7\u05e9\u05e8": 3324,
  "\u2581pulled": 3325,
  "\u2581rid": 3326,
  "\u2581\u05ea\u05d4": 3327,
  "\u05d5\u05d3\u05d9": 3328,
  "\u2581\u05e0\u05ea\u05d7\u05d9\u05dc": 3329,
  "\u2581complete": 3330,
  "\u2581\u05d4\u05de\u05e1\u05e4\u05e8": 3331,
  "\u2581\u05ea\u05d3\u05d0\u05d2\u05d9": 3332,
  "\u2581Jim": 3333,
  "\u2581radio": 3334,
  "\u2581\u05d4\u05d0\u05d7\u05e8\u05d5\u05e0\u05d5\u05ea": 3335,
  "\u2581impossible": 3336,
  "\u2581shoes": 3337,
  "\u2581opportunity": 3338,
  "\u2581\u05e8\u05d0\u05e9\u05d9": 3339,
  "\u2581\u05d1\u05de\u05d4\u05d9\u05e8\u05d5\u05ea": 3340,
  "\u2581skin": 3341,
  "\u2581\u05e9\u05d9\u05e2\u05e8": 3342,
  "\u2581memory": 3343,
  "\u2581\u05e2\u05d5\u05de\u05d3\u05ea": 3344,
  "\u2581\u05e9\u05db\u05d7\u05ea\u05d9": 3345,
  "\u05e6\u05d5\u05ea": 3346,
  "\u2581Little": 3347,
  "\u2581\u05d2\u05d3\u05d5\u05dc\u05d9\u05dd": 3348,
  "\u05d1\u05d1\u05e7\u05e9\u05d4": 3349,
  "\u2581\u05e2\u05d9\u05e0\u05d9\u05d9\u05dd": 3350,
  "\u2581\u05d0\u05d5\u05d5\u05d9\u05e8": 3351,
  "\u2581Holy": 3352,
  "\u2581\u05d7\u05d1\u05e8\u05ea": 3353,
  "\u2581horse": 3354,
  "\u2581\u05d4\u05e6\u05d5\u05d5\u05ea": 3355,
  "\u2581gotten": 3356,
  "\u2581\u05d0\u05e9\u05de\u05d7": 3357,
  "\u258123": 3358,
  "\u2581\u05e6\u05d4\u05e8\u05d9\u05d9\u05dd": 3359,
  "\u2581perhaps": 3360,
  "\u2581locked": 3361,
  "\u05d0\u05de\u05d0": 3362,
  "\u2581\u05d4\u05e2\u05e1\u05e7": 3363,
  "\u2581Today": 3364,
  "\u2581\u05e9\u05d2\u05dd": 3365,
  "\u2581\u05e2\u05d9\u05e8": 3366,
  "\u2581program": 3367,
  "\u05d0\u05d3": 3368,
  "\u2581super": 3369,
  "\u2581ok": 3370,
  "\u2581\u05d7\u05d5\u05e7\u05d9": 3371,
  "\u2581\u05dc\u05e9": 3372,
  "\u2581\u05d7\u05d5\u05dc\u05d9\u05dd": 3373,
  "\u2581interest": 3374,
  "\u05d1\u05dc\u05d9": 3375,
  "\u2581\u05e7\u05d9\u05d1\u05dc\u05ea": 3376,
  "\u2581except": 3377,
  "\u2581absolutely": 3378,
  "\u2581lock": 3379,
  "\u2581\u05e4\u05e2\u05de\u05d9\u05d9\u05dd": 3380,
  "\u2581\u05d5\u05de\u05d9": 3381,
  "\u2581hiding": 3382,
  "\u2581\u05de\u05d7\u05d6\u05d9\u05e7": 3383,
  "\u2581press": 3384,
  "\u25810": 3385,
  "\u2581drinking": 3386,
  "\u2581\u05e2\u05e1\u05e7\u05d9\u05dd": 3387,
  "\u2581\u05e7\u05d9": 3388,
  "\u2581\u05db\u05d5\u05dc\u05dc": 3389,
  "\u2581\u05d8\u05d5\u05e2\u05d4": 3390,
  "\u2581film": 3391,
  "\u2581mate": 3392,
  "\u2581\u05e9\u05d9\u05e8": 3393,
  "\u2581Bring": 3394,
  "\u2581\u05d9\u05d3\u05d5\u05e2": 3395,
  "\u05dc\u05d9\u05df": 3396,
  "\u2581spoke": 3397,
  "\u05d7\u05d5\u05ea": 3398,
  "\u2581began": 3399,
  "\u2581\u05d0\u05e9\u05ea\u05d5": 3400,
  "\u2581places": 3401,
  "\u2581plans": 3402,
  "\u2581Doesn": 3403,
  "ted": 3404,
  "\u2581Turn": 3405,
  "\u2581\u05e9\u05de\u05da": 3406,
  "\u2581\u05e0\u05d4\u05d3\u05e8\u05ea": 3407,
  "per": 3408,
  "\u2581flight": 3409,
  "\u2581lied": 3410,
  "\u2581\u05d4\u05d0\u05d7\u05e8\u05d5\u05e0\u05d9\u05dd": 3411,
  "\u2581\u05d4\u05e7\u05d5\u05dc": 3412,
  "\u2581\u05d7\u05d9\u05d9\u05d5": 3413,
  "\u2581park": 3414,
  "\u2581\u05e2\u05d1\u05d5\u05e8\u05d9": 3415,
  "\u2581Le": 3416,
  "\u2581decide": 3417,
  "\u2581action": 3418,
  "\u2581pictures": 3419,
  "\u2581numbers": 3420,
  "\u2581turns": 3421,
  "\u2581taught": 3422,
  "\u2581green": 3423,
  "\u05d0\u05d3\u05dd": 3424,
  "\u2581Happy": 3425,
  "\u2581\u05de\u05e6\u05d9\u05e2": 3426,
  "\u2581above": 3427,
  "\u05e9\u05dc\u05d9": 3428,
  "\u2581credit": 3429,
  "\u2581\u05d4\u05d2\u05d9\u05e2\u05d5": 3430,
  "\u2581\u05d1\u05d2\u05d9\u05dc": 3431,
  "\u2581\u05d9\u05d5\u05e6\u05d0\u05ea": 3432,
  "\u2581Dan": 3433,
  "\u2581begin": 3434,
  "\u2581\u05e9\u05d4\u05ea": 3435,
  "\u05b0": 3436,
  "\u2581quickly": 3437,
  "\u2581\u05d7\u05e9\u05d1": 3438,
  "\u2581\u05e2\u05d9\u05df": 3439,
  "\u2581purpose": 3440,
  "so": 3441,
  "\u2581suit": 3442,
  "\u2581\u05ea\u05d5": 3443,
  "\u2581carry": 3444,
  "\u2581\u05d4\u05d0\u05d5\u05d5\u05d9\u05e8": 3445,
  "time": 3446,
  "\u2581\u05d4\u05de\u05dc\u05d7\u05de\u05d4": 3447,
  "\u2581\u05e9\u05d9\u05e0\u05d4": 3448,
  "ex": 3449,
  "\u2581\u05e9\u05d0\u05e0\u05e9\u05d9\u05dd": 3450,
  "\u2581leg": 3451,
  "\u2581neither": 3452,
  "Oh": 3453,
  "\u2581writing": 3454,
  "\u2581Adam": 3455,
  "\u05e0\u05d3": 3456,
  "\u2581large": 3457,
  "\u2581\u05d4\u05e6\u05d4\u05e8\u05d9\u05d9\u05dd": 3458,
  "\u05e0\u05e7": 3459,
  "\u2581\u05dc\u05d2\u05d5\u05e8": 3460,
  "\u2581\u05d0\u05d3\u05d9": 3461,
  "\u2581earlier": 3462,
  "-19": 3463,
  "ut": 3464,
  "\u2581\u05d0\u05de\u05d9\u05ea\u05d9\u05ea": 3465,
  "He": 3466,
  "\u2581\u05e7\u05dc\u05d9": 3467,
  "\u2581obviously": 3468,
  "\u2581Ryan": 3469,
  "\u2581cross": 3470,
  "\u2581\u05db\u05d5\u05dc\u05d5": 3471,
  "\u2581\u05dc\u05e1\u05de\u05d5\u05da": 3472,
  "\u258122": 3473,
  "\u2581Sounds": 3474,
  "\u2581Richard": 3475,
  "\u2581itself": 3476,
  "\u2581\u05d4\u05d0\u05e8\u05d9": 3477,
  "\u2581Most": 3478,
  "\u2581sake": 3479,
  "\u2581\u05dc\u05e2\u05e0\u05d5\u05ea": 3480,
  "\u2581\u05dc\u05e7\u05d7\u05ea\u05d9": 3481,
  "\u2581\u05db\u05dc\u05e4\u05d9": 3482,
  "\u2581\u05dc\u05de\u05db\u05d5\u05e8": 3483,
  "\u2581\u05de\u05d1\u05dc\u05d9": 3484,
  "\u05e2\u05d5\u05d3": 3485,
  "\u2581\u05db\u05dc\u05e9\u05d4\u05d5": 3486,
  "\u2581\u05d4\u05d5\u05dc\u05d3\u05ea": 3487,
  "\u2581\u05d4\u05e1\u05e4\u05d9\u05e0\u05d4": 3488,
  "\u2581Run": 3489,
  "\u2581\u05d4\u05e2\u05ea\u05d9\u05d3": 3490,
  "\u2581Another": 3491,
  "\u2581\u05d9\u05e9\u05d5": 3492,
  "\u2581admit": 3493,
  "\u2581\u05e9\u05d0\u05e4\u05e9\u05e8": 3494,
  "\u05d9\u05d2": 3495,
  "\u2581Clark": 3496,
  "\u2581suspect": 3497,
  "\u05e8\u05d5\u05e1": 3498,
  "\u05e0\u05e6": 3499,
  "\u2581camp": 3500,
  "\u2581serve": 3501,
  "\u2581\u05d7\u05d5\u05de\u05e8": 3502,
  "\u2581goddamn": 3503,
  "\u2581neck": 3504,
  "\u2581\u05dc\u05e2\u05dc\u05d5\u05ea": 3505,
  "\u05d5\u05e0\u05d4": 3506,
  "\u2581grand": 3507,
  "\u2581pre": 3508,
  "\u05e4\u05df": 3509,
  "\u2581career": 3510,
  "\u2581nervous": 3511,
  "\u05e1\u05d8\u05d9": 3512,
  "\u2581shows": 3513,
  "\u05d3\u05df": 3514,
  "\u2581House": 3515,
  "ho": 3516,
  "\u2581vote": 3517,
  "\u2581\u05e4\u05d2\u05d9\u05e9\u05d4": 3518,
  "\u2581Black": 3519,
  "\u2581\u05d4\u05d7\u05d3\u05e9\u05d5\u05ea": 3520,
  "\u05e4\u05d8": 3521,
  "\u2581\u05dc\u05d6\u05de\u05df": 3522,
  "\u2581bear": 3523,
  "ag": 3524,
  "\u2581\u05dc\u05db\u05dc\u05d0": 3525,
  "\u2581held": 3526,
  "\u2581\u05d4\u05ea\u05de\u05d5\u05e0\u05d4": 3527,
  "\u2581hearing": 3528,
  "\u2581losing": 3529,
  "\u2581\u05d4\u05d1\u05e8": 3530,
  "\u2581rule": 3531,
  "\u2581\u05e0\u05d0\u05de\u05e8": 3532,
  "\u2581\u05e8\u05d5\u05e6\u05d7": 3533,
  "\u2581\u05d5\u05db\u05da": 3534,
  "\u2581per": 3535,
  "\u2581\u05dc\u05d4\u05db\u05d9\u05df": 3536,
  "\u05d5\u05e8\u05d4": 3537,
  "\u2581\u05dc\u05d4\u05e7\u05e9\u05d9\u05d1": 3538,
  "\u2581\u05e2\u05e1\u05d5\u05e7": 3539,
  "\u2581\u05d1\u05e0\u05d9\u05d5": 3540,
  "\u2581\u05d9\u05db\u05d5\u05dc\u05d5\u05ea": 3541,
  "\u2581\u05d2\u05d9\u05e9\u05d4": 3542,
  "\u2581\u05d4\u05e9\u05d8\u05df": 3543,
  "\u05e4\u05e8\u05d9": 3544,
  "\u2581tea": 3545,
  "\u2581twice": 3546,
  "\u2581awesome": 3547,
  "\u2581\u05db\u05e9\u05d4\u05d9\u05d0": 3548,
  "\u2581\u05de\u05dc\u05da": 3549,
  "\u05e7\u05d9\u05dd": 3550,
  "\u2581\u05d9\u05e7\u05e8": 3551,
  "\u2581cry": 3552,
  "\u2581\u05d1\u05d5\u05e1": 3553,
  "\u2581summer": 3554,
  "\u05e8\u05d5\u05ea": 3555,
  "\u2581escape": 3556,
  "\u2581\u05d0\u05dc\u05d9\u05d4\u05dd": 3557,
  "\u05d9\u05e0\u05e1": 3558,
  "\u2581\u05d0\u05dc\u05df": 3559,
  "\u2581\u05de\u05d0\u05d5\u05e9\u05e8": 3560,
  "\u2581\u05de\u05ea\u05d5": 3561,
  "\u2581Uncle": 3562,
  "\u2581\u05de\u05de": 3563,
  "\u05de\u05d7": 3564,
  "\u2581Jo": 3565,
  "\u2581powerful": 3566,
  "\u2581\u05de\u05d9\u05dc\u05d9\u05dd": 3567,
  "\u2581hurry": 3568,
  "\u2581crew": 3569,
  "\u2581200": 3570,
  "\u2581\u05e1\u05d1\u05ea\u05d0": 3571,
  "\u2581teacher": 3572,
  "\u2581Hurry": 3573,
  "\u2581\u05d1\u05e8\u05d7\u05d5\u05d1": 3574,
  "\u2581\u05d4\u05e8\u05d5\u05d7": 3575,
  "\u2581nine": 3576,
  "\u2581\u05e1\u05e8": 3577,
  "\u2581apart": 3578,
  "\u2581\u05de\u05d5\u05d7": 3579,
  "\u2581\u05ea\u05d9\u05e9\u05d0\u05e8": 3580,
  "\u2581Chief": 3581,
  "\u05e1\u05d5\u05e3": 3582,
  "\u2581\u05e0\u05e8\u05d0\u05d9\u05dd": 3583,
  "\u2581\u05e2\u05d6\u05d1": 3584,
  "ial": 3585,
  "\u2581Hell": 3586,
  "!\"": 3587,
  "\u2581White": 3588,
  "\u05e8\u05d5": 3589,
  "\u2581\u05db\u05d5\u05e1": 3590,
  "\u2581advice": 3591,
  "\u2581\u05d7\u05d1\u05e8\u05d9": 3592,
  "\u2581hero": 3593,
  "\u2581\u05dc\u05de\u05e9\u05e8\u05d3": 3594,
  "\u2581\u05db\u05d9\u05d5\u05d5\u05df": 3595,
  "\u2581\u05dc\u05e8\u05d3\u05ea": 3596,
  "\u2581\u05de\u05d1\u05d9\u05e0\u05d9\u05dd": 3597,
  "\u2581\u05d1\u05de\u05e9\u05d7\u05e7": 3598,
  "\u2581major": 3599,
  "\u2581\u05d4\u05e8\u05d5\u05e4\u05d0": 3600,
  "ED": 3601,
  "\u2581\u05d0\u05de\u05de": 3602,
  "\u2581\u05de\u05e9\u05de\u05e2\u05d5\u05ea": 3603,
  "\u2581\u05dc\u05e6\u05d3": 3604,
  "\u2581\u05d4\u05e9\u05d5\u05dc\u05d7\u05df": 3605,
  "7": 3606,
  "\u2581\u05d7\u05d5\u05e9\u05e9": 3607,
  "\u05de\u05dc": 3608,
  "\u2581World": 3609,
  "\u2581\u05e4\u05d7\u05d3": 3610,
  "\u2581wind": 3611,
  "\u2581walked": 3612,
  "\u2581weapons": 3613,
  "\u2581\u05de\u05e2\u05e8\u05d9\u05da": 3614,
  "\u2581responsible": 3615,
  "\u2581\u05d4\u05e9\u05de\u05e9": 3616,
  "\u2581\u05dc\u05d1\u05dc\u05d5\u05ea": 3617,
  "\u2581\u05d4\u05d1\u05e0\u05d5\u05ea": 3618,
  "\u2581hello": 3619,
  "\u2581\u05e4\u05d9\u05d8": 3620,
  "20": 3621,
  "\u2581Trust": 3622,
  "\u2581\u05d6\u05e7\u05df": 3623,
  "\u2581keeps": 3624,
  "\u2581\u05d7\u05de\u05d9\u05e9\u05d4": 3625,
  "\u2581\u05d1\u05e2\u05e0\u05d9\u05d9\u05df": 3626,
  "\u2581\u05e0\u05d5\u05e9\u05d0": 3627,
  "\u2581\u05e8\u05db\u05d1": 3628,
  "op": 3629,
  "\u2581Were": 3630,
  "\u2581race": 3631,
  "\u2581Seriously": 3632,
  "\u2581\u05ea\u05e4\u05e1\u05d9\u05e7\u05d9": 3633,
  "\u05e9\u05dc\u05da": 3634,
  "\u2581trial": 3635,
  "\u2581\u05d4\u05d2\u05d9\u05e2\u05d4": 3636,
  "ard": 3637,
  "\u2581IN": 3638,
  "\u2581\u05d4\u05e9\u05d9\u05d7\u05d4": 3639,
  "\u2581\u05e9\u05d9\u05d9\u05da": 3640,
  "\u2581\u05d9\u05e7\u05d9\u05e8\u05ea\u05d9": 3641,
  "\u2581Chris": 3642,
  "\u2581guns": 3643,
  "di": 3644,
  "\u2581\u05d4\u05e1\u05d5\u05db\u05df": 3645,
  "\u05e2\u05ea": 3646,
  "\u2581London": 3647,
  "ous": 3648,
  "\u2581price": 3649,
  "\u2581\u05d0\u05d5\u05d5": 3650,
  "\u2581$": 3651,
  "\u2581animals": 3652,
  "bye": 3653,
  "\u2581\u05d1\u05e7\u05e8\u05d1": 3654,
  "\u2581\u05e7\u05d8\u05e0\u05d9\u05dd": 3655,
  "\u2581\u05e9\u05d5\u05df": 3656,
  "\u2581Probably": 3657,
  "\u2581\u05e8\u05d2\u05dc": 3658,
  "\u2581written": 3659,
  "\u2581\u05d8\u05e2\u05dd": 3660,
  "\u2581closed": 3661,
  "\u2581hadn": 3662,
  "\u05d5\u05de\u05d4": 3663,
  "\u2581\u05dc\u05d5\u05d0\u05d9\u05e1": 3664,
  "\u2581language": 3665,
  "\u2581\u05e9\u05e0\u05d9\u05d4\u05dd": 3666,
  "\u2581\u05dc\u05d4\u05e6\u05d8\u05e8\u05e3": 3667,
  "\u2581\u05e4\u05ea\u05d7": 3668,
  "\u2581\u05d4\u05de\u05d8\u05e8\u05d4": 3669,
  "\u2581\u05dc\u05e2\u05d9\u05e8": 3670,
  "ak": 3671,
  "\u2581\u05de\u05d4\u05d9\u05e8": 3672,
  "\u2581everywhere": 3673,
  "\u2581\u05d0\u05d7\u05e8\u05d0\u05d9": 3674,
  "\u2581\u05e1\u05d5\u05db\u05df": 3675,
  "\u2581cost": 3676,
  "\u05d9\u05d9\u05e1\u05d5\u05df": 3677,
  "10": 3678,
  "\u2581whom": 3679,
  "\u2581\u05d4\u05d6": 3680,
  "\u2581\u05d1\u05dc\u05e9": 3681,
  "\u2581DNA": 3682,
  "\u2581fool": 3683,
  "\u2581surgery": 3684,
  "\u2581South": 3685,
  "\u2581con": 3686,
  "\u2581\u05d4\u05d0\u05d1": 3687,
  "\u2581\u05d9\u05d5\u05e9\u05d1": 3688,
  "\u2581sing": 3689,
  "\u2581acting": 3690,
  "\u2581research": 3691,
  "\u2581tight": 3692,
  "\u2581\u05e2\u05e8": 3693,
  "\u2581due": 3694,
  "\u2581waste": 3695,
  "\u2581whose": 3696,
  "\u2581\u05db\u05d5\u05e2\u05e1": 3697,
  "\u2581\u05d4\u05de\u05e9\u05d9\u05d7": 3698,
  "\u2581enemy": 3699,
  "\u2581\u05de\u05ea\u05e0\u05d4": 3700,
  "\u2581Paris": 3701,
  "\u2581\u05d1\u05e1": 3702,
  "\u2581b": 3703,
  "\u2581closer": 3704,
  "\u2581\u05e4\u05e8\u05e1": 3705,
  "\u2581size": 3706,
  "\u2581dirty": 3707,
  "\u2581matters": 3708,
  "\u2581especially": 3709,
  "\u2581\u05d5\u05d6\u05d5": 3710,
  "\u2581\u05e7\u05d9\u05d9\u05dc": 3711,
  "\u2581\u05d4\u05e9\u05e2\u05d4": 3712,
  "\u2581\u05d0\u05d9\u05e0\u05e0\u05d5": 3713,
  "\u2581\u05d4\u05e8\u05d5\u05d7\u05d5\u05ea": 3714,
  "\u2581allow": 3715,
  "\u05d1\u05d9\u05dd": 3716,
  "\u2581upstairs": 3717,
  "\u2581\u05d9\u05d5\u05e6\u05d0\u05d9\u05dd": 3718,
  "\u2581process": 3719,
  "but": 3720,
  "\u2581Jake": 3721,
  "\u2581\u05e9\u05d5": 3722,
  "\u2581\u05d7\u05db\u05d5": 3723,
  "\u2581apologize": 3724,
  "\u2581kitchen": 3725,
  "\u2581danger": 3726,
  "\u2581\u05de\u05e1\u05db\u05d9\u05dd": 3727,
  "\u2581\u05e9\u05db\u05d5\u05dc\u05dd": 3728,
  "\u2581\u05e7\u05d7\u05d9": 3729,
  "II": 3730,
  "ni": 3731,
  "\u2581\u05dc\u05d4\u05db\u05e0\u05d9\u05e1": 3732,
  "\u2581\u05e2\u05e1\u05e7\u05d4": 3733,
  "\u2581\u05de\u05d1\u05d9\u05ea": 3734,
  "ance": 3735,
  "\u2581glass": 3736,
  "\u2581\u05e4\u05ea\u05d0\u05d5\u05dd": 3737,
  "\u2581\u05d4\u05d4\u05d6\u05d3\u05de\u05e0\u05d5\u05ea": 3738,
  "\u2581\u05e1\u05d9\u05e4\u05e8\u05ea": 3739,
  "\u2581\u05d4\u05e1\u05d9": 3740,
  "\u2581\u05d4\u05e8\u05e6\u05d7": 3741,
  "\u2581\u05de\u05e6\u05d0\u05d5": 3742,
  "\u2581\u05e8\u05d2\u05d9\u05dc": 3743,
  "\u2581guilty": 3744,
  "\u2581\u05d2\u05d9\u05dc": 3745,
  "\u2581Kingdom": 3746,
  "\u2581\u05e2\u05e8\u05da": 3747,
  "\u2581\u05d4\u05e1\u05d5\u05e3": 3748,
  "\u2581\u05d4\u05e0\u05e7\u05d5\u05d3\u05d4": 3749,
  "\u2581\u05d0\u05de\u05e9": 3750,
  "lin": 3751,
  "\u2581\u05d9\u05d7\u05e1\u05d9\u05dd": 3752,
  "\u2581Z": 3753,
  "\u2581\u05d1\u05d9\u05e8\u05d4": 3754,
  "ary": 3755,
  "\u2581\u05d4\u05ea\u05d0": 3756,
  "\u05d1\u05e1": 3757,
  "\u2581THAT": 3758,
  "\u2581\u05e9\u05e0\u05de\u05e6\u05d0": 3759,
  "\u2581remind": 3760,
  "\u2581immediately": 3761,
  "\u2581\u05ea\u05de\u05e6\u05d0": 3762,
  "ster": 3763,
  "\u2581treat": 3764,
  "\u2581nose": 3765,
  "\u2581\u05de\u05d1\u05d9\u05d0": 3766,
  "\u2581Harry": 3767,
  "\u2581However": 3768,
  "\u2581health": 3769,
  "\u2581\u05e6\u05d3\u05e7": 3770,
  "\u2581daddy": 3771,
  "tic": 3772,
  "\u2581\u05e8\u05d0\u05e9\u05d5\u05e0\u05d4": 3773,
  "les": 3774,
  "\u2581\u05de\u05d5\u05d1\u05df": 3775,
  "\u2581\u05e1\u05dd": 3776,
  "\u2581\u05d1\u05e2\u05de\u05d5\u05d3": 3777,
  "\u2581survive": 3778,
  "\u2581\u05d0\u05ea\u05da": 3779,
  "\u2581\u05d4\u05de\u05d6\u05dc": 3780,
  "ler": 3781,
  "\u2581island": 3782,
  "\u2581\u05e0\u05d7\u05de\u05d3\u05d4": 3783,
  "\u2581\u05e7\u05d9\u05d9\u05dd": 3784,
  "8": 3785,
  "\u05d3\u05d5\u05df": 3786,
  "\u2581realized": 3787,
  "\u2581\u05e9\u05d9\u05e9\u05d4": 3788,
  "\u2581empty": 3789,
  "\u2581asshole": 3790,
  "\u2581\u05d4\u05e4\u05da": 3791,
  "\u2581\u05d1\u05e2\u05d6\u05e8\u05ea": 3792,
  "\u2581\u05d4\u05d0\u05d5\u05db\u05dc": 3793,
  "\u2581bringing": 3794,
  "\u2581\u05d4\u05db\u05dc\u05d1": 3795,
  "\u2581\u05d1\u05d8\u05d5\u05d7\u05d9\u05dd": 3796,
  "\u2581burn": 3797,
  "\u2581seemed": 3798,
  "\u2581Tommy": 3799,
  "\u2581\u05d3\u05d4": 3800,
  "\u2581\u05dc\u05de\u05e9\u05dc": 3801,
  "\u2581\u05d1\u05e0\u05d9\u05dd": 3802,
  "\u2581\u05d7\u05d5\u05e7": 3803,
  "\u05de\u05d9\u05df": 3804,
  "\u05de\u05d5\u05e1": 3805,
  "\u2581tape": 3806,
  "\u2581\u05e9\u05e0\u05ea": 3807,
  "\u2581\u05dc\u05d7\u05d1\u05e8": 3808,
  "\u05b8": 3809,
  "\u05d2\u05df": 3810,
  "\u2581sold": 3811,
  "\u2581\u05e2\u05ea\u05d4": 3812,
  "\u2581IS": 3813,
  "\u2581\u05d4\u05e8\u05d2\u05dc\u05d9\u05d9\u05dd": 3814,
  "\u2581\u05de\u05e9\u05d7\u05e7\u05d9\u05dd": 3815,
  "j": 3816,
  "\u2581OF": 3817,
  "\u2581investigation": 3818,
  "\u2581\u05d5\u05d7\u05e6\u05d9": 3819,
  "\u2581\u05dc\u05d4\u05e8\u05d5\u05e1": 3820,
  "\u2581Absolutely": 3821,
  "\u2581\u05d5\u05e2\u05d3": 3822,
  "\u05d5\u05e0\u05d2": 3823,
  "\u05d6\u05d0\u05ea": 3824,
  "\u2581Matt": 3825,
  "\u2581\u05de\u05e9\u05e8\u05d3": 3826,
  "\u2581\u05d4\u05d9\u05de\u05d9\u05dd": 3827,
  "\u2581\u05e0\u05d4\u05d2": 3828,
  "\u2581dreams": 3829,
  "\u2581military": 3830,
  "\u2581Con": 3831,
  "\u2581\u05e9\u05d1\u05d9": 3832,
  "\u2581murdered": 3833,
  "\u2581lay": 3834,
  "\u2581checked": 3835,
  "\u2581simply": 3836,
  "\u2581breath": 3837,
  "\u2581fuckin": 3838,
  "\u2581\u05d4\u05de\u05e4\u05ea\u05d7": 3839,
  "\u2581\u05d0\u05d1": 3840,
  "\u2581Lieutenant": 3841,
  "\u2581orders": 3842,
  "\u2581\u05e1\u05d9\u05d9\u05de\u05ea\u05d9": 3843,
  "\u2581fresh": 3844,
  "\u2581band": 3845,
  "\u2581\u05db\u05e8\u05d9\u05e1": 3846,
  "\u2581arms": 3847,
  "\u05d1\u05d9\u05d9": 3848,
  "\u2581\u05d4\u05e9\u05ea\u05de\u05e9": 3849,
  "\u2581\u05e7\u05e8\u05d0\u05ea\u05d9": 3850,
  "\u2581ridiculous": 3851,
  "\u2581relax": 3852,
  "\u2581Hang": 3853,
  "\u2581\u05e7\u05dc\u05d0\u05e8\u05e7": 3854,
  "\u2581Forget": 3855,
  "\u2581pants": 3856,
  "\u2581knowledge": 3857,
  "\u258145": 3858,
  "\u2581\u05d9\u05d1\u05d5\u05d0": 3859,
  "\u2581\u05e9\u05e7\u05d5\u05e8\u05d4": 3860,
  "\u2581\u05d4\u05ea\u05d7\u05dc\u05ea\u05d9": 3861,
  "\u05e9\u05d5\u05dd": 3862,
  "\u2581\u05d0\u05d7\u05d5\u05ea": 3863,
  "\u2581\u05e2\u05e6\u05de\u05d4": 3864,
  "\u05d5\u05d1\u05db\u05df": 3865,
  "\u2581El": 3866,
  "\u2581darling": 3867,
  "\u2581raise": 3868,
  "\u2581\u05d0\u05e1\u05e4\u05e8": 3869,
  "\u2581\u05d4\u05d5\u05e8\u05d2": 3870,
  "\u2581animal": 3871,
  "\u2581blind": 3872,
  "\u2581Baby": 3873,
  "ER": 3874,
  "ub": 3875,
  "\u2581\u05dc\u05d0\u05de\u05d0": 3876,
  "-2": 3877,
  "\u2581excited": 3878,
  "\u2581\u05e1\u05e4\u05e8\u05d9": 3879,
  "\u2581\u05dc\u05d0\u05d5\u05e8\u05da": 3880,
  "\u2581\u05de\u05db\u05da": 3881,
  "\u2581taste": 3882,
  "\u05dc\u05d1": 3883,
  "\u2581\u00b6": 3884,
  "sh": 3885,
  "\u2581nature": 3886,
  "\u2581several": 3887,
  "\u25812,": 3888,
  "\u05d7\u05d4": 3889,
  "\u2581knowing": 3890,
  "\u2581bullshit": 3891,
  "\u2581post": 3892,
  "\u05db\u05e9": 3893,
  "hi": 3894,
  "\u2581\u05dc\u05db\u05de\u05d4": 3895,
  "\u2581shooting": 3896,
  "\u2581target": 3897,
  "\u2581War": 3898,
  "\u2581\u05d0\u05d9\u05e9\u05d5\u05e8": 3899,
  "\u2581\u05dc\u05de\u05d5\u05d5\u05ea": 3900,
  "\u2581\u05e0\u05d6\u05d5\u05d6": 3901,
  "\u2581\u05d1\u05d9\u05dc\u05d9": 3902,
  "\u2581\u05d5\u05d0\u05d5\u05dc\u05d9": 3903,
  "\u05dc\u05e0\u05d3": 3904,
  "\u2581\u05d0\u05d5\u05dc\u05dd": 3905,
  "\u2581bastard": 3906,
  "\u2581\u05d4\u05d2\u05e2\u05ea\u05d9": 3907,
  "\u2581practice": 3908,
  "\u2581\u05d4\u05e8\u05d5\u05e6\u05d7": 3909,
  "\u2581heaven": 3910,
  "\u2581natural": 3911,
  "\u05e1\u05ea": 3912,
  "\u2581\u05dc\u05d0\u05e1\u05d5\u05e3": 3913,
  "\u2581\u05dc\u05d4\u05d5\u05e8\u05d9\u05d3": 3914,
  "\u2581\u05d4\u05e6\u05dc\u05d7\u05ea\u05d9": 3915,
  "\u2581smoke": 3916,
  "\u2581\u05d0\u05e8\u05d9\u05e7": 3917,
  "\u2581\u05dc\u05e8\u05d5\u05e5": 3918,
  "\u05db\u05de\u05d5": 3919,
  "\u2581crying": 3920,
  "\u2581Steve": 3921,
  "\u2581Unless": 3922,
  "that": 3923,
  "\u2581\u05d1\u05e7\u05dc\u05d5\u05ea": 3924,
  "\u2581\u05d9\u05d9\u05e7\u05d7": 3925,
  "\u2581fucked": 3926,
  "\u05e0\u05d5\u05df": 3927,
  "\u2581roll": 3928,
  "\u2581battle": 3929,
  "\u2581\u05d1\u05d9\u05e7\u05e9": 3930,
  "\u2581\u05de\u05d0\u05d4": 3931,
  "\u2581\u05de\u05d2\u05d9\u05e2\u05d4": 3932,
  "\u2581\u05d1\u05d0\u05ea": 3933,
  "\u2581\u05d1\u05d9\u05d3": 3934,
  "\u2581\u05db\u05e9\u05d4\u05dd": 3935,
  "\u2581\u05db\u05d5\u05db\u05d1": 3936,
  "\u2581\u05e9\u05db\u05e8": 3937,
  "\u2581\u05e8\u05e2\u05d1": 3938,
  "\u2581Christians": 3939,
  "\u05d5\u05dd": 3940,
  "\u2581w": 3941,
  "\u2581records": 3942,
  "\u2581\u05e4\u05d0\u05d5\u05dc\u05d5\u05e1": 3943,
  "\u05de\u05d5\u05e8": 3944,
  "\u2581Besides": 3945,
  "\u05d0\u05d8": 3946,
  "\u2581\u05d1\u05d0\u05d9": 3947,
  "\u2581\u05d4\u05e9\u05d9\u05e8": 3948,
  "\u2581\u05d0\u05d1\u05d9\u05d0": 3949,
  "\u2581\u05d1\u05e0\u05d5\u05e1\u05e3": 3950,
  "\u2581\u05dc\u05d0\u05d4\u05d5\u05d1": 3951,
  "\u2581\u05d4\u05e9\u05d9\u05e2\u05e8": 3952,
  "\u2581necessary": 3953,
  "\u2581\u05d0\u05de\u05d9": 3954,
  "\u2581Guess": 3955,
  "\u2581\u05e0\u05e1": 3956,
  "\u2581letting": 3957,
  "\u2581\u05d4\u05e6\u05d3": 3958,
  "\u2581\u05d4\u05e0\u05e9\u05d9\u05dd": 3959,
  "\u2581\u05d1\u05d3\u05d9\u05d7\u05d4": 3960,
  "\u2581\u05dc\u05d0\u05d5\u05e8": 3961,
  "\u2581\u05d8\u05d5\u05e0\u05d9": 3962,
  "\u2581planning": 3963,
  "\u2581\u05d7\u05d3": 3964,
  "\u2581Tony": 3965,
  "\u2581bother": 3966,
  "\u2581Ka": 3967,
  "\u2581\u05dc\u05d4\u05ea\u05d7\u05ea\u05df": 3968,
  "\u2581Ready": 3969,
  "\u2581\u05d4\u05d0\u05d5": 3970,
  "\u2581West": 3971,
  "ful": 3972,
  "\u2581warm": 3973,
  "\u2581Their": 3974,
  "\u2581stories": 3975,
  "\u2581Pre": 3976,
  "\u2581chief": 3977,
  "\u2581\u05de\u05e6\u05d3": 3978,
  "\u2581base": 3979,
  "\u05d1\u05d0": 3980,
  "\u2581corner": 3981,
  "\u2581\u05de\u05e1\u05e8": 3982,
  "\u2581\u05de\u05e2\u05d5\u05e0\u05d9\u05d9\u05df": 3983,
  "\u05e6\u05d4": 3984,
  "\u2581\u05e0\u05ea\u05ea": 3985,
  "\u2581\u05e1\u05de\u05dc": 3986,
  "li": 3987,
  "\u2581\u05e1\u05d8": 3988,
  "\u2581Rachel": 3989,
  "\u2581\u05d1\u05e2\u05d9\u05e7\u05e8": 3990,
  "\u2581bottom": 3991,
  "\u2581\u05d4\u05d8\u05d5\u05d1\u05d9\u05dd": 3992,
  "\u2581\u05dc\u05d4\u05e6\u05d9\u05e2": 3993,
  "\u2581Boy": 3994,
  "\u2581dick": 3995,
  "\u05d8\u05d5\u05e8": 3996,
  "\u05db\u05e8": 3997,
  "\u2581Find": 3998,
  "\u2581\u05d4\u05e8\u05d2\u05dc": 3999,
  "\u2581\u05d0\u05d3\u05d5\u05dd": 4000,
  "\u2581focus": 4001,
  "\u2581clearly": 4002,
  "\u2581\u05d4\u05d2\u05e2\u05ea": 4003,
  "\u2581legs": 4004,
  "\u2581Co": 4005,
  "\u2581likely": 4006,
  "ism": 4007,
  "\u2581la": 4008,
  "vi": 4009,
  "\u2581created": 4010,
  "\u2581\u05d3\u05e8\u05db\u05d9\u05dd": 4011,
  "\u2581\u05d4\u05db\u05d3\u05d5\u05e8": 4012,
  "\u2581Scott": 4013,
  "\u2581keys": 4014,
  "\u2581\u05de\u05d0\u05de\u05d9\u05e0\u05d9\u05dd": 4015,
  "\u2581\u05d0\u05de\u05e8\u05d9\u05e7\u05d4": 4016,
  "\u2581emergency": 4017,
  "\u2581strength": 4018,
  "\u2581science": 4019,
  "\u2581\u05d4\u05d1\u05d9\u05d0": 4020,
  "\u2581\u05e2\u05e5": 4021,
  "\u2581Eric": 4022,
  "\u2581\u05d4\u05d2\u05d1\u05e8": 4023,
  "\u2581hanging": 4024,
  "\u2581Congratulations": 4025,
  "\u2581\u05ea\u05e9\u05d5\u05de\u05ea": 4026,
  "\u2581\u05e7\u05d9\u05d9": 4027,
  "\u2581based": 4028,
  "\u2581\u05de\u05d2\u05d9\u05e2\u05d9\u05dd": 4029,
  "\u2581\u05d3\u05dc\u05ea": 4030,
  "\u2581aware": 4031,
  "\u2581Four": 4032,
  "\u2581Luke": 4033,
  "\u2581\u05d7\u05d5\u05e8": 4034,
  "\u2581\u05e2\u05d3\u05d9": 4035,
  "\u2581\u05ea\u05d0\u05de\u05d9\u05df": 4036,
  "\u2581Mac": 4037,
  "\u2581\u05de\u05d0\u05e8\u05e7": 4038,
  "\u2581truly": 4039,
  "\u05e7\u05ea": 4040,
  "\u2581\u05d4\u05e6\u05d9\u05dc\u05d5": 4041,
  "\u2581\u05d0\u05d9\u05d1\u05d3\u05ea\u05d9": 4042,
  "\u2581\u05dc\u05d4\u05d9\u05e8\u05d0\u05d5\u05ea": 4043,
  "\u05ea\u05da": 4044,
  "\u2581Except": 4045,
  "\u2581unto": 4046,
  "\u05d8\u05e8\u05d9": 4047,
  "\u2581damage": 4048,
  "\u2581\u05dc\u05d4\u05d7\u05dc\u05d9\u05e3": 4049,
  "\u05e8\u05d9\u05e7": 4050,
  "\u2581master": 4051,
  "\u2581\u05e4\u05ea\u05d5\u05d7": 4052,
  "\u2581speed": 4053,
  "\u05d9\u05d5\u05e4\u05d9": 4054,
  "\u2581\u05d4\u05ea\u05e4\u05e7\u05d9\u05d3": 4055,
  "\u2581beyond": 4056,
  "\u2581project": 4057,
  "\u2581\u05ea\u05d5\u05d4\u05d4": 4058,
  "\u2581easier": 4059,
  "\u2581dropped": 4060,
  "\u2581\u05e2\u05e6\u05d5\u05d1": 4061,
  "\u2581Alright": 4062,
  "\u2581\u05d6\u05d5\u05d6": 4063,
  "\u2581\u05d4\u05e7\u05d5\u05e8\u05d1\u05df": 4064,
  "\u2581breakfast": 4065,
  "\u2581games": 4066,
  "\u2581\u05dc\u05e9\u05dc\u05d5\u05d8": 4067,
  "\u2581century": 4068,
  "\u05e4\u05e1": 4069,
  "\u2581\u05ea\u05d5\u05e8\u05d9\u05d3": 4070,
  "\u2581\u05ea\u05e0\u05e1\u05d4": 4071,
  "\u2581\u05e6\u05d3": 4072,
  "\u2581\u05d0\u05e8": 4073,
  "\u2581\u05e8\u05e6\u05ea\u05d4": 4074,
  "\u05e0\u05d5\u05e1": 4075,
  "\u2581\u05e9\u05de\u05d5\u05ea": 4076,
  "\u2581\u05d5\u05e2\u05dd": 4077,
  "\u2581\u05ea\u05e2\u05d6\u05d5\u05e8": 4078,
  "ee": 4079,
  "\u2581\u05d9\u05e8\u05d0\u05d4": 4080,
  "\u2581Kevin": 4081,
  "\u2581While": 4082,
  "\u2581\u05e2\u05d5": 4083,
  "\u05d2\u05d5": 4084,
  "\u2581\u05e4\u05dc\u05d0": 4085,
  "\u2581\u05d0\u05d7\u05e8\u05d9\u05d5": 4086,
  "\u2581stage": 4087,
  "\u2581\u05ea\u05d9\u05e7\u05d7": 4088,
  "\u2581bodies": 4089,
  "\u2581greatest": 4090,
  "\u05e0\u05e1\u05d9": 4091,
  "\u2581\u05ea\u05ea\u05e7\u05e9\u05e8": 4092,
  "lan": 4093,
  "\u05e1\u05e7\u05d9": 4094,
  "ba": 4095,
  "\u2581older": 4096,
  "\u2581None": 4097,
  "\u2581fake": 4098,
  "\u2581\u05ea\u05e7\u05d1\u05dc": 4099,
  "\u2581issue": 4100,
  "\u05d9\u05e8\u05d4": 4101,
  "\u03bf": 4102,
  "\u2581\u05e9\u05e0\u05ea\u05d9\u05d9\u05dd": 4103,
  "\u05d0\u05e9": 4104,
  "\u2581Lee": 4105,
  "\u2581\u05dc\u05d1\u05d9\u05df": 4106,
  "\u2581captain": 4107,
  "\u2581finding": 4108,
  "\u2581\u05de\u05d1\u05d7\u05d9\u05e0\u05d4": 4109,
  "19": 4110,
  "\u05d1\u05dc": 4111,
  "\u2581\u05e9\u05d6\u05d0\u05ea": 4112,
  "And": 4113,
  "\u2581\u05d4\u05e4\u05ea\u05e2\u05d4": 4114,
  "\u2581\u05de\u05d4\u05d1\u05d9\u05ea": 4115,
  "\u05e2\u05db\u05e9\u05d9\u05d5": 4116,
  "\u2581market": 4117,
  "way": 4118,
  "\u2581photo": 4119,
  "\u2581Better": 4120,
  "That": 4121,
  "\u2581bottle": 4122,
  "\u05d1\u05e8\u05d9": 4123,
  "\u2581\u05e9\u05de\u05e9": 4124,
  "\u2581\u05e0\u05de\u05d0\u05e1": 4125,
  "\u2581\u05e1\u05d1\u05d0": 4126,
  "\u05d9\u05dc\u05d4": 4127,
  "\u2581general": 4128,
  "\u2581\u05d0\u05e4\u05e9\u05e8\u05d5\u05ea": 4129,
  "\u2581\u05de\u05d2\u05d5\u05d7\u05da": 4130,
  "\u2581\u05d9\u05d7\u05d6\u05d5\u05e8": 4131,
  "200": 4132,
  "\u2581\u05e8\u05d0\u05d5": 4133,
  "\u2581\u05de\u05e7\u05d5\u05e8": 4134,
  "\u2581\u05d9\u05de\u05d9": 4135,
  "\u05e8\u05d8": 4136,
  "\u2581\u05d7\u05d5\u05d3\u05e9": 4137,
  "\u2581\u05d3\u05d9\u05d1\u05e8": 4138,
  "\u05e0\u05ea\u05d9": 4139,
  "\u2581\u05d4\u05d2\u05e2\u05e0\u05d5": 4140,
  "\u2581Amy": 4141,
  "\u2581\u05e6\u05d1\u05e2": 4142,
  "\u2581\u05de\u05d0\u05d5": 4143,
  "\u2581concerned": 4144,
  "\u2581\u05d1\u05db\u05d3\u05d9": 4145,
  "oh": 4146,
  "\u2581Talk": 4147,
  "\u2581pool": 4148,
  "\u05d2\u05d4": 4149,
  "\u2581condition": 4150,
  "\u2581copy": 4151,
  "\u05d1\u05d5\u05ea": 4152,
  "\u2581\u05e9\u05de\u05ea\u05d9": 4153,
  "\u2581\u05e4\u05e8\u05d5": 4154,
  "\u2581department": 4155,
  "\u2581San": 4156,
  "\u2581\u05e9\u05d4\u05df": 4157,
  "\u2581\u05e0\u05d9\u05ea\u05d5\u05d7": 4158,
  "\u2581received": 4159,
  "\u2581\u05e4\u05d2\u05e9\u05ea\u05d9": 4160,
  "\u2581center": 4161,
  "\u2581percent": 4162,
  "\u2581n": 4163,
  "\u2581dumb": 4164,
  "\u2581\u05dc\u05d0\u05d1\u05d0": 4165,
  "\u05d4\u05d9": 4166,
  "\u2581\u05de\u05e9\u05e7\u05e8": 4167,
  "\u2581laugh": 4168,
  "\u2581recognize": 4169,
  "\u05d3\u05d5\u05e8": 4170,
  "\u2581\u05ea\u05db\u05e0\u05d9\u05ea": 4171,
  "\u2581guard": 4172,
  "\u2581\u05de\u05d5\u05d3\u05d0\u05d2": 4173,
  "\u2581note": 4174,
  "\u05e1\u05e4\u05e8": 4175,
  "\u2581dare": 4176,
  "\u2581\u05d7\u05d6\u05e7\u05d4": 4177,
  "\u2581\u05d0\u05d7\u05d9\u05da": 4178,
  "\u2581Car": 4179,
  "\u2581\u05d1\u05e9\u05dc": 4180,
  "\u2581knife": 4181,
  "\u2581training": 4182,
  "\u2581\u05d5\u05db\u05e9": 4183,
  "\u2581\u05ea\u05e9\u05db\u05d7": 4184,
  "\u05e9\u05d9\u05dd": 4185,
  "-3": 4186,
  "pe": 4187,
  "\u05b7": 4188,
  "\u2581Cool": 4189,
  "\u2581\u05de\u05d5\u05d3\u05d4": 4190,
  "\\": 4191,
  "\u2581\u05e9\u05de\u05e8": 4192,
  "\u2581k": 4193,
  "\u2581bro": 4194,
  "\u2581\u05e6\u05e8": 4195,
  "\u2581\u05ea\u05e9\u05de\u05e2": 4196,
  "\u2581\u05e8\u05e6\u05d9\u05e0\u05d9\u05ea": 4197,
  "men": 4198,
  "\u2581\u05e7\u05d5\u05d3": 4199,
  "\u2581starts": 4200,
  "\u2581Robert": 4201,
  "\u2581feed": 4202,
  "\u2581Colonel": 4203,
  "\u2581\u05d4\u05e6\u05dc\u05d9\u05d7": 4204,
  "\u2581\u05e0\u05ea": 4205,
  "\u2581\u05d1\u05e8\u05d5\u05da": 4206,
  "\u2581\u05e9\u05d3": 4207,
  "\u2581Bobby": 4208,
  "\u2581\u05db\u05e4\u05d5\u05dc": 4209,
  "ron": 4210,
  "\u2581Q": 4211,
  "\u2581\u05e1\u05d2\u05d5\u05e8": 4212,
  "\u2581victims": 4213,
  "\u05d0\u05e4": 4214,
  "\u2581Kate": 4215,
  "\u2581desk": 4216,
  "\u2581\u05ea\u05e2\u05d6\u05d5\u05d1": 4217,
  "\u05e6\u05ea": 4218,
  "\u2581\u05db\u05bc\u05b5\u05df": 4219,
  "\u2581\u05e1\u05d1\u05d9\u05e8": 4220,
  "\u2581sweetheart": 4221,
  "\u2581\u05e0\u05d5\u05e1\u05e2": 4222,
  "ina": 4223,
  "\u2581\u05dc\u05e9\u05db\u05e0\u05e2": 4224,
  "\u2581\u05e7\u05d9\u05d9\u05d8": 4225,
  "\u2581Until": 4226,
  "\u2581\u05de\u05e9\u05e7\u05d4": 4227,
  "\u2581\u05e4\u05d2\u05e2": 4228,
  "\u2581\u05e0\u05d9\u05e1\u05d9\u05d5\u05df": 4229,
  "\u2581\u05e0\u05d4\u05e8\u05d2": 4230,
  "\u05d9\u05e4": 4231,
  "\u2581\u05db\u05d5\u05d7\u05d5\u05ea": 4232,
  "\u2581destroyed": 4233,
  "\u2581spiritual": 4234,
  "\u2581\u05dc\u05e4\u05e0\u05d5\u05ea": 4235,
  "\u05d6\u05d9": 4236,
  "\u2581\u05d9\u05d9\u05df": 4237,
  "\u2581members": 4238,
  "\u2581remain": 4239,
  "\u2581draw": 4240,
  "\u2581invited": 4241,
  "\u2581\u05e6\u05e2\u05d9\u05e8\u05d4": 4242,
  "\u2581\u05e1\u05d5\u05e4\u05e8": 4243,
  "\u2581\u05e0\u05d5\u05dc\u05d3": 4244,
  "\u2581cancer": 4245,
  "\u2581\u05dc\u05d6\u05e8\u05d5\u05e7": 4246,
  "\u2581noticed": 4247,
  "\u2581\u05d1\u05de\u05d9": 4248,
  "\u2581\u05ea\u05d6\u05d3\u05d9\u05d9\u05df": 4249,
  "\u2581500": 4250,
  "\u05ea\u05df": 4251,
  "\u2581Eddie": 4252,
  "\u2581\u05e1\u05d9\u05e4\u05e8\u05ea\u05d9": 4253,
  "\u2581\u05dc\u05e9\u05d7\u05e8\u05e8": 4254,
  "\u05e6\u05d5\u05d7\u05e7": 4255,
  "\u2581fill": 4256,
  "\u2581wild": 4257,
  "\u2581paying": 4258,
  "\u2581\u05e1\u05d8\u05d9\u05d1": 4259,
  "\u2581asleep": 4260,
  "\u2581bucks": 4261,
  "\u2581Walter": 4262,
  "\u25813,": 4263,
  "\u2581Roger": 4264,
  "\u2581\u05e4\u05e9\u05e2": 4265,
  "\u2581social": 4266,
  "\u2581arrived": 4267,
  "\u2581Ten": 4268,
  "\u2581\u05dc\u05d4\u05d6\u05de\u05d9\u05df": 4269,
  "\u2581dating": 4270,
  "\u05db\u05e1": 4271,
  "\u05d5\u05de\u05d9\u05dd": 4272,
  "\u2581\u05d0\u05e9\u05ea\u05da": 4273,
  "\u05e0\u05d0": 4274,
  "\u05d0\u05d9\u05d6\u05d4": 4275,
  "\u2581color": 4276,
  "\u2581\u05d5\u05d0\u05e3": 4277,
  "\u2581\u05d8\u05d5\u05de\u05d9": 4278,
  "ng": 4279,
  "\u2581\u05d3\u05df": 4280,
  "\u2581\u05d4\u05de\u05e9\u05d9\u05de\u05d4": 4281,
  "\u2581\u05d9\u05e2\u05d1\u05d5\u05d3": 4282,
  "\u2581\u05de\u05e4\u05e9\u05e2": 4283,
  "\u2581\u05e1\u05e7\u05d5\u05d8": 4284,
  "\u2581\u05d8\u05d9\u05e4\u05d5\u05dc": 4285,
  "\u2581afford": 4286,
  "\u2581\u05d2\u05e0\u05d1": 4287,
  "\u2581folks": 4288,
  "\u2581\u05d7\u05d5\u05d6\u05e8\u05ea": 4289,
  "pp": 4290,
  "\u2581\u05d6\u05d9": 4291,
  "\u2581\u05de\u05de\u05e9\u05d9\u05da": 4292,
  "\u2581\u05d1\u05ea\u05d9\u05e7": 4293,
  "\u2581trick": 4294,
  "\u2581\u05d4\u05e8\u05d2\u05ea": 4295,
  "\u2581\u05dc\u05d1\u05d9": 4296,
  "\u2581\u05ea\u05e1\u05e4\u05e8": 4297,
  "\u2581\u05d1\u05e2\u05d3": 4298,
  "\u2581\u05d5\u05d5": 4299,
  "\u2581sweetie": 4300,
  "\u2581\u05dc\u05d7": 4301,
  "\u2581\u05d1\u05d5\u05d1\u05d9": 4302,
  "\u2581\u05d4\u05ea\u05e9\u05d5\u05d1\u05d4": 4303,
  "\u2581discuss": 4304,
  "\u2581\u05de\u05e9\u05e4\u05d7\u05ea": 4305,
  "\u2581fellow": 4306,
  "\u2581\u05d5\u05e9\u05d5\u05d1": 4307,
  "\u05d8\u05dc": 4308,
  "\u2581Ho": 4309,
  "\u2581\u05d1\u05e9\u05d5\u05dd": 4310,
  "\u2581onto": 4311,
  "\u2581\u05d5\u05d1\u05db\u05dc": 4312,
  "\u2581awful": 4313,
  "\u2581\u05dc\u05d5\u05e7": 4314,
  "\u2581assume": 4315,
  "\u2581\u05dc\u05d7\u05d9\u05d9": 4316,
  "\u2581Mama": 4317,
  "\u2581\u05de\u05e9\u05dc\u05d9": 4318,
  "\u2581\u05d1\u05d3": 4319,
  "\u2581\u05de\u05e1\u05d5\u05d2\u05dc\u05ea": 4320,
  "\u2581\u05e2\u05d6\u05d5\u05d1": 4321,
  "\u2581Johnny": 4322,
  "\u2581ideas": 4323,
  "\u2581birth": 4324,
  "\u2581ho": 4325,
  "\u05e6\u05d9\u05dd": 4326,
  "\u2581humans": 4327,
  "Yes": 4328,
  "\u2581total": 4329,
  "\u2581\u05d4\u05de\u05de\u05e9\u05dc\u05d4": 4330,
  "\u2581followed": 4331,
  "\u2581Must": 4332,
  "\u2581\u05dc\u05d9\u05d5\u05dd": 4333,
  "\u2581Day": 4334,
  "\u2581member": 4335,
  "\u2581chicken": 4336,
  "\u2581\u05e2\u05d1\u05e8\u05d5": 4337,
  "\u2581\u05e9\u05dc\u05dd": 4338,
  "\u2581\u05dc\u05e0\u05e7\u05d5\u05ea": 4339,
  "\u2581\u05e9\u05e2\u05d1\u05e8\u05d4": 4340,
  "\u2581Martin": 4341,
  "\u2581\u05e9\u05d4\u05d9\u05d9\u05ea\u05d4": 4342,
  "\u2581\u05e9\u05e0\u05d5\u05ea": 4343,
  "what": 4344,
  "\u2581Aren": 4345,
  "\u2581\u05e2\u05e0\u05e7": 4346,
  "\u2581\u05de\u05db\u05d4": 4347,
  "\u2581\u05dc\u05d0\u05ea\u05e8": 4348,
  "\u2581shirt": 4349,
  "\u2581possibly": 4350,
  "\u2581Word": 4351,
  "\u2581leaves": 4352,
  "\u2581r": 4353,
  "\u2581shower": 4354,
  "\u2581weight": 4355,
  "\u2581Brian": 4356,
  "\u2581breaking": 4357,
  "\u2581data": 4358,
  "\u05de\u05d8": 4359,
  "\u2581dis": 4360,
  "\u2581teeth": 4361,
  "\u2581\u05d5\u05e8\u05e7": 4362,
  "\u2581heads": 4363,
  "\u2581answers": 4364,
  "\u2581\u05dc\u05d5\u05d5\u05ea\u05e8": 4365,
  "\u2581sight": 4366,
  "que": 4367,
  "\u2581agreed": 4368,
  "\u2581hat": 4369,
  "\u2581\u05e8\u05d0\u05d9\u05d5\u05ea": 4370,
  "\u05d9\u05d5\u05e8\u05e7": 4371,
  "\u2581\u05d2\u05d1\u05d9\u05e8\u05d5\u05ea\u05d9\u05d9": 4372,
  "\u2581Billy": 4373,
  "\u2581signal": 4374,
  "\u2581uncle": 4375,
  "\u2581driver": 4376,
  "9": 4377,
  "\u2581\u05d4\u05d1\u05e0\u05ea": 4378,
  "\u2581Mommy": 4379,
  "\u2581\u05dc\u05d5\u05e7\u05d7\u05d9\u05dd": 4380,
  "\u2581\u05ea\u05e7\u05d5\u05d5\u05d4": 4381,
  "\u2581\u05d4\u05e8\u05d0\u05e9\u05d9": 4382,
  "\u2581release": 4383,
  "\u2581\u05e9\u05d5\u05d8\u05e8\u05d9\u05dd": 4384,
  "\u2581source": 4385,
  "\u2581\u05d7\u05d5\u05e1\u05e8": 4386,
  "\u2581\u05dc\u05de\u05e0\u05d5\u05e2": 4387,
  "\u2581\u05d0\u05d1\u05d9\u05d5": 4388,
  "\u2581\u05dc\u05d3\u05de\u05d9\u05d9\u05df": 4389,
  "\u2581balls": 4390,
  "\u2581pretend": 4391,
  "\u2581\u05de\u05d5\u05e8": 4392,
  "\u05d8\u05d9\u05dd": 4393,
  "\u05d1\u05d5\u05df": 4394,
  "\u2581knock": 4395,
  "\u2581\u05e8\u05d5\u05d6": 4396,
  "\u2581create": 4397,
  "\u2581student": 4398,
  "\u2581\u05d4\u05e7\u05e8\u05d1": 4399,
  "\u2581including": 4400,
  "\u05d0\u05d5\u05e1": 4401,
  "\u2581\u05d3\u05e4\u05d5\u05e7": 4402,
  "\u2581\u05e9\u05e7": 4403,
  "\u2581connection": 4404,
  "\u2581smile": 4405,
  "\u2581\u05d3\u05d9\u05d1\u05e8\u05e0\u05d5": 4406,
  "\u2581German": 4407,
  "huh": 4408,
  "\u2581breathe": 4409,
  "\u05d8\u05d5\u05df": 4410,
  "\u2581oil": 4411,
  "\u2581\u05dc\u05de\u05e9\u05da": 4412,
  "\u2581\u05d7\u05d9\u05e8\u05d5\u05dd": 4413,
  "\u2581Fire": 4414,
  "\u2581\u05d8\u05d9\u05e4\u05e9\u05d9": 4415,
  "\u2581Charles": 4416,
  "\u2581\u05ea\u05d1\u05d5\u05d0": 4417,
  "\u2581\u05dc\u05d6\u05db\u05d5\u05e8": 4418,
  "\u2581believed": 4419,
  "\u2581\u05dc\u05dc\u05de\u05d3": 4420,
  "\u2581Life": 4421,
  "\u2581Pretty": 4422,
  "\u2581Aw": 4423,
  "\u2581non": 4424,
  "\u2581\u05e8\u05d5\u05d1\u05e8\u05d8": 4425,
  "\u2581cars": 4426,
  "\u05d0\u05e0\u05d5": 4427,
  "\u2581\u05ea\u05e1\u05ea\u05db\u05dc\u05d9": 4428,
  "\u2581ended": 4429,
  "\u2581\u05dc\u05d3": 4430,
  "\u2581\u05d2\u05d5": 4431,
  "\u2581\u05d7\u05e9\u05d5\u05d1\u05d4": 4432,
  "\u2581comfortable": 4433,
  "\u2581\u05d1\u05d2\u05d3\u05d9\u05dd": 4434,
  "\u2581firm": 4435,
  "\u2581Easy": 4436,
  "\u2581travel": 4437,
  "\u05dc\u05d5\u05ea": 4438,
  "\u2581\u05de\u05d7\u05d9\u05e8": 4439,
  "\u2581\u05e0\u05d5\u05e1\u05e4\u05d9\u05dd": 4440,
  "\u258180": 4441,
  "\u2581Master": 4442,
  "\u2581\u05d1\u05d9\u05e0\u05ea\u05d9\u05d9\u05dd": 4443,
  "\u05d9\u05e4\u05d4": 4444,
  "\u2581\u05d6\u05d4\u05d1": 4445,
  "ti": 4446,
  "\u05db\u05de\u05d5\u05d1\u05df": 4447,
  "\u2581bullet": 4448,
  "\u2581failed": 4449,
  "\u2581justice": 4450,
  "\u2581\u05dc\u05de\u05d3\u05d9": 4451,
  "\u2581river": 4452,
  "\u2581Nope": 4453,
  "\u2581\u05e8\u05d5\u05e1": 4454,
  "\u2581main": 4455,
  "\u2581sky": 4456,
  "ite": 4457,
  "\u2581\u05e4\u05e8\u05d8\u05d9": 4458,
  "\u2581horrible": 4459,
  "\u2581nor": 4460,
  "\u2581\u05d2\u05d9\u05d1\u05d5\u05e8": 4461,
  "\u2581lies": 4462,
  "ger": 4463,
  "\u2581\u05dc\u05de\u05e9\u05d4\u05d5": 4464,
  "\u2581fan": 4465,
  "\u2581\u05d4\u05d0\u05d3\u05de\u05d4": 4466,
  "\u2581duty": 4467,
  "\u2581\u05dc\u05d9\u05dc\u05d3\u05d9\u05dd": 4468,
  "\u05d5\u05e8\u05d9\u05dd": 4469,
  "\u2581cream": 4470,
  "\u2581\u05de\u05e2\u05d5\u05e8\u05d1": 4471,
  "\u2581\u05d4\u05d7\u05dc\u05d8\u05d4": 4472,
  "\u05d0\u05e0\u05d4": 4473,
  "\u2581insane": 4474,
  "\u05e1\u05dc\u05d9\u05d7\u05d4": 4475,
  "\u2581cake": 4476,
  "\u05d5\u05d6": 4477,
  "}": 4478,
  "\u2581\u05dc\u05e8\u05d0\u05e9": 4479,
  "\u2581beach": 4480,
  "\u2581\u05dc\u05e9\u05db\u05d5\u05d7": 4481,
  "\u2581\u05d4\u05e2\u05d1\u05e8": 4482,
  "\u2581\u05e8\u05d5\u05e7": 4483,
  "\u2581heat": 4484,
  "\u2581\u05d5\u05d0\u05d9\u05da": 4485,
  "\u2581\u05d4\u05d3": 4486,
  "\u2581\u05d0\u05de\u05d4": 4487,
  "\u2581loss": 4488,
  "\u2581\u05e9\u05db\u05d3\u05d0\u05d9": 4489,
  "\u2581\u05d4\u05d1\u05d4": 4490,
  "\u2581\u05d0\u05d9\u05db\u05e4\u05ea": 4491,
  "\u2581location": 4492,
  "\u2581\u05d1\u05de\u05e8\u05d7\u05e7": 4493,
  "\u2581\u05d4\u05d5\u05de\u05d5": 4494,
  "\u2581\u05d1\u05e2\u05dc\u05da": 4495,
  "\u2581arrested": 4496,
  "\u2581bloody": 4497,
  "\u2581\u05d0\u05e6\u05dc\u05d9": 4498,
  "\u2581North": 4499,
  "\u2581\u05dc\u05e8\u05e7\u05d5\u05d3": 4500,
  "\u2581\u05de\u05ea\u05d7\u05d9\u05dc\u05d4": 4501,
  "\u05de\u05e7": 4502,
  "\u2581prepared": 4503,
  "\u2581\u05e2\u05e7\u05d1": 4504,
  "\u2581dogs": 4505,
  "\u2581speech": 4506,
  "\u2581\u05dc\u05e0\u05d4\u05d5\u05d2": 4507,
  "\u05e7\u05e1\u05d5\u05df": 4508,
  "\u2581restaurant": 4509,
  "\u05d1\u05d3\u05d9\u05d5\u05e7": 4510,
  "\u2581suggest": 4511,
  "\u2581van": 4512,
  "\u2581\u05ea\u05d9\u05ea\u05df": 4513,
  "\u2581\u05de\u05d5\u05db\u05e8\u05d7": 4514,
  "\u2581\u05de\u05d6\u05d5\u05df": 4515,
  "\u05e6\u05e8": 4516,
  "\u2581\u05d0\u05de\u05e6\u05d0": 4517,
  "\u2581\u05e7\u05d1\u05d5\u05e6\u05ea": 4518,
  "\u2581Street": 4519,
  "\u2581\u05e9\u05e8\u05e7": 4520,
  "\u2581turning": 4521,
  "\u2581\u05e9\u05d0\u05dc\u05ea\u05d9": 4522,
  "\u2581\u05e2\u05e6\u05de\u05dd": 4523,
  "\u2581changes": 4524,
  "\u2581\u05e8\u05d1\u05d5\u05ea\u05d9\u05d9": 4525,
  "\u2581\u05d1\u05de\u05e9\u05d4\u05d5": 4526,
  "-4": 4527,
  "\u2581bird": 4528,
  "\u2581\u05dc\u05d3\u05e2\u05ea\u05d9": 4529,
  "\u2581chair": 4530,
  "\u2581\u05d1\u05e9\u05dc\u05d1": 4531,
  "\u2581\u05e0\u05d9\u05e7\u05d7": 4532,
  "\u2581\u05d5\u05d5\u05dc\u05d8\u05e8": 4533,
  "\u2581\u05e8\u05e2\u05d4": 4534,
  "\u2581proof": 4535,
  "AN": 4536,
  "\u2581WE": 4537,
  "\u2581correct": 4538,
  "\u2581\u05dc\u05d0\u05d3\u05dd": 4539,
  "\u2581\u05e9\u05d5\u05ea\u05d4": 4540,
  "\u2581original": 4541,
  "\u2581\u05d4\u05d2\u05d5\u05e4\u05d4": 4542,
  "den": 4543,
  "\u2581\u05db\u05dc\u05e9\u05d4\u05d9": 4544,
  "\u2581\u05e4\u05d5\u05e2\u05dc": 4545,
  "\u2581meat": 4546,
  "\u2581\u05d4\u05de\u05e0\u05d4\u05dc": 4547,
  "\u2581\u05d9\u05d3\u05d9\u05d3\u05d9": 4548,
  "\u2581\u05d9\u05de\u05d9\u05df": 4549,
  "\u2581\u05d0\u05d9\u05d9\u05de\u05d9": 4550,
  "\u2581\u05d4\u05d0\u05e3": 4551,
  "\u2581\u05ea\u05d0\u05d5\u05e0\u05d4": 4552,
  "\u2581Jeff": 4553,
  "\u2581\u05de\u05d3": 4554,
  "tro": 4555,
  "\u2581\u05d7\u05dc\u05d5\u05dd": 4556,
  "\u2581\u05e9\u05dc\u05d9\u05e9\u05d9": 4557,
  "\u05e2\u05d5": 4558,
  "\u05d1\u05d5\u05e8": 4559,
  "\u2581\u05d4\u05d0\u05d7": 4560,
  "\u2581cares": 4561,
  "\u2581Chuck": 4562,
  "\u2581Honor": 4563,
  "\u2581\u05d1\u05ea\u05d7\u05ea": 4564,
  "\u2581heavy": 4565,
  "\u2581opened": 4566,
  "\u2581suddenly": 4567,
  "\u2581\u05d0\u05dc\u05d9\u05e1": 4568,
  "\u2581\u05d9\u05d3\u05e2\u05d5": 4569,
  "\u2581\u05de\u05e9\u05ea\u05de\u05e9\u05d9\u05dd": 4570,
  "\u2581biggest": 4571,
  "\u2581Morning": 4572,
  "\u2581\u05dc\u05d5\u05d7": 4573,
  "\u2581avoid": 4574,
  "\u2581Ask": 4575,
  "50": 4576,
  "\u2581\u05e0\u05e7\u05d5\u05d3\u05d5\u05ea": 4577,
  "\u2581\u05de\u05e1\u05d5\u05d9\u05dd": 4578,
  "\u2581\u05de\u05e1\u05ea\u05d1\u05e8": 4579,
  "\u2581plenty": 4580,
  "\u2581community": 4581,
  "\u2581\u05d0\u05e9\u05dd": 4582,
  "\u2581\u05dc\u05db\u05d9\u05d5\u05d5\u05df": 4583,
  "\u2581\u05d9\u05d5\u05de\u05d9\u05d9\u05dd": 4584,
  "\u05d6\u05de\u05df": 4585,
  "\u2581\u05d4\u05de\u05d9": 4586,
  "\u2581\u05d4\u05e9": 4587,
  "\u2581\u05de\u05d0\u05d8": 4588,
  "\u2581\u05d0\u05d7\u05e8\u05d9\u05d9": 4589,
  "\u2581\u05d7\u05de\u05d5\u05d3\u05d4": 4590,
  "\u2581\u05d3\u05d0\u05d2": 4591,
  "\u2581\u05d5\u05dc\u05d0\u05d7\u05e8": 4592,
  "\u2581\u05dc\u05dc\u05d1\u05d5\u05e9": 4593,
  "\u2581moon": 4594,
  "\u2581Long": 4595,
  "\u2581led": 4596,
  "\u2581\u05d9\u05d7\u05e1\u05d9": 4597,
  "\u2581\u05e1\u05d5\u05d3": 4598,
  "\u05d5\u05e7": 4599,
  "\u2581Jason": 4600,
  "\u05e4\u05d9\u05dc": 4601,
  "\u2581\u05de\u05ea\u05d2\u05e2\u05d2\u05e2": 4602,
  "\u05e0\u05df": 4603,
  "\u258190": 4604,
  "\u2581\u05ea\u05d7\u05d6\u05d9\u05e7": 4605,
  "\u2581prefer": 4606,
  "\u2581\u05dc\u05d4\u05d9\u05e4\u05d2\u05e9": 4607,
  "\u2581universe": 4608,
  "\u2581\u05d0\u05dc\u05d4\u05d9\u05dd": 4609,
  "con": 4610,
  "ya": 4611,
  "\u2581block": 4612,
  "\u2581\u05e0\u05db\u05e0\u05e1\u05ea": 4613,
  "ally": 4614,
  "io": 4615,
  "\u05d5\u05e8\u05d9": 4616,
  "\u2581\u05dc\u05de\u05e8": 4617,
  "\u2581Ladies": 4618,
  "\u2581Pete": 4619,
  "\u2581\u05e8\u05e6\u05d5": 4620,
  "\u2581parts": 4621,
  "\u2581Although": 4622,
  "\u2581\u05d0\u05e0\u05d4": 4623,
  "\u05e6\u05d7\u05d5\u05e7": 4624,
  "\u2581Down": 4625,
  "\u2581monster": 4626,
  "\u05d3\u05d9\u05df": 4627,
  "\u2581flying": 4628,
  "\u2581\u05d1\u05e9\u05d1\u05d9\u05dc\u05d5": 4629,
  "\u2581theory": 4630,
  "\u2581barely": 4631,
  "\u2581students": 4632,
  "\u2581\u05d7\u05e9\u05d1\u05d5\u05df": 4633,
  "X": 4634,
  "uh": 4635,
  "\u2581en": 4636,
  "ud": 4637,
  "\u2581\u05e8\u05d2\u05e9\u05d5\u05ea": 4638,
  "\u2581\u05d0\u05d9\u05e9\u05d9\u05ea": 4639,
  "\u05d5\u05e0\u05d9\u05ea": 4640,
  "\u2581roof": 4641,
  "\u2581\u05d3\u05d5\u05df": 4642,
  "\u2581\u05de\u05e7\u05e9\u05d9\u05d1": 4643,
  "\u2581\u05d4\u05dc\u05db\u05ea": 4644,
  "\u2581lights": 4645,
  "\u2581\u05d4\u05e4": 4646,
  "for": 4647,
  "\u05d3\u05dc": 4648,
  "\u2581\u05ea\u05d5\u05db\u05dc\u05d5": 4649,
  "\u2581somehow": 4650,
  "\u2581according": 4651,
  "\u2581\u05d0\u05d4\u05e8\u05d5\u05d2": 4652,
  "\u2581\u05de\u05e7\u05d1\u05dc\u05ea": 4653,
  "\u2581\u05e9\u05d1\u05d0\u05ea": 4654,
  "\u2581\u05db\u05e9\u05d0\u05ea": 4655,
  "\u2581belong": 4656,
  "\u2581\u05e7\u05e8\u05d5\u05d1\u05d9\u05dd": 4657,
  "\u2581queen": 4658,
  "\u2581\u05e6\u05e8\u05d9\u05db\u05d5\u05ea": 4659,
  "\u2581\u05e9\u05d7\u05e9\u05d1\u05ea\u05d9": 4660,
  "\u2581command": 4661,
  "\u2581responsibility": 4662,
  "\u2581\u05d9\u05ea\u05e8": 4663,
  "\u2581\u05d9\u05e7\u05d9\u05e8\u05d9": 4664,
  "\u2581\u05dc\u05d9\u05dc\u05d3": 4665,
  "\u2581\u05dc\u05de\u05d3\u05ea\u05d9": 4666,
  "\u2581Shh": 4667,
  "\u2581\u05dc\u05e2\u05e6\u05de\u05d5": 4668,
  "\u2581\u05de\u05e9\u05e4\u05d8": 4669,
  "\u05e1\u05d5": 4670,
  "\u2581mentioned": 4671,
  "\u2581showing": 4672,
  "\u2581cases": 4673,
  "our": 4674,
  "\u2581criminal": 4675,
  "\u2581\u05d1\u05e8\u05d5\u05db\u05d9\u05dd": 4676,
  "\u2581Star": 4677,
  "ang": 4678,
  "\u05d9\u05d9\u05ea": 4679,
  "\u2581rain": 4680,
  "\u2581available": 4681,
  "\u2581Always": 4682,
  "\u2581covered": 4683,
  "\u2581physical": 4684,
  "\u2581Without": 4685,
  "che": 4686,
  "\u2581\u05d0\u05de": 4687,
  "nd": 4688,
  "\u2581\u05e7\u05d5\u05e8": 4689,
  "\u2581ends": 4690,
  "\u2581Dean": 4691,
  "\u05e6\u05d9\u05d4": 4692,
  "\u2581Ne": 4693,
  "\u2581cook": 4694,
  "Z": 4695,
  "\u05de\u05d5\u05df": 4696,
  "\u2581north": 4697,
  "\u2581Six": 4698,
  "\u2581\u05d1\u05e4\u05e8\u05e7": 4699,
  "\u2581\u05d9\u05e9\u05e0\u05dd": 4700,
  "\u2581exist": 4701,
  "\u2581Lady": 4702,
  "\u2581\u05e9\u05ea\u05d5\u05e7": 4703,
  "\u2581\u05e0\u05d7\u05d6\u05d5\u05e8": 4704,
  "\u2581dealing": 4705,
  "\u2581famous": 4706,
  "\u2581Matthew": 4707,
  "\u2581\u05e9\u05d1\u05ea": 4708,
  "\u2581State": 4709,
  "\u2581interview": 4710,
  "\u2581result": 4711,
  "\u2581dry": 4712,
  "\u2581cousin": 4713,
  "\u2581legal": 4714,
  "\u2581\u05d7\u05d1\u05e8\u05d5\u05ea": 4715,
  "\u2581crack": 4716,
  "\u2581threat": 4717,
  "\u2581\u05d2\u05d1\u05d5\u05d4\u05d4": 4718,
  "\u2581\u05dc\u05d4\u05e8\u05d9\u05dd": 4719,
  "\u2581throat": 4720,
  "\u2581\u05dc\u05d4\u05e8\u05e9\u05d5\u05ea": 4721,
  "\u2581pray": 4722,
  "\u2581\u05e9\u05db\u05d1\u05e8": 4723,
  "\u2581Both": 4724,
  "\u2581\u05d7\u05d9\u05d5\u05ea": 4725,
  "\u2581complicated": 4726,
  "\u2581\u05d4\u05e7\u05d1\u05d5\u05e6\u05d4": 4727,
  "\u05e6\u05d5": 4728,
  "\u2581Claire": 4729,
  "tion": 4730,
  "\u2581\u05e2\u05e9\u05e8\u05d9\u05dd": 4731,
  "\u2581France": 4732,
  "\u2581Hank": 4733,
  "\u2581\u05d1\u05e7\u05d5": 4734,
  "\u2581Mar": 4735,
  "\u2581cards": 4736,
  "\u2581\u05d5\u05d0\u05ea\u05dd": 4737,
  "\u05d9\u05de\u05d4": 4738,
  "\u2581\u05d4\u05dc\u05db\u05d4": 4739,
  "\u2581\u05d0\u05dc\u05e4\u05d9": 4740,
  "\u2581\u05d4\u05d0\u05de\u05d0": 4741,
  "\u05d5\u05d2": 4742,
  "\u2581\u05e6\u05d1\u05d0": 4743,
  "\u2581\u05d4\u05de\u05d9\u05dc\u05d9\u05dd": 4744,
  "\u2581shame": 4745,
  "\u2581familiar": 4746,
  "\u2581files": 4747,
  "\u2581\u05e0\u05de\u05d5\u05da": 4748,
  "\u2581Kyle": 4749,
  "mail": 4750,
  "ating": 4751,
  "\u2581value": 4752,
  "\u2581\u05de\u05d6\u05de\u05df": 4753,
  "\u2581\u05d4\u05d2\u05e0\u05d4": 4754,
  "mon": 4755,
  "ay": 4756,
  "\u2581\u05de\u05d1\u05d8\u05d9\u05d7\u05d4": 4757,
  "\u2581\u05d2\u05d3\u05d5\u05dc\u05d5\u05ea": 4758,
  "\u05d4\u05d9\u05d4": 4759,
  "IN": 4760,
  "\u2581\u05e1\u05dc": 4761,
  "\u2581joy": 4762,
  "\u2581\u05d4\u05d8": 4763,
  "\u2581\u05d6\u05d4\u05d9\u05e8\u05d5\u05ea": 4764,
  "\u2581\u05e0\u05e6\u05d0": 4765,
  "\u2581\u05d4\u05ea\u05e2\u05d5\u05e4\u05d4": 4766,
  "\u2581BE": 4767,
  "\u2581\u05d1\u05ea\u05d0": 4768,
  "\u2581caused": 4769,
  "\u2581\u05d5\u05d4\u05e0\u05d4": 4770,
  "\u2581Jerry": 4771,
  "\u2581\u05d4\u05d1\u05d0\u05ea": 4772,
  "\u2581\u05dc\u05d4\u05e6\u05d9\u05d2": 4773,
  "\u2581\u05d4\u05e9\u05d5\u05e4\u05d8": 4774,
  "\u2581Anna": 4775,
  "\u2581\u05d4\u05d1\u05d7\u05d5\u05e8\u05d9\u05dd": 4776,
  "\u2581\u05d4\u05d7\u05ea\u05d5\u05e0\u05d4": 4777,
  "\u2581\u05d4\u05de\u05e9\u05e8\u05d3": 4778,
  "\u2581cup": 4779,
  "\u2581role": 4780,
  "\u2581\u05d3\u05d5\u05e8": 4781,
  "\u2581nowhere": 4782,
  "\u2581Things": 4783,
  "\u2581operation": 4784,
  "\u2581positive": 4785,
  "\u2581threw": 4786,
  "\u2581\u05dc\u05e0\u05d4\u05dc": 4787,
  "\u2581Friday": 4788,
  "\u2581sending": 4789,
  "\u2581\u05de\u05d0\u05d9": 4790,
  "\u2581\u05de\u05db\u05ea\u05d1": 4791,
  "\u2581\u05d1\u05db\u05e0\u05d5\u05ea": 4792,
  "\u2581\u05d9\u05d0": 4793,
  "\u2581\u05d2\u05e8\u05d4": 4794,
  "\u2581\u05e0\u05e9\u05d5\u05d9": 4795,
  "\u2581\u05dc\u05e2\u05d6\u05e8\u05d4": 4796,
  "\u2581\u05e8\u05d9\u05d7": 4797,
  "\u2581\u05d0\u05d7\u05e8\u05d9\u05d5\u05ea": 4798,
  "\u2581\u05dc\u05d4\u05df": 4799,
  "\u2581\u05de\u05d7\u05e4\u05e9\u05ea": 4800,
  "\u05d0\u05e4\u05e9\u05e8": 4801,
  "\u2581Chinese": 4802,
  "\u05d9\u05e8\u05d5\u05ea": 4803,
  "\u2581\u05e7\u05dc\u05d9\u05d9\u05e8": 4804,
  "ated": 4805,
  "\u2581Ed": 4806,
  "\u2581points": 4807,
  "\u2581\u05e2\u05de\u05d5\u05d3": 4808,
  "ana": 4809,
  "\u2581\u05e7\u05d5\u05e0\u05d4": 4810,
  "\u05de\u05d2": 4811,
  "\u2581\u05dc\u05e9\u05d9\u05e8": 4812,
  "end": 4813,
  "\u05d7\u05d5": 4814,
  "\u05d7\u05d9": 4815,
  "\u2581\u05e2\u05d1\u05e8\u05ea\u05d9": 4816,
  "\u2581\u05d4\u05e7\u05d5\u05d3\u05e9": 4817,
  "\u2581lately": 4818,
  "\u2581outta": 4819,
  "\u2581results": 4820,
  "\u2581weak": 4821,
  "\u2581\u05dc\u05e1\u05d2\u05d5\u05e8": 4822,
  "\u2581neighborhood": 4823,
  "\u2581\u05d4\u05de\u05e1": 4824,
  "\u05d1\u05d5\u05e7\u05e8": 4825,
  "\u2581\u05d1\u05e2\u05e7\u05d1\u05d5\u05ea": 4826,
  "\u2581\u05de\u05e8\u05d0\u05e9": 4827,
  "\u2581Home": 4828,
  "\u2581Bad": 4829,
  "\u258127": 4830,
  "\u05d3\u05d9\u05dd": 4831,
  "\u2581\u05d1\u05de\u05d9\u05d8\u05d4": 4832,
  "\u2581\u05d4\u05d3\u05d5\u05d3": 4833,
  "\u2581Lo": 4834,
  "\u2581nearly": 4835,
  "\u2581Enough": 4836,
  "\u2581recently": 4837,
  "\u2581bridge": 4838,
  "\u2581thoughts": 4839,
  "\u2581\u05e2\u05d5\u05e3": 4840,
  "\u2581loose": 4841,
  "\u2581\u05e6\u05d5\u05e4\u05d4": 4842,
  "\u2581add": 4843,
  "\u2581\u05d1\u05d4\u05ea\u05d7\u05dc\u05d4": 4844,
  "pa": 4845,
  "\u2581\u05d3\u05d5\u05d0\u05d2": 4846,
  "\u2581\u05de\u05d6\u05db\u05d9\u05e8": 4847,
  "\u05e8\u05d2\u05e2": 4848,
  "\u2581\u05e4\u05e8\u05d5\u05e4\u05e1\u05d5\u05e8": 4849,
  "\u2581congregation": 4850,
  "\u2581\u05d0\u05e8\u05d5\u05db\u05d4": 4851,
  "\u2581signed": 4852,
  "ten": 4853,
  "\u05d5\u05d8": 4854,
  "ize": 4855,
  "ach": 4856,
  "\u2581Park": 4857,
  "\u2581{": 4858,
  "\u2581\u05d4\u05d2\u05d1\u05e8\u05d9\u05dd": 4859,
  "\u05b4": 4860,
  "\u2581subject": 4861,
  "\u2581leader": 4862,
  "\u2581manager": 4863,
  "\u2581\u05de\u05d5\u05d3\u05e2": 4864,
  "\u2581\u05d1\u05d9\u05e7\u05e9\u05ea\u05d9": 4865,
  "\u2581pop": 4866,
  "\u2581slept": 4867,
  "\u2581football": 4868,
  "\u05b4\u05d9": 4869,
  "\u2581event": 4870,
  "\u2581\u05d3\u05d2": 4871,
  "\u2581\u05d1\u05d9\u05de\u05d9\u05dd": 4872,
  "\u2581\u05dc\u05d0\u05d7\u05d5\u05e8": 4873,
  "\u2581south": 4874,
  "\u2581\u05d3\u05d5\u05dc\u05e8\u05d9\u05dd": 4875,
  "\u2581\u05d4\u05ea\u05e7\u05e9\u05e8\u05ea\u05d9": 4876,
  "\u2581opening": 4877,
  "\u2581pack": 4878,
  "\u2581reasons": 4879,
  "\u2581\u05d0\u05d8\u05e4\u05dc": 4880,
  "\u2581selling": 4881,
  "-5": 4882,
  "\u2581\u05d0\u05d4\u05d1\u05ea": 4883,
  "\u2581pieces": 4884,
  "\u2581\u05d4\u05e8\u05d2\u05ea\u05d9": 4885,
  "\u2581Kill": 4886,
  "\u2581\u05e8\u05d0\u05d5\u05d9": 4887,
  "\u05d3\u05ea": 4888,
  "\u2581\u05d0\u05d3\u05d1\u05e8": 4889,
  "\u2581\u05d1\u05e8\u05d9\u05d0\u05df": 4890,
  "\u2581\u05e1\u05d3\u05e8": 4891,
  "\u2581Fucking": 4892,
  "\u2581Cha": 4893,
  "\u2581\u05de\u05e9\u05e4\u05d7\u05ea\u05d9": 4894,
  "\u2581\u05dc\u05de\u05d9\u05d8\u05d4": 4895,
  "\u2581\u05e0\u05ea\u05e0\u05d5": 4896,
  "\u258126": 4897,
  "\u2581\u05d6\u05e8": 4898,
  "\u2581pal": 4899,
  "\u2581holy": 4900,
  "\u2581milk": 4901,
  "\u2581\u05d4\u05de\u05d8\u05d5\u05e1": 4902,
  "\u2581ancient": 4903,
  "\u2581chest": 4904,
  "\u258128": 4905,
  "\u05e9\u05e0\u05d9": 4906,
  "\u2581direction": 4907,
  "\u2581heading": 4908,
  "\u2581\u05e6\u05e8\u05d5\u05ea": 4909,
  "\u05dc\u05e2\u05d6\u05d0\u05d6\u05dc": 4910,
  "\u05e0\u05e9": 4911,
  "\u05e1\u05d8\u05d9\u05df": 4912,
  "\u2581sin": 4913,
  "\u2581\u05e9\u05d9\u05de\u05d5\u05e9": 4914,
  "\u05e4\u05e0\u05d5": 4915,
  "\u2581\u05e9\u05ea\u05e8\u05e6\u05d4": 4916,
  "\u2581families": 4917,
  "\u2581\u05d1\u05e0\u05d5\u05e9\u05d0": 4918,
  "\u05e2\u05d4": 4919,
  "\u2581hired": 4920,
  "\u2581stolen": 4921,
  "\u2581\u05d1\u05e7\u05d5\u05dc": 4922,
  "\u2581\u05d4\u05e6\u05dc\u05d7\u05ea": 4923,
  "\u05e2\u05d5\u05ea": 4924,
  "\u2581ME": 4925,
  "\u2581\u05d9\u05e8\u05d3": 4926,
  "\u2581\u05dc\u05e7": 4927,
  "\u2581\u05e7\u05e8\u05d9": 4928,
  "\u2581According": 4929,
  "\u266a": 4930,
  "\u2581\u05e0\u05e4\u05dc": 4931,
  "wood": 4932,
  "\u2581\u05d4\u05e8\u05e6\u05e4\u05d4": 4933,
  "\u2581\u05dc\u05d0\u05d9\u05e9": 4934,
  "\u2581\u05db\u05d1\u05d3": 4935,
  "\u2581Queen": 4936,
  "11": 4937,
  "\u2581Kim": 4938,
  "\u2581300": 4939,
  "\u2581Grace": 4940,
  "\u2581Police": 4941,
  "\u2581Apparently": 4942,
  "\u2581freedom": 4943,
  "\u2581\u05e9\u05dc\u05de\u05d4": 4944,
  "\u2581\u05dc\u05e2\u05d1\u05e8": 4945,
  "\u05d9\u05e4\u05d5\u05ea": 4946,
  "\u2581kinda": 4947,
  "\u05d5\u05d5": 4948,
  "\u2581Pe": 4949,
  "ja": 4950,
  "\u05d9\u05de\u05d5\u05ea": 4951,
  "\u2581\u05dc\u05d2\u05e0\u05d5\u05d1": 4952,
  "\u2581issues": 4953,
  "\u2581\u05d0\u05e8\u05d4": 4954,
  "\u2581\u05d1\u05e1\u05db\u05e0\u05d4": 4955,
  "\u2581\u05dc\u05de\u05e8\u05d1\u05d4": 4956,
  "\u2581\u05e2\u05d5\u05e8": 4957,
  "\u2581\u05d4\u05e9\u05d8\u05d7": 4958,
  "\u2581challenge": 4959,
  "\u2581\u05d7\u05d5\u05dd": 4960,
  "How": 4961,
  "\u2581\u05d7\u05d9\u05e4\u05d5\u05e9": 4962,
  "\u2581\u05d8\u05d1\u05e2\u05d9": 4963,
  "\u2581sexual": 4964,
  "\u2581\u05d4\u05e2\u05e0\u05d9\u05d9\u05e0\u05d9\u05dd": 4965,
  "house": 4966,
  "\u2581Professor": 4967,
  "\u05dc\u05d9\u05dc\u05d4": 4968,
  "\u2581\u05de\u05e4\u05ea\u05d7": 4969,
  "\u2581\u05ea\u05d0\u05de\u05e8": 4970,
  "\u2581however": 4971,
  "\u2581\u05d1\u05e6\u05e8\u05d5\u05ea": 4972,
  "\u2581\u05e0\u05e7\u05d5\u05d3\u05d4": 4973,
  "\u2581\u05ea\u05d7": 4974,
  "\u2581Stand": 4975,
  "\u2581opinion": 4976,
  "\u2581\u05dc\u05e7\u05d7\u05d5": 4977,
  "\u2581safety": 4978,
  "Laughter": 4979,
  "\u2581\u05d4\u05d9\u05e9\u05df": 4980,
  "\u2581Andy": 4981,
  "\u2581\u05d4\u05e8\u05db\u05d1\u05ea": 4982,
  "\u05d0\u05d5\u05e8": 4983,
  "day": 4984,
  "\u2581\u05de\u05e1\u05d5\u05d2": 4985,
  "Hey": 4986,
  "ized": 4987,
  "\u2581Officer": 4988,
  "\u2581High": 4989,
  "\u2581path": 4990,
  "\u2581\u05d8\u05e1": 4991,
  "\u05dc\u05df": 4992,
  "\u2581gang": 4993,
  "\u2581nuts": 4994,
  "\u2581\u05d1\u05d9\u05d8\u05d7\u05d5\u05df": 4995,
  "\u2581\u05d4\u05d3\u05d9": 4996,
  "\u2581Emily": 4997,
  "\u2581suck": 4998,
  "\u2581\u05dc\u05de\u05dc\u05d0": 4999,
  "15": 5000,
  "\u2581\u05d4\u05dc\u05d1\u05df": 5001,
  "\u2581\u05d6\u05d5\u05d6\u05d5": 5002,
  "\u2581\u05d1\u05e1\u05d9\u05e1": 5003,
  "\u2581\u05e0\u05e1\u05d4": 5004,
  "\u05e6\u05dc": 5005,
  "\u2581\u05e7\u05d1\u05d5\u05e6\u05d4": 5006,
  "\u2581Russian": 5007,
  "\u2581period": 5008,
  "\u2581\u05d1\u05e1\u05e8\u05d8": 5009,
  "\u2581\u05dc\u05e6": 5010,
  "\u2581lots": 5011,
  "\u2581site": 5012,
  "\u2581\u05e9\u05d0\u05e2\u05e9\u05d4": 5013,
  "\u2581\u05ea\u05e4\u05e1\u05ea\u05d9": 5014,
  "\u2581\u05de\u05d4\u05df": 5015,
  "\u2581Ted": 5016,
  "\u05e8\u05d5\u05d2": 5017,
  "\u2581\u05d9\u05d5\u05db\u05dc\u05d5": 5018,
  "\u2581\u05d0\u05d4\u05d1": 5019,
  "\u2581amount": 5020,
  "\u2581lines": 5021,
  "\u2581\u05e2\u05d6\u05e8": 5022,
  "\u2581Same": 5023,
  "\u2581\u05de\u05d8\u05e8\u05d4": 5024,
  "\u2581faster": 5025,
  "\u2581\u05d4\u05d7\u05dc\u05d8\u05ea\u05d9": 5026,
  "\u05d2\u05ea": 5027,
  "\u2581grew": 5028,
  "\u2581East": 5029,
  "\u2581thousands": 5030,
  "\u2581season": 5031,
  "\u2581grown": 5032,
  "\u2581\u05de\u05d7": 5033,
  "\u2581Santa": 5034,
  "\u2581disease": 5035,
  "\u05e9\u05ea\u05d9": 5036,
  "\u2581\u05d4\u05e9\u05d2\u05ea": 5037,
  "\u2581\u05dc\u05d0\u05d7\u05d3": 5038,
  "\u2581\u05de\u05e8\u05d8\u05d9\u05df": 5039,
  "\u2581\u05d7\u05d6\u05e8\u05ea\u05d9": 5040,
  "\u2581dressed": 5041,
  "\u2581Aah": 5042,
  "\u2581British": 5043,
  "\u2581\u05de\u05e7\u05e8\u05d9": 5044,
  "\u2581regular": 5045,
  "\u2581model": 5046,
  "over": 5047,
  "\u2581Louis": 5048,
  "\u2581\u05dc\u05d4\u05d7\u05dc\u05d9\u05d8": 5049,
  "\u2581\u05de\u05ea\u05e7\u05e9\u05e8": 5050,
  "\u2581offered": 5051,
  "\u2581\u05ea\u05e1\u05dc\u05d7": 5052,
  "\u2581whoever": 5053,
  "\u2581\u05d4\u05e9\u05d5\u05d8\u05e8": 5054,
  "\u2581\u05ea\u05ea\u05d7\u05d9\u05dc": 5055,
  "\u2581\u05e7\u05e8\u05d5\u05d1\u05d5\u05ea": 5056,
  "\u2581\u05e9\u05d9\u05e8\u05d5\u05ea": 5057,
  "\u2581\u05d0\u05e0\u05d3\u05d9": 5058,
  "\u2581\u05e1\u05e0\u05d8": 5059,
  "\u2581returned": 5060,
  "\u05e7\u05d9\u05d9": 5061,
  "\u2581\u05d8\u05d3": 5062,
  "\u2581map": 5063,
  "\u05d0\u05d5\u05e7\u05d9\u05d9": 5064,
  "\u2581\u05dc\u05e9\u05e0\u05d9": 5065,
  "\u2581\u05dc\u05d5\u05d1\u05e9": 5066,
  "\u2581\u05e0\u05d5\u05ea\u05e0\u05d9\u05dd": 5067,
  "\u25812:": 5068,
  "\u2581\u05d1\u05e2\u05e6\u05de\u05d5": 5069,
  "\u2581Ow": 5070,
  "\u2581property": 5071,
  "\u2581screw": 5072,
  "\u2581trade": 5073,
  "\u2581\u05e9\u05d5\u05e0\u05d5\u05ea": 5074,
  "\u2581freak": 5075,
  "\u2581papers": 5076,
  "\u2581split": 5077,
  "\u2581village": 5078,
  "\u2581Phil": 5079,
  "\u2581technology": 5080,
  "\u2581\u05e0\u05d4\u05e0\u05d4": 5081,
  "\u2581brings": 5082,
  "bi": 5083,
  "IS": 5084,
  "\u2581loud": 5085,
  "\u05e4\u05e9\u05d5\u05d8": 5086,
  "\u2581\u05dc\u05d5\u05e7\u05d7\u05ea": 5087,
  "\u2581\u05d1\u05d0\u05e9": 5088,
  "\u2581\u05e9\u05d1\u05d5\u05e2\u05d9\u05d9\u05dd": 5089,
  "\u2581\u05e9\u05d9\u05e9\u05d9": 5090,
  "\u2581\u05d4\u05de\u05e7\u05e8\u05d4": 5091,
  "\u2581\u05d2\u05d1\u05d9\u05e8\u05ea\u05d9": 5092,
  "\u2581headed": 5093,
  "\u2581\u05e2\u05d1\u05d5\u05d3\u05ea": 5094,
  "\u2581\u05e6\u05e2\u05d9\u05e8\u05d9\u05dd": 5095,
  "In": 5096,
  "min": 5097,
  "ab": 5098,
  "\u2581stars": 5099,
  "\u2581\u05d4\u05d4\u05d5\u05dc\u05d3\u05ea": 5100,
  "if": 5101,
  "ey": 5102,
  "si": 5103,
  "\u2581\u05e2\u05d3\u05df": 5104,
  "\u2581finger": 5105,
  "\u2581\u05e7\u05d9\u05d1\u05dc\u05e0\u05d5": 5106,
  "\u05e1\u05e8": 5107,
  "\u2581\u05de\u05d7\u05db\u05d9\u05dd": 5108,
  "\u2581\u05e8\u05d5\u05d2": 5109,
  "\u2581\u05dc\u05e8": 5110,
  "\u2581Pull": 5111,
  "\u2581\u05e1\u05d5\u05e1": 5112,
  "\u2581secrets": 5113,
  "\u2581\u05e9\u05d7\u05e7\u05df": 5114,
  "\u2581\u05e9\u05e0\u05e7\u05e8\u05d0": 5115,
  "ze": 5116,
  "\u2581detective": 5117,
  "\u2581\u05de\u05d3\u05d4\u05d9\u05de\u05d4": 5118,
  "\u2581\u05d4\u05de\u05d7\u05e9\u05d1": 5119,
  "\u2581\u05dc\u05db\u05d1\u05d5\u05d3": 5120,
  "\u2581\u05e0\u05d5\u05e1\u05e4\u05d5\u05ea": 5121,
  "\u2581\u05dc\u05e2\u05e7\u05d5\u05d1": 5122,
  "\u2581\u05d4\u05e0\u05d5": 5123,
  "\u2581dig": 5124,
  "\u05d5\u05de\u05d9": 5125,
  "\u2581hall": 5126,
  "\u2581\u05dc\u05e1\u05d3\u05e8": 5127,
  "\u05d9\u05d5\u05df": 5128,
  "\u2581spread": 5129,
  "\u05e0\u05d0\u05e0\u05d7": 5130,
  "\u2581Thomas": 5131,
  "gi": 5132,
  "\u2581\u05d4\u05d0\u05d4\u05d5\u05d1": 5133,
  "\u2581sons": 5134,
  "\u2581\\": 5135,
  "\u2581\u05de\u05de\u05de": 5136,
  "\u2581\u05d1\u05e7\u05e8": 5137,
  "\u2581\u05d2\u05e8\u05d9\u05d9\u05e1": 5138,
  "\u2581plus": 5139,
  "\u2581Ever": 5140,
  "\u2581\u05d1\u05d1\u05e8": 5141,
  "\u2581\u05d4\u05e9\u05e2\u05e8": 5142,
  "\u05d9\u05e4\u05d9\u05dd": 5143,
  "\u2581\u05d4\u05e4\u05e9\u05e2": 5144,
  "\u05d0\u05ea\u05dd": 5145,
  "\u2581\u05d0\u05e8\u05e6\u05d5\u05ea": 5146,
  "\u2581\u05d1\u05d3\u05d9\u05e7\u05ea": 5147,
  "\u2581\u05dc\u05d2\u05e2\u05ea": 5148,
  "\u2581male": 5149,
  "\u05d1\u05e2": 5150,
  "\u2581\u05d1\u05e9\u05e0\u05d9": 5151,
  "\u2581\u05e8\u05e2\u05d9\u05dd": 5152,
  "\u2581forced": 5153,
  "\u2581\u05dc\u05e2\u05ea\u05d9\u05dd": 5154,
  "\u05de\u05e9\u05d4\u05d5": 5155,
  "\u05d9\u05de\u05d5": 5156,
  "\u2581Many": 5157,
  "\u2581ear": 5158,
  "\u2581\u05de\u05ea\u05d7": 5159,
  "\u05e4\u05e0\u05d9\u05dd": 5160,
  "\u05e8\u05d9\u05e5": 5161,
  "\u2581\u05d1\u05d7\u05dc\u05e7": 5162,
  "\u05d0\u05e0\u05e1": 5163,
  "\u2581\u05d4\u05e8\u05e2": 5164,
  "\u2581Yet": 5165,
  "ev": 5166,
  "\u05b5": 5167,
  "\u2581\u05d1\u05d7\u05e8": 5168,
  "\u05de\u05e0\u05d4": 5169,
  "\u2581growing": 5170,
  "\u2581guest": 5171,
  "\u2581movies": 5172,
  "\u2581\u05d4\u05e0\u05e8\u05d0\u05d4": 5173,
  "\u2581\u05d4\u05d7\u05d5\u05de\u05e8": 5174,
  "yn": 5175,
  "\u05de\u05e0\u05ea": 5176,
  "\u2581discovered": 5177,
  "\u2581\u05dc\u05e4\u05ea\u05d5\u05e8": 5178,
  "\u2581Previously": 5179,
  "\u2581\u05dc\u05d4\u05d9\u05e8\u05d2\u05e2": 5180,
  "\u2581\u05ea\u05d3\u05d1\u05e8": 5181,
  "\u2581\u05d1\u05de\u05e8\u05db\u05d6": 5182,
  "\u05d9\u05dc\u05d9": 5183,
  "\u2581suicide": 5184,
  "\u2581\u05dc\u05e9\u05e7\u05e8": 5185,
  "\u2581shape": 5186,
  "\u05d5\u05d5\u05d9\u05dc": 5187,
  "\u2581WHAT": 5188,
  "\u2581\u05d7\u05e9": 5189,
  "\u2581\u05d1\u05dc\u05d1": 5190,
  "\u2581raised": 5191,
  "\u2581\u05ea\u05e8\u05e6\u05d9": 5192,
  "\u2581\u05ea\u05d5\u05e8\u05d2\u05dd": 5193,
  "\u05db\u05d7": 5194,
  "\u2581Emma": 5195,
  "\u2581\u05de\u05d7\u05d1\u05d1": 5196,
  "\u2581\u05d1\u05e2\u05d9\u05e0\u05d9": 5197,
  "\u2581\u05d4\u05e7\u05d5\u05d3\u05de\u05d9\u05dd": 5198,
  "head": 5199,
  "\u2581\u05d1\u05dc\u05d4": 5200,
  "\u2581\u05d9\u05d4\u05e8\u05d5\u05d2": 5201,
  "\u2581Relax": 5202,
  "\u2581\u05dc\u05d6\u05db\u05d5\u05ea": 5203,
  "tor": 5204,
  "au": 5205,
  "\u2581\u05d9\u05d5\u05e8\u05d3": 5206,
  "\u2581\u05de\u05e8\u05d9\u05d7": 5207,
  "\u2581hurts": 5208,
  "\u2581details": 5209,
  "\u2581\u05dc\u05e4\u05e2\u05d5\u05dc": 5210,
  "\u258170": 5211,
  "\u2581\u05d4\u05d7\u05d5\u05e3": 5212,
  "\u2581\u05d4\u05e8\u05d2\u05e9\u05d4": 5213,
  "\u2581Lisa": 5214,
  "\u2581\u05e7\u05e0\u05d9\u05ea\u05d9": 5215,
  "\u2581\u05d4\u05e9\u05d9\u05e0\u05d4": 5216,
  "\u05e2\u05e8": 5217,
  "\u2581unit": 5218,
  "\u2581\u05d0\u05de\u05d5\u05e0\u05d4": 5219,
  "\u2581bill": 5220,
  "\u05e7\u05d5\u05d3": 5221,
  "\u2581\u05e1\u05d9\u05e4\u05e8\u05d4": 5222,
  "\u2581\u05dc\u05d9\u05dc\u05d9": 5223,
  "\u2581ticket": 5224,
  "\u2581deliver": 5225,
  "\u2581loving": 5226,
  "\u2581\u05d4\u05d4\u05d9\u05d0": 5227,
  "\u2581\u05de\u05d5\u05dc\u05d9": 5228,
  "\u05d5\u05d5\u05dc": 5229,
  "\u2581\u05d2\u05d5\u05e3": 5230,
  "\u2581\u05d1\u05e1\u05e4\u05e8": 5231,
  "\u2581\u05d4\u05e9\u05dc\u05d9\u05e9\u05d9": 5232,
  "\u2581\u05e9\u05de\u05df": 5233,
  "\u2581\u05ea\u05e9\u05d5\u05d1\u05d4": 5234,
  "\u2581\u05d8\u05d5\u05e8": 5235,
  "\u2581\u05e2\u05e9\u05d9\u05e8": 5236,
  "\u2581screwed": 5237,
  "\u2581\u05de\u05d9\u05d5\u05d7\u05d3\u05ea": 5238,
  "\u2581\u05e0\u05d5\u05d2\u05e2": 5239,
  "\u2581\u05de\u05e7\u05e8\u05d9\u05dd": 5240,
  "\u2581William": 5241,
  "\u05d2\u05dc": 5242,
  "\u05e1\u05d8\u05d5\u05df": 5243,
  "\u2581\u05d1\u05d0\u05d9\u05d6\u05d5": 5244,
  "\u2581funeral": 5245,
  "\u2581\u05ea\u05d2\u05d9\u05e2": 5246,
  "\u05d9\u05de\u05d9\u05dd": 5247,
  "\u2581divorce": 5248,
  "\u2581\u05dc\u05d4\u05d1\u05d8\u05d9\u05d7": 5249,
  "ong": 5250,
  "\u2581patients": 5251,
  "\u05d1\u05d9\u05d8": 5252,
  "\u2581\u05d0\u05de\u05d9\u05dc\u05d9": 5253,
  "\u2581\u05e9\u05de\u05e9\u05d4\u05d5": 5254,
  "\u2581\u05e0\u05ea\u05e0\u05d4": 5255,
  "\u2581storm": 5256,
  "\u2581tiny": 5257,
  "\u2581\u05dc\u05d7\u05dc\u05e7": 5258,
  "\u2581Dur": 5259,
  "\u05e0\u05d9\u05e7": 5260,
  "\u2581\u05d4\u05e2\u05dc": 5261,
  "\u2581meaning": 5262,
  "\u2581\u05d4\u05d1\u05d2\u05d3\u05d9\u05dd": 5263,
  "\u2581Rose": 5264,
  "\u2581\u05de\u05e8\u05d5\u05e6\u05d4": 5265,
  "\u2581\u05de\u05d5\u05d8\u05d1": 5266,
  "\u2581Nah": 5267,
  "\u2581attorney": 5268,
  "\u2581professional": 5269,
  "\u2581distance": 5270,
  "\u2581Tomorrow": 5271,
  "\u2581\u05e2\u05dc\u05d9\u05db\u05dd": 5272,
  "\u2581\u05e9\u05d9\u05de\u05d5": 5273,
  "\u00b6": 5274,
  "\u2581saving": 5275,
  "\u2581\u05ea\u05d6\u05d5\u05d6": 5276,
  "\u2581\u05d7\u05d6\u05d9\u05e8": 5277,
  "\u05d5\u05d5\u05d3": 5278,
  "\u2581\u05de\u05e9\u05dc\u05dd": 5279,
  "\u2581perfectly": 5280,
  "\u2581Ar": 5281,
  "\u2581stayed": 5282,
  "\u05d6\u05d9\u05e8\u05ea": 5283,
  "-20": 5284,
  "\u2581\u05e4\u05e0\u05d5\u05d9": 5285,
  "\u2581\u05de\u05e1\u05d9\u05d1\u05ea": 5286,
  "\u2581Also": 5287,
  "\u2581behavior": 5288,
  "\u2581\u05d4\u05de\u05e1\u05d9\u05d1\u05d4": 5289,
  "\u05b6": 5290,
  "\u2581expecting": 5291,
  "\u2581\u05de\u05e7\u05d5\u05de\u05d5\u05ea": 5292,
  "\u2581Carter": 5293,
  "\u2581tie": 5294,
  "\u2581\u05d0\u05e4\u05e1": 5295,
  "\u2581\u05de\u05d0\u05d5\u05e9\u05e8\u05ea": 5296,
  "\u2581\u05ea\u05e9\u05e2": 5297,
  "\u2581Men": 5298,
  "\u05d0\u05e0\u05d8": 5299,
  "\u2581x": 5300,
  "\u2581\u05d0\u05d9\u05d5\u05dd": 5301,
  "\u2581Air": 5302,
  "\u2581\u05ea\u05e4\u05e7\u05d9\u05d3": 5303,
  "\u2581soldiers": 5304,
  "\u05e4\u05d8\u05e8": 5305,
  "\u2581\u05e8\u05d9": 5306,
  "\u2581\u05dc\u05d4\u05e1\u05ea\u05d9\u05e8": 5307,
  "\u2581\u05e8\u05e6\u05d5\u05df": 5308,
  "\u2581\u05de\u05d7\u05e9\u05d1": 5309,
  "\u2581Know": 5310,
  "\u2581\u05e0\u05d7\u05e9": 5311,
  "000": 5312,
  "ier": 5313,
  "\u2581\u05d4\u05e6\u05d1\u05d0": 5314,
  "\u2581jealous": 5315,
  "\u2581\u05d4\u05d1\u05e0\u05e7": 5316,
  "ko": 5317,
  "\u2581\u05de\u05e9\u05d8\u05e8\u05d4": 5318,
  "ke": 5319,
  "\u2581\u05d4\u05d1\u05e0\u05d9\u05d9\u05df": 5320,
  "\u05e9\u05df": 5321,
  "\u05d4\u05d9\u05d9\u05ea\u05d9": 5322,
  "\u05d2\u05d1\u05e8": 5323,
  "\u2581\u05d0\u05df": 5324,
  "\u2581\u05d2\u05e0\u05e8\u05dc": 5325,
  "\u2581\u05d9\u05db\u05dc": 5326,
  "\u258135": 5327,
  "\u2581\u05d1\u05e2\u05d9\u05e0\u05d9\u05d9": 5328,
  "\u2581\u05d3\u05d5\u05e7": 5329,
  "\u2581\u05d3\u05d9\u05d1\u05e8\u05ea": 5330,
  "\u2581\u05dc\u05d4\u05d9\u05e4\u05d8\u05e8": 5331,
  "\u2581statement": 5332,
  "\u2581\u05e0\u05d5\u05e8\u05d4": 5333,
  "\u2581\u05d1\u05d8\u05d9": 5334,
  "\u2581\u05d4\u05d3\u05d5": 5335,
  "\u2581strike": 5336,
  "\u2581character": 5337,
  "\u2581lord": 5338,
  "\u2581bite": 5339,
  "\u2581\u05e9\u05d4\u05db\u05dc": 5340,
  "\u2581\u05d1\u05d8\u05dc\u05d5\u05d5\u05d9\u05d6\u05d9\u05d4": 5341,
  "\u2581\u05d4\u05d3\u05d9\u05e8\u05d4": 5342,
  "\u2581provide": 5343,
  "\u2581\u05dc\u05e1\u05d1\u05d5\u05dc": 5344,
  "\u2581national": 5345,
  "\u2581\u05ea\u05d9\u05db\u05e0\u05e1": 5346,
  "\u2581\u05de\u05d6\u05d4\u05d4": 5347,
  "\u2581\u05e7\u05d5\u05dc\u05d5\u05e0\u05dc": 5348,
  "\u2581gate": 5349,
  "\u2581ordered": 5350,
  "\u2581towards": 5351,
  "\u2581filled": 5352,
  "\u2581harm": 5353,
  "\u2581doors": 5354,
  "\u2581\u05d0\u05d3\u05de\u05d4": 5355,
  "\u2581charges": 5356,
  "\u2581\u05d5\u05dc\u05de\u05d4": 5357,
  "\u2581\u05d0\u05e9\u05de\u05ea\u05d9": 5358,
  "\u2581contract": 5359,
  "12": 5360,
  "\u2581\u05d5\u05d4\u05d9\u05d4": 5361,
  "\u05d2\u05e0\u05d9": 5362,
  "\u05d3\u05d1\u05e8": 5363,
  "\u2581sub": 5364,
  "\u2581Saturday": 5365,
  "\u2581\u05d5\u05dc\u05d9": 5366,
  "\u2581Anyone": 5367,
  "\u2581Sunday": 5368,
  "\u2581\u05e9\u05d9\u05d7\u05d5\u05ea": 5369,
  "\u2581warrant": 5370,
  "\u05d9\u05d9\u05d3": 5371,
  "\u2581\u05e9\u05d5\u05dc\u05d7": 5372,
  "\u05e0\u05d9\u05d5\u05ea": 5373,
  "\u2581\u05d3\u05d1\u05e8\u05d9": 5374,
  "\u2581\u05ea\u05d5\u05db\u05e0\u05d9\u05d5\u05ea": 5375,
  "\u2581\u05d1\u05e8\u05d7": 5376,
  "\u2581\u05ea\u05e7\u05d5\u05e4\u05d4": 5377,
  "\u2581thy": 5378,
  "\u2581\u05ea\u05d4\u05e8\u05d5\u05d2": 5379,
  "\u2581\u05dc\u05e9\u05e8\u05ea": 5380,
  "\u2581\u05d4\u05d0\u05e0\u05e7": 5381,
  "\u2581\u05e9\u05d5\u05de\u05e2\u05ea": 5382,
  "\u05d6\u05e8": 5383,
  "\u2581\u05e7\u05d5\u05dd": 5384,
  "\u2581\u05e9\u05d2\u05e8": 5385,
  "\u2581incredible": 5386,
  "\u2581buried": 5387,
  "\u2581\u05d4\u05e7\u05d4\u05d9\u05dc\u05d4": 5388,
  "\u2581attacked": 5389,
  "\u2581Had": 5390,
  "\u2581Ex": 5391,
  "\u2581\u05e9\u05d9\u05db\u05d5\u05e8": 5392,
  "\u05d8\u05e1": 5393,
  "\u2581\u05e9\u05de\u05d2\u05d9\u05e2": 5394,
  "ise": 5395,
  "\u2581reality": 5396,
  "\u2581effect": 5397,
  "anna": 5398,
  "\u2581flowers": 5399,
  "\u2581\u05e0\u05e9\u05d9\u05d0": 5400,
  "\u2581released": 5401,
  "\u2581particular": 5402,
  "\u2581\u05e8\u05e9\u05de\u05d9": 5403,
  "\u2581defense": 5404,
  "\u258132": 5405,
  "\u2581served": 5406,
  "\u2581Annie": 5407,
  "\u2581\u05e7\u05d7\u05d5": 5408,
  "ov": 5409,
  "\u2581\u05d9\u05e8\u05d4": 5410,
  "dy": 5411,
  "\u2581\u05e6\u05d5\u05d7\u05e7\u05ea": 5412,
  "\u2581tour": 5413,
  "\u05d3\u05d5\u05ea": 5414,
  "\u2581Carl": 5415,
  "\u2581ocean": 5416,
  "\u2581powers": 5417,
  "\u2581\u05e2\u05e6\u05de\u05e0\u05d5": 5418,
  "\u2581\u05e0\u05d2\u05d9\u05d3": 5419,
  "\u2581Pro": 5420,
  "\u2581pen": 5421,
  "lt": 5422,
  "\u2581bedroom": 5423,
  "\u2581\u05dc\u05d1\u05d8\u05d5\u05d7": 5424,
  "\u2581\u05d4\u05e9\u05d5\u05d8\u05e8\u05d9\u05dd": 5425,
  "\u2581\u05de\u05e7\u05dc": 5426,
  "\u2581female": 5427,
  "\u05e7\u05e6\u05ea": 5428,
  "\u2581\u05d3\u05d9\u05d9": 5429,
  "\u2581sat": 5430,
  "ek": 5431,
  "\u2581harder": 5432,
  "\u2581hook": 5433,
  "\u2581\u05d4\u05de\u05e2\u05e8\u05db\u05ea": 5434,
  "\u2581\u05d9\u05ea\u05db\u05df": 5435,
  "\u2581device": 5436,
  "ack": 5437,
  "cha": 5438,
  "\u2581expected": 5439,
  "\u2581\u05d7\u05dc\u05d1": 5440,
  "\u05dc\u05d9\u05ea": 5441,
  "\u2581\u05dc\u05e9\u05d0\u05ea": 5442,
  "\u05d0\u05d5\u05ea\u05d5": 5443,
  "\u2581\u05ea\u05e9\u05d0\u05d9\u05e8": 5444,
  "\u05d7\u05db\u05d4": 5445,
  "\u2581\u05d0\u05d7\u05d9\u05dd": 5446,
  "\u2581\u05e0\u05db\u05d5\u05e0\u05d4": 5447,
  "\u2581\u05d1\u05de\u05e2\u05e8\u05db\u05ea": 5448,
  "\u05dc\u05d7": 5449,
  "\u2581\u05d4\u05db\u05d0\u05d1": 5450,
  "\u2581Ca": 5451,
  "\u2581ate": 5452,
  "\u2581thou": 5453,
  "\u05ea\u05de\u05d5\u05e0\u05d4": 5454,
  "\u2581staff": 5455,
  "\u2581\u05d4\u05de\u05e4\u05ea\u05d7\u05d5\u05ea": 5456,
  "mer": 5457,
  "\u2581Goodbye": 5458,
  "\u2581\u05de\u05d5\u05ea\u05d5": 5459,
  "\u2581\u05e7\u05e8\u05d7": 5460,
  "\u2581\u05d1\u05e7": 5461,
  "\u2581\u05e0\u05d9\u05d9\u05e8": 5462,
  "\u2581toward": 5463,
  "\u2581\u05d4\u05de\u05ea\u05d9\u05dd": 5464,
  "\u2581\u05d0\u05e6\u05dc\u05da": 5465,
  "\u2581alright": 5466,
  "\u2581devil": 5467,
  "\u2581equal": 5468,
  "\u2581\u05e0\u05d5\u05e1\u05e2\u05d9\u05dd": 5469,
  "\u2581\u05de\u05e2\u05e9\u05d4": 5470,
  "\u2581\u05d4\u05e7\u05d9\u05e8": 5471,
  "\u2581\u05e9\u05e0\u05e8\u05d0\u05d4": 5472,
  "\u2581player": 5473,
  "\u2581\u05d4\u05d9\u05d7\u05e1\u05d9\u05dd": 5474,
  "\u05d5\u05d4": 5475,
  "\u2581rough": 5476,
  "\u2581\u05d4\u05d0\u05d7\u05d3": 5477,
  "\u2581mark": 5478,
  "\u2581\u05e7\u05dc\u05d4": 5479,
  "ac": 5480,
  "\u2581clock": 5481,
  "\u2581concern": 5482,
  "ical": 5483,
  "\u2581\u05d5\u05d4\u05d9\u05d9\u05ea\u05d9": 5484,
  "\u2581\u05de\u05d5\u05e8\u05d4": 5485,
  "ham": 5486,
  "\u05d8\u05d5\u05ea": 5487,
  "\u2581wise": 5488,
  "\u2581\u05d4\u05ea\u05db\u05e0\u05d9\u05ea": 5489,
  "\u2581\u05ea\u05e0\u05d9\u05d7": 5490,
  "ide": 5491,
  "\u2581Simon": 5492,
  "\u2581\u05e9\u05d1\u05e8": 5493,
  "\u2581\u05dc\u05e9\u05db\u05d1": 5494,
  "\u2581\u05e8\u05d9\u05d0\u05df": 5495,
  "\u2581\u05d5\u05d5\u05dc": 5496,
  "\u2581\u05dc\u05de\u05db\u05d5\u05e0\u05d9\u05ea": 5497,
  "\u2581angel": 5498,
  "\u2581naked": 5499,
  "\u2581\u05e9\u05d4\u05d9\u05d9\u05e0\u05d5": 5500,
  "\u2581letters": 5501,
  "\u2581\u05de\u05d2\u05e2\u05d9\u05dc": 5502,
  "\u2581\u05de\u05d9\u05d9\u05d3": 5503,
  "\u05de\u05de\u05e9": 5504,
  "\u2581\u05d0\u05d7\u05d5\u05ea\u05da": 5505,
  "\u2581former": 5506,
  "\u2581\u05d0\u05d9\u05db\u05e9\u05d4\u05d5": 5507,
  "\u2581\u05e0\u05e2\u05e8": 5508,
  "\u2581\u05e9\u05e0\u05e2\u05e9\u05d4": 5509,
  "\u05e4\u05d5\u05e1": 5510,
  "\u2581Sergeant": 5511,
  "\u2581HE": 5512,
  "\u2581sword": 5513,
  "\u2581\u05e9\u05d0\u05d1\u05d0": 5514,
  "\u2581\u05d3\u05d9\u05d5\u05d5\u05d9\u05d3": 5515,
  "\u2581\u05dc\u05e0\u05e9\u05d5\u05dd": 5516,
  "\u2581\u05e7\u05e8\u05d0\u05ea": 5517,
  "\u2581\u05d4\u05ea\u05de\u05d5\u05e0\u05d5\u05ea": 5518,
  "\u2581\u05e2\u05d1\u05d3\u05ea\u05d9": 5519,
  "\u05e1\u05d9\u05e1": 5520,
  "\u2581chose": 5521,
  "\u2581na": 5522,
  "AR": 5523,
  "\u2581Clear": 5524,
  "\u2581\u05d4\u05d5\u05db\u05d7\u05d4": 5525,
  "\u2581\u05ea\u05de\u05d5\u05ea": 5526,
  "\u05e7\u05dc\u05d9": 5527,
  "\u25813:": 5528,
  "\u2581ghost": 5529,
  "\u2581\u05dc\u05d6\u05d4\u05d5\u05ea": 5530,
  "\u2581\u05d0\u05e4\u05dc": 5531,
  "\u2581terms": 5532,
  "\u2581\u05dc\u05de\u05e9\u05d7\u05e7": 5533,
  "\u2581\u05e7\u05e8\u05d8\u05e8": 5534,
  "\u2581success": 5535,
  "\u2581\u05d6\u05db\u05e8": 5536,
  "\u2581\u05db\u05e9\u05d0": 5537,
  "\u2581\u05d1\u05d4\u05e8\u05d9\u05d5\u05df": 5538,
  "\u2581\u05dc\u05e9\u05d1\u05d5\u05e8": 5539,
  "\u05e8\u05de\u05d9": 5540,
  "\u2581buying": 5541,
  "well": 5542,
  "\u2581doctors": 5543,
  "\u2581\u05d4\u05d0\u05de\u05d9\u05ea\u05d9\u05ea": 5544,
  "\u2581\u05ea\u05e7\u05e9\u05d9\u05d1\u05d5": 5545,
  "\u2581farm": 5546,
  "\u2581\u05d4\u05e4\u05e1\u05e7\u05d4": 5547,
  "ence": 5548,
  "\u2581\u05de\u05d6\u05d5\u05d9\u05df": 5549,
  "\u2581rate": 5550,
  "ator": 5551,
  "30": 5552,
  "\u2581\u05e7\u05de": 5553,
  "\u2581pocket": 5554,
  "\u2581lesson": 5555,
  "\u05d1\u05d5\u05e1": 5556,
  "\u2581\u05e9\u05d1\u05d0": 5557,
  "\u05d2\u05d1\u05e8\u05ea": 5558,
  "\u2581\u05dc\u05d0\u05dc\u05d5\u05d4\u05d9\u05dd": 5559,
  "don": 5560,
  "\u2581eh": 5561,
  "\u2581Ja": 5562,
  "\u2581\u05dc\u05d9\u05d3\u05d9": 5563,
  "\u2581\u05d4\u05d6\u05d5\u05d2": 5564,
  "\u2581falling": 5565,
  "\u2581rent": 5566,
  "\u2581\u05d4\u05e2\u05dd": 5567,
  "\u2581\u05d4\u05e6\u05e2\u05d9\u05e8": 5568,
  "\u05d9\u05e0\u05ea": 5569,
  "\u2581rat": 5570,
  "\u2581soldier": 5571,
  "\u2581\u05dc\u05d4\u05ea\u05e0\u05e6\u05dc": 5572,
  "\u05e0\u05d9\u05d9\u05dd": 5573,
  "\u258129": 5574,
  "ph": 5575,
  "\u05d5\u05d0\u05df": 5576,
  "\u05d9\u05e0\u05d9\u05dd": 5577,
  "\u2581\u05db\u05e9\u05d6\u05d4": 5578,
  "\u2581\u05d0\u05d9\u05e4\u05e9\u05d4\u05d5": 5579,
  "\u2581Sean": 5580,
  "\u2581\u05d7\u05d6\u05e8\u05ea": 5581,
  "\u2581\u05e0\u05d5\u05ea\u05e0\u05ea": 5582,
  "\u2581\u05dc\u05e7\u05e4\u05d5\u05e5": 5583,
  "\u2581enemies": 5584,
  "#": 5585,
  "\u2581\u05e7\u05e0\u05d9": 5586,
  "\u2581\u05db\u05d1\u05d5\u05d3\u05d5": 5587,
  "\u2581eventually": 5588,
  "\u2581motherfucker": 5589,
  "\u2581\u05d4\u05d1\u05dc\u05e9": 5590,
  "\u2581\u05d4\u05e2\u05e1\u05e7\u05d4": 5591,
  "\u05e4\u05dc": 5592,
  "\u2581\u05d4\u05e2\u05d5\u05e8": 5593,
  "\u2581insurance": 5594,
  "\u2581article": 5595,
  "\u2581\u05e9\u05d9\u05db\u05d5\u05dc\u05ea\u05d9": 5596,
  "\u2581protection": 5597,
  "\u2581\u05dc\u05d4\u05ea\u05e8\u05d7\u05e7": 5598,
  "\u2581hardly": 5599,
  "\u2581\u05d0\u05e1\u05d9\u05e8": 5600,
  "\u2581Jackson": 5601,
  "\u05ea\u05e8\u05d0\u05d4": 5602,
  "\u2581\u05e9\u05e0\u05d9\u05d4": 5603,
  "\u2581\u05dc\u05e8\u05d0\u05e9\u05d5\u05e0\u05d4": 5604,
  "\u2581\u05d4\u05e9\u05ea\u05e0\u05d4": 5605,
  "nna": 5606,
  "\u2581exact": 5607,
  "\u2581dancing": 5608,
  "\u2581giant": 5609,
  "\u2581\u05de\u05d8\u05e4\u05dc": 5610,
  "\u2581ugly": 5611,
  "\u2581\u05d5\u05e9\u05dc": 5612,
  "\u2581\u05e1\u05e2": 5613,
  "\u2581\u05ea\u05e4\u05d5\u05e1": 5614,
  "\u2581\u05e2\u05d6\u05d1\u05d4": 5615,
  "\u2581paint": 5616,
  "\u05d1\u05e0\u05d5\u05ea": 5617,
  "\u2581Washington": 5618,
  "\u2581burned": 5619,
  "\u05e4\u05e0\u05d9": 5620,
  "\u2581regret": 5621,
  "\u2581suffering": 5622,
  "\u2581teaching": 5623,
  "\u2581\u05d1\u05db\u05de\u05d4": 5624,
  "\u05d6\u05db\u05e8": 5625,
  "\u2581Drop": 5626,
  "\u05d3\u05d5\u05d3": 5627,
  "\u2581\u05d0\u05e0\u05e1\u05d4": 5628,
  "\u2581ought": 5629,
  "\u2581\u05e9\u05d9\u05e0\u05d9\u05d9\u05dd": 5630,
  "\u2581Joey": 5631,
  "\u2581\u05ea\u05d5\u05e2\u05dc\u05ea": 5632,
  "\u2581\u05dc\u05de\u05e7\u05e8\u05d4": 5633,
  "\u05e8\u05d9\u05e1": 5634,
  "\u2581\u05d4\u05e8\u05d0\u05e9\u05d5\u05e0\u05d9\u05dd": 5635,
  "\u2581Satan": 5636,
  "\u2581beg": 5637,
  "\u2581settle": 5638,
  "\u2581\u05e8\u05d0\u05d9\u05e0\u05d5": 5639,
  "\u2581\u05d1\u05d7\u05d5\u05d3\u05e9": 5640,
  "\u2581\u05e9\u05d5\u05ea\u05e3": 5641,
  "\u2581\u05d4\u05d0\u05d1\u05d8\u05d7\u05d4": 5642,
  "\u2581\u05dc\u05e9\u05e8\u05d5\u05d3": 5643,
  "\u2581genius": 5644,
  "\u2581\u05e8\u05d7\u05d5\u05d1": 5645,
  "\u2581\u05dc\u05d9\u05e1\u05d4": 5646,
  "\u2581Shall": 5647,
  "\u2581considered": 5648,
  "\u05de\u05d0": 5649,
  "\u2581\u05e2\u05e6\u05d1\u05e0\u05d9": 5650,
  "\u05d2\u05d5\u05e8": 5651,
  "\u2581Picture": 5652,
  "\u2581England": 5653,
  "\u2581\u05dc\u05de\u05e6\u05d1": 5654,
  "\u2581\u05e9\u05db\u05d5\u05dc\u05e0\u05d5": 5655,
  "\u2581Cut": 5656,
  "\u2581\u05d7\u05e1": 5657,
  "\u2581Arthur": 5658,
  "oo": 5659,
  "\u05d7\u05dc": 5660,
  "\u2581Kelly": 5661,
  "\u2581Doc": 5662,
  "\u2581stone": 5663,
  "\u2581Ross": 5664,
  "\u2581\u05e7\u05d5\u05e8\u05d0\u05ea": 5665,
  "\u05e0\u05e9\u05e7": 5666,
  "\u2581bone": 5667,
  "\u2581brave": 5668,
  "\u2581sugar": 5669,
  "\u2581bleeding": 5670,
  "-6": 5671,
  "\u2581beauty": 5672,
  "\u2581Old": 5673,
  "\u2581\u05d7\u05de\u05d5\u05e8": 5674,
  "\u2581Se": 5675,
  "\u2581cheese": 5676,
  "\u2581streets": 5677,
  "\u2581jobs": 5678,
  "\u2581babies": 5679,
  "\u2581\u05d0\u05de\u05df": 5680,
  "\u05e4\u05d0": 5681,
  "\u2581political": 5682,
  "\u2581\u05d4\u05db\u05d1\u05d9\u05e9": 5683,
  "\u2581mood": 5684,
  "\u2581nation": 5685,
  "\u2581\u05dc\u05e2": 5686,
  "\u2581liar": 5687,
  "\u05e2\u05e8\u05d1": 5688,
  "\u05d9\u05dc\u05d3": 5689,
  "\u2581material": 5690,
  "\u2581\u05d1\u05d3\u05d1\u05e8": 5691,
  "\u2581romantic": 5692,
  "\u2581silly": 5693,
  "\u2581yourselves": 5694,
  "\u2581crash": 5695,
  "\u05d1\u05e0\u05d9\u05dd": 5696,
  "\u2581image": 5697,
  "\u2581online": 5698,
  "\u2581\u05dc\u05de\u05e1\u05d9\u05d1\u05d4": 5699,
  "\u2581ears": 5700,
  "\u2581\u05dc\u05d4\u05d6\u05db\u05d9\u05e8": 5701,
  "\u2581ability": 5702,
  "\u2581tip": 5703,
  "\u2581grade": 5704,
  "\u2581NO": 5705,
  "\u2581treatment": 5706,
  "\u2581Green": 5707,
  "\u2581bread": 5708,
  "\u2581license": 5709,
  "\u2581invite": 5710,
  "\u2581\u05e4\u05dc\u05d9": 5711,
  "om": 5712,
  "\u05e0\u05e7\u05d9": 5713,
  "\u2581\u05ea\u05d9\u05d6\u05d4\u05e8": 5714,
  "\u2581FOR": 5715,
  "\u2581obvious": 5716,
  "\u2581Plus": 5717,
  "\u2581\u05d7\u05d9\u05d9\u05dc": 5718,
  "\u2581doin": 5719,
  "\u2581Again": 5720,
  "\u2581Africa": 5721,
  "\u2581\u05e7\u05d8\u05e0\u05d5\u05ea": 5722,
  "\u2581\u05e9\u05d9\u05d7\u05ea": 5723,
  "\u2581Dave": 5724,
  "\u2581\u05e1\u05d5\u05de\u05da": 5725,
  "down": 5726,
  "\u2581medicine": 5727,
  "\u2581\u05e8\u05d0\u05e9\u05d9\u05ea": 5728,
  "\u2581CIA": 5729,
  "\u2581Jews": 5730,
  "\u2581April": 5731,
  "\u2581Pa": 5732,
  "\u2581warning": 5733,
  "\u2581\u05e4\u05e2\u05d9\u05dc\u05d5\u05ea": 5734,
  "\u2581\u05de\u05d7\u05e7\u05e8": 5735,
  "\u2581\u05d0\u05e8\u05e6\u05d4": 5736,
  "\u2581Alice": 5737,
  "\u2581progress": 5738,
  "\u2581\u05d7\u05e9\u05d5\u05d3": 5739,
  "\u2581\u05de\u05e2\u05dc\u05d4": 5740,
  "\u2581schedule": 5741,
  "\u2581goin": 5742,
  "\u2581\u05e8\u05d2": 5743,
  "\u258131": 5744,
  "\u2581\u05d1\u05e8\u05d8": 5745,
  "\u2581cab": 5746,
  "\u2581disappeared": 5747,
  "\u2581stomach": 5748,
  "\u2581understanding": 5749,
  "\u2581\u05d0\u05d1\u05d5\u05d0": 5750,
  "\u2581\u05de\u05d8\u05e8\u05d9\u05d3": 5751,
  "So": 5752,
  "\u2581\u05dc\u05d0\u05e8\u05d9": 5753,
  "\u2581\u05de\u05db\u05e9\u05d9\u05e8": 5754,
  "\u2581\u05e9\u05ea\u05d3\u05e2": 5755,
  "\u2581\u05d4\u05e9\u05d0\u05d9\u05e8": 5756,
  "\u2581\u05e7\u05e9\u05d9\u05dd": 5757,
  "\u2581\u05d1\u05d9\u05e6\u05d9\u05dd": 5758,
  "\u2581ruin": 5759,
  "\u2581\u05d1\u05e8\u05d7\u05d1": 5760,
  "\u2581\u05d1\u05d7\u05d9\u05e0\u05dd": 5761,
  "\u2581\u05d4\u05d0\u05d7\u05d5\u05e8\u05d9": 5762,
  "\u2581\u05d3\u05d9\u05d9\u05d1": 5763,
  "\u2581\u05e0\u05e2": 5764,
  "\u2581\u05de\u05e8\u05e7": 5765,
  "\u2581\u05ea\u05d5\u05e6\u05d9\u05d0": 5766,
  "\u2581Larry": 5767,
  "\u2581Ro": 5768,
  "\u2581\u05d4\u05d2\u05d1\u05e8\u05ea": 5769,
  "\u2581\u05e2\u05d9": 5770,
  "\u05d5\u05e0\u05ea": 5771,
  "\u05de\u05e0\u05d9\u05dd": 5772,
  "\u2581fingers": 5773,
  "\u2581Pick": 5774,
  "\u2581\u05d4\u05d7\u05d9": 5775,
  "\u05db\u05d0\u05df": 5776,
  "\u2581basically": 5777,
  "\u2581Roman": 5778,
  "\u2581\u05d4\u05de\u05d5\u05e8\u05d4": 5779,
  "\u25814,": 5780,
  "\u2581\u05d4\u05e0\u05d9\u05ea\u05d5\u05d7": 5781,
  "\u2581\u05e7\u05e0\u05d4": 5782,
  "\u2581pissed": 5783,
  "\u2581assistant": 5784,
  "\u2581jury": 5785,
  "ning": 5786,
  "\u2581fully": 5787,
  "\u2581\u05e6\u05d9\u05e4\u05d5\u05e8": 5788,
  "\u2581\u05d1\u05e2\u05dc\u05d4": 5789,
  "\u05d5\u05d0\u05dc": 5790,
  "\u05d1\u05d9\u05dc": 5791,
  "\u2581\u05d1\u05d5\u05db\u05d4": 5792,
  "\u2581plant": 5793,
  "\u2581\u05de\u05ea\u05db\u05e0\u05df": 5794,
  "\u2581\u05e2\u05ea\u05d9\u05d3": 5795,
  "\u2581Calm": 5796,
  "\u2581sacrifice": 5797,
  "\u2581laid": 5798,
  "\u2581\u05d4\u05d6\u05e7\u05df": 5799,
  "\u2581\u05e0\u05d7": 5800,
  "\u2581punch": 5801,
  "\u2581\u05d4\u05e9\u05e8": 5802,
  "\u05d0\u05de\u05e8\u05ea\u05d9": 5803,
  "\u2581runs": 5804,
  "\u2581\u05db\u05d5\u05e2\u05e1\u05ea": 5805,
  "\u2581mama": 5806,
  "\u05d7\u05d1\u05e8": 5807,
  "field": 5808,
  "\u2581\u05e9\u05d5\u05dc\u05d7\u05df": 5809,
  "\u2581photos": 5810,
  "\u2581\u05de\u05d1\u05e6\u05e2": 5811,
  "\u2581\u05d7\u05d5\u05d6\u05e8\u05d9\u05dd": 5812,
  "\u2581wound": 5813,
  "\u2581Chicago": 5814,
  "\u2581solve": 5815,
  "\u2581Ugh": 5816,
  "\u2581walls": 5817,
  "\u2581\u05db\u05d5\u05ea\u05d1": 5818,
  "\u2581\u05d1\u05e1\u05da": 5819,
  "\u2581\u05de\u05d2\u05df": 5820,
  "\u2581pair": 5821,
  "\u2581personally": 5822,
  "\u2581\u05d0\u05de\u05e8\u05d9\u05e7\u05d0\u05d9": 5823,
  "\u2581\u05d4\u05e0\u05d5\u05e9\u05d0": 5824,
  "\u2581apparently": 5825,
  "\u2581surface": 5826,
  "\u2581\u05dc\u05de\u05e9\u05d5\u05da": 5827,
  "\u2581\u05d4\u05e9\u05d5\u05ea\u05e3": 5828,
  "ring": 5829,
  "\u2581\u05e0\u05d5\u05e8\u05de\u05dc\u05d9": 5830,
  "\u2581\u05e9\u05ea\u05de\u05d9\u05d3": 5831,
  "\u2581\u05de\u05ea\u05e0\u05d4\u05d2": 5832,
  "\u2581cure": 5833,
  "\u2581\u05d8\u05e2\u05d9\u05dd": 5834,
  "\u258148": 5835,
  "\u2581mo": 5836,
  "\u2581tongue": 5837,
  "\u2581\u05d9\u05de\u05d5\u05ea": 5838,
  "\u2581vision": 5839,
  "\u2581watched": 5840,
  "\u05e0\u05d8\u05d9": 5841,
  "\u2581spell": 5842,
  "\u2581\u05d5\u05de\u05ea": 5843,
  "\u2581reached": 5844,
  "\u2581\u05e9\u05ea\u05e2\u05e9\u05d4": 5845,
  "\u2581sisters": 5846,
  "\u2581\u05e9\u05d7\u05e8\u05e8": 5847,
  "\u2581\u05e7\u05e8\u05df": 5848,
  "\u2581campaign": 5849,
  "\u2581anger": 5850,
  "\u2581\u05dc\u05e0\u05d7\u05e9": 5851,
  "\u2581\u05e6\u05d9": 5852,
  "\u2581Ba": 5853,
  "\u2581\u05d2\u05df": 5854,
  "\u2581\u05ea\u05d4\u05d9\u05d5": 5855,
  "\u2581\u05d0\u05de\u05d9\u05ea\u05d9\u05d9\u05dd": 5856,
  "\u2581\u05e2\u05d1\u05e8\u05d4": 5857,
  "\u05d5\u05dc\u05d9\u05d4": 5858,
  "\u05e9\u05d5": 5859,
  "\u2581\u05ea\u05e7\u05d5\u05e2": 5860,
  "\u2581\u05d1\u05d5\u05d3\u05d3": 5861,
  "\u2581picking": 5862,
  "\u2581\u05d9\u05e6\u05d0\u05ea\u05d9": 5863,
  "\u2581noise": 5864,
  "\u2581\u05e7\u05e1\u05dd": 5865,
  "\u2581\u05de\u05e6": 5866,
  "\u05d5\u05d0\u05e0\u05d9": 5867,
  "\u2581\u05d0\u05e0\u05e8\u05d2\u05d9\u05d4": 5868,
  "\u2581laughing": 5869,
  "ious": 5870,
  "\u2581\u05d8\u05dc": 5871,
  "\u05d5\u05d3": 5872,
  "\u2581violence": 5873,
  "\u2581\u05de\u05d5\u05e4\u05ea\u05e2": 5874,
  "\u2581specific": 5875,
  "\u2581wash": 5876,
  "\u2581babe": 5877,
  "\u2581LORD": 5878,
  "\u2581\u05d1\u05d0\u05d7\u05d3": 5879,
  "\u2581\u05d1\u05d7\u05e0\u05d5\u05ea": 5880,
  "Why": 5881,
  "\u2581Hope": 5882,
  "\u2581anti": 5883,
  "\u2581\u05dc\u05d7\u05dc\u05d5\u05e7": 5884,
  "Do": 5885,
  "\u2581crowd": 5886,
  "\u2581\u05d0\u05e0": 5887,
  "\u2581confused": 5888,
  "\u2581current": 5889,
  "\u2581mountain": 5890,
  "\u2581bike": 5891,
  "\u2581breathing": 5892,
  "\u2581\u05e9\u05e8\u05e6\u05d9\u05ea\u05d9": 5893,
  "\u2581Close": 5894,
  "\u2581capable": 5895,
  "\u2581\u05dc\u05d4\u05e1\u05ea\u05d5\u05d1\u05d1": 5896,
  "\u2581higher": 5897,
  "\u2581\u05d7\u05e1\u05e8\u05ea": 5898,
  "\u2581\u05d1\u05e9\u05d1\u05d9\u05dc\u05e0\u05d5": 5899,
  "\u2581\u05e0\u05d9\u05e1\u05d9\u05ea": 5900,
  "\u2581\u05d5\u05d9\u05d5\u05ea\u05e8": 5901,
  "gra": 5902,
  "\u2581\u05de\u05d8\u05d5\u05e1": 5903,
  "back": 5904,
  "\u05e7\u05df": 5905,
  "\u2581\u05d1\u05d4\u05ea\u05d7\u05e9\u05d1": 5906,
  "\u05dc\u05d0\u05df": 5907,
  "\u2581indeed": 5908,
  "\u2581\u05de\u05e2\u05e9\u05d9": 5909,
  "\u2581\u05e7\u05e8\u05d0\u05d5": 5910,
  "\u2581\u05ea\u05d1\u05d9\u05df": 5911,
  "\u2581Rome": 5912,
  "\u2581desire": 5913,
  "\u2581official": 5914,
  "This": 5915,
  "\u2581dies": 5916,
  "\u2581hidden": 5917,
  "\u2581airport": 5918,
  "\u2581usual": 5919,
  "\u2581\u05d4\u05e7\u05dc": 5920,
  "\u2581\u05e0\u05d7\u05e9\u05d1": 5921,
  "\u2581stood": 5922,
  "\u2581\u05d1\u05e2\u05ea": 5923,
  "\u2581\u05d4\u05e2": 5924,
  "\u2581\u05e0\u05d6\u05e7": 5925,
  "\u2581\u05de\u05d1\u05d5\u05d2\u05e8": 5926,
  "ug": 5927,
  "\u2581\u05d0\u05e0\u05d3\u05e8\u05d5": 5928,
  "\u2581\u05e9\u05db\u05d7": 5929,
  "\u2581\u05dc\u05d9\u05d4\u05d5\u05d4": 5930,
  "\u2581Stan": 5931,
  "\u2581Jewish": 5932,
  "\u2581goodbye": 5933,
  "\u2581woods": 5934,
  "\u2581\u05e7\u05d9\u05d5\u05d5\u05d9\u05ea\u05d9": 5935,
  "\u2581memories": 5936,
  "\u05d8\u05d5\u05dd": 5937,
  "\u05e8\u05e6": 5938,
  "\u2581\u05de\u05d5\u05e9\u05dc\u05de\u05ea": 5939,
  "\u2581\u05de\u05e9\u05d8\u05e8\u05ea": 5940,
  "\u2581\u05d4\u05d0\u05d6\u05d5\u05e8": 5941,
  "\u2581\u05dc\u05d3\u05e8\u05da": 5942,
  "\u2581Such": 5943,
  "\u2581\u05de\u05e8\u05d2\u05e9": 5944,
  "\u2581University": 5945,
  "\u05d5\u05e4\u05d9\u05dd": 5946,
  "\u2581style": 5947,
  "\u2581Nathan": 5948,
  "\u2581v": 5949,
  "\u2581\u05ea\u05d7\u05d5\u05e9\u05d4": 5950,
  "\u25811:": 5951,
  "\u2581eggs": 5952,
  "\u2581\u05d1\u05de\u05dc\u05d5\u05df": 5953,
  "\u2581\u05ea\u05e8\u05d5\u05e4\u05d5\u05ea": 5954,
  "80": 5955,
  "\u2581planned": 5956,
  "ight": 5957,
  "\u2581Europe": 5958,
  "\u2581pizza": 5959,
  "\u2581\u05dc\u05d4\u05e4\u05e2\u05d9\u05dc": 5960,
  "\u2581drinks": 5961,
  "uck": 5962,
  "\u2581\u05d7\u05e1\u05e8\u05d9": 5963,
  "\u2581Thought": 5964,
  "***": 5965,
  "\u2581toilet": 5966,
  "\u2581\u05d6\u05db\u05d5\u05e8": 5967,
  "\u2581\u05d0\u05e0\u05e0\u05d9": 5968,
  "\u2581\u05e8\u05d5\u05de\u05df": 5969,
  "\u2581square": 5970,
  "\u2581\u05d3\u05d5\u05e4\u05e7": 5971,
  "\u2581Ko": 5972,
  "\u2581\u05e0\u05e4\u05d8\u05e8": 5973,
  "\u2581\u05d4\u05d2\u05e8\u05d5\u05e2": 5974,
  "\u2581exciting": 5975,
  "\u2581\u05d4\u05dc\u05db\u05d5": 5976,
  "\u05d8\u05e2": 5977,
  "\u05d9\u05db\u05dd": 5978,
  "\u05e1\u05d9\u05e7\u05d4": 5979,
  "\u2581flesh": 5980,
  "\u2581\u05d4\u05d4\u05d7\u05dc\u05d8\u05d4": 5981,
  "\u2581jacket": 5982,
  "ick": 5983,
  "\u2581California": 5984,
  "\u2581\u05de\u05dc\u05d7\u05de\u05ea": 5985,
  "\u2581trees": 5986,
  "\u05e8\u05d5\u05e6\u05d4": 5987,
  "\u2581\u05e9\u05d9\u05d4\u05d9\u05d5": 5988,
  "\u2581Far": 5989,
  "\u2581Na": 5990,
  "\u2581\u05d4\u05de\u05dc\u05db\u05d4": 5991,
  "\u2581Mexico": 5992,
  "\u2581shake": 5993,
  "\u2581Jerusalem": 5994,
  "\u2581Name": 5995,
  "\u2581downstairs": 5996,
  "\u2581\u05d4\u05d9\u05e4\u05d4": 5997,
  "\u2581\u05de\u05e0\u05d9": 5998,
  "pos": 5999,
  "LL": 6000,
  "\u2581\u05d3\u05d9\u05e8\u05d4": 6001,
  "\u2581\u05e9\u05d9\u05e2\u05d5\u05e8\u05d9": 6002,
  "\u25815,": 6003,
  "\u2581nurse": 6004,
  "\u2581Major": 6005,
  "\u2581\u05d6\u05d1\u05dc": 6006,
  "\u2581solution": 6007,
  "\u2581coach": 6008,
  "\u2581version": 6009,
  "\u2581screen": 6010,
  "\u2581\u05de\u05d5\u05e1": 6011,
  "\u2581Gary": 6012,
  "\u2581\u05d4\u05de\u05e8": 6013,
  "\u2581\u05e6\u05d3\u05e7\u05ea": 6014,
  "\u2581\u05e2\u05d9\u05d9\u05e3": 6015,
  "\u05d9\u05de\u05d5\u05df": 6016,
  "\u2581false": 6017,
  "\u2581proper": 6018,
  "\u2581Tonight": 6019,
  "\u05e4\u05d5\u05e8\u05d3": 6020,
  "mi": 6021,
  "ON": 6022,
  "\u2581\u05d7\u05e0\u05d5\u05ea": 6023,
  "her": 6024,
  "\u2581\u05db\u05e4\u05d9\u05d9\u05dd": 6025,
  "\u2581\u05e9\u05e0\u05e9\u05d0\u05e8": 6026,
  "\u2581introduce": 6027,
  "\u2581pig": 6028,
  "\u2581fought": 6029,
  "\u2581circumstances": 6030,
  "\u2581jerk": 6031,
  "\u2581learning": 6032,
  "\u2581\u05d7\u05e9\u05d1\u05e0\u05d5": 6033,
  "\u2581brilliant": 6034,
  "\u2581tickets": 6035,
  "\u2581ON": 6036,
  "\u2581\u05e0\u05e4\u05d2\u05e2": 6037,
  "\u2581ruined": 6038,
  "\u2581\u05d5\u05db\u05de\u05d4": 6039,
  "\u2581\u05e2\u05ea": 6040,
  "\u2581\u05d4\u05e9\u05d7\u05d5\u05e8": 6041,
  "ap": 6042,
  "\u2581\u05d5\u05d4\u05db\u05dc": 6043,
  "\u2581Van": 6044,
  "\u2581\u05d0\u05de\u05da": 6045,
  "\u2581journey": 6046,
  "\u05d0\u05d1": 6047,
  "\u2581\u05db\u05de\u05d5\u05ea": 6048,
  "\u2581\u05e9\u05e0\u05d9\u05ea\u05df": 6049,
  "\u05e0\u05e8\u05d0\u05d4": 6050,
  "\u05db\u05e0\u05d5\u05ea": 6051,
  "\u2581\u05d1\u05e6": 6052,
  "\u2581network": 6053,
  "\u2581\u05dc\u05d1\u05e1\u05d5\u05e3": 6054,
  "\u2581\u05de\u05db\u05d5\u05e0\u05d9\u05d5\u05ea": 6055,
  "\u2581coat": 6056,
  "\u2581\u05de\u05d0\u05e8\u05d9": 6057,
  "\u2581Alan": 6058,
  "\u2581\u05d0\u05e8\u05ea\u05d5\u05e8": 6059,
  "\u2581\u05e9\u05d9\u05e2\u05d5\u05e8": 6060,
  "\u2581\u05d0\u05d1\u05d8\u05d7\u05d4": 6061,
  "\u2581\u05d3\u05d5\u05d3\u05d4": 6062,
  "\u2581thee": 6063,
  "\u05dc\u05d9\u05e0\u05d2": 6064,
  "\u2581\u05e8\u05e9\u05ea": 6065,
  "\u2581fail": 6066,
  "\u2581\u05d1\u05d7\u05d9\u05e8\u05d4": 6067,
  "\u2581\u05de\u05e4\u05dc\u05e6\u05ea": 6068,
  "\u2581sexy": 6069,
  "\u2581\u05dc\u05d5\u05e1\u05d9": 6070,
  "\u2581singing": 6071,
  "\u05e1\u05d3\u05e8": 6072,
  "\u2581\u05d4\u05d2\u05d3\u05d5\u05dc\u05d9\u05dd": 6073,
  "\u2581edge": 6074,
  "\u2581\u05de\u05e1\u05d5\u05d2\u05dc\u05d9\u05dd": 6075,
  "\u2581moves": 6076,
  "\u2581similar": 6077,
  "\u2581\u05e1\u05d8\u05e8": 6078,
  "\u2581\u05ea\u05e2\u05e9\u05d5": 6079,
  "\u2581kicked": 6080,
  "\u2581yo": 6081,
  "\u2581\u05dc\u05d1\u05e8\u05e8": 6082,
  "\u2581National": 6083,
  "\u2581\u05d4\u05de\u05d7\u05d9\u05e8": 6084,
  "\u2581\u05de\u05d5\u05e6\u05d0\u05d9\u05dd": 6085,
  "\u2581\u266b": 6086,
  "\u2581\u05d7\u05d5\u05e9": 6087,
  "\u2581vacation": 6088,
  "side": 6089,
  "\u2581DO": 6090,
  "\u2581\u05d4\u05d9\u05d7\u05d9\u05d3\u05d9": 6091,
  "\u2581\u05dc\u05d7\u05ea\u05d5\u05da": 6092,
  "\u2581lift": 6093,
  "ik": 6094,
  "\u2581Ra": 6095,
  "\u2581\u05d7\u05d9\u05dc": 6096,
  "\u2581Tu": 6097,
  "\u2581\u05dc\u05e7\u05d5\u05dd": 6098,
  "\u2581\u05d4\u05e9\u05e2\u05d5\u05df": 6099,
  "\u05e8\u05ea\u05d9": 6100,
  "\u2581\u05d5\u05d4\u05ea": 6101,
  "\u2581healthy": 6102,
  "\u2581appears": 6103,
  "\u00fc": 6104,
  "\u2581Sweet": 6105,
  "\u2581\u05d4\u05de\u05d0\u05d4": 6106,
  "\u2581\u05dc\u05e1\u05e4\u05e7": 6107,
  "\u2581\u05e7\u05d5\u05e0": 6108,
  "\u2581Perfect": 6109,
  "\u2581millions": 6110,
  "\u2581shift": 6111,
  "\u2581\u05de\u05e7\u05e1\u05d9\u05dd": 6112,
  "\u05ea\u05e0\u05d5": 6113,
  "\u2581\u05e8\u05e5": 6114,
  "\u2581\u05d4\u05e2\u05d3": 6115,
  "\u2581Sheriff": 6116,
  "\u2581traffic": 6117,
  "ny": 6118,
  "\u2581secure": 6119,
  "\u2581\u05e9\u05de\u05e2\u05d5\u05dc\u05dd": 6120,
  "\u05db\u05dc\u05d5\u05dd": 6121,
  "let": 6122,
  "\u2581cast": 6123,
  "\u2581\u05d4\u05d4\u05d9\u05e1\u05d8\u05d5\u05e8\u05d9\u05d4": 6124,
  "\u2581option": 6125,
  "ls": 6126,
  "\u2581\u05e1\u05e4\u05e8\u05d9\u05dd": 6127,
  "\u2581\u05e4\u05d0\u05e8": 6128,
  "\u2581enter": 6129,
  "\u2581parking": 6130,
  "\u2581\u05de\u05d9\u05d3\u05d4": 6131,
  "\u2581forth": 6132,
  "\u2581Believe": 6133,
  "\u2581potential": 6134,
  "\u2581\u05db\u05e0\u05d4": 6135,
  "\u2581drove": 6136,
  "\u2581society": 6137,
  "\u05d0\u05d2": 6138,
  "\u2581connected": 6139,
  "\u2581Leo": 6140,
  "\u2581\u05d4\u05d4\u05d2\u05e0\u05d4": 6141,
  "\u2581\u05de\u05d2\u05d9": 6142,
  "\u2581\u05dc\u05d1\u05e0\u05d9": 6143,
  "ru": 6144,
  "\u2581\u05d2\u05d1\u05d9": 6145,
  "\u2581\u05d4\u05d4\u05d5\u05d3\u05e2\u05d4": 6146,
  "\u2581\u05de\u05e7\u05d5": 6147,
  "\u2581\u05e0\u05e1\u05d2\u05e8": 6148,
  "\u2581\u05e9\u05d3\u05d4": 6149,
  "\u2581\u05d5\u05d0\u05d9": 6150,
  "\u05d5\u05bc": 6151,
  "\u2581changing": 6152,
  "\u2581\u05d2\u05e9\u05dd": 6153,
  "\u2581pot": 6154,
  "\u2581\u05d5\u05db\u05df": 6155,
  "\u2581weather": 6156,
  "\u2581\u05e9\u05ea\u05ea": 6157,
  "car": 6158,
  "\u05dc\u05d4\u05d9\u05d5\u05ea": 6159,
  "\u2581signs": 6160,
  "\u2581reports": 6161,
  "can": 6162,
  "ens": 6163,
  "\u2581\u05d3\u05dc": 6164,
  "\u2581\u05d0\u05dc\u05d9\u05e1\u05d5\u05df": 6165,
  "eth": 6166,
  "\u2581effort": 6167,
  "\u2581\u05dc\u05e7\u05e8\u05d0\u05ea": 6168,
  "\u2581\u05de\u05e8\u05db\u05d6": 6169,
  "\u05db\u05d3\u05d9": 6170,
  "\u2581sooner": 6171,
  "\u05e0\u05d3\u05d9": 6172,
  "\u2581\u05de\u05e1\u05e2": 6173,
  "\u2581fate": 6174,
  "\u2581Barry": 6175,
  "\u05e7\u05e8\u05d0": 6176,
  "\u2581spoken": 6177,
  "\u2581\u05e9\u05de\u05d0\u05dc": 6178,
  "\u2581\u05d0\u05d9\u05ea\u05db\u05dd": 6179,
  "\u05db\u05e0\u05d5": 6180,
  "\u2581\u05d4\u05d9\u05e7\u05e8": 6181,
  "\u2581\u05dc\u05d7\u05d2\u05d5\u05d2": 6182,
  "\u2581tests": 6183,
  "\u2581\u05de\u05e4\u05e8\u05d9\u05e2": 6184,
  "\u05de\u05e4": 6185,
  "\u05e4\u05e8\u05d3": 6186,
  "\u2581mail": 6187,
  "\u2581\u05d0\u05e6\u05d1\u05e2\u05d5\u05ea": 6188,
  "\u2581\u05e9\u05dc\u05e2\u05d5\u05dc\u05dd": 6189,
  "\u2581\u05d9\u05e9\u05d9\u05e8\u05d5\u05ea": 6190,
  "\u2581plate": 6191,
  "\u05d1\u05d0\u05e0\u05d2\u05dc\u05d9\u05ea": 6192,
  "\u2581advantage": 6193,
  "\u2581literally": 6194,
  "\u2581\u05ea\u05d4\u05d9\u05ea\u05d9": 6195,
  "\u2581Use": 6196,
  "\u2581wipe": 6197,
  "\u2581Lily": 6198,
  "\u2581\u05d4\u05e0\u05db\u05d5\u05e0\u05d4": 6199,
  "\u2581\u05d0\u05d9\u05d1\u05d3": 6200,
  "\u2581\u05d3\u05e2\u05ea\u05d9": 6201,
  "\u2581organization": 6202,
  "\u05e7\u05e8\u05d1": 6203,
  "\u05d5\u05e0\u05e1\u05d5\u05df": 6204,
  "\u2581\u05e0\u05e2\u05dc\u05de\u05d4": 6205,
  "\u2581Da": 6206,
  "\u2581\u05d4\u05e9\u05dc\u05d9\u05d7": 6207,
  "\u2581\u05de\u05e9\u05d4": 6208,
  "\u05d9\u05db\u05d5\u05dc": 6209,
  "\u2581checking": 6210,
  "\u2581\u05dc\u05d4\u05e4\u05e8\u05d9\u05e2": 6211,
  "\u2581Morgan": 6212,
  "vo": 6213,
  "\u2581\u05d7\u05ea\u05d5\u05dc": 6214,
  "like": 6215,
  "\u2581\u05d4\u05e6\u05e2\u05d4": 6216,
  "\u2581Anybody": 6217,
  "\u2581\u05d7\u05db\u05de\u05d4": 6218,
  "\u2581\u05d4\u05e4\u05dc": 6219,
  "\u2581directly": 6220,
  "\u2581\u05d4\u05d1\u05dc": 6221,
  "\u2581cameras": 6222,
  "\u05d9\u05d5\u05ea\u05e8": 6223,
  "\u2581\u05e7\u05d8\u05e2": 6224,
  "\u2581\u05d1\u05d0\u05e8\u05d9": 6225,
  "\u05de\u05d3": 6226,
  "\u05d7\u05e9\u05d1\u05ea\u05d9": 6227,
  "\u2581\u05d4\u05d6\u05d9\u05df": 6228,
  "\u2581\u05d1\u05e8\u05d9\u05d0": 6229,
  "\u2581\u05dc\u05d4\u05d0\u05e9\u05d9\u05dd": 6230,
  "\u2581\u05e2\u05d3\u05d9\u05df": 6231,
  "\u2581ye": 6232,
  "\u05d0\u05e8\u05dc\u05e1": 6233,
  "\u2581negative": 6234,
  "\u2581\u05de\u05dc\u05d7": 6235,
  "\u05d9\u05ea\u05d9": 6236,
  "\u2581happiness": 6237,
  "\u2581\u05e0\u05e7\u05d5\u05d3\u05ea": 6238,
  "\u2581\u05e2\u05d5\u05d1\u05e8\u05d9\u05dd": 6239,
  "EN": 6240,
  "\u2581\u05d0\u05e7\u05d1\u05dc": 6241,
  "\u2581\u05dc\u05d1\u05d8\u05dc": 6242,
  "\u2581\u05de\u05d5\u05e4\u05d9\u05e2": 6243,
  "\u2581\u05de\u05e4\u05d7\u05d3\u05ea": 6244,
  "\u2581\u05e7\u05d0\u05e8\u05dc": 6245,
  "\u2581events": 6246,
  "\u2581\u05e2\u05d5\u05d6\u05d1\u05ea": 6247,
  "\u2581\u05e0\u05e0\u05e1\u05d4": 6248,
  "\u2581\u05d1\u05d3\u05dd": 6249,
  "\u2581\u05d4\u05e7\u05e8": 6250,
  "\u2581\u05e1\u05e8\u05d8\u05df": 6251,
  "\u2581Jesse": 6252,
  "\u2581scary": 6253,
  "\u05d5\u05e2": 6254,
  "\u05e6\u05d7\u05e7": 6255,
  "\u2581\u05e9\u05e9\u05de\u05e2\u05ea\u05d9": 6256,
  "\u2581receive": 6257,
  "\u2581\u05dc\u05d1\u05db\u05d5\u05ea": 6258,
  "\u05d9\u05d9\u05e1": 6259,
  "sen": 6260,
  "\u2581Especially": 6261,
  "\u2581\u05e8\u05e2\u05d9\u05d5\u05e0\u05d5\u05ea": 6262,
  "\u2581\u05de\u05e1\u05d5\u05d9\u05de\u05ea": 6263,
  "\u2581\u05de\u05e1\u05d5\u05d1\u05da": 6264,
  "\u2581\u05ea\u05d5\u05e6\u05d0\u05d5\u05ea": 6265,
  "\u2581\u05e4\u05dc": 6266,
  "\u2581easily": 6267,
  "\u2581convince": 6268,
  "\u2581\u05e9\u05e2\u05dc": 6269,
  "\u2581\u05d1\u05e9\u05d8\u05d7": 6270,
  "\u2581\u05d2\u05e8\u05d2": 6271,
  "\u2581\u05d4\u05d8\u05d1\u05e2\u05ea": 6272,
  "\u2581\u05dc\u05e0\u05e9\u05e7": 6273,
  "\u2581awake": 6274,
  "\u2581\u05dc\u05d4\u05db\u05d5\u05ea": 6275,
  "\u2581chocolate": 6276,
  "\u2581meal": 6277,
  "\u2581\u05ea\u05d9\u05d2\u05e2": 6278,
  "\u05e0\u05e5": 6279,
  "\u2581religious": 6280,
  "\u2581blew": 6281,
  "\u2581\u05d4\u05ea\u05e0\u05d4\u05d2\u05d5\u05ea": 6282,
  "\u2581\u05d4\u05d6\u05db\u05d5\u05ea": 6283,
  "\u2581\u05d7\u05d5\u05e4\u05e9": 6284,
  "\u05d4\u05d0": 6285,
  "\u2581\u05e1\u05d9\u05d9\u05de\u05e0\u05d5": 6286,
  "\u05db\u05e0\u05ea": 6287,
  "\u2581\u05e7\u05d0\u05dc": 6288,
  "\u2581\u05ea\u05e4\u05e1\u05d9\u05e7\u05d5": 6289,
  "\u2581Tim": 6290,
  "\u2581greater": 6291,
  "\u2581\u05db\u05d0\u05dc\u05d5": 6292,
  "\u2581\u05e2\u05e6\u05dd": 6293,
  "\u2581\u05dc\u05e8\u05db\u05d1": 6294,
  "\u2581\u05e7\u05d8": 6295,
  "ip": 6296,
  "\u2581appear": 6297,
  "\u2581authority": 6298,
  "\u2581US": 6299,
  "\u2581cells": 6300,
  "\u05b8\u05d4": 6301,
  "\u2581route": 6302,
  "\u2581sudden": 6303,
  "\u05d1\u05dc\u05d4": 6304,
  "\u2581\u05d1\u05e2\u05d9\u05e0\u05d9\u05d9\u05dd": 6305,
  "\u2581\u05d4\u05d1\u05e2\u05dc\u05d9\u05dd": 6306,
  "\u2581\u05d9\u05e6\u05d0\u05d5": 6307,
  "\u05e8\u05d2": 6308,
  "\u2581fantastic": 6309,
  "\u2581\u05d4\u05e2\u05dc\u05d9\u05d5\u05df": 6310,
  "\u2581Follow": 6311,
  "\u2581request": 6312,
  "\u2581Jacob": 6313,
  "\u2581\u05de\u05e8\u05e9\u05d9\u05dd": 6314,
  "\u2581spring": 6315,
  "\u2581\u05d4\u05d0\u05e0\u05d5\u05e9\u05d9": 6316,
  "\u2581Internet": 6317,
  "\u2581illegal": 6318,
  "\u2581\u05de\u05e1\u05d1\u05d9\u05e8": 6319,
  "\u2581\u05e7\u05d0\u05e8": 6320,
  "\u2581lonely": 6321,
  "\u2581\u05e0\u05d9\u05dc": 6322,
  "\u05d9\u05e7\u05e1": 6323,
  "\u05d4\u05df": 6324,
  "\u2581\u05d0\u05d5\u05e9\u05e8": 6325,
  "\u2581\u05d4\u05e6\u05e2\u05e8": 6326,
  "\u2581\u05d9\u05d4\u05d5\u05d3\u05d9": 6327,
  "\u2581\u05dc\u05de\u05e9\u05e4\u05d7\u05d4": 6328,
  "\u2581\u05d5\u05d0\u05de\u05e8": 6329,
  "\u2581\u05de\u05e9\u05d0\u05d9\u05e8": 6330,
  "\u2581\u05e9\u05d4\u05e8\u05d2": 6331,
  "\u2581\u05e9\u05d9\u05d8": 6332,
  "\u2581\u05e9\u05dc\u05d4\u05df": 6333,
  "\u2581suffer": 6334,
  "\u2581\u05d1\u05d6\u05db\u05d5\u05ea": 6335,
  "\u2581hunt": 6336,
  "\u2581\u05e0\u05e9\u05dc\u05d7": 6337,
  "\u05e8\u05d0\u05d4": 6338,
  "\u2581THIS": 6339,
  "\u2581term": 6340,
  "\u05d0\u05e0\u05e7": 6341,
  "\u2581\u05e9\u05ea\u05d5": 6342,
  "\u2581lower": 6343,
  "OR": 6344,
  "st": 6345,
  "\u2581mistakes": 6346,
  "\u2581Majesty": 6347,
  "\u2581\u05de\u05d0\u05d5\u05d4\u05d1": 6348,
  "\u2581\u05e0\u05de\u05e9\u05d9\u05da": 6349,
  "\u2581Way": 6350,
  "\u2581\u05d4\u05e1\u05d3\u05e8": 6351,
  "\u2581flat": 6352,
  "\u2581\u05db\u05d3\u05d5\u05e8\u05d9\u05dd": 6353,
  "fi": 6354,
  "\u2581boring": 6355,
  "\u2581\u05e9\u05d0\u05d4\u05d9\u05d4": 6356,
  "\u05e0\u05da": 6357,
  "\u2581convinced": 6358,
  "\u2581\u05e8\u05d2\u05dc\u05d9\u05d9\u05dd": 6359,
  "\u2581\u05e0\u05d9\u05d9\u05d8": 6360,
  "\u2581\u05e2\u05de\u05d3": 6361,
  "\u05e9\u05d5\u05e8": 6362,
  "\u2581\u05d9\u05e9\u05de\u05d5\u05e8": 6363,
  "\u2581Step": 6364,
  "\u05d7\u05d9\u05dd": 6365,
  "\u05d9\u05d5\u05e1": 6366,
  "\u2581steps": 6367,
  "\u2581\u05d3\u05d5\u05d5\u05e7\u05d0": 6368,
  "\u2581\u05d7\u05d9\u05d9\u05d4\u05dd": 6369,
  "q": 6370,
  "\u2581Whoo": 6371,
  "\u05d4\u05db\u05dc": 6372,
  "\u2581worship": 6373,
  "\u2581\u05d0\u05d9\u05ea\u05df": 6374,
  "\u2581\u05d1\u05d4\u05df": 6375,
  "\u2581\u05d4\u05d4\u05e8": 6376,
  "\u2581\u05de\u05e1\u05ea\u05d5\u05d1\u05d1": 6377,
  "AL": 6378,
  "\u2581pulling": 6379,
  "\u2581series": 6380,
  "\u2581\u05d4\u05e7\u05e8\u05e7\u05e2": 6381,
  "\u05d5\u05de\u05d5\u05ea": 6382,
  "\u2581sucks": 6383,
  "\u2581\u05dc\u05d4\u05e2\u05dc\u05d5\u05ea": 6384,
  "\u05e9\u05c1": 6385,
  "\u2581remains": 6386,
  "\u2581lack": 6387,
  "\u2581pills": 6388,
  "\u2581Maggie": 6389,
[...]
