{
  "</s>": 0,
  "<unk>": 1,
  ".": 2,
  ",": 3,
  ">>bul<<": 4,
  "\u2581the": 5,
  "?": 6,
  "'": 7,
  "\u2581\u043d\u0430": 8,
  "s": 9,
  "\u2581\u0434\u0430": 10,
  "\u2581I": 11,
  "\u2581-": 12,
  "\u2581to": 13,
  "\u2581of": 14,
  "\u2581you": 15,
  "\u2581\u0435": 16,
  "\u2581\u0438": 17,
  "\u2581and": 18,
  "\u2581a": 19,
  "\u2581\u0437\u0430": 20,
  "\u2581\u0441\u0435": 21,
  "!": 22,
  "\u2581\u0432": 23,
  "\u2581in": 24,
  "\u2581\u043e\u0442": 25,
  "-": 26,
  "\u2581that": 27,
  "...": 28,
  "\u2581\u043d\u0435": 29,
  "\u2581is": 30,
  "\u2581\u0441": 31,
  "\u2581it": 32,
  "t": 33,
  "\u2581\u0447\u0435": 34,
  "\u2581\u0441\u0438": 35,
  "\u2581for": 36,
  "\u0442\u0435": 37,
  "\u2581": 38,
  "\u2581on": 39,
  "\u2581\u043f\u043e": 40,
  "\u2581(": 41,
  "\u2581\u0449\u0435": 42,
  "\u2581be": 43,
  "\u2581with": 44,
  ")": 45,
  ":": 46,
  "\u2581You": 47,
  "\u2581\u0442\u043e\u0432\u0430": 48,
  "\u2581this": 49,
  "\u0442\u0430": 50,
  "\u2581\u043b\u0438": 51,
  "\u2581me": 52,
  "m": 53,
  "\u2581\u041d\u0435": 54,
  "\u2581have": 55,
  "\u2581are": 56,
  "\u2581not": 57,
  "\u2581was": 58,
  "\u2581your": 59,
  "\u2581The": 60,
  "\u0430": 61,
  "\u2581\u043c\u0438": 62,
  "\u2581we": 63,
  "re": 64,
  "\u2581\"": 65,
  "\u2581\u0442\u0438": 66,
  "\u2581\u0433\u043e": 67,
  "\u2581\u0441\u0430": 68,
  "\u0442\u043e": 69,
  "\u2581It": 70,
  "\u0438": 71,
  "\u2581my": 72,
  "\u2581do": 73,
  "\u0442": 74,
  "\u2581as": 75,
  "\u2581What": 76,
  "\u2581know": 77,
  "\u2581can": 78,
  "\u2581\u043a\u0430\u0442\u043e": 79,
  "\u2581\u0441\u044a\u043c": 80,
  "\u2581he": 81,
  "\u2581or": 82,
  "\u2581all": 83,
  "\u2581No": 84,
  "\u2581what": 85,
  "\u2581\u0414\u0430": 86,
  "\u2581from": 87,
  "\u2581at": 88,
  "\u2581by": 89,
  "\u043c": 90,
  "\u2581\u0438\u043b\u0438": 91,
  "\u2581out": 92,
  "\u2581We": 93,
  "\u2581\u0422\u043e\u0432\u0430": 94,
  "\u2581\u0418": 95,
  "ll": 96,
  "\u2581will": 97,
  "\u2581And": 98,
  "\u2581\u0442\u0435": 99,
  "\u2581just": 100,
  "\u2581like": 101,
  "\u2581\u041a\u0430\u043a\u0432\u043e": 102,
  "\u2581here": 103,
  "\u2581about": 104,
  "\u2581don": 105,
  "\u2581up": 106,
  "d": 107,
  "\u2581\u0442\u0440\u044f\u0431\u0432\u0430": 108,
  "\u2581an": 109,
  "\u0448": 110,
  "\u043d\u0438": 111,
  "\u2581one": 112,
  ";": 113,
  "\u2581\u0429\u0435": 114,
  "\u2581\u0433": 115,
  "\u2581they": 116,
  "\u2581there": 117,
  "\u2581get": 118,
  "\u2581right": 119,
  "\u2581He": 120,
  "\u2581\u043c\u0435": 121,
  "\u2581\u043a\u043e\u0438\u0442\u043e": 122,
  "\u2581\u0434\u043e": 123,
  "\u043d\u0430": 124,
  "\u2581but": 125,
  "\u2581him": 126,
  "\u2581\u043d\u043e": 127,
  "\u2581so": 128,
  "\u044f": 129,
  "\u043d": 130,
  "\u2581\u0432\u0438": 131,
  "\u2581her": 132,
  "\u043b": 133,
  "\u2581go": 134,
  "ing": 135,
  "\u2581That": 136,
  "ve": 137,
  "\u2581no": 138,
  "\u2581his": 139,
  "\u2581if": 140,
  "\u2581\u043a\u0430\u043a\u0432\u043e": 141,
  "\u2581\u043c\u0443": 142,
  "\u043e": 143,
  "/": 144,
  "\u2581\u043f\u0440\u0438": 145,
  "\u2581\u0442\u0443\u043a": 146,
  "\u2581\u043c\u043d\u043e\u0433\u043e": 147,
  "\u2581want": 148,
  "\u2581A": 149,
  "\u2581think": 150,
  "\u2581\u043c\u043e\u0436\u0435": 151,
  "\u2581\u0430": 152,
  "\u2581\u043a\u043e\u0435\u0442\u043e": 153,
  "\u2581got": 154,
  "\u2581\u0412": 155,
  "\u2581This": 156,
  "\u2581has": 157,
  "\u2581time": 158,
  "\u2581\u043d\u0438": 159,
  "\u2581\u0438\u043c\u0430": 160,
  "\u043b\u0438": 161,
  "\u2581been": 162,
  "\u2581were": 163,
  "\u043d\u0435": 164,
  "\u2581\u0414\u043e\u0431\u0440\u0435": 165,
  "\u2581\u0442\u0430\u043a\u0430": 166,
  "\u2581them": 167,
  "\u2581\u043a\u044a\u043c": 168,
  "\u2581\u0431\u0435\u0448\u0435": 169,
  "ed": 170,
  "\u2581Yeah": 171,
  "\u043d\u043e": 172,
  "\u2581But": 173,
  "\u2581Oh": 174,
  "\u2581\u041d\u043e": 175,
  "\u2581who": 176,
  "\u2581\u0417\u0430": 177,
  "\u2581she": 178,
  "\u2581\u043d\u0435\u0449\u043e": 179,
  "\u2581\u0430\u0437": 180,
  "\u2581now": 181,
  "\u2581\u043d\u044f\u043c\u0430": 182,
  "\u044a\u0442": 183,
  "\u2581which": 184,
  "\u2581So": 185,
  "\u2581\u0430\u043a\u043e": 186,
  "\u2581more": 187,
  "\u0445": 188,
  "\u2581\u044f": 189,
  "\u2581\u0410": 190,
  "\u2581see": 191,
  "\u2581would": 192,
  "\u2581our": 193,
  "a": 194,
  "\u2581us": 195,
  "\u2581should": 196,
  "\u2581shall": 197,
  "\u2581had": 198,
  "\u2581going": 199,
  "\u2581\u043a\u043e\u0439\u0442\u043e": 200,
  "\u2581when": 201,
  "\u043c\u0435": 202,
  "\u2581Well": 203,
  "\u0435\u043d": 204,
  "\u2581\u0410\u0437": 205,
  "\u2581back": 206,
  "\u2581did": 207,
  "\"": 208,
  "\u2581\u0442\u043e\u0437\u0438": 209,
  "\u2581need": 210,
  "\u2581In": 211,
  "\u2581their": 212,
  "\u2581\u0432\u0441\u0438\u0447\u043a\u0438": 213,
  "\u2581gonna": 214,
  "\u2581\u043d\u0430\u0439": 215,
  "\u043b\u0430": 216,
  "\u2581other": 217,
  "\u2581\u0442\u0430\u0437\u0438": 218,
  "\u2581good": 219,
  "\u2581\u0441\u0430\u043c\u043e": 220,
  "\u2581\u043a\u043e\u0433\u0430\u0442\u043e": 221,
  "\u2581\u0410\u043a\u043e": 222,
  "\u25811": 223,
  "\u2581\u0431\u044a\u0434\u0435": 224,
  "\u2581\u0421": 225,
  "\u2581some": 226,
  "\u2581\u0433\u0438": 227,
  "\u2581\u043c\u0435\u043d": 228,
  "\u2581\u0442\u0435\u0437\u0438": 229,
  "\u2581take": 230,
  "\u2581\u0432\u0440\u0435\u043c\u0435": 231,
  "\u2581\u0435\u0434\u0438\u043d": 232,
  "\u25812": 233,
  "\u2581\u0441\u043b\u0435\u0434": 234,
  "\u2581\u0442\u043e\u0439": 235,
  "\u2581\u0442\u0435\u0431": 236,
  "\u2581They": 237,
  "\u2581If": 238,
  "\u2581\u0422\u043e\u0439": 239,
  "\u2581How": 240,
  "\u2581\u043e\u0449\u0435": 241,
  "e": 242,
  "\u2581She": 243,
  "\u2581\u041f\u043e": 244,
  "\u2581any": 245,
  "\u2581how": 246,
  "\u2581down": 247,
  "\u2581into": 248,
  "\u2581people": 249,
  "\u2581way": 250,
  "\u2581over": 251,
  "\u2581come": 252,
  "\u25813": 253,
  "\u2581\u043f\u0440\u0435\u0437": 254,
  "\u2581\u0422\u0440\u044f\u0431\u0432\u0430": 255,
  "\u2581than": 256,
  "\u2581could": 257,
  "\u0438\u0442\u0435": 258,
  "\u2581only": 259,
  "\u2581\u201e": 260,
  "\u2581\u0432\u0441\u0438\u0447\u043a\u043e": 261,
  "\u2581\u0441\u0442\u0435": 262,
  "\u2581\u0441\u043c\u0435": 263,
  "\u2581man": 264,
  "y": 265,
  "\u2581\u043a\u043e\u044f\u0442\u043e": 266,
  "\u2581make": 267,
  "\u2581\u041e": 268,
  "\u2581\u0441\u044a\u0441": 269,
  "\u2581say": 270,
  "\u2581\u041d\u044f\u043c\u0430": 271,
  "\u2581\u0422\u0438": 272,
  "\u2581\u041d\u0430": 273,
  "\u2019": 274,
  "\u2581There": 275,
  "\u2581\u0417\u0430\u0449\u043e": 276,
  "\u2581European": 277,
  "\u2581said": 278,
  "\u0441": 279,
  "\u2581Yes": 280,
  "\u0445\u0430": 281,
  "\u2581where": 282,
  "\u2581Hey": 283,
  "\u2581something": 284,
  "\u2581Why": 285,
  "\u044f\u0442": 286,
  "\u2581Okay": 287,
  "\u2581really": 288,
  "\u2581then": 289,
  "\u25815": 290,
  "\u2581\u043f\u043e\u0432\u0435\u0447\u0435": 291,
  "\u2581Regulation": 292,
  "\u2581All": 293,
  "\u2581\u2013": 294,
  "\u2581L": 295,
  "\u2581didn": 296,
  "er": 297,
  "\u2581\u043a\u0430\u043a\u0442\u043e": 298,
  "\u2581two": 299,
  "\u2581these": 300,
  "\u2581\u043f\u0440\u0435\u0434\u0438": 301,
  "\u2581too": 302,
  "\u2581Come": 303,
  "\u2581very": 304,
  ".\"": 305,
  "\u2581its": 306,
  "\u2581\u2014": 307,
  "\u2581\u0432\u044a\u0432": 308,
  "\u2581\u0431\u0438": 309,
  "\u2581\u0441\u0435\u0433\u0430": 310,
  "\u2581first": 311,
  "\u2581\u0447\u043b\u0435\u043d": 312,
  "\u2581tell": 313,
  "\u0439": 314,
  "\u2581\u043c\u043e\u0433\u0430": 315,
  "\u2581may": 316,
  "\u2581\u0431\u0435\u0437": 317,
  "\u2581\u0434\u043e\u0431\u0440\u0435": 318,
  "\u2581\u041a\u0430\u043a": 319,
  "\u2581\u043a\u0430\u043a": 320,
  "),": 321,
  "\u2581Article": 322,
  "\u2581those": 323,
  "\u2581mean": 324,
  "\u2581[": 325,
  "\u2581little": 326,
  "\u2581\u043d\u0435\u0433\u043e": 327,
  "\u2581work": 328,
  "\u2581\u0438\u043c": 329,
  "\u0435": 330,
  "\u2581off": 331,
  "\u2581\u043f\u043e\u0434": 332,
  "\u2581God": 333,
  "\u2581day": 334,
  "ly": 335,
  "\u2581Do": 336,
  "\u2581\u0442\u043e\u043b\u043a\u043e\u0432\u0430": 337,
  "\u2581\u0435\u0434\u043d\u0430": 338,
  "\u2581also": 339,
  "\u2581never": 340,
  "\u2581...": 341,
  "S": 342,
  "\u043a\u0430": 343,
  "\u258110": 344,
  "\u2581am": 345,
  "\u2581because": 346,
  "\u2581\u043c\u0430\u043b\u043a\u043e": 347,
  "\u2581'": 348,
  "\u2581Let": 349,
  "\u2581Commission": 350,
  "\u2581doing": 351,
  "\u2581\u0442\u0430\u043c": 352,
  "\u2581\u0441\u044a\u0449\u043e": 353,
  "\u2581well": 354,
  "\u2581let": 355,
  "\u2581\u201c": 356,
  "\u043d\u0430\u0442\u0430": 357,
  "\u2581after": 358,
  "\u2581much": 359,
  "\u2581before": 360,
  "\".": 361,
  "\u2581even": 362,
  "\u2581\u0442\u044f": 363,
  "\u2581look": 364,
  "\u2581must": 365,
  "\u2581My": 366,
  "\u2581thing": 367,
  "in": 368,
  "\u2581\u0415": 369,
  "\u2581love": 370,
  "\u2581new": 371,
  "\u2581\u0422\u0430\u043a\u0430": 372,
  "\u2581\u0411\u043b\u0430\u0433\u043e\u0434\u0430\u0440\u044f": 373,
  "\u2581life": 374,
  "\u2581\u0437\u0430\u0449\u043e\u0442\u043e": 375,
  "\u2581\u0434\u0435\u043d": 376,
  "\u2581\u041a\u043e\u043c\u0438\u0441\u0438\u044f\u0442\u0430": 377,
  "\u2581years": 378,
  "\u043d\u0438\u0442\u0435": 379,
  "\u2581find": 380,
  "\u2581\u043d\u0430\u043b\u0438": 381,
  "o": 382,
  "\u25814": 383,
  "\u2581\u041e\u0442": 384,
  "\u2581why": 385,
  "\u2581\u0433\u043e\u0434\u0438\u043d\u0438": 386,
  "]": 387,
  "\u2581\u0422\u044f": 388,
  "\u2581use": 389,
  "\u2581made": 390,
  "\u2581Now": 391,
  "\u2581Don": 392,
  "\u2581Where": 393,
  "I": 394,
  "\u2581\u0445\u043e\u0440\u0430": 395,
  "\u043b\u043e": 396,
  "\u2581S": 397,
  "\u2581C": 398,
  "\u2581\u0434\u0440\u0443\u0433\u0438": 399,
  "\u2581still": 400,
  "\u2581\u043d\u0438\u0449\u043e": 401,
  "\u2581\u043a\u0430\u0437\u0430": 402,
  "\u2581Union": 403,
  "\u2581\u0439": 404,
  "\u2581\u0440\u0430\u0431\u043e\u0442\u0430": 405,
  "\u2581\u043f\u0440\u043e\u0441\u0442\u043e": 406,
  "\u2581\u0438\u0441\u043a\u0430\u043c": 407,
  "\u0448\u0435": 408,
  "\u2581\u0435\u0434\u043d\u043e": 409,
  "\u2581such": 410,
  "\u043d\u0438\u044f": 411,
  "\u2581For": 412,
  "\u2581\u0442\u044f\u0445": 413,
  "\u258120": 414,
  "\u043a": 415,
  "\u2581help": 416,
  "\u0447\u0435": 417,
  "\u2581give": 418,
  "\u2581Mr": 419,
  "\u2581\u043c\u0435\u0436\u0434\u0443": 420,
  "\u2581\u0432\u0435\u0447\u0435": 421,
  "\u2581\u043f\u044a\u0442": 422,
  "\u2581okay": 423,
  "al": 424,
  "\u2581sorry": 425,
  "\u2581under": 426,
  "\u0440": 427,
  "\u2581\u0431\u044a\u0434\u0430\u0442": 428,
  "\u2581last": 429,
  "\u2581\u0438\u0437": 430,
  "\u0445\u043c\u0435": 431,
  "\u2581\u0441\u0442\u0430\u0432\u0430": 432,
  "\u2581Just": 433,
  "\u2581through": 434,
  "\u2581\u0425\u0430\u0439\u0434\u0435": 435,
  "\u2581long": 436,
  "\u2581used": 437,
  "\u2581does": 438,
  "EC": 439,
  "\u2581place": 440,
  "\u2581Member": 441,
  "\u2581\u0432\u0441\u0435\u043a\u0438": 442,
  "\u2581again": 443,
  "\u2581\u0447\u043e\u0432\u0435\u043a": 444,
  "A": 445,
  "\u2581\u0413": 446,
  "\u2581\u043d\u044f\u043a\u043e\u0439": 447,
  "\u0442\u0438": 448,
  "\u2581\u0432\u044a\u0440\u0445\u0443": 449,
  "\u2581\u043f\u0430\u0440\u0430\u0433\u0440\u0430\u0444": 450,
  "\u2581night": 451,
  "\u2581\u043f\u0440\u0435\u0434\u0432\u0438\u0434": 452,
  "\u2581things": 453,
  "\u2581home": 454,
  "\u2581anything": 455,
  "\u2581\u0420\u0435\u0433\u043b\u0430\u043c\u0435\u043d\u0442": 456,
  "\u2581\u043c\u043e\u0433\u0430\u0442": 457,
  "\u2581\u0421\u0435\u0433\u0430": 458,
  "\u2581Your": 459,
  "\u258115": 460,
  "\u2581sure": 461,
  "\u2581\u043d\u0430\u0441": 462,
  "\u2581\u0447\u0430\u0441\u0442": 463,
  "\u2581Look": 464,
  "\u2581thought": 465,
  "\u2581\u041a\u044a\u0434\u0435": 466,
  "\u2581\u0437\u0430\u0449\u043e": 467,
  "\u2581Who": 468,
  "\u2581Thank": 469,
  "\u2581put": 470,
  "\u25816": 471,
  "\u2581away": 472,
  "\u2581When": 473,
  "\u2581\u0443": 474,
  "\u2581\u043e\u0442\u043d\u043e\u0441\u043d\u043e": 475,
  "\u2581name": 476,
  "\u2581%": 477,
  "\u2581B": 478,
  "\u2581same": 479,
  "\u2581\u0432\u0441\u0435": 480,
  "\u2581\u0422\u0435": 481,
  "\u2581\u0441\u043b\u0435\u0434\u0432\u0430": 482,
  "C": 483,
  "\u2581\u043a\u0430\u0436\u0430": 484,
  "\u2581\u0415\u0432\u0440\u043e\u043f\u0435\u0439\u0441\u043a\u0438\u044f": 485,
  "\u2581information": 486,
  "\u2581being": 487,
  "\u2581\u0431\u0438\u043b": 488,
  "\u2581\u043d\u0435\u044f": 489,
  "\u2581\u043c\u044f\u0441\u0442\u043e": 490,
  "\u2581between": 491,
  "\u0415\u041e": 492,
  "\u0432": 493,
  "\u2581\u043d\u0438\u0435": 494,
  "i": 495,
  "\u2581\u0437\u043d\u0430\u043c": 496,
  "\u2581around": 497,
  "\u2581\u0433\u043e\u0434\u0438\u043d\u0430": 498,
  "\u2581\u0418\u043c\u0430": 499,
  "\u2581better": 500,
  "\u2581world": 501,
  "\u2581Not": 502,
  "\u2581call": 503,
  "\u2581\u0438\u0441\u043a\u0430\u0448": 504,
  "\u2581Council": 505,
  "\u2581told": 506,
  "\u2581great": 507,
  "\u2581\u041a\u043e\u0433\u0430\u0442\u043e": 508,
  "\u2581\u041c\u043e\u0436\u0435": 509,
  "\u201c": 510,
  "\u2581\u043d\u0430\u0447\u0438\u043d": 511,
  "\u2581always": 512,
  "\u2581own": 513,
  "\u2581\u0418\u0441\u043a\u0430\u043c": 514,
  "\u2581\u041f\u0440\u043e\u0441\u0442\u043e": 515,
  "\u2581\u041c\u043d\u043e\u0433\u043e": 516,
  "\u2581\u2018": 517,
  "\u258130": 518,
  "\u2581talk": 519,
  "n": 520,
  "\u2581\u043f\u0440\u0435\u0434": 521,
  "b": 522,
  "\u2581many": 523,
  "--": 524,
  "\u258112": 525,
  "\u25817": 526,
  "\u2581Good": 527,
  "\u2581most": 528,
  "\u2581States": 529,
  "\u2581p": 530,
  "\u2581Get": 531,
  "\u2581\u043d\u044f\u043a\u043e\u043b\u043a\u043e": 532,
  "\u2581guy": 533,
  "\u2581money": 534,
  "\u2581every": 535,
  "\u2581P": 536,
  "\u2581found": 537,
  "es": 538,
  "\u2581won": 539,
  "\u2581\u0438\u043d\u0444\u043e\u0440\u043c\u0430\u0446\u0438\u044f": 540,
  "\u258118": 541,
  "\u2581part": 542,
  "2": 543,
  "\u2581\u0417\u043d\u0430\u043c": 544,
  "\u2581\u043d\u0430\u043f\u0440\u0430\u0432\u0438": 545,
  "\u2581believe": 546,
  "\u2581\u201d": 547,
  "\u2581\u0434\u043e\u043a\u0430\u0442\u043e": 548,
  "\u2581\u0437\u043d\u0430\u0435\u0448": 549,
  "c": 550,
  "\u2581\u0432\u0430\u0441": 551,
  "\u2581keep": 552,
  "\u2581\u0431\u0435": 553,
  "\u2581case": 554,
  "\u2581To": 555,
  "\u25818": 556,
  "\u2581year": 557,
  "\u2581\u0421\u044a\u0436\u0430\u043b\u044f\u0432\u0430\u043c": 558,
  "or": 559,
  "\u2581course": 560,
  "\u2581ever": 561,
  "\u2581!": 562,
  "\u043d\u0435\u0442\u043e": 563,
  "\u2581As": 564,
  "\u2581\u043d\u0435\u0449\u0430": 565,
  "\u0449\u0438": 566,
  "\u2581\u0434\u0430\u043b\u0438": 567,
  "\u2581\u0445\u043e\u0440\u0430\u0442\u0430": 568,
  "\u2581three": 569,
  "\u2581feel": 570,
  "\u2581\u043d\u044f\u043a\u043e\u0438": 571,
  "\u258119": 572,
  "\u2581everything": 573,
  "\u2581\u0441\u0442\u0440\u0430\u043d\u0430": 574,
  "\u0432\u0430": 575,
  "\u2581done": 576,
  "\u0437\u0430": 577,
  "\u2581Are": 578,
  "\u2581\u0421\u043b\u0435\u0434": 579,
  "\u2581\u0415\u0442\u043e": 580,
  "\u2581\u041f\u0440\u0438": 581,
  "\u0434": 582,
  "\u2581\u041a\u043e\u0439": 583,
  "\u2581without": 584,
  "\u0446\u0438": 585,
  "\u2581\u043c\u0438\u0441\u043b\u044f": 586,
  "\u2581\u043f\u0440\u0430\u0432\u0438\u0448": 587,
  "\u2581E": 588,
  "\u2581another": 589,
  "\u2581each": 590,
  "\u2581set": 591,
  "\u2581\u0434\u043e\u0440\u0438": 592,
  "\u2581nothing": 593,
  "\u2581\u0417\u043d\u0430\u0435\u0448": 594,
  "\u2581please": 595,
  "\u0433": 596,
  "\u2581D": 597,
  "r": 598,
  "\u2581kind": 599,
  "\u2581\u0434\u0440\u0443\u0433": 600,
  "\u2581Go": 601,
  "\u043a\u0438": 602,
  "\u2581\u0412\u0441\u0438\u0447\u043a\u043e": 603,
  "\u2581lot": 604,
  "\u2581house": 605,
  "(": 606,
  "\u2581T": 607,
  "\u2581\u266a": 608,
  "\u2581doesn": 609,
  "\u2581\u041c\u0438\u0441\u043b\u044f": 610,
  "\u2581\u041c\u043e\u043b\u044f": 611,
  "\u2581guys": 612,
  "\u2581\u0447\u0440\u0435\u0437": 613,
  "\u2581\u043f\u0440\u0430\u0432\u0438": 614,
  "\u2581best": 615,
  "\u2581\u0441\u044a\u043e\u0442\u0432\u0435\u0442\u0441\u0442\u0432\u0438\u0435": 616,
  "\u2581\u043a\u044a\u0434\u0435": 617,
  "\u2581Then": 618,
  "\u2581point": 619,
  "\u2581following": 620,
  "g": 621,
  "\u2581\u043e\u0442\u043d\u043e\u0448\u0435\u043d\u0438\u0435": 622,
  "\u2581\u043d\u0430\u0438\u0441\u0442\u0438\u043d\u0430": 623,
  "\u2581order": 624,
  "\u2581\u0440\u0430\u0437": 625,
  "\u2581left": 626,
  "\u2581old": 627,
  "\u2581\u0421\u0430\u043c\u043e": 628,
  "\u043f\u043e": 629,
  "\u2581\u0421\u044a\u0432\u0435\u0442\u0430": 630,
  "\u2581\u0442\u043e\u0447\u043d\u043e": 631,
  "\u2581\u043e": 632,
  "\u043a\u043e": 633,
  "\u2581\u041d\u0438\u0435": 634,
  "\u0443": 635,
  "\u2581\u0432\u0438\u0435": 636,
  "\u2581came": 637,
  "EU": 638,
  "\u2581family": 639,
  "\u2581Please": 640,
  "\u043d\u043e\u0442\u043e": 641,
  "\u0415\u0421": 642,
  "\u2581car": 643,
  "\u2581understand": 644,
  "\u2581number": 645,
  "\u2581\u0438\u043c\u0430\u043c": 646,
  "\u258116": 647,
  "\u0421": 648,
  "\u2581O": 649,
  "\u2581days": 650,
  "\u2581\u0410\u043c\u0438": 651,
  "\u0441\u0442": 652,
  "\u2581happened": 653,
  "\u2581coming": 654,
  "\u2581\u0412\u0438\u0435": 655,
  "\u25819": 656,
  "\u2581means": 657,
  "\u2581\u043d\u0430\u043f\u0440\u0430\u0432\u044f": 658,
  "\u2581might": 659,
  "\u2581\u0434\u0430\u043d\u043d\u0438": 660,
  "\u2581wanted": 661,
  "\u2581\u0418\u043c\u0430\u043c": 662,
  "\u2581end": 663,
  "th": 664,
  "\u2581big": 665,
  "B": 666,
  "\u2581\u043f\u0440\u0435": 667,
  "\u2581together": 668,
  "\u2581\u0431\u044f\u0445": 669,
  "\u2581\u0417\u0430\u0449\u043e\u0442\u043e": 670,
  "\u2581\u043f\u0440\u043e\u0434\u0443\u043a\u0442\u0438": 671,
  "\u0449": 672,
  "\u2581\u0441\u044a\u044e\u0437": 673,
  "\u2581i": 674,
  "\u2581EU": 675,
  "\u2581products": 676,
  "\u2581\u0442\u043e\u0433\u0430\u0432\u0430": 677,
  "\u2581both": 678,
  "\u2581Here": 679,
  "\u2581today": 680,
  "\u2581girl": 681,
  "\u2581already": 682,
  "\u0434\u043e\u0431\u0440\u0435": 683,
  "D": 684,
  "\u2581enough": 685,
  "\u2581sir": 686,
  "\u2581\u043d\u0430\u0434": 687,
  "\",": 688,
  "\u2581\u0412\u0441\u0438\u0447\u043a\u0438": 689,
  "\u2581wrong": 690,
  "\u2581bad": 691,
  "\u2581\u0438\u0441\u043a\u0430": 692,
  "\u2581Did": 693,
  "\u2581\u041d\u0430\u0438\u0441\u0442\u0438\u043d\u0430": 694,
  "\u2581someone": 695,
  "\u2581\u043e\u0442\u043d\u043e\u0432\u043e": 696,
  "\u2581leave": 697,
  "\u2581\u0431\u0430\u0449\u0430": 698,
  "\u2581system": 699,
  "\u2581body": 700,
  "\u2581father": 701,
  "\u2581\u0442\u0440\u0438": 702,
  "\u258125": 703,
  "\u2581F": 704,
  "\u2581\u043a\u043e\u043b\u043a\u043e": 705,
  "\u2581\u0436\u0438\u0432\u043e\u0442": 706,
  "\u2581next": 707,
  "\u258117": 708,
  "\u2581\u0431\u044f\u0445\u0430": 709,
  "\u2581\u0425\u0435\u0439": 710,
  "\u2581\u043f\u0440\u0438\u043b\u043e\u0436\u0435\u043d\u0438\u0435": 711,
  "\u2581\u0436\u0438\u0432\u043e\u0442\u0430": 712,
  "\u2581dead": 713,
  "\u2581\u0434\u0432\u0435": 714,
  "\u2581\u0441\u043b\u0443\u0447\u0430\u0439": 715,
  "T": 716,
  "\u2581fine": 717,
  "\u2581Can": 718,
  "\u258114": 719,
  "\u2581\u041a\u0430\u0442\u043e": 720,
  "\u2581V": 721,
  "\u2581data": 722,
  "\u2581Annex": 723,
  "\u2581\u043c\u043e\u0436\u0435\u043c": 724,
  "\u2581\u043f\u043e\u043c\u043e\u0449": 725,
  "\u2581\u043a\u043e\u0439": 726,
  "\u2581against": 727,
  "\u2581else": 728,
  "\u043c\u0430": 729,
  "\u2581looking": 730,
  "\u2581One": 731,
  "\u2581State": 732,
  "\u2581\u043d\u0438\u043a\u043e\u0433\u0430": 733,
  "\u2581\u0437\u0430\u0435\u0434\u043d\u043e": 734,
  "\u2581stop": 735,
  "\u2581real": 736,
  "\u2581\u0412\u0438\u0436": 737,
  "\u2581\u0434\u044f\u0432\u043e\u043b\u0438\u0442\u0435": 738,
  "\u2581while": 739,
  "\u2581\u0432\u0440\u044a\u0437\u043a\u0430": 740,
  "\u2581\u043e\u043a\u043e\u043b\u043e": 741,
  "\u043f": 742,
  "\u2581\u043c\u043e\u0436\u0435\u0448": 743,
  "\u0449\u0430": 744,
  "\u2581\u0422\u043e\u0433\u0430\u0432\u0430": 745,
  "\u2581\u0438\u043c\u0430\u0448": 746,
  "\u2581\u0432\u0438\u043d\u0430\u0433\u0438": 747,
  "\u2581show": 748,
  "\u2581went": 749,
  "\u2581M": 750,
  "\u258111": 751,
  "\u2581\u043f\u0430\u043a": 752,
  "\u2581different": 753,
  "\u2581important": 754,
  "\u2581\u0442\u043e\u0447\u043a\u0430": 755,
  "\u2581\u0418\u0437": 756,
  "\u2581Because": 757,
  "\u2581\u0412\u0438": 758,
  "\u2581\u041d\u0410": 759,
  "l": 760,
  "\u2581\u0421\u044a\u044e\u0437\u0430": 761,
  "\u2581accordance": 762,
  "\u2581\u043f\u0430\u0440\u0438": 763,
  "\u2581friend": 764,
  "\u2581care": 765,
  "\u2581whole": 766,
  "\u2581\u0440\u0435\u0433\u043b\u0430\u043c\u0435\u043d\u0442": 767,
  "\u2581within": 768,
  "\u2581G": 769,
  "\u0432\u0438": 770,
  "\u2581hell": 771,
  "\u2581\u0411\u0435\u0448\u0435": 772,
  "\u2581saw": 773,
  "\u2581\u0420\u0430\u0437\u0431\u0438\u0440\u0430": 774,
  "\u2581talking": 775,
  "\u2581\u0434\u043d\u0438": 776,
  "\u2581\u0431\u0438\u043b\u0438": 777,
  "\u2581\u0441\u0440\u0435\u0449\u0443": 778,
  "\u2581\u043c\u0430\u0439\u043a\u0430": 779,
  "\u2581getting": 780,
  "\u2581market": 781,
  "\u2581called": 782,
  "\u2581\u0446\u0435\u043b": 783,
  "\u2581kill": 784,
  "\u2581\u0438\u043c\u0430\u0442": 785,
  "\u2581son": 786,
  "\u0410": 787,
  "\u0434\u0438": 788,
  "\u2581job": 789,
  "\u0439\u0442\u0435": 790,
  "\u2581\u0434\u043d\u0435\u0441": 791,
  "\u2581\u043d\u0443\u0436\u0434\u0430": 792,
  "\u2581water": 793,
  "\u2581business": 794,
  "\u2581trying": 795,
  "\u2581\u043d\u0430\u0440\u0435\u0434": 796,
  "\u2581\u0423": 797,
  "\u2581H": 798,
  "\u2581hear": 799,
  "on": 800,
  "\u2581took": 801,
  "\u258124": 802,
  "\u258113": 803,
  "\u2581country": 804,
  "\u2581start": 805,
  "\u2581high": 806,
  "\u2581\u0438\u043c\u0430\u043c\u0435": 807,
  "\u2581\u0437\u0430\u0440\u0430\u0434\u0438": 808,
  "\u0439\u043a\u0438": 809,
  "\u2581\u0441\u0442\u0440": 810,
  "\u2581\u043e\u0437\u043d\u0430\u0447\u0430\u0432\u0430": 811,
  "P": 812,
  "\u2581Right": 813,
  "\u2581room": 814,
  "\u2581\u0436\u0435\u043d\u0430": 815,
  "\u2581ask": 816,
  "\u2581until": 817,
  "\u2581second": 818,
  "\u2581mother": 819,
  "ic": 820,
  "\u2581\u0432\u0438\u0434\u044f": 821,
  "\u2581few": 822,
  "\u0430\u0442\u0430": 823,
  "\u0434\u0430": 824,
  "\u2581uh": 825,
  "\u2581during": 826,
  "\u2581head": 827,
  "\u2581isn": 828,
  "\u2581\u0422\u0443\u043a": 829,
  "\u2581\u0415\u0421": 830,
  "\u2581\u043c\u043e\u043b\u044f": 831,
  "\u2581men": 832,
  "\u2581Uh": 833,
  "\u2581least": 834,
  "\u2581seen": 835,
  "E": 836,
  "\u2581THE": 837,
  "\u2581person": 838,
  "\u2581since": 839,
  "\u2581live": 840,
  "\u2581Of": 841,
  "\u2581\u0437\u043d\u0430\u0435": 842,
  "\u2581mind": 843,
  "\u2581measures": 844,
  "\u0438\u044f": 845,
  "\u2581\u0414\u043e": 846,
  "\u2581\u043a\u044a\u0434\u0435\u0442\u043e": 847,
  "\u2581\u043f\u0440\u043e": 848,
  "\u2581\u0432\u0441\u044f\u043a\u0430": 849,
  "\u2581having": 850,
  "\u2581\u043a\u0430\u0437\u0432\u0430": 851,
  "\u2581stay": 852,
  "\u2581wait": 853,
  "\u2581working": 854,
  "\u2581\u043a\u0430\u0436\u0435\u0448": 855,
  "\u2581problem": 856,
  "\u2581Hello": 857,
  "\u0449\u043e": 858,
  "\u2581re": 859,
  "\u2581idea": 860,
  "\u2581weight": 861,
  "\u2581wasn": 862,
  "en": 863,
  "\u2581hand": 864,
  "\u2581\u0438\u0437\u0433\u043b\u0435\u0436\u0434\u0430": 865,
  "\u2581remember": 866,
  "\u2581100": 867,
  "\u2581\u0440\u0435\u0448\u0435\u043d\u0438\u0435": 868,
  "\u25811,": 869,
  "\u2581product": 870,
  "3": 871,
  "\u2581matter": 872,
  "\u2581\u043c\u0438\u0441\u043b\u0438\u0448": 873,
  "\u2581\u0422\u043e\u0437\u0438": 874,
  "\u2581\u041d\u0430\u0439": 875,
  "\u2581yet": 876,
  "\u2581change": 877,
  "\u2581\u041d\u0435\u043a\u0430": 878,
  "\u2581try": 879,
  "\u2581\u0434\u043e\u0439\u0434\u0435": 880,
  "\u2581\u0434\u043e\u0441\u0442\u0430": 881,
  "\u2581On": 882,
  "\u2581meet": 883,
  "ers": 884,
  "\u2581\u0431\u0438\u043b\u043e": 885,
  "\u258150": 886,
  "\u2581blood": 887,
  "\u2581ago": 888,
  "\u2581mg": 889,
  "\u2581Parliament": 890,
  "\u2581school": 891,
  "\u2581knew": 892,
  "\u258121": 893,
  "\u2581yourself": 894,
  "\u2581/": 895,
  "\u2581R": 896,
  "\u2581At": 897,
  "\u2581saying": 898,
  "\u2581\u0441\u044a\u0440": 899,
  "\u2581Thanks": 900,
  "\u2581period": 901,
  "\u2581children": 902,
  "the": 903,
  "\u2581taking": 904,
  "\u2581\u0442\u043e": 905,
  "\u2581Decision": 906,
  "\u2581\u0432\u0435\u0447\u0435\u0440": 907,
  "\u2581actually": 908,
  "\u0447": 909,
  "\u2581Directive": 910,
  "\u2581\u043f\u0440\u0438\u044f\u0442\u0435\u043b": 911,
  "\u2581heart": 912,
  "\u0441\u043a\u0430": 913,
  "\u2581hard": 914,
  "\u2581nice": 915,
  "\u2581free": 916,
  "\u2581including": 917,
  "\u2581N": 918,
  "to": 919,
  "\u2581once": 920,
  "\u258122": 921,
  "\u2581\u0434\u043e\u0441\u0442\u0430\u0442\u044a\u0447\u043d\u043e": 922,
  "\u2581heard": 923,
  "\u2581times": 924,
  "\u2581provided": 925,
  "\u2581Wait": 926,
  "\u2581financial": 927,
  "\u2581\u0441\u044a\u0433\u043b\u0430\u0441\u043d\u043e": 928,
  "\u2581particular": 929,
  "\u2581K": 930,
  "\u2581\u043c\u0435\u0440\u043a\u0438": 931,
  "\u2581Bulgaria": 932,
  "\u2581possible": 933,
  "\u2581\u0431\u0438\u043b\u0430": 934,
  "\u2581power": 935,
  "\u2581\u0438\u0437\u043f\u043e\u043b\u0437\u0432\u0430": 936,
  "1": 937,
  "\u2581\u0441\u0438\u0441\u0442\u0435\u043c\u0430": 938,
  "\u2581II": 939,
  "\u2581\u0441\u0435\u0431\u0435": 940,
  "\u2581\u0422\u043e\u0447\u043d\u043e": 941,
  "us": 942,
  "\u2581yeah": 943,
  "\u2581food": 944,
  "man": 945,
  "4": 946,
  "M": 947,
  "F": 948,
  "\u2581\u0432\u0438\u0434\u0438\u043c": 949,
  "\u2581control": 950,
  "\u2581\u0440\u0430\u0437\u043b\u0438\u0447\u043d\u0438": 951,
  "\u2581\u043c\u043e\u044f": 952,
  "\u2581See": 953,
  "\u2581conditions": 954,
  "\u2581baby": 955,
  "\u2581says": 956,
  "\u2581game": 957,
  "it": 958,
  "\u2581support": 959,
  "\u2581taken": 960,
  "\u2581\u0417\u043d\u0430\u0447\u0438": 961,
  "\u2581woman": 962,
  "\u2581morning": 963,
  "\u2581:": 964,
  "\u2581\u0440\u0430\u0431\u043e\u0442\u0438": 965,
  "\u201d": 966,
  "\u2581\u0434\u044a\u0440\u0436\u0430\u0432\u0438": 967,
  "\u0441\u043a\u0438": 968,
  "\u043c\u0438": 969,
  "\u2581referred": 970,
  "\u2581\u041a\u043e\u043b\u043a\u043e": 971,
  "\u2581\u0434\u0435": 972,
  "\u2581public": 973,
  "\u2581\u0437\u043d\u0430\u0447\u0435\u043d\u0438\u0435": 974,
  "\u2581\u043d\u043e\u0449": 975,
  "\u2581level": 976,
  "\u0440\u0430": 977,
  "\u2581\u043f\u0440\u043e\u0431\u043b\u0435\u043c": 978,
  "\u2581patients": 979,
  "\u25811.": 980,
  "\u2581move": 981,
  "\u2581\u0447\u0430\u0441\u0430": 982,
  "\u2581W": 983,
  "\u2581\u0441\u0442\u0440\u0430\u043d\u0438": 984,
  "V": 985,
  "\u2581e": 986,
  "\u2581\u0411\u043e\u0436\u0435": 987,
  "\u2581friends": 988,
  "\u2581report": 989,
  "\u2581killed": 990,
  "\u0432\u043e": 991,
  "\u2581\u041a\u0430\u043a\u0442\u043e": 992,
  "\u2581un": 993,
  "\u2581\u0418\u0441\u043a\u0430\u0448": 994,
  "\u2581list": 995,
  "\u0412": 996,
  "\u043a\u0430\u0442\u0430": 997,
  "\u0441\u0438": 998,
  "\u2581countries": 999,
  "\u2581human": 1000,
  "\u2581\u0440\u0430\u0431\u043e\u0442\u0430\u0442\u0430": 1001,
  "\u2581\u043d\u0435\u0449\u0430\u0442\u0430": 1002,
  "\u2581side": 1003,
  "\u2581\u0441\u0442\u0430\u043d\u0435": 1004,
  "\u2581&": 1005,
  "\u2581*": 1006,
  "\u2581\u041d\u0438\u0449\u043e": 1007,
  "\u2581date": 1008,
  "\u2581boy": 1009,
  "h": 1010,
  "\u0447\u0438": 1011,
  "x": 1012,
  "\u2581months": 1013,
  "\u258123": 1014,
  "\u2581far": 1015,
  "\u2581\u0434\u0440\u0443\u0433\u043e": 1016,
  "\u0431\u0438": 1017,
  "\u2581Sorry": 1018,
  "\u2581\u0441\u0442\u0430\u043d\u0430": 1019,
  "\u2581\u0441\u0438\u043b\u0430": 1020,
  "p": 1021,
  "\u2581regard": 1022,
  "\u2581\u0432\u0440\u0435\u043c\u0435\u0442\u043e": 1023,
  "k": 1024,
  "\u2581face": 1025,
  "\u2581open": 1026,
  "\u2581\u0432\u044a\u043f\u0440\u043e\u0441": 1027,
  "\u2581\u0422\u0430\u0437\u0438": 1028,
  "\u2581play": 1029,
  "\u2581\u0434\u044a\u0440\u0436\u0430\u0432\u0438\u0442\u0435": 1030,
  "\u0431": 1031,
  "\u2581\u0412\u0441\u0435": 1032,
  "\u2581national": 1033,
  "\u2581\u0442\u0430\u043a\u0438\u0432\u0430": 1034,
  "\u2581fucking": 1035,
  "\u2581\u0434\u0432\u0430": 1036,
  "\u2581With": 1037,
  "\u0436\u0430": 1038,
  "\u2581able": 1039,
  "\u2581\u0434\u0435\u0446\u0430": 1040,
  "\u2581Jesus": 1041,
  "\u2581fact": 1042,
  "\u2581\u0438\u043c\u0435\u0442\u043e": 1043,
  "\u2581gotta": 1044,
  "\u2581Take": 1045,
  "\u2581shit": 1046,
  "N": 1047,
  "\u2581full": 1048,
  "\u2581\u0411\u044a\u043b\u0433\u0430\u0440\u0438\u044f": 1049,
  "\u0433\u0430": 1050,
  "\u2581\u043f\u044a\u0442\u0438": 1051,
  "\u2581risk": 1052,
  "\u2581Or": 1053,
  "\u2581These": 1054,
  "\u2581pretty": 1055,
  "\"?": 1056,
  "\u2581\u041e\u0449\u0435": 1057,
  "H": 1058,
  "\u25810": 1059,
  "\u2581area": 1060,
  "\u2581bring": 1061,
  "\u2581certain": 1062,
  "\u2581guess": 1063,
  "\u2581hours": 1064,
  "\u2581\u0417\u0434\u0440\u0430\u0432\u0435\u0439": 1065,
  "an": 1066,
  "\u043c\u043e": 1067,
  "\u2581run": 1068,
  "\u2581death": 1069,
  "\u2581minutes": 1070,
  "\u2581de": 1071,
  "able": 1072,
  "\u25812009": 1073,
  "\u2581bit": 1074,
  "\u043e\u0432\u0435": 1075,
  "\u2581necessary": 1076,
  "\u2581\u0441\u0432\u044a\u0440\u0437\u0430\u043d\u0438": 1077,
  "\u2581given": 1078,
  "\u2581His": 1079,
  "\u043c\u0430\u043b\u043a\u043e": 1080,
  "\u2581hope": 1081,
  "\u2581\u043c\u043e\u043c\u0435\u043d\u0442\u0430": 1082,
  "\u2581true": 1083,
  "\u0440\u0438": 1084,
  "\u2581\u043d\u0430\u043f\u0440\u0430\u0432\u0438\u043c": 1085,
  "\u2581_": 1086,
  "\u2581question": 1087,
  "\u2581week": 1088,
  "\u2581\u0422\u0435\u0437\u0438": 1089,
  "\u2581\u0414": 1090,
  "\u2581wanna": 1091,
  "\u2581Maybe": 1092,
  "\u2581\u043f\u0430\u0440\u043b\u0430\u043c\u0435\u043d\u0442": 1093,
  "\u2581lost": 1094,
  "\u2581President": 1095,
  "\u2581gone": 1096,
  "\u2581\u0441\u0440\u0435\u0434\u0441\u0442\u0432\u0430": 1097,
  "\u2581\u041d\u0438\u043a\u043e\u0433\u0430": 1098,
  "\u2581\u0432\u0437\u0435\u043c\u0430": 1099,
  "R": 1100,
  "\u2581plan": 1101,
  "\u2581soon": 1102,
  "\u2581later": 1103,
  "\u2581\u0431\u044a\u0440\u0437\u043e": 1104,
  "\u258131": 1105,
  "\u2581\u0442\u044a\u0439": 1106,
  "\u2581\u0412\u0435\u0447\u0435": 1107,
  "\u2581\u043d\u0438\u0442\u043e": 1108,
  "\u2581\u0441\u043b\u0443\u0447\u0438": 1109,
  "\u0437": 1110,
  "\u2581\u0432\u0437\u0435": 1111,
  "\u2581\u0441\u0432\u0435\u0442\u0430": 1112,
  "\u2581less": 1113,
  "ation": 1114,
  "\u2581\u041e\u0441\u0432\u0435\u043d": 1115,
  "\u2581line": 1116,
  "\u2581phone": 1117,
  "\u2581company": 1118,
  "\u2581\u0432\u043a\u043b\u044e\u0447\u0438\u0442\u0435\u043b\u043d\u043e": 1119,
  "\u2581wants": 1120,
  "\u2581\u0432\u044a\u0437\u043c\u043e\u0436\u043d\u043e": 1121,
  "\u2581\u0441\u0432\u044f\u0442": 1122,
  "\u2581ready": 1123,
  "\u2581\u0411\u043e\u0433": 1124,
  "G": 1125,
  "\u2581\u043c\u0438\u043d\u0443\u0442\u0438": 1126,
  "\u2581\u043f\u0440\u0430\u0432\u043e": 1127,
  "\u2581making": 1128,
  "\u2581\u043c\u0435\u0441\u0435\u0446\u0430": 1129,
  "\u2581\u043f\u0440\u0430\u0432\u044f": 1130,
  "\u2581\u043d\u0438\u043a\u043e\u0439": 1131,
  "\u2581\u0434": 1132,
  "\u2581wife": 1133,
  "\u2581\u0434\u044a\u0440\u0436\u0430\u0432\u0430": 1134,
  "\u2581\u0443\u0441\u043b\u043e\u0432\u0438\u044f": 1135,
  "\u2581\u041a\u0430\u0436\u0438": 1136,
  "W": 1137,
  "\u2581\u0442\u0440\u044f\u0431\u0432\u0430\u0448\u0435": 1138,
  "le": 1139,
  "\u25812011": 1140,
  "\u2581\u0414\u043e\u0440\u0438": 1141,
  "\u2581law": 1142,
  "\u2581rules": 1143,
  "\u2581wouldn": 1144,
  "L": 1145,
  "\u2581per": 1146,
  "\u2581Have": 1147,
  "\u258128": 1148,
  "\u2581services": 1149,
  "\u2581needs": 1150,
  "\u2581\u043f\u0440\u043e\u0434\u0443\u043a\u0442": 1151,
  "\u2581Dr": 1152,
  "\u2581\u043c\u043e\u043c\u0438\u0447\u0435": 1153,
  "\u2581anyone": 1154,
  "\u2581third": 1155,
  "\u2581Like": 1156,
  "\u2581\u0432\u044a\u0437": 1157,
  "\u2581gave": 1158,
  "\u2581\u0442\u0430\u043a\u044a\u0432": 1159,
  "\u2581non": 1160,
  "\u2581brother": 1161,
  "\u2581happy": 1162,
  "\u2581OF": 1163,
  "\u2581maybe": 1164,
  "\u2581close": 1165,
  "\u2581paragraph": 1166,
  "f": 1167,
  "\u2581\u0417\u0430\u0442\u043e\u0432\u0430": 1168,
  "\u0432\u0430\u043d\u0435": 1169,
  "\u25812,": 1170,
  "\u2581\u0440\u0430\u043c\u043a\u0438\u0442\u0435": 1171,
  "\u2581g": 1172,
  "\u2581New": 1173,
  "\u2581s": 1174,
  "\u2581turn": 1175,
  "\u2581party": 1176,
  "\u2581read": 1177,
  "\u2581using": 1178,
  "\u2581\u0447\u043b\u0435\u043d\u043a\u0438": 1179,
  "\u2581makes": 1180,
  "\u2581pay": 1181,
  "\u258127": 1182,
  "\u2581become": 1183,
  "\u2581\u041d\u0430\u043b\u0438": 1184,
  "\u2581light": 1185,
  "\u2581\u043c\u044a\u0436": 1186,
  "\u2581authorities": 1187,
  "\u2581die": 1188,
  "\u2581deal": 1189,
  "\u2581\u0434\u0440\u0443\u0433\u0438\u0442\u0435": 1190,
  "\u2581\u043e\u0440\u0433\u0430\u043d\u0438": 1191,
  "\u2581\u043a\u043e\u043d\u0442\u0440\u043e\u043b": 1192,
  "\u2581Jehovah": 1193,
  "\u2581thinking": 1194,
  "\u258140": 1195,
  "\u2581\u0441\u0438\u0433\u0443\u0440\u043d\u043e\u0441\u0442": 1196,
  "\u2581\u2022": 1197,
  "\u2581--": 1198,
  "\u25812013": 1199,
  "\u0418": 1200,
  "\u25812016": 1201,
  "\u2581type": 1202,
  "\u2581lose": 1203,
  "\u2581available": 1204,
  "\u25812010": 1205,
  "\u2581\u043f\u0440\u0438\u043b\u0430\u0433\u0430": 1206,
  "\u2581force": 1207,
  "\u2581\u0443\u0441\u043b\u0443\u0433\u0438": 1208,
  "up": 1209,
  "\u0434\u043e": 1210,
  "\u2581Tell": 1211,
  "\u2581door": 1212,
  "\u2581\u0432\u0438\u0434": 1213,
  "am": 1214,
  "\u2581\u0434\u0440\u0443\u0433\u0430": 1215,
  "em": 1216,
  "\u25812014": 1217,
  "\u2581eat": 1218,
  "\u0435\u043d\u0438": 1219,
  "\u2581account": 1220,
  "\u2581alone": 1221,
  "\u2581myself": 1222,
  "\u2581\u043d\u0430\u0441\u0442\u043e\u044f\u0449\u0438\u044f": 1223,
  "\u2581energy": 1224,
  "\u2581haven": 1225,
  "\u2581\u0434\u043e\u0431\u044a\u0440": 1226,
  "\u2581Agreement": 1227,
  "\u2581EUR": 1228,
  "\u2581\u043c\u043e\u043c\u0435\u043d\u0442": 1229,
  "\u2581decision": 1230,
  "\u2581\u043a\u0430\u043a\u0432\u043e\u0442\u043e": 1231,
  "\u2581\u0415\u0439": 1232,
  "\u2581Stop": 1233,
  "\u0444": 1234,
  "\u2581requirements": 1235,
  "\u2581An": 1236,
  "ar": 1237,
  "\u2581\u0414\u0438\u0440\u0435\u043a\u0442\u0438\u0432\u0430": 1238,
  "\u2581\u0434\u0432\u0430\u043c\u0430\u0442\u0430": 1239,
  "\u258126": 1240,
  "\u2581\u0434\u0430\u0434\u0435": 1241,
  "\u2581\u0438\u0437\u043f\u044a\u043b\u043d\u0435\u043d\u0438\u0435": 1242,
  "\u2581five": 1243,
  "\u043d\u0438\u044f\u0442": 1244,
  "\u2581late": 1245,
  "\u2581special": 1246,
  "\u2581\u0431\u043b\u0430\u0433\u043e\u0434\u0430\u0440\u044f": 1247,
  "\u2581clear": 1248,
  "\u2581\u0411\u0435\u0437": 1249,
  "\u2581tonight": 1250,
  "el": 1251,
  "\u2581knows": 1252,
  "\u2581Europe": 1253,
  "\u2581\u043a\u043e\u043b\u0430\u0442\u0430": 1254,
  "\u2581young": 1255,
  "\u2581\u0433\u043e\u043b\u044f\u043c\u0430": 1256,
  "\u2581women": 1257,
  "\u2581\u041f\u0440\u0435": 1258,
  "\u2581everyone": 1259,
  "\u2581word": 1260,
  "\u2581small": 1261,
  "\u2581l": 1262,
  "\u2581Hi": 1263,
  "\u2581\u0415\u0434\u0438\u043d": 1264,
  "The": 1265,
  "\u2581happen": 1266,
  "\u2581\u0432\u044a\u0440\u043d\u0430": 1267,
  "\u2581\u0433\u043e\u0432\u043e\u0440\u044f": 1268,
  "\u2581\u0431\u044a\u0434\u0430": 1269,
  "\u2581\u041f\u0440\u0435\u0437": 1270,
  "\u2581test": 1271,
  "\u2581truth": 1272,
  "\u041a": 1273,
  "\u2581\u0438\u043c\u0430\u0442\u0435": 1274,
  "\u2581treatment": 1275,
  "\u2581stuff": 1276,
  "\u2581m": 1277,
  "\u2581service": 1278,
  "\u2581aid": 1279,
  "\u2581\u0420\u0430\u0437": 1280,
  "\u0422": 1281,
  "\u2581whether": 1282,
  "\u2581After": 1283,
  "\u2581Our": 1284,
  "\u2581inside": 1285,
  "\u2581reason": 1286,
  "\u2581\u043a\u0440\u0430\u044f": 1287,
  "\u2581therefore": 1288,
  "\u2581\u0432\u044a\u0437\u043c\u043e\u0436\u043d\u043e\u0441\u0442": 1289,
  "\u2581Really": 1290,
  "\u2581probably": 1291,
  "\u25812012": 1292,
  "\u2581OK": 1293,
  "K": 1294,
  "\u2581\u0418\u043c\u0430\u0448": 1295,
  "z": 1296,
  "\u2581\u0432\u043e\u0434\u0430": 1297,
  "\u041e": 1298,
  "\u2581\u0441\u0440\u0435\u0449\u0430": 1299,
  "\u2581mm": 1300,
  "\u2581comes": 1301,
  "\u2581future": 1302,
  "\u2581\u043f\u0440\u043e\u0431\u043b\u0435\u043c\u0438": 1303,
  "\u2581tomorrow": 1304,
  "\u2581\u043c\u043e\u0436\u0435\u0442\u0435": 1305,
  "\u2581thank": 1306,
  "\u2581application": 1307,
  "\u2581\u041f\u0440\u0435\u0434\u0438": 1308,
  "\u2581Be": 1309,
  "\u2581hands": 1310,
  "\u2581\u043e\u0441\u0432\u0435\u043d": 1311,
  "\u2581\u0418\u043b\u0438": 1312,
  "\u2581\u043e\u0440\u0433\u0430\u043d": 1313,
  "\u2581security": 1314,
  "\u2581\u0419\u0435\u0445\u043e\u0432\u0430": 1315,
  "\u2581common": 1316,
  "and": 1317,
  "\u2581air": 1318,
  "\u2581\u041c\u043e\u0433\u0430": 1319,
  "\u2581Bulgarian": 1320,
  "\u2581\u0432\u0435\u0434\u043d\u0430\u0433\u0430": 1321,
  "\u2581respect": 1322,
  "is": 1323,
  "\u0446\u0435": 1324,
  "\u2581kid": 1325,
  "\u2581dad": 1326,
  "\u0447\u043b\u0435\u043d\u043a\u0438": 1327,
  "\u2581\u043f\u0430\u0446\u0438\u0435\u043d\u0442\u0438": 1328,
  "\u2581development": 1329,
  "\u2581rest": 1330,
  "\u2581\u0411": 1331,
  "\u044a\u0440": 1332,
  "\u043d\u0438\u043a": 1333,
  "\u2581Re": 1334,
  "\u2581fuck": 1335,
  "\u2581child": 1336,
  "ity": 1337,
  "\u2581provide": 1338,
  "\u0446\u0438\u0442\u0435": 1339,
  "\u258129": 1340,
  "\u2581met": 1341,
  "\u2581either": 1342,
  "\u2581\u043e\u0431\u0430\u0447\u0435": 1343,
  "\u2581Dad": 1344,
  "\u2581\u043e\u0441\u043d\u043e\u0432\u0430": 1345,
  "\u2581price": 1346,
  "\u2581doctor": 1347,
  "\u0445\u0442\u0435": 1348,
  "\u2581easy": 1349,
  "\u2581half": 1350,
  "\u2581\u0440\u0430\u0437\u0431\u0438\u0440\u0430": 1351,
  "\u2581\u0438\u0441\u043a\u0430\u0442\u0435": 1352,
  "\u2581\u043e\u043f\u0440\u0435\u0434\u0435\u043b\u0435\u043d\u0438": 1353,
  "\u2581\u0415\u0432\u0440\u043e\u043f\u0430": 1354,
  "O": 1355,
  "\u2581\u0441\u0432\u043e\u044f": 1356,
  "\u2581four": 1357,
  "\u0441\u0435": 1358,
  "\u2581worry": 1359,
  "\u0434\u0435": 1360,
  "\u2581By": 1361,
  "\u2581\u0431\u0438\u0445": 1362,
  "\u2581\u043f\u0435\u0440\u0438\u043e\u0434": 1363,
  "\u2581value": 1364,
  "\u2581\u0432\u044a\u043f\u0440\u043e\u0441\u0438": 1365,
  "\u2581\u041d\u044f\u043a\u043e\u0439": 1366,
  "\u2581\u0434\u0435\u0446\u0430\u0442\u0430": 1367,
  "\u0438\u0437": 1368,
  "\u2581\u043c\u043e\u0439": 1369,
  "\u0441\u043f\u0435\u0446\u0438\u0430\u043b\u043d\u043e": 1370,
  "\u043e\u0432": 1371,
  "\u2581started": 1372,
  "na": 1373,
  "\u2581eyes": 1374,
  "\u2581Listen": 1375,
  "\u2581police": 1376,
  "\u2581yes": 1377,
  "\u2581beautiful": 1378,
  "\u2581ensure": 1379,
  "\u2581\u0427\u0435": 1380,
  "\u2581\u0441\u0442\u043e\u0439\u043d\u043e\u0441\u0442": 1381,
  "\u2581\u043d\u0430\u043f\u0440\u0430\u0432\u0438\u0448": 1382,
  "\u2581\u043f\u0440\u0438\u044f\u0442\u0435\u043b\u0438": 1383,
  "\u0433\u043e": 1384,
  "\u2581economic": 1385,
  "\u2581\u0441\u0435\u0434\u043c\u0438\u0446\u0430": 1386,
  "\u2581specific": 1387,
  "\u2581\u0443\u043f\u0440\u0430\u0432\u043b\u0435\u043d\u0438\u0435": 1388,
  "\u2581\u041c\u0438\u0441\u043b\u0435\u0445": 1389,
  "\u2581\u0437\u0430\u0442\u043e\u0432\u0430": 1390,
  "\u2581cannot": 1391,
  "\u2581kids": 1392,
  "\u2581office": 1393,
  "\u2581\u043c\u043e\u044f\u0442\u0430": 1394,
  "\u2581\u043f\u043e\u0441\u043e\u0447\u0435\u043d\u0438": 1395,
  "\u25812008": 1396,
  "\u2581\u043f\u0430\u0440\u0438\u0442\u0435": 1397,
  "\u2581\u0438\u043c\u0435": 1398,
  "\u2581\u0445\u0430\u0440\u0435\u0441\u0432\u0430": 1399,
  "\u2581group": 1400,
  "\u2581\u0446\u044f\u043b\u0430\u0442\u0430": 1401,
  "\u043e\u0442": 1402,
  "\u0413": 1403,
  "\u0437\u0438": 1404,
  "\u2581\u0412\u0441\u044a\u0449\u043d\u043e\u0441\u0442": 1405,
  "\u2581couldn": 1406,
  "\u2581\u043f\u0435\u0442": 1407,
  "\u2581appropriate": 1408,
  "\u2581activities": 1409,
  "\u2581\u0420\u0435\u0448\u0435\u043d\u0438\u0435": 1410,
  "\u2581\u043a\u0430\u0437\u0430\u0445": 1411,
  "\u2581based": 1412,
  "\u2581exactly": 1413,
  "\u2581asked": 1414,
  "\u2581chance": 1415,
  "\u2581check": 1416,
  "\u2581known": 1417,
  "\u2581contact": 1418,
  "\u2581\u041a\u0430\u0437\u0430\u0445": 1419,
  "\u2581\u0434\u043e\u043c\u0430": 1420,
  "\u2581\u043f\u0440\u0430\u0432\u0438\u043c": 1421,
  "\u2581hold": 1422,
  "\u2581\u0422\u043e\u043b\u043a\u043e\u0432\u0430": 1423,
  "\u2581city": 1424,
  "\u2581basis": 1425,
  "ED": 1426,
  "\u2581supposed": 1427,
  "\u2581\u0415\u043b\u0430": 1428,
  "\u2581state": 1429,
  "\u2581mom": 1430,
  "\u2581team": 1431,
  "\u2581relevant": 1432,
  "\u2581meeting": 1433,
  "\u2581Give": 1434,
  "\u2581amount": 1435,
  "\u2581May": 1436,
  "\u0441\u043a\u0430\u0442\u0430": 1437,
  "\u2581U": 1438,
  "\u2581story": 1439,
  "\u2581\u041f": 1440,
  "\u2581Nothing": 1441,
  "\u2581listen": 1442,
  "\u2581\u0434\u0432\u0435\u0442\u0435": 1443,
  "\u043e\u0442\u043e": 1444,
  "\u2581\u043a\u043e\u043b\u043a\u043e\u0442\u043e": 1445,
  "6": 1446,
  "\u2581\u043d\u0430\u043f\u044a\u043b\u043d\u043e": 1447,
  "\u2581\u0442\u0430\u043a\u043e\u0432\u0430": 1448,
  "\u2581However": 1449,
  "\u2581\u0431": 1450,
  "ia": 1451,
  "\u2581outside": 1452,
  "\u2581looks": 1453,
  "\u2581\u0434\u0435\u0442\u0435": 1454,
  "\u2581\u043d\u043e\u0432\u0438": 1455,
  "\u2581above": 1456,
  "\u2581\u0418\u043c\u0430\u043c\u0435": 1457,
  "\u2581\u043e\u0431": 1458,
  "\u2581fire": 1459,
  "\u2581policy": 1460,
  "\u2581hit": 1461,
  "\u2581\u043f\u043b\u0430\u043d": 1462,
  "\u2581\u0437\u0435\u043c\u044f\u0442\u0430": 1463,
  "\u2581\u0418\u0437\u0433\u043b\u0435\u0436\u0434\u0430": 1464,
  "\u2581sent": 1465,
  "\u2581\u0433\u043b\u0430\u0432\u0430\u0442\u0430": 1466,
  "10": 1467,
  "\u2581\u0412\u0438\u043d\u0430\u0433\u0438": 1468,
  "\u2581\u043f\u043e\u043d\u0435": 1469,
  "\u2581situation": 1470,
  "\u2581brought": 1471,
  "\u2581concerned": 1472,
  "\u2581\u041d\u0438\u043a\u043e\u0439": 1473,
  "\u2581\u0434\u043e\u0431\u0440\u043e": 1474,
  "\u2581\u0441\u044a\u0436\u0430\u043b\u044f\u0432\u0430\u043c": 1475,
  "\u2581moment": 1476,
  "\u0441\u0442\u0438": 1477,
  "\u2581\u0440\u0435": 1478,
  "\u2581\u0431\u0443\u043a\u0432\u0430": 1479,
  "\u2581\u0442\u044f\u043b\u043e\u0442\u043e": 1480,
  "\u2581news": 1481,
  "Y": 1482,
  "w": 1483,
  "\u2581though": 1484,
  "\u2581\u043d\u0430\u043f\u0440\u0430\u0432\u0438\u043b": 1485,
  "\u2581daughter": 1486,
  "\u2581+": 1487,
  "\u2581\u0442": 1488,
  "\u0440\u043e": 1489,
  "\u2581\u0433\u0440\u0430\u0434": 1490,
  "\u2581others": 1491,
  "\u2581\u043d\u0430\u0448\u0438\u0442\u0435": 1492,
  "\u043a\u044a\u0441\u043d\u043e": 1493,
  "\u2581\u041d\u0435\u0449\u043e": 1494,
  "\u2581\u0433\u043e\u0432\u043e\u0440\u0438": 1495,
  "\u2581\u0443\u0442\u0440\u0435": 1496,
  "\u2581\u0427\u0430\u043a\u0430\u0439": 1497,
  "\u2581\u0442\u0430\u0442\u043a\u043e": 1498,
  "\u2581\u044f\u0441\u043d\u043e": 1499,
  "\u2581apply": 1500,
  "\u2581\u0441\u043a\u043e\u0440\u043e": 1501,
  "\u0435\u0442\u0435": 1502,
  "\u2581\u0437\u0430\u0449\u0438\u0442\u0430": 1503,
  "\u2581\u043e\u0442\u043a\u043e\u043b\u043a\u043e\u0442\u043e": 1504,
  "\u2581\u0441\u0432\u043e\u0438\u0442\u0435": 1505,
  "\u2581\u0446\u0435\u043b\u0438\u044f": 1506,
  "\u2581\u0418\u0441\u0443\u0441": 1507,
  "\u0411": 1508,
  "?\"": 1509,
  "\u2581serious": 1510,
  "\u2581further": 1511,
  "\u2581\u0441\u043f\u0438\u0441\u044a\u043a\u0430": 1512,
  "\u2581\u0418\u0437\u0432\u0438\u043d\u0435\u0442\u0435": 1513,
  "\u2581\u043d\u0430\u0448\u0430\u0442\u0430": 1514,
  "\u2581drink": 1515,
  "\u2581war": 1516,
  "\u2581words": 1517,
  "\u2581Some": 1518,
  "\u2581behind": 1519,
  "\u2581husband": 1520,
  "\u2581subject": 1521,
  "\u2581fun": 1522,
  "\u2581\u041f\u0440\u043e": 1523,
  "\u2581\u0431\u0440\u0430\u0442": 1524,
  "\u2581#": 1525,
  "\u2581minute": 1526,
  "7": 1527,
  "\u2581book": 1528,
  "\u2581\u0433\u043e\u0432\u043e\u0440\u0438\u0448": 1529,
  "\u2581loss": 1530,
  "\u2581\u0438\u043c\u0430\u0448\u0435": 1531,
  "\u2581million": 1532,
  "\u2581\u043c\u0430\u0439": 1533,
  "\u2581\u0438\u0433\u0440\u0430": 1534,
  "\u2581\u043f\u043e\u0440\u0430\u0434\u0438": 1535,
  "\u2581\u043f\u043e\u0441\u043b\u0435": 1536,
  "ie": 1537,
  "\u2581\u043c\u043e\u043c\u0447\u0435\u0442\u0430": 1538,
  "\u2581\u0411\u044f\u0445": 1539,
  "et": 1540,
  "\u2581\u0414\u0430\u0439": 1541,
  "\u2581huh": 1542,
  "\u2581\u0441\u0435\u043c\u0435\u0439\u0441\u0442\u0432\u043e": 1543,
  "\u2581Excuse": 1544,
  "\u2581\u0441\u043f\u043e\u0440\u0435\u0434": 1545,
  "\u2581cut": 1546,
  "\u2581form": 1547,
  "\u043f\u0438": 1548,
  "\u2581gets": 1549,
  "\u2581past": 1550,
  "\u2581\u0432\u0441\u044f\u043a\u043e": 1551,
  "\u2581process": 1552,
  "\u2581\u0442\u0432\u044a\u0440\u0434\u0435": 1553,
  "\u0431\u0430": 1554,
  "\u2581Mom": 1555,
  "\u25812007": 1556,
  "\u2581\u043c\u043e\u043c\u0447\u0435": 1557,
  "\u2581Me": 1558,
  "\u2581\u041a": 1559,
  "\u2581\u0440\u0430\u0437\u0432\u0438\u0442\u0438\u0435": 1560,
  "\u2581\u043c\u044f\u0441\u0442\u043e\u0442\u043e": 1561,
  "\u2581\u0438\u0434\u0432\u0430": 1562,
  "\u2581safe": 1563,
  "\u0415": 1564,
  "\u2581almost": 1565,
  "\u2581weeks": 1566,
  "\u0435\u043d\u0430": 1567,
  "5": 1568,
  "\u0446\u0430": 1569,
  "\u2581\u0442\u0432\u043e\u044f": 1570,
  "%": 1571,
  "\u2581\u0441\u0442\u0440\u0430\u043d\u0430\u0442\u0430": 1572,
  "\u2581single": 1573,
  "\u2581protection": 1574,
  "\u2581\u043d\u0435\u043e\u0431\u0445\u043e\u0434\u0438\u043c\u043e": 1575,
  "\u2581\u0442\u0438\u043f": 1576,
  "\u2581\u0441\u0440\u0430\u0432\u043d\u0435\u043d\u0438\u0435": 1577,
  "\u2581December": 1578,
  "u": 1579,
  "\u2581crazy": 1580,
  "\u2581view": 1581,
  "\u2581\u0441\u044a\u0441\u0442\u043e\u044f\u043d\u0438\u0435": 1582,
  "\u2581sleep": 1583,
  "\u2581mine": 1584,
  "\u2581died": 1585,
  "\u2581\u0437\u043d\u0430\u0447\u0438": 1586,
  "\u2581\u0441\u0435\u043c\u0435\u0439\u0441\u0442\u0432\u043e\u0442\u043e": 1587,
  "\u2581goes": 1588,
  "\u2581\u0437\u043d\u0430\u0435\u0442\u0435": 1589,
  "\u2581fight": 1590,
  "\u2581front": 1591,
  "\u2581\u0442\u0440\u0443\u0434\u043d\u043e": 1592,
  "\u2581living": 1593,
  "\u2581\u0441\u044a\u0449\u043e\u0442\u043e": 1594,
  "\u2581shot": 1595,
  "\u25812015": 1596,
  "\u2581\u0433\u043e\u043b\u044f\u043c": 1597,
  "\u2581\u0443\u0447\u0438\u043b\u0438\u0449\u0435": 1598,
  "\u2581health": 1599,
  "\u2581Having": 1600,
  "\u2581\u041a\u0430\u0437\u0430": 1601,
  "\u2581\u043a\u044a\u0449\u0430\u0442\u0430": 1602,
  "\u2581\u0437\u043d\u0430\u0435\u043c": 1603,
  "\u2581fat": 1604,
  "\u2581]": 1605,
  "\u2581\u043f\u044a\u0440\u0432\u043e": 1606,
  "ment": 1607,
  "\u2581Lord": 1608,
  "\u2581c": 1609,
  "\u2581project": 1610,
  "\u2581\u043f\u0440\u0430\u0432\u044f\u0442": 1611,
  "\u2581watch": 1612,
  "\u2581\u0432\u044a\u0442\u0440\u0435": 1613,
  "com": 1614,
  "\u2581rights": 1615,
  "\u2581Committee": 1616,
  "\u2581\u043a\u0430\u0437\u0430\u043b": 1617,
  "\u2581\u0412\u0441\u0435\u043a\u0438": 1618,
  "\u2581\u0432\u043e\u0434\u0438": 1619,
  "\u2581\u042f": 1620,
  "\u2581\u0434\u0435\u043a\u0435\u043c\u0432\u0440\u0438": 1621,
  "\u2581break": 1622,
  "\u258160": 1623,
  "\u2581town": 1624,
  "\u2581considered": 1625,
  ",\"": 1626,
  "\u0432\u044a\u0440": 1627,
  "\u2581interest": 1628,
  "\u2581Will": 1629,
  "\u2581\u043f\u043e\u043c\u043e\u0433\u043d\u0430": 1630,
  "\u2581\u043e\u0431\u043b\u0430\u0441\u0442\u0442\u0430": 1631,
  "\u2581\u0434\u044a\u043b\u0433\u043e": 1632,
  "ate": 1633,
  "\u043f\u0440\u0438": 1634,
  "\u2581Home": 1635,
  "\u0441\u043a\u043e": 1636,
  "\u2581present": 1637,
  "\u0442\u044a\u0440": 1638,
  "\u2581\u0433\u0440\u0443\u043f\u0430": 1639,
  "\u2581\u0447\u043e\u0432\u0435\u043a\u0430": 1640,
  "\u0436\u0435": 1641,
  "\u2581\u0438\u0441\u0442\u0438\u043d\u0430\u0442\u0430": 1642,
  "\u2581quite": 1643,
  "\u2581\u0434\u043e\u0431\u0440\u0430": 1644,
  "\u2581answer": 1645,
  "\u2581\u0442\u0435\u0445\u043d\u0438\u0442\u0435": 1646,
  "\u25813,": 1647,
  "\u2581production": 1648,
  "\u2581\u0438\u0434\u0435\u044f": 1649,
  "\u2581couple": 1650,
  "\u2581\u0432\u0435\u0434\u043d\u044a\u0436": 1651,
  "\u2581\u0432\u0441\u0438\u0447\u043a\u0438\u0442\u0435": 1652,
  "at": 1653,
  "\u2581English": 1654,
  "\u2581\u0441\u0438\u043d": 1655,
  "ness": 1656,
  "\u2581\u0447\u0430\u0441": 1657,
  "\u2581John": 1658,
  "\u2581\u0441\u0435\u0434\u043c\u0438\u0446\u0438": 1659,
  "\u2581\u043d\u0430\u0441\u0442\u043e\u044f\u0449\u043e\u0442\u043e": 1660,
  "\u2581walk": 1661,
  "\u2581land": 1662,
  "\u2581\u041e\u0412": 1663,
  "\u2581\u043a\u0430\u0437\u0432\u0430\u043c": 1664,
  "\u2581J": 1665,
  "\u0447\u0430": 1666,
  "\u2581total": 1667,
  "\u043b\u044f": 1668,
  "\u2581access": 1669,
  "\u2581\u041a\u0430\u043a\u044a\u0432": 1670,
  "\u2581applicable": 1671,
  "\u2581\u0412\u044a\u043f\u0440\u0435\u043a\u0438": 1672,
  "\u2581international": 1673,
  "\u2581\u043f\u0430\u0437\u0430\u0440\u0430": 1674,
  "\u2581local": 1675,
  "\u2581\u043e\u0431\u0438\u0447\u0430\u043c": 1676,
  "\u2581\u043f\u0440\u043e\u043c\u0435\u043d\u0438": 1677,
  "8": 1678,
  "\u0423": 1679,
  "\u2581\u0445\u0440\u0430\u043d\u0430": 1680,
  "\u2581government": 1681,
  "\u201c,": 1682,
  "\u2581hurt": 1683,
  "\u2581Mrs": 1684,
  "\u2581personal": 1685,
  "\u2581parents": 1686,
  "\u2581\u043d\u0435\u043a\u0430": 1687,
  "\u2581\u0415\u0432\u0440\u043e\u043f\u0435\u0439\u0441\u043a\u0430\u0442\u0430": 1688,
  "\u0414": 1689,
  "\u043d\u043e\u0441\u0442": 1690,
  "\u2581Man": 1691,
  "\u2581waiting": 1692,
  "\u0449\u0435": 1693,
  "\u2581OJ": 1694,
  "\u2581July": 1695,
  "\u2581\u0433\u0440\u0430\u0434\u0430": 1696,
  "\u2581\u0442\u0435\u0433\u043b\u043e": 1697,
  "\u2581\u0432\u043a\u043b\u044e\u0447\u0432\u0430": 1698,
  "\u2581evidence": 1699,
  "\u2581position": 1700,
  "\u2581gun": 1701,
  "\u2581top": 1702,
  "\u2581main": 1703,
  "\u043a\u0441": 1704,
  "\u041e\u0412": 1705,
  "\u2581\u043a\u043e\u043d": 1706,
  "\u043f\u0430": 1707,
  "\u201c.": 1708,
  "\u2581trade": 1709,
  "\u2581send": 1710,
  "\u2581authority": 1711,
  "\u2581\u0440\u0430\u0437\u0445\u043e\u0434\u0438": 1712,
  "\u2581\u043e\u0441\u043e\u0431\u0435\u043d\u043e": 1713,
  "\u2581\u043b\u044e\u0431\u043e\u0432": 1714,
  "\u043e\u0432\u0438": 1715,
  "\u2581\u043f\u043e\u043a\u0430\u0437\u0432\u0430": 1716,
  "\u2581ex": 1717,
  "\u2581\u0440\u0430\u0437\u0431\u0438\u0440\u0430\u043c": 1718,
  ");": 1719,
  "9": 1720,
  "\u2581short": 1721,
  "\u2581\u041d\u044f\u043c\u0430\u043c": 1722,
  "\u2581general": 1723,
  "\u2581due": 1724,
  "\u2581management": 1725,
  "\u043b\u0435": 1726,
  "\u2581example": 1727,
  "\u2581\u043f\u0440\u0430\u0432\u0438\u043b\u0430": 1728,
  "\u043c\u0430\u043d": 1729,
  "\u2581\u043b\u0435\u0441\u043d\u043e": 1730,
  "\u2581along": 1731,
  "\u2581provisions": 1732,
  "\u2581upon": 1733,
  "\u2581\u043f\u043e\u043b\u0443\u0447\u0438": 1734,
  "\u2581\u043b\u0438\u0446\u0430": 1735,
  "\u043d\u0438\u0446\u0438": 1736,
  "\u2581\u0440\u0435\u0434": 1737,
  "\u2581\u0436\u0435\u043d\u0438": 1738,
  "AN": 1739,
  "\u2581girls": 1740,
  "\u2581\u043f\u0440\u0430\u0432\u0430": 1741,
  "no": 1742,
  "\u2581\u043f\u043e\u0447\u0442\u0438": 1743,
  "\u2581wish": 1744,
  "\u2581\u0438\u0441\u043a\u0430\u0445": 1745,
  "\u2581\u043d\u043e\u043c\u0435\u0440": 1746,
  "\u2581\u043b\u0438\u0446\u0435": 1747,
  "\u2581problems": 1748,
  "\u0441\u0430": 1749,
  "\u2581Ah": 1750,
  "\u2581\u0442\u0430\u043a\u0430\u0432\u0430": 1751,
  "\u0435\u0440": 1752,
  "co": 1753,
  "\u2581\u043e\u0431\u0449\u043e": 1754,
  "\u2581\u041a\u0430\u043a\u0432\u0430": 1755,
  "\u043f\u0435": 1756,
  "\u2581\u0441\u043a\u044a\u043f\u0430": 1757,
  "\u2581\u043f\u043e\u0434\u043a\u0440\u0435\u043f\u0430": 1758,
  "\u2581tried": 1759,
  "\u2581Sure": 1760,
  "\u2581according": 1761,
  "\u2581Community": 1762,
  "\u2581\u0437\u0430\u0434": 1763,
  "\u2581\u0441\u044a\u0442\u0440\u0443\u0434\u043d\u0438\u0447\u0435\u0441\u0442\u0432\u043e": 1764,
  "\u2581\u043f\u044a\u0442\u044f": 1765,
  "\u2581\u043d\u043e\u0432": 1766,
  "\u2581increase": 1767,
  "50": 1768,
  "\u2581telling": 1769,
  "\u2581\u0434\u043e\u0441\u0442\u044a\u043f": 1770,
  "\u2581six": 1771,
  "\u2581dose": 1772,
  "\u2581\u043e\u0446\u0435\u043d\u043a\u0430": 1773,
  "\u2581legal": 1774,
  "\u2581\u0438\u0437\u0432\u044a\u043d": 1775,
  "um": 1776,
  "\u2581Great": 1777,
  "\u2581\u0438\u0437\u043f\u043e\u043b\u0437\u0432\u0430\u0442": 1778,
  "\u2581action": 1779,
  "\u2581Ma": 1780,
  "\u2581\u0432\u0430\u0436\u043d\u043e": 1781,
  "\u2581\u0417\u0410": 1782,
  "as": 1783,
  "\u043e\u0432\u0430": 1784,
  "\u2581longer": 1785,
  "\u2581\u0414\u0435": 1786,
  "\u0436\u043e": 1787,
  "\u2581\u0441\u0432\u043e\u044f\u0442\u0430": 1788,
  "\u2581\u0432\u0441\u044a\u0449\u043d\u043e\u0441\u0442": 1789,
  "\u0436": 1790,
  "\u2581buy": 1791,
  "\u2581Even": 1792,
  "\u2581\u0421\u043f\u043e\u0440\u0435\u0434": 1793,
  "\u2581\u0422\u0430": 1794,
  "\u2581000": 1795,
  "\u2581\u0441\u044a": 1796,
  "\u25812006": 1797,
  "\u2581trust": 1798,
  "\u2581speak": 1799,
  "\u2581\u0434\u0443\u043c\u0430": 1800,
  "\u0440\u0430\u0437": 1801,
  "\u2581questions": 1802,
  "\u2581\u0447\u0435\u0441\u0442\u043e": 1803,
  "ol": 1804,
  "\u2581\u0431\u0440\u043e\u0439": 1805,
  "\u2581hot": 1806,
  "\u2581rate": 1807,
  "\u2581results": 1808,
  "\u2581afraid": 1809,
  "\u2581\u0446\u044f\u043b\u043e\u0442\u043e": 1810,
  "\u2581\u0432\u043d\u0438\u043c\u0430\u043d\u0438\u0435": 1811,
  "\u2581From": 1812,
  "\u2581needed": 1813,
  "\u2581ain": 1814,
  "\u2581natural": 1815,
  "\u2581\u043f\u043e\u043c\u043e\u0433\u043d\u0435": 1816,
  "ion": 1817,
  "\u041d\u0435": 1818,
  "\u2581lives": 1819,
  "\u2581\u0446\u0435\u043b\u0438": 1820,
  "\u2581\u043e\u0442\u0438\u0434\u0430": 1821,
  "\u0432\u0430\u0442": 1822,
  "\u2581\u0413\u043e\u0441\u043f\u043e\u0434": 1823,
  "\u2581\u043e\u043f\u0438\u0442": 1824,
  "\u2581III": 1825,
  "\u2581anymore": 1826,
  "\u2581stand": 1827,
  "\u2581\u043f\u044a\u0440\u0432\u0438": 1828,
  "\u2581De": 1829,
  "\u2581social": 1830,
  "\u2581\u0422\u0440\u044f\u0431\u0432\u0430\u0448\u0435": 1831,
  "\u2581\u043f\u0440\u043e\u0433\u0440\u0430\u043c\u0430": 1832,
  "\u2581works": 1833,
  "\u2581\u0443\u043f\u043e\u0442\u0440\u0435\u0431\u0430": 1834,
  "\u2581\u0421\u0438\u0433\u0443\u0440\u043d\u043e": 1835,
  "\u2581whatever": 1836,
  "\u2581AND": 1837,
  "\u2581\u0432\u043a\u044a\u0449\u0438": 1838,
  "\u2581established": 1839,
  "\u2581\u043c\u0435\u0441\u0442\u0430": 1840,
  "\u0441\u0442\u0432\u0430": 1841,
  "\u2581building": 1842,
  "ur": 1843,
  "\u2581\u0434\u0435\u043d\u044f": 1844,
  "\u2581\u0441\u043c\u044a\u0440\u0442\u0442\u0430": 1845,
  "\u2581Treaty": 1846,
  "\u2581\u043f\u0440\u0438\u0447\u0438\u043d\u0430": 1847,
  "v": 1848,
  "\u2581\u0411\u043e\u0433\u0430": 1849,
  "\u2581\u0422\u043e": 1850,
  "\u2581\u0434\u0430\u0432\u0430": 1851,
  "\u2581\u0432\u0438\u0436\u0434\u0430\u043c": 1852,
  "\u2581\u0422\u0430\u0442\u043a\u043e": 1853,
  "\u2581co": 1854,
  "il": 1855,
  "\u2581Sir": 1856,
  "\u043f\u0440\u0435": 1857,
  "\u2581\u0438\u0441\u043a\u0430\u0442": 1858,
  "\u2581return": 1859,
  "\u2581\u041e\u0431\u0438\u0447\u0430\u043c": 1860,
  "\u2581\u0431\u0438\u0437\u043d\u0435\u0441": 1861,
  "ch": 1862,
  "\u2581procedure": 1863,
  "\u2581hair": 1864,
  "\u2581\u041c\u0438\u0441\u043b\u0438\u0448": 1865,
  "\u2581save": 1866,
  "\u2581forget": 1867,
  "\u2581\u0441\u0430\u043c": 1868,
  "\u0449\u0438\u0442\u0435": 1869,
  "\u2581required": 1870,
  "\u2581\u2019": 1871,
  "\u2581effect": 1872,
  "\u2581sit": 1873,
  "\u2581sense": 1874,
  "\u2581black": 1875,
  "\u2581costs": 1876,
  "\u2581\u041f\u043e\u0434": 1877,
  "\u2581\u0434\u0435\u0439\u043d\u043e\u0441\u0442": 1878,
  "\u2581\u043f\u043e\u0441\u043b\u0435\u0434\u043d\u0438\u0442\u0435": 1879,
  "ul": 1880,
  "\u2581low": 1881,
  "\u2581hour": 1882,
  "\u2581among": 1883,
  "\u2581\u0441\u044a\u0440\u0446\u0435\u0442\u043e": 1884,
  "\u2581fast": 1885,
  "\u2581\u043a\u043e\u043b\u0430": 1886,
  "\u2581Which": 1887,
  "\u0433\u0438": 1888,
  "\u2014": 1889,
  "\u2581\u041c": 1890,
  "\u2581field": 1891,
  "\u2581\u043b\u0435\u043a\u0430\u0440": 1892,
  "\u2581himself": 1893,
  "\u2581hate": 1894,
  "\u2581\u043e\u043d\u0435\u0437\u0438": 1895,
  "\u2581experience": 1896,
  "\u2581\u043d\u0438\u0432\u043e": 1897,
  "\u2581\u0414\u0438": 1898,
  "\u2581June": 1899,
  "\u2581alive": 1900,
  "\u2581bed": 1901,
  "\u2581\u043e\u0431\u0440\u0430\u0442\u043d\u043e": 1902,
  "AL": 1903,
  "\u2581\u0441\u043b\u0435\u0434\u043d\u0438\u0442\u0435": 1904,
  "\u2581\u0441\u044a\u0432\u0435\u0442": 1905,
  "\u2581\u043d\u0430\u043f\u0440\u0438\u043c\u0435\u0440": 1906,
  "\u2581seems": 1907,
  "\u2581key": 1908,
  "\u2581effects": 1909,
  "\u2581\u0434\u044a\u0449\u0435\u0440\u044f": 1910,
  "\u043e\u043d": 1911,
  "\u2581\u0438\u0441\u0442\u043e\u0440\u0438\u044f": 1912,
  "\u2581\u0433\u043e\u0432\u043e\u0440\u0438\u043c": 1913,
  "\u2581concerning": 1914,
  "\u2581\u043d\u044f\u043c\u0430\u0448\u0435": 1915,
  "\u043a\u0438\u0442\u0435": 1916,
  "\u2581\u0411\u0430": 1917,
  "\u2581\u0441\u0440\u0435\u0434\u0430": 1918,
  "\u2581running": 1919,
  "\u2581cases": 1920,
  "20": 1921,
  "\u2581follow": 1922,
  "\u041c": 1923,
  "age": 1924,
  "ian": 1925,
  "\u2581\u0432\u044a\u0440\u0432\u0438\u043c": 1926,
  "\u2581white": 1927,
  "\u2581study": 1928,
  "\u2581d": 1929,
  "\u2581\u0417\u0434\u0440\u0430\u0432\u0435\u0439\u0442\u0435": 1930,
  "\u2581\u043d\u043e\u0432\u0430": 1931,
  "\u2581share": 1932,
  "ist": 1933,
  "\u2581related": 1934,
  "\u2581ml": 1935,
  "\u2581\u043f\u0430\u0437\u0430\u0440": 1936,
  "\u2581Keep": 1937,
  "ne": 1938,
  "\u2581married": 1939,
  "\u2581safety": 1940,
  "\u2581\u0438\u0441\u043a\u0430\u043b": 1941,
  "\u2581\u0445\u0443\u0431\u0430\u0432\u043e": 1942,
  "\u2581\u0440\u0435\u0437\u0443\u043b\u0442\u0430\u0442": 1943,
  "\u2581sound": 1944,
  "\u2581month": 1945,
  "\u2581\u0441\u043b\u0443\u0447\u0430\u0438": 1946,
  "\u2581lead": 1947,
  "\u2581thereof": 1948,
  "\u25812017": 1949,
  "\u2581trouble": 1950,
  "\u2581\u043b\u0435\u0447\u0435\u043d\u0438\u0435": 1951,
  "\u041f": 1952,
  "0": 1953,
  "\u2581include": 1954,
  "\u043f\u0440\u043e": 1955,
  "\u2581United": 1956,
  "\u2581result": 1957,
  "\u2581somebody": 1958,
  "\u2581\u043e\u0442\u043d\u0430\u0441\u044f": 1959,
  "\u2581Would": 1960,
  "\u2581quality": 1961,
  "\u2581\u0441\u0440\u0435\u0434": 1962,
  "\u2581sister": 1963,
  "\u0442\u0435\u043b\u043d\u0438": 1964,
  "one": 1965,
  "ive": 1966,
  "\u2581ahead": 1967,
  "\u043d\u044f": 1968,
  "\u2581First": 1969,
  "\u2581pre": 1970,
  "\u2581\u0421\u0442\u0438\u0433\u0430": 1971,
  "\u2581\u043a\u0440\u044a\u0432": 1972,
  "\u2581feeling": 1973,
  "\u2581\u043a\u044a\u0449\u0430": 1974,
  "\u2581cover": 1975,
  "\u2581Very": 1976,
  "\u2581\u043d\u0430\u0447\u0430\u043b\u043e\u0442\u043e": 1977,
  "\u2581\u0435\u043d\u0435\u0440\u0433\u0438\u044f": 1978,
  "\u2581o": 1979,
  "\u2581strong": 1980,
  "00": 1981,
  "\u2581\u0434\u0443\u043c\u0438": 1982,
  "\u0438\u043b\u0438": 1983,
  "ary": 1984,
  "\u2581\u0411\u0438": 1985,
  "\u2581pick": 1986,
  "\u2581age": 1987,
  "ton": 1988,
  "\u2581\u043c\u0438\u0441\u043b\u0438": 1989,
  "\u2581\u0432\u0435\u0440\u043e\u044f\u0442\u043d\u043e": 1990,
  "\u2581\u0440\u0430\u0437\u043c\u0435\u0440": 1991,
  "\u2581\u0431\u044a\u0434\u0435\u0448": 1992,
  "\u2581\u043e\u0447\u0438\u0442\u0435": 1993,
  "\u2581perfect": 1994,
  "\u2581\u043f\u043e\u043c\u043e\u0449\u0442\u0430": 1995,
  "\u0438\u043d": 1996,
  "\u2581\u0417\u0434\u0440\u0430\u0441\u0442\u0438": 1997,
  "\u2581\u0434\u0435\u0439\u0441\u0442\u0432\u0438\u0435": 1998,
  "\u2581\u0436\u0438\u0432\u0435\u0435": 1999,
  "\u2581Two": 2000,
  "\u2581history": 2001,
  "\u0441\u044a": 2002,
  "\u2581\u044e\u043d\u0438": 2003,
  "\u2581t": 2004,
  "\u2581\u0447\u043e\u0432\u0435\u0447\u0435": 2005,
  "\u2581promise": 2006,
  "\u2581\u0414\u043e\u0433\u043e\u0432\u043e\u0440\u0430": 2007,
  "\u2581\u0434\u0430\u043b\u0435\u0447": 2008,
  "\u2581\u043b\u043e\u0448\u043e": 2009,
  "\u0430\u043d": 2010,
  "\u2581\u043f\u0440\u043e\u0442\u0438\u0432": 2011,
  "\u0442\u0430\u0442\u0430": 2012,
  "\u2581early": 2013,
  "un": 2014,
  "\u2581\u0442\u0435\u043b\u0435\u0444\u043e\u043d\u0430": 2015,
  "\u2581miss": 2016,
  "\u2581\u0433\u0430\u0440\u0430\u043d\u0442\u0438\u0440\u0430": 2017,
  "\u2581Bible": 2018,
  "\u2581implementation": 2019,
  "\u2581\u0434\u0435\u0439\u043d\u043e\u0441\u0442\u0438": 2020,
  "\u2581\u043d\u0430\u0448\u0438\u044f": 2021,
  "\u2581points": 2022,
  "\u2581Al": 2023,
  "\u2581\u043b\u0438\u0446\u0435\u0442\u043e": 2024,
  "\u043a\u0443": 2025,
  "\u25814.": 2026,
  "\u2581\u043f\u0440\u0438\u0435\u043c\u0430": 2027,
  "\u2581pain": 2028,
  "OJ": 2029,
  "\u2581purpose": 2030,
  "19": 2031,
  "ro": 2032,
  "\u2581\u0443\u0441\u043b\u043e\u0432\u0438\u044f\u0442\u0430": 2033,
  "\u2581Miss": 2034,
  "\u2581drive": 2035,
  "\u2581earth": 2036,
  "\u25812018": 2037,
  "\u0441\u044a\u043d": 2038,
  "\u2581\u0438\u0437\u0438\u0441\u043a\u0432\u0430\u043d\u0438\u044f": 2039,
  "\u2581size": 2040,
  "\u2581\u0434\u043e\u0431\u0440\u0438": 2041,
  "ine": 2042,
  "\u0446": 2043,
  "de": 2044,
  "\u2581\u0422\u0430\u043c": 2045,
  "\u2581\u0438\u0437\u0438\u0441\u043a\u0432\u0430": 2046,
  "\u2581\u0438\u0437\u0431\u043e\u0440": 2047,
  "\u2581YOU": 2048,
  "\u2581\u0414\u043d\u0435\u0441": 2049,
  "\u0447\u043a\u0430": 2050,
  "\u2581\u043a\u0440\u0430\u0439": 2051,
  "\u2581continue": 2052,
  "\u2581\u0438\u0437\u043a\u043b\u044e\u0447\u0435\u043d\u0438\u0435": 2053,
  "\u2581b": 2054,
  "\u2581\u0448\u0435\u0441\u0442": 2055,
  "30": 2056,
  "\u2581ones": 2057,
  "\u2581\u0440\u044a\u0446\u0435\u0442\u0435": 2058,
  "\u2581\u041b\u0438": 2059,
  "\u2581\u0441\u043f\u043e\u0440\u0430\u0437\u0443\u043c\u0435\u043d\u0438\u0435": 2060,
  "\u2581\u043f\u044a\u043a": 2061,
  "\u2581systems": 2062,
  "ta": 2063,
  "\u2581similar": 2064,
  "\u2581Those": 2065,
  "\u2581X": 2066,
  "\u2581takes": 2067,
  "\u2581TO": 2068,
  "\u2581Christ": 2069,
  "\u2581enter": 2070,
  "\u2581Other": 2071,
  "\u2581\u043a\u0430\u0437\u0432\u0430\u0448": 2072,
  "\u2581\u043c\u044a\u0436\u0435": 2073,
  "\u2581cause": 2074,
  "\u2581sign": 2075,
  "\u2581act": 2076,
  "\u2581Any": 2077,
  "\u2581\u0432\u0438\u0434\u044f\u0445": 2078,
  "ra": 2079,
  "\u2581\u0438\u0433\u0440\u0438": 2080,
  "\u2581\u0441\u0442\u0435\u043f\u0435\u043d": 2081,
  "\u2581received": 2082,
  "\u0434\u0435\u043d": 2083,
  "\u2581\u043e\u043d\u043b\u0430\u0439\u043d": 2084,
  "\u2581technical": 2085,
  "\u2581offer": 2086,
  "\u2581levels": 2087,
  "\u25814,": 2088,
  "\u2581\u0433\u043b\u0430\u0432\u0430": 2089,
  "\u0440\u0430\u043d": 2090,
  "You": 2091,
  "\u2581\u0437\u0430\u043f\u043e\u0447\u043d\u0430": 2092,
  "\u2581everybody": 2093,
  "\u0431\u043e": 2094,
  "\u2581\u0446\u0435\u043b\u0438\u0442\u0435": 2095,
  "\u2581\u0431\u0435\u0437\u043e\u043f\u0430\u0441\u043d\u043e\u0441\u0442": 2096,
  "\u2581\u043e\u0442\u0433\u043e\u0432\u0430\u0440\u044f": 2097,
  "\u2581\u043c\u0435\u0441\u0435\u0446": 2098,
  ".\u201c": 2099,
  "\u2581\u0433\u043e\u043b\u0435\u043c\u0438": 2100,
  "ad": 2101,
  "\u2581\u0441\u044a\u0434\u044a\u0440\u0436\u0430": 2102,
  "\u2581protect": 2103,
  "\u2581request": 2104,
  "\u2581red": 2105,
  "\u2581\u043e\u0431\u0438\u0447\u0430": 2106,
  "\u2581200": 2107,
  "\u2581aren": 2108,
  "\u2581\u0414\u0436\u043e\u043d": 2109,
  "\u2581\u0432\u0440\u0430\u0442\u0430\u0442\u0430": 2110,
  "\u2581normal": 2111,
  "\u2581dinner": 2112,
  "\u2581\u0437\u043d\u0430\u0435\u0445": 2113,
  "\u043e\u0432\u0435\u0442\u0435": 2114,
  "son": 2115,
  "est": 2116,
  "ex": 2117,
  "\u2581boys": 2118,
  "\u2581political": 2119,
  "\u2581\u0442\u0432\u043e\u044f\u0442\u0430": 2120,
  "\u0442\u0435\u043b\u0435\u043d": 2121,
  "\u2581site": 2122,
  "\u2581\u0447\u043b\u0435\u043d\u043e\u0432\u0435": 2123,
  "\u2581happens": 2124,
  "\u2581choice": 2125,
  "ty": 2126,
  "\u2581games": 2127,
  "\u2581pressure": 2128,
  "\u2581\u043d\u043e\u0432\u043e": 2129,
  "\u2581General": 2130,
  "\u2581\u041f\u0440\u0435\u0434\u043f\u043e\u043b\u0430\u0433\u0430\u043c": 2131,
  "\u2581large": 2132,
  "\u2581Her": 2133,
  "ant": 2134,
  "\u2581dog": 2135,
  "\u2581\u0421\u0438": 2136,
  "\u0436\u0438": 2137,
  "\u2581\u043c\u0438\u0441\u043b\u0435\u0445": 2138,
  "\u2581\u043f\u043e\u043b\u0438\u0442\u0438\u043a\u0430": 2139,
  "\u2581Um": 2140,
  "\u2581\u043d\u0430\u043c\u0435\u0440\u0438": 2141,
  "\u2581online": 2142,
  "\u2581training": 2143,
  "\u0435\u043b": 2144,
  "ies": 2145,
  "\u2581additional": 2146,
  "\u2581table": 2147,
  "\u2581\u043f\u0440\u0435\u0434\u0441\u0442\u0430\u0432\u043b\u044f\u0432\u0430": 2148,
  "\u2581\u0448\u0430\u043d\u0441": 2149,
  "\u2581\u043f\u0440\u0438\u043b\u0430\u0433\u0430\u043d\u0435": 2150,
  "\u2581worked": 2151,
  "\u2581\u0441\u0432\u044a\u0440\u0448\u0438": 2152,
  "\u0447\u0435\u043d": 2153,
  "\u2581\u043d\u044f\u043a\u043e\u0433\u0430": 2154,
  "\u2581leaving": 2155,
  "\u2581\u0442\u0430": 2156,
  "\u25812000": 2157,
  "\u2581\u0441\u0440\u043e\u043a": 2158,
  "\u2581\u0440\u0438\u0441\u043a": 2159,
  "\u2581laid": 2160,
  "\u2581\u0446\u0435\u043d\u0430": 2161,
  "\u2581credit": 2162,
  "\u0424": 2163,
  "\u25812004": 2164,
  "\u0442\u0440\u0438": 2165,
  "\u2581several": 2166,
  "\u2581October": 2167,
  "\u2581current": 2168,
  "\u2581kg": 2169,
  "\u2581\u0441\u0440\u0435\u0434\u0441\u0442\u0432\u043e": 2170,
  "\u2581agreement": 2171,
  "\u2581cool": 2172,
  "\u2581members": 2173,
  "\u2581competent": 2174,
  "\u2581step": 2175,
  "ING": 2176,
  "te": 2177,
  "\u2581\u0441\u043c\u044a\u0440\u0442": 2178,
  "\u2581January": 2179,
  "\u2581\u0414\u0430\u043b\u0438": 2180,
  "\u2581\u043f\u043e\u043b\u0438\u0446\u0438\u044f\u0442\u0430": 2181,
  "\u2581People": 2182,
  "\u2581\u043e\u0447\u0430\u043a\u0432\u0430": 2183,
  "\u2581thanks": 2184,
  "\u2581final": 2185,
  "\u2581\u0432\u0438\u0434\u0438\u0448": 2186,
  "ry": 2187,
  "\u2581\u0421\u043f\u0440\u0438": 2188,
  "\u2581equipment": 2189,
  "\u2581\u0442\u0440\u044f\u0431\u0432\u0430\u043b\u043e": 2190,
  "\u2581\u041c\u0430\u043c\u043e": 2191,
  "ent": 2192,
  "\u2581research": 2193,
  "\u2581\u0447\u0430\u0441\u0442\u0438": 2194,
  "\u0414\u0430": 2195,
  "\u043e\u0431": 2196,
  "\u2581figure": 2197,
  "\u0442\u0435\u043b\u043d\u043e": 2198,
  "\u2581seem": 2199,
  "\u2581often": 2200,
  "\u2581learn": 2201,
  "\u2581stupid": 2202,
  "\u2581\u0432\u044a\u043f\u0440\u043e\u0441\u0430": 2203,
  "\u2581\u043e\u0442\u0433\u043e\u0432\u043e\u0440": 2204,
  "\u2581\u0434\u044a\u0440\u0436\u0430\u0432\u0430\u0442\u0430": 2205,
  "\u2581\u043a\u0430\u0436\u0435": 2206,
  "\u2581\u0421\u044a": 2207,
  "do": 2208,
  "\u2581\u0432\u044a\u0437\u0440\u0430\u0441\u0442": 2209,
  "\u2581sex": 2210,
  "\u2581)": 2211,
  "\u2581message": 2212,
  "01": 2213,
  "\u043d\u0433": 2214,
  "\u0448\u0430": 2215,
  "\u2581rather": 2216,
  "\u2581\u041c\u043e\u0436\u0435\u0448": 2217,
  "\u2581\u043a\u043e": 2218,
  "25": 2219,
  "\u2581\u0449\u0435\u0448\u0435": 2220,
  "\u2581\u0435\u0437\u0438\u043a": 2221,
  "\u2581\u0436\u0438\u0432\u043e\u0442\u043d\u0438": 2222,
  "\u2581Hold": 2223,
  "\u2581\u043f\u0440\u043e\u0434\u044a\u043b\u0436\u0438": 2224,
  "\u0432\u0435\u0440": 2225,
  "\u2581fall": 2226,
  "\u2581\u0434\u0432\u0430\u043c\u0430": 2227,
  "\u2581ma": 2228,
  "\u2581responsible": 2229,
  "\u2581\u043d\u0430\u043c\u0438\u0440\u0430": 2230,
  "\u2581Court": 2231,
  "\u2581\u0441\u0442\u0430\u044f": 2232,
  "\u2581\u043c\u044a\u0440\u0442\u044a\u0432": 2233,
  "\u2581companies": 2234,
  "\u2581\u044e\u043b\u0438": 2235,
  "\u2581\u0418\u0437\u0432\u0438\u043d\u044f\u0432\u0430\u0439": 2236,
  "\u2581hey": 2237,
  "\u2581\u0445\u0440\u0430\u043d\u0438": 2238,
  "id": 2239,
  "\u2581\u043f\u044a\u0440\u0432\u0430\u0442\u0430": 2240,
  "\u2581\u041c\u0430\u0439": 2241,
  "\u2581\u043e\u043a\u0442\u043e\u043c\u0432\u0440\u0438": 2242,
  "\u2581road": 2243,
  "\u2581\u0412\u0438\u0436\u0442\u0435": 2244,
  "\u2581involved": 2245,
  "\u2581class": 2246,
  "\u2581\u0437\u0430\u0433\u0443\u0431\u0430": 2247,
  "\u2581\u044f\u043d\u0443\u0430\u0440\u0438": 2248,
  "la": 2249,
  "\u2581address": 2250,
  "\u2581<": 2251,
  "_": 2252,
  "\u2581\u043f\u043e\u0434\u043e\u0431\u043d\u0438": 2253,
  "\u0441\u0442\u0432\u043e": 2254,
  "U": 2255,
  "\u043d\u0438\u044f\u0442\u0430": 2256,
  "\u044a\u043b": 2257,
  "\u2581\u043a\u0430\u043a\u044a\u0432": 2258,
  "\u2581entire": 2259,
  "\u2581um": 2260,
  "\u2581\u043d\u0430\u043c\u0435\u0440\u044f": 2261,
  "\u2581\u043e\u043d\u043e\u0432\u0430": 2262,
  "J": 2263,
  "\u2581areas": 2264,
  "\u2581paid": 2265,
  "\u2581Put": 2266,
  "\u2581bitch": 2267,
  "cause": 2268,
  "\u043c\u0435\u043d": 2269,
  "\u2581x": 2270,
  "ting": 2271,
  "\u2581changes": 2272,
  "\u2581terms": 2273,
  "\u2581\u0437\u0430\u043f\u043e\u0447\u0432\u0430": 2274,
  "\u2581\u0447\u043b\u0435\u043d\u043a\u0430": 2275,
  "\u2581cost": 2276,
  "\u2581\u043d\u044f\u043a\u043e\u0433\u043e": 2277,
  "\u0442\u0435\u043b": 2278,
  "\u2581\u0420\u0435": 2279,
  "less": 2280,
  "\u2581vehicle": 2281,
  "ter": 2282,
  "\u2581Nice": 2283,
  "\u2581\u0435\u0432\u0440\u043e": 2284,
  "\u2581murder": 2285,
  "\u2581\u041c\u0438": 2286,
  "\u2581Everything": 2287,
  "\u2581\u043a\u0430\u0436\u0438": 2288,
  "\u2581\u0441\u044a\u043e\u0442\u0432\u0435\u0442\u043d\u0438\u0442\u0435": 2289,
  "\u0448\u0438": 2290,
  "\u2581\u0441\u0435\u0441\u0442\u0440\u0430": 2291,
  "\u2581\u0410\u043b\u043b\u0430\u0445": 2292,
  "\u0443\u043c": 2293,
  "\u2581gas": 2294,
  "\u2581\u043a\u0430\u0436\u0435\u0442\u0435": 2295,
  "\u2581\u0431\u043b\u0438\u0437\u043e": 2296,
  "\u2581\u043f\u0440\u0435\u0434\u043e\u0441\u0442\u0430\u0432\u044f": 2297,
  "\u2581\u0432\u0438\u0434\u043e\u0432\u0435": 2298,
  "\u2581\u0432\u0438\u0441\u043e\u043a\u043e": 2299,
  "\u0435\u0446": 2300,
  "\u2581below": 2301,
  "\u2581\u0421\u043f\u043e\u0440\u0430\u0437\u0443\u043c\u0435\u043d\u0438\u0435\u0442\u043e": 2302,
  "\u2581held": 2303,
  "\u2581active": 2304,
  "ce": 2305,
  "\u2581\u0441\u043b\u0443\u0447\u0438\u043b\u043e": 2306,
  "\u2581\u043d\u044f\u043a\u0430\u043a\u044a\u0432": 2307,
  "\u2581clean": 2308,
  "\u2581\u043e\u043f\u0440\u0435\u0434\u0435\u043b\u044f\u043d\u0435": 2309,
  "\u2581\u0438\u0437\u0438\u0441\u043a\u0432\u0430\u043d\u0438\u044f\u0442\u0430": 2310,
  "\u2581Was": 2311,
  "\u2581Jack": 2312,
  "\u2581space": 2313,
  "\u2581directly": 2314,
  "\u2581St": 2315,
  "\u2581material": 2316,
  "\u2581\u043f\u0440\u0438\u043b\u0430\u0433\u0430\u043d\u0435\u0442\u043e": 2317,
  "\u2581About": 2318,
  "\u2581issue": 2319,
  "):": 2320,
  "\u2581sector": 2321,
  "\u2581animals": 2322,
  "\u25812005": 2323,
  "40": 2324,
  "ling": 2325,
  "\u2581private": 2326,
  "\u0442\u044a\u043d": 2327,
  "\u2581\u0432\u044a\u043f\u0440\u0435\u043a\u0438": 2328,
  "\u2581\u0441\u0438\u0433\u0443\u0440\u0435\u043d": 2329,
  "\u2581near": 2330,
  "\u258190": 2331,
  "\u2581\u043a\u044a\u0441\u043d\u043e": 2332,
  "\u2581\u0434\u043e\u0432\u0435\u0434\u0435": 2333,
  "\u2581decided": 2334,
  "\u2581sick": 2335,
  "\u2581assessment": 2336,
  "\u2581\u041a\u043e\u0433\u0430": 2337,
  "\u2581\u043f\u0440\u043e\u0434\u044a\u043b\u0436\u0430\u0432\u0430": 2338,
  "\u2581\u041c\u0430\u043c\u043a\u0430": 2339,
  "\u2581sea": 2340,
  "\u2581win": 2341,
  "\u2581paper": 2342,
  "\u2581\u043a\u043e\u0433\u043e": 2343,
  "\u2581\u043f\u0440\u043e\u0434\u0443\u043a\u0442\u0430": 2344,
  "\u2581giving": 2345,
  "\u2581asking": 2346,
  "\u2581Only": 2347,
  "\u2581\u043f\u0440\u0430\u0432\u0438\u0442\u0435": 2348,
  "\u2581\u0441\u043b\u0443\u0447\u0430\u044f": 2349,
  "\u044a\u043d": 2350,
  "\u2581Sofia": 2351,
  "\u2581animal": 2352,
  "\u044e": 2353,
  "\u2581cooperation": 2354,
  "\u2581More": 2355,
  "\u2581hospital": 2356,
  "\u2581\u0415\u0418\u041f": 2357,
  "\u2581reported": 2358,
  "X": 2359,
  "\u2581ten": 2360,
  "\u2581\u0440\u0435\u0448\u0435\u043d\u0438\u044f": 2361,
  "\u2581EEA": 2362,
  "\u2581ship": 2363,
  "11": 2364,
  "\u2581covered": 2365,
  "\u2581Got": 2366,
  "\u2581\u041d\u044e": 2367,
  "\u2581Republic": 2368,
  "\u2581investigation": 2369,
  "\u0441\u0442\u0430": 2370,
  "\u2581n": 2371,
  "ated": 2372,
  "\u2581diet": 2373,
  "\u2581TV": 2374,
  "\u2581\u0442\u0440\u0435\u0442\u0438": 2375,
  "\u2581\u043c\u043e\u0435\u0442\u043e": 2376,
  "\u2581funny": 2377,
  "90": 2378,
  "\u0444\u0438": 2379,
  "\u2581\u043a\u043e\u0433\u043e\u0442\u043e": 2380,
  "\u2581\u0441\u0442\u0440\u0443\u0432\u0430": 2381,
  "\u2581\u0421\u0410\u0429": 2382,
  "\u2581fish": 2383,
  "\u2581Father": 2384,
  "\u2581bar": 2385,
  "\u0441\u0442\u0442\u0430": 2386,
  "\u2581\u0414\u0436\u043e": 2387,
  "\u2581November": 2388,
  "\u2581\u043d\u044f\u043c\u0430\u043c": 2389,
  "\u2581section": 2390,
  "\u2581\u043e\u0442\u0438\u0434\u0435": 2391,
  "\u2581\u041e\u0431": 2392,
  "\u2581\u0432\u0435\u0449\u0435\u0441\u0442\u0432\u0430": 2393,
  "\u2581\u0414\u0436\u0430\u043a": 2394,
  "\u2581\u0414\u0440\u0443\u0433\u0438": 2395,
  "\u2581\u043f\u0440\u043e\u0438\u0437\u0445\u043e\u0434": 2396,
  "\u043e\u0441\u0442": 2397,
  "\u0432\u0435\u043d": 2398,
  "\u2581\u041a\u0430\u043a\u0432\u0438": 2399,
  "\u2581\u043c\u043e\u0438\u0442\u0435": 2400,
  "\u258135": 2401,
  "\u2581parties": 2402,
  "\u2581\u041f\u043e\u0440\u0430\u0434\u0438": 2403,
  "\u2581damn": 2404,
  "\u0442\u0435\u043b\u043d\u0430": 2405,
  "see": 2406,
  "\u2581anyway": 2407,
  "\u2581\u0434\u043e\u0437\u0430": 2408,
  "\u0449\u0430\u0442\u0430": 2409,
  "\u044f\u0432\u0430\u043d\u0435": 2410,
  "mplementing": 2411,
  "\u2581Z": 2412,
  "\u2581\u043c\u0430\u043b\u043a\u0438": 2413,
  "\u2581Wow": 2414,
  "\u043b\u0435\u043d": 2415,
  "\u0441\u0442\u0432\u043e\u0442\u043e": 2416,
  "\u2581opinion": 2417,
  "\u2581\u0441\u044a\u0449\u0435\u0441\u0442\u0432\u0443\u0432\u0430": 2418,
  "\u2581anti": 2419,
  "\u2581\u041c\u0430\u043b\u043a\u043e": 2420,
  "\u2581touch": 2421,
  "\u2581\u0447\u0435\u0442\u0438\u0440\u0438": 2422,
  "\u2581industry": 2423,
  "\u2581goods": 2424,
  "\u2581\u0438\u0441\u043a\u0430\u043c\u0435": 2425,
  "\u2581\u0434\u0435\u0439\u0441\u0442\u0432\u0438\u044f": 2426,
  "\u2581\u0441\u0435\u0440\u0438\u043e\u0437\u043d\u043e": 2427,
  "\u2581\u0441\u0438\u0441\u0442\u0435\u043c\u0438": 2428,
  "\u2581\u043d\u0430\u043c\u0435\u0440\u0438\u043c": 2429,
  "\u2581code": 2430,
  "\u2581events": 2431,
  "\u2581\u0411\u0430\u0449\u0430": 2432,
  "\u2581\u0441\u0438\u0441\u0442\u0435\u043c\u0430\u0442\u0430": 2433,
  "\u2581\u0441\u044a\u0434": 2434,
  "\u2581secret": 2435,
  "\u2581\u043c\u0430\u043b\u043a\u0430": 2436,
  "\u2581\u0449\u043e\u043c": 2437,
  "\u2581\u0442\u043e\u0447\u043a\u0438": 2438,
  "\u258180": 2439,
  "\u2581\u043f\u0440\u0430\u0432": 2440,
  "rs": 2441,
  "\u0447\u043a\u0438": 2442,
  "ir": 2443,
  "\u2581Since": 2444,
  "\u2581turned": 2445,
  "\u2581\u0438\u0437\u043f\u043e\u043b\u0437\u0432\u0430\u043d\u0435": 2446,
  "\u2581\u041a\u043e": 2447,
  "\u2581Fuck": 2448,
  "\u2581content": 2449,
  "\u2581operation": 2450,
  "\u2581felt": 2451,
  "\u2581March": 2452,
  "\u2581\u0433\u0440\u0435\u0448\u043a\u0430": 2453,
  "\u2581..": 2454,
  "\u2581species": 2455,
  "\u2581\u0414\u043e\u043a\u0430\u0442\u043e": 2456,
  "\u2581\u0444\u043e\u0440\u043c\u0430": 2457,
  "you": 2458,
  "\u2581\u043f\u0440\u0435\u043a\u0430\u043b\u0435\u043d\u043e": 2459,
  "\u2581\u041f\u044a\u0440\u0432\u043e": 2460,
  "\u2581carried": 2461,
  "\u2581\u0432\u0437\u0435\u043c\u0435": 2462,
  "\u2581event": 2463,
  "\u2581allow": 2464,
  "\u2581\u0440\u044a\u043a\u0430": 2465,
  "\u2581skin": 2466,
  "\u2581Does": 2467,
  "\u2581\u0437\u043d\u0430\u044f\u0442": 2468,
  "\u2581\u0441\u043c\u0438\u0441\u044a\u043b": 2469,
  "\u2581difficult": 2470,
  "\u2581\u0432\u043b\u0438\u0437\u0430": 2471,
  "per": 2472,
  "\u2581\u043d\u044f\u043a\u044a\u0434\u0435": 2473,
  "\u0435\u043c": 2474,
  "\u2581\u0414\u043e\u0431\u0440\u043e": 2475,
  "\u2581sort": 2476,
  "\u043b\u0432": 2477,
  "\u0417": 2478,
  "\u2581forward": 2479,
  "\u2581Captain": 2480,
  "\u2581reference": 2481,
  "\u2581ground": 2482,
  "\u2581\u0441\u043b\u0443\u0447\u0432\u0430": 2483,
  "\u2581\u0425\u043e\u0440\u0430\u0442\u0430": 2484,
  "\u2581\u043f\u0440\u0435\u0434\u0441\u0442\u0430\u0432\u044f": 2485,
  "os": 2486,
  "\u2581f": 2487,
  "\u2581added": 2488,
  "\u2581\u0432\u043c\u0435\u0441\u0442\u043e": 2489,
  "\u2581\u0433\u043e\u043b\u044f\u043c\u043e": 2490,
  "\u2581\u0441\u0447\u0438\u0442\u0430": 2491,
  "\u2581attention": 2492,
  "\u2581\u0415\u0434\u043d\u0430": 2493,
  "\u2581\u043e\u0431\u0438\u043a\u043d\u043e\u0432\u0435\u043d\u043e": 2494,
  "\u2581shoot": 2495,
  "\u2581picture": 2496,
  "\u2581transport": 2497,
  "\u2581Fine": 2498,
  "\u2581\u043e\u043d\u0437\u0438": 2499,
  "tic": 2500,
  "\u2581\u0415\u0434\u043d\u043e": 2501,
  "\u2581solution": 2502,
  "\u2581\u0432\u0430\u0448\u0430\u0442\u0430": 2503,
  "\u2581\u0411\u0438\u043b": 2504,
  "\u2581\u0432\u044a\u0440\u0432\u0438": 2505,
  "\u2581\u043e\u0442\u0433\u043e\u0432\u043e\u0440\u0438": 2506,
  "\u2581themselves": 2507,
  "\u2581across": 2508,
  "\u2581\u043e\u043f\u0440\u0435\u0434\u0435\u043b\u0435\u043d\u043e": 2509,
  "\u2581\u0441\u0442\u0430\u044f\u0442\u0430": 2510,
  "\u2581capacity": 2511,
  "\u2581\u0434\u0430\u043d\u043d\u0438\u0442\u0435": 2512,
  "\u2581\u0441\u044a\u0449\u0438\u044f": 2513,
  "\u2581kept": 2514,
  "\u2581\u0440\u0435\u0448\u0435\u043d\u0438\u0435\u0442\u043e": 2515,
  "What": 2516,
  "\u2581\u043d\u0435\u0433\u043e\u0432\u0438\u0442\u0435": 2517,
  "\u2581region": 2518,
  "\u2581cold": 2519,
  "EEC": 2520,
  "\u2581\u0437\u0430\u0442\u0432\u043e\u0440\u0430": 2521,
  "\u2581\u041d\u044f\u043a\u043e\u0438": 2522,
  "\u2581\u0442\u0440\u044a\u0433\u0432\u0430\u043c\u0435": 2523,
  "\u2581\u041e\u0442\u043a\u044a\u0434\u0435": 2524,
  "\u2581bank": 2525,
  "\u0430\u0442": 2526,
  "\u2581>": 2527,
  "\u2581capital": 2528,
  "\u2581\u043a\u0430\u043a\u0432\u0430": 2529,
  "ka": 2530,
  "\u0435\u043d\u043e": 2531,
  "\u2581\u0434\u043e\u043a\u043b\u0430\u0434": 2532,
  "\u2581\u043f\u0440\u043e\u0438\u0437\u0432\u043e\u0434\u0441\u0442\u0432\u043e": 2533,
  "\u2581\u0441\u0443\u0442\u0440\u0438\u043d": 2534,
  "\u2581\u0438\u0441\u043a\u0430\u0448\u0435": 2535,
  "\u2581\u0417\u043d\u0430\u0435\u0442\u0435": 2536,
  "\u0440\u0435\u043d": 2537,
  "\u2581\u0441\u0442\u0440\u0430\u043d\u043d\u043e": 2538,
  "\u2581addition": 2539,
  "\u2581\u043e\u0433\u043b\u0435\u0434": 2540,
  "lo": 2541,
  "\u0445\u0438": 2542,
  "\u2581\u0422\u0440\u0438": 2543,
  "\u2581completely": 2544,
  "\u2581eye": 2545,
  "\u2581September": 2546,
  "\u2581institutions": 2547,
  "\u2581\u0441\u043c\u0435\u0442\u043a\u0430": 2548,
  "\u043a\u0432\u0430": 2549,
  "\u2581Bye": 2550,
  "\u258132": 2551,
  "\u2581\u0421\u0435": 2552,
  "\u2581major": 2553,
  "\u2581\u043f\u043e\u0437\u0432\u043e\u043b\u044f\u0432\u0430": 2554,
  "\u2581increased": 2555,
  "\u2581\u043f\u0440\u0438\u043b\u0430\u0433\u0430\u0442": 2556,
  "13": 2557,
  "\u2581David": 2558,
  "\u2581tax": 2559,
  "\u2581\u043f\u0440\u0438\u0447\u0438\u043d\u0438": 2560,
  "\u2581simple": 2561,
  "\u0440\u0430\u043d\u043e": 2562,
  "\u043d\u0438\u0435": 2563,
  "\u2581nature": 2564,
  "\u2581\u0441\u0430\u043c\u0430": 2565,
  "\u2581playing": 2566,
  "05": 2567,
  "\u2581\u043f\u043e\u0432\u044f\u0440\u0432\u0430\u043c": 2568,
  "\u2581\u0431\u044f\u0445\u043c\u0435": 2569,
  "ak": 2570,
  "\u2581lie": 2571,
  "\u2581coffee": 2572,
  "\u2581\u043c\u0430\u043b\u044a\u043a": 2573,
  "con": 2574,
  "ac": 2575,
  "\u2581\u043a\u0430": 2576,
  "\u2581500": 2577,
  "\u2581parts": 2578,
  "\u2581Paul": 2579,
  "\u2581\u043d\u043e\u0435\u043c\u0432\u0440\u0438": 2580,
  "\u2581member": 2581,
  "\u2581higher": 2582,
  "\u2581activity": 2583,
  "\u2581\u041c\u0430\u043a": 2584,
  "\u2581Journal": 2585,
  "\u2581\u043f\u0440\u0435\u0434\u043b\u0430\u0433\u0430": 2586,
  "\u2581maximum": 2587,
  "\u2581oil": 2588,
  "\u2581\u0432\u0435\u0441\u0442\u043d\u0438\u043a": 2589,
  "\u2581adopted": 2590,
  "\u2581\u043d\u044f\u043a\u0430\u043a\u0432\u0430": 2591,
  "\u2581\u0445\u0438\u043b\u044f\u0434\u0438": 2592,
  "\u2581relationship": 2593,
  "\u2581piece": 2594,
  "\u2581finally": 2595,
  "\u2581\u043b\u0432": 2596,
  "we": 2597,
  "\u2581complete": 2598,
  "\u2581king": 2599,
  "ous": 2600,
  "\u0438\u044f\u0442\u0430": 2601,
  "Z": 2602,
  "\u2581write": 2603,
  "\u2581\u043e\u0442\u0438\u0434\u0435\u043c": 2604,
  "\u2581Mm": 2605,
  "\u0431\u044a\u0440\u0437\u043e": 2606,
  "\u2581music": 2607,
  "\u2581\u0434\u043e\u043c": 2608,
  "\u2581court": 2609,
  "\u041d\u0418": 2610,
  "\u00e9": 2611,
  "\u2581page": 2612,
  "\u2581luck": 2613,
  "\u2581\u043e\u0441\u0442\u0430\u0432\u0430": 2614,
  "\u2581honey": 2615,
  "\u2581amended": 2616,
  "\u25812003": 2617,
  "\u2581\u0438\u0437\u043f\u044a\u043b\u043d\u0435\u043d\u0438\u0435\u0442\u043e": 2618,
  "\u258145": 2619,
  "\u2581Am": 2620,
  "\u2581\u041d\u0430\u0434\u044f\u0432\u0430\u043c": 2621,
  "\u2581moving": 2622,
  "\u2581disease": 2623,
  "60": 2624,
  "da": 2625,
  "\u2581\u043e\u0441\u0442\u0430\u0432\u044f": 2626,
  "ov": 2627,
  "\u2581interested": 2628,
  "\u2581\u043f\u043e\u0437\u0438\u0446\u0438\u044f": 2629,
  "\u2581\u043a\u0430\u0437\u0432\u0430\u0442": 2630,
  "\u0440\u044f": 2631,
  "\u2581\u043d\u0435\u0433\u043e\u0432\u0430\u0442\u0430": 2632,
  "\u2581dear": 2633,
  "\u0415\u0418\u041e": 2634,
  "\u2581dream": 2635,
  "\u2581explain": 2636,
  "\u2581Con": 2637,
  "\u2581\u043e\u043f\u0440\u0435\u0434\u0435\u043b\u044f": 2638,
  "\u2581National": 2639,
  "\u2581lady": 2640,
  "\u2581agree": 2641,
  "\u2581self": 2642,
  "\u2581\u0434\u043e\u043b\u0443": 2643,
  "\u2581\u0438\u0441\u0442\u043e\u0440\u0438\u044f\u0442\u0430": 2644,
  "\u2581\u0440\u0430\u0437\u0445\u043e\u0434\u0438\u0442\u0435": 2645,
  "\u2581mouth": 2646,
  "\u2581expected": 2647,
  "ma": 2648,
  "\u2581\u0440\u044a\u043a\u0430\u0442\u0430": 2649,
  "\u2581\u043b\u0438\u043d\u0438\u044f": 2650,
  "\u2581\u0441\u0435\u043f\u0442\u0435\u043c\u0432\u0440\u0438": 2651,
  "\u2581\u0441\u0438\u0433\u0443\u0440\u043d\u043e": 2652,
  "\u2581\u043c\u0438\u0441\u043b\u0438\u0442\u0435": 2653,
  "\u2581individual": 2654,
  "ut": 2655,
  "of": 2656,
  "\u2581\u043c\u0430\u0442\u0435\u0440\u0438\u0430\u043b\u0438": 2657,
  "\u0440\u0435": 2658,
  "\u2581\u0434\u0443\u0448\u0438": 2659,
  "\u2581included": 2660,
  "\u2581sometimes": 2661,
  "\u2581Shut": 2662,
  "\u2581effective": 2663,
  "\u2581\u0438\u043d\u0441\u0442\u0440\u0443\u043c\u0435\u043d\u0442\u0438": 2664,
  "\u2581compare": 2665,
  "di": 2666,
  "2,": 2667,
  "\u2581worth": 2668,
  "all": 2669,
  "\u2581patient": 2670,
  "\u2581investment": 2671,
  "\u2581\u0441\u044a\u0432\u0441\u0435\u043c": 2672,
  "\u2581\u0432\u0437\u0435\u043c\u0430\u0442": 2673,
  "\u2581missing": 2674,
  "\u2581pursuant": 2675,
  "\u2581\u041a\u0443": 2676,
  "\u25812002": 2677,
  "\u2581\u043e\u0441\u0442\u0430\u043d\u0430\u043b\u0438\u0442\u0435": 2678,
  "\u2581\u0432\u0430\u0448\u0438\u044f": 2679,
  "\u2581\u0441\u0442\u0440\u0430\u043d\u0438\u0442\u0435": 2680,
  "\u2581\u0432\u0438\u0436": 2681,
  "\u2581waste": 2682,
  "\u2581\u0440\u0435\u0430\u043a\u0446\u0438\u0438": 2683,
  "\u2581Every": 2684,
  "\u2581became": 2685,
  "\u2581\u0441\u0442\u0440\u0430\u0445\u043e\u0442\u043d\u043e": 2686,
  "\u0435\u0442\u043e": 2687,
  "\u2581entry": 2688,
  "\u2581performance": 2689,
  "\u2581purposes": 2690,
  "\u2581shut": 2691,
  "\u2581catch": 2692,
  "out": 2693,
  "\u2581Something": 2694,
  "\u2581\u043f\u043e\u0432\u0435\u0447\u0435\u0442\u043e": 2695,
  "\u0447\u0435\u0442\u0430": 2696,
  "j": 2697,
  "\u2581\u0431\u044a\u0434\u0435\u043c": 2698,
  "\u2581hotel": 2699,
  "\u2581welcome": 2700,
  "!\"": 2701,
  "\u2581\u0410\u043b\u043e": 2702,
  "\u2581calling": 2703,
  "\u2581\u0425\u0430": 2704,
  "\u2581\u0447\u0443\u0432\u0441\u0442\u0432\u0430\u043c": 2705,
  "\u2581fault": 2706,
  "\u2581\u0446\u044f\u043b": 2707,
  "\u2581procedures": 2708,
  "\u2581\u0411\u0438\u0445": 2709,
  "\u2581\u043f\u0440\u0430\u0432\u043e\u0442\u043e": 2710,
  "\u2581Bank": 2711,
  "\u0438\u043b": 2712,
  "\u2581\u043f\u0440\u0430\u0432\u0438\u043b\u0430\u0442\u0430": 2713,
  "\u2581budget": 2714,
  "\u2581Most": 2715,
  "\u2581Mo": 2716,
  "\u2581pass": 2717,
  "\u2581cross": 2718,
  "\u2581\u043b\u0438\u0447\u043d\u043e": 2719,
  "\u2581\u0434\u0435\u0442\u0435\u0442\u043e": 2720,
  "\u2581$": 2721,
  "\u2581\u043c\u0430\u0440\u0442": 2722,
  "\u2581however": 2723,
  "\u2581expect": 2724,
  "way": 2725,
  "\u2581\u0436\u0435\u043d\u0438\u0442\u0435": 2726,
  "\u2581range": 2727,
  "\u2581changed": 2728,
  "\u2581standard": 2729,
  "ance": 2730,
  "\u2581\u0440\u0430\u0437\u043f\u043e\u0440\u0435\u0434\u0431\u0438": 2731,
  "\u2581sweet": 2732,
  "\u2581\u0438\u0437\u043c\u0435\u043d\u0435\u043d\u0438\u0435": 2733,
  "\u2581\u043e\u0442\u0442\u0443\u043a": 2734,
  "\u2581Co": 2735,
  "\u2581glad": 2736,
  "\u2581post": 2737,
  "\u2581\u043a\u0430\u0444\u0435": 2738,
  "\u258170": 2739,
  "\u2581\u043f\u043e\u0433\u043e\u0432\u043e\u0440\u0438\u043c": 2740,
  "\u2581\u043f\u043e\u043b\u0437\u0430": 2741,
  "ge": 2742,
  "ri": 2743,
  "\u2581medical": 2744,
  "\u2581\u041d\u0430\u043f\u0440\u0430\u0432\u0438": 2745,
  "\u2581looked": 2746,
  "\u2581\u043f\u0440\u043e\u0438\u0437\u0432\u043e\u0434\u0441\u0442\u0432\u043e\u0442\u043e": 2747,
  "ha": 2748,
  "ish": 2749,
  "\u2581shouldn": 2750,
  "\u2581\u0432\u043d\u043e\u0441": 2751,
  "\u2581Minister": 2752,
  "\u2581feet": 2753,
  "\u0431\u0440\u0430": 2754,
  "\u2581\u0438\u0437\u0441\u043b\u0435\u0434\u0432\u0430\u043d\u0438\u044f": 2755,
  "\u2581studies": 2756,
  "im": 2757,
  "\u2581\u043f\u0440\u0430\u0432\u0438\u043b\u043d\u043e": 2758,
  "\u2581\u043a\u0430\u0440\u0430": 2759,
  "\u2581loved": 2760,
  "\u2581persons": 2761,
  "\u2581\u043d\u043e\u0441\u0438": 2762,
  "\u2581\u0412\u0437\u0435\u043c\u0438": 2763,
  "ating": 2764,
  "\u2581\u043e\u0441\u0442\u0430\u0432\u0438": 2765,
  "\u2581\u0432\u044f\u0440\u043d\u043e": 2766,
  "\u2581\u0432\u043e\u0439\u043d\u0430": 2767,
  "\u2581cell": 2768,
  "\u2581straight": 2769,
  "\u2581\u0431\u0438\u0445\u0430": 2770,
  "\u2581potential": 2771,
  "\u043b\u0443": 2772,
  "\u2581charge": 2773,
  "\u2581granted": 2774,
  "15": 2775,
  "\u0438\u0447\u043d\u0438": 2776,
  "\u2581\u0432\u0435\u0447\u0435\u0440\u044f": 2777,
  "\u2581\u0420\u0430\u0437\u0431\u0438\u0440\u0430\u043c": 2778,
  "\u2581\u0441\u0442\u0430\u043d\u0430\u043b\u043e": 2779,
  "\u2581happening": 2780,
  "\u2581letter": 2781,
  "\u0438\u0435": 2782,
  "\u0432\u0430\u043d\u0435\u0442\u043e": 2783,
  "\u2581bodies": 2784,
  "\u2581Never": 2785,
  "ite": 2786,
  "\u2581resources": 2787,
  "\u2581values": 2788,
  "\u2581\u043e\u0441": 2789,
  "\u2581\u041b\u0430": 2790,
  "\u2581International": 2791,
  "\u2581programme": 2792,
  "\u2581peace": 2793,
  "\u2581French": 2794,
  "\u2581whose": 2795,
  "\u2581\u0421\u043e\u0444\u0438\u044f": 2796,
  "\u2581\u043c": 2797,
  "\u2581fear": 2798,
  "\u2581\u0433\u0440\u0443\u043f\u0438": 2799,
  "\u2581immediately": 2800,
  "\u2581\u043c\u0430\u0437\u043d\u0438\u043d\u0438": 2801,
  "\u2581\u043c\u043e\u043c\u0438\u0447\u0435\u0442\u0430": 2802,
  "\u0425": 2803,
  "\u2581\u0414\u043e\u0431\u044a\u0440": 2804,
  "\u2581\u043f\u0440\u0435\u0434\u0441\u0435\u0434\u0430\u0442\u0435\u043b": 2805,
  "\u2581seeing": 2806,
  "\u2581According": 2807,
  "\u0442\u0438\u0442\u0435": 2808,
  "\u2581\u043e\u0441\u0442\u0430\u043d\u0430": 2809,
  "\u2581\u043f\u0440\u043e\u0446\u0435\u0441": 2810,
  "\u2581\u0436\u0438\u0432": 2811,
  "\u2581especially": 2812,
  "\u2581\u0422": 2813,
  "\u2581\u0432\u044f\u0440\u0432\u0430\u043c": 2814,
  "\u2581\u00bb": 2815,
  "\u2581\u0412\u0440\u0435\u043c\u0435": 2816,
  "\u2581Peter": 2817,
  "\u2581speed": 2818,
  "\u2581prices": 2819,
  "\u2581\u0443\u0431\u0438\u0435": 2820,
  "\u2581measure": 2821,
  "\u2581knowledge": 2822,
  "04": 2823,
  "\u2581\u043d\u043e\u0432\u0438\u043d\u0438": 2824,
  "\u2581\u0432\u0430\u0448\u0438\u0442\u0435": 2825,
  "\u2581\u043f\u0440\u043e\u0435\u043a\u0442": 2826,
  "\u2581\u0418\u043c\u0430\u0442\u0435": 2827,
  "\u2581approval": 2828,
  "\u2581\u0421\u044a\u0449\u043e": 2829,
  "\u2581\u0438\u0437\u043b\u0435\u0437\u0435": 2830,
  "\u2581\u043f\u043e\u043b\u0443\u0447\u0438\u0442\u0435": 2831,
  "\u2581\u043f\u0440\u0435\u0434\u043f\u0440\u0438\u044f\u0442\u0438\u044f": 2832,
  "\u2581\u043f\u0440\u043e\u043c\u044f\u043d\u0430": 2833,
  "\u2581\u0421\u044a\u0440": 2834,
  "\u2581floor": 2835,
  "\u2581\u043c\u043e\u044f\u0442": 2836,
  "\u2581significant": 2837,
  "for": 2838,
  "\u2581\u043d\u0430\u043f\u0440\u0430\u0432\u0438\u0445": 2839,
  "\u2581beginning": 2840,
  "\u2581review": 2841,
  "\u0441\u043a\u0438\u0442\u0435": 2842,
  "\u2581\u043f\u044a\u0440\u0432\u0438\u044f": 2843,
  "me": 2844,
  "\u2581\u041a\u043e\u043d": 2845,
  "\u2581April": 2846,
  "\u0441\u0442\u0440\u0430": 2847,
  "\u258136": 2848,
  "\u2581\u0438\u0437\u0432\u044a\u0440\u0448\u0432\u0430": 2849,
  "\u2581\u0441\u044a\u0434\u044a\u0440\u0436\u0430\u043d\u0438\u0435": 2850,
  "\u2581300": 2851,
  "\u2581\u043f\u043e\u043d\u044f\u043a\u043e\u0433\u0430": 2852,
  "\u2581\u0438\u0437\u043f\u043e\u043b\u0437\u0432\u0430\u043d\u0438": 2853,
  "\u0441\u043a\u043e\u0440\u043e": 2854,
  "\u2581\u0441\u043f\u0438\u0441\u044a\u043a": 2855,
  "\u2581visit": 2856,
  "\u2581crime": 2857,
  "\u0430\u0446\u0438\u044f": 2858,
  "\u043a\u0435": 2859,
  "\u2581\u0438\u043d\u0442\u0435\u0440\u0435\u0441\u0443\u0432\u0430": 2860,
  "\u2581\u0438\u0441\u0442\u0438\u043d\u0441\u043a\u0438": 2861,
  "24": 2862,
  "\u2581program": 2863,
  "\u2581\u0420\u0430\u0434\u0432\u0430\u043c": 2864,
  "\u2581reach": 2865,
  "\u2581except": 2866,
  "07": 2867,
  "ci": 2868,
  "\u2581\u043d\u0430\u043c\u0430\u043b\u044f\u0432\u0430\u043d\u0435": 2869,
  "\u2581IV": 2870,
  "\u0438\u0440\u0430\u043d\u0435": 2871,
  "\u0417\u0430": 2872,
  "\u2581\u0441\u044f\u043a\u0430\u0448": 2873,
  "\u2581fair": 2874,
  "\u0443\u0432\u0430": 2875,
  "\u2581\u043f\u0435\u0440\u0438\u043e\u0434\u0430": 2876,
  "\u0433\u043e\u0440\u0435": 2877,
  "se": 2878,
  "\u2581box": 2879,
  "\u2581Pro": 2880,
  "\u2581\u0432\u044a\u0440\u043d\u0435": 2881,
  "\u2581specified": 2882,
  "\u2581Ha": 2883,
  "\u2581\u0438\u043d\u0444\u043e\u0440\u043c\u0430\u0446\u0438\u044f\u0442\u0430": 2884,
  "\u2581Make": 2885,
  "\u043e\u0432\u043e": 2886,
  "\u2581defined": 2887,
  "\u2581\u0434\u043e\u043a\u0443\u043c\u0435\u043d\u0442\u0438": 2888,
  "\u2581till": 2889,
  "\u0442\u0443": 2890,
  "\u2581\u0441\u0435\u043a\u0442\u043e\u0440": 2891,
  "\u2581\u041e\u0441\u0442\u0430\u0432\u0438": 2892,
  "\u2581carry": 2893,
  "\u2581\u043a\u043e\u043c\u0438\u0442\u0435\u0442": 2894,
  "\u2581\u0441\u043f\u0440\u044f\u043c\u043e": 2895,
  "RE": 2896,
  "\u2581\u043e\u0442\u0433\u043e\u0432\u043e\u0440\u043d\u043e\u0441\u0442": 2897,
  "\u2581\u0445\u0430\u0440\u0435\u0441\u0430": 2898,
  "\u2581\u0427\u0430\u043e": 2899,
  "\u2581weird": 2900,
  "\u2581anybody": 2901,
  "\u2581York": 2902,
  "\u2581\u0412\u0435\u0440\u043e\u044f\u0442\u043d\u043e": 2903,
  "\u2581February": 2904,
  "\u2581\u0438\u043d\u0442\u0435\u0440\u0435\u0441": 2905,
  "\u2581materials": 2906,
  "\u2581\u0421\u043b\u0443\u0448\u0430\u0439": 2907,
  "\u2581\u0437\u0430\u0445\u0430\u0440": 2908,
  "\u2581language": 2909,
  "\u2581Add": 2910,
  "\u2581\u041e\u0431\u0449\u043d\u043e\u0441\u0442\u0442\u0430": 2911,
  "\u2581wedding": 2912,
  "\u2581basic": 2913,
  "12": 2914,
  "\u2581\u043f\u043e\u043c\u0430\u0433\u0430": 2915,
  "\u2581=": 2916,
  "ran": 2917,
  "\u2581direct": 2918,
  "\u0432\u0430\u043c": 2919,
  "\u2581positive": 2920,
  "\u2581\u0434\u043e\u043f\u044a\u043b\u043d\u0438\u0442\u0435\u043b\u043d\u0438": 2921,
  "\u044a": 2922,
  "\u043b\u0430\u0442\u0430": 2923,
  "\u2581\u043d": 2924,
  "\u2581\u0414\u0430\u0432\u0430\u0439": 2925,
  "\u2581sell": 2926,
  "\u2581record": 2927,
  "\u2581Germany": 2928,
  "\u2581somewhere": 2929,
  "21": 2930,
  "-1": 2931,
  "\u2581\u0441\u0435\u043a\u0441": 2932,
  "06": 2933,
  "\u2581Stay": 2934,
  "\u2581choose": 2935,
  "\u2581duty": 2936,
  "\u2581impact": 2937,
  "\u2581average": 2938,
  "\u0443\u0441": 2939,
  "\u2581[1],": 2940,
  "\u2581\u0445\u0430\u0439\u0434\u0435": 2941,
  "\u2581replaced": 2942,
  "\u2581\u0422\u044a\u0439": 2943,
  "ni": 2944,
  "\u2581Price": 2945,
  "\u2581\u043c\u0430": 2946,
  "\u2581\u043d\u0430\u043f\u0440\u0435\u0434": 2947,
  "\u2581worse": 2948,
  "\u2581\u0441\u0438\u043d\u0430": 2949,
  "\u2581\u0434\u0440": 2950,
  "\u2581\u0438\u043c\u0430\u043b": 2951,
  "\u2581Actually": 2952,
  "\u2581\u0441\u0442\u0438\u0433\u0430": 2953,
  "\u2581\u0411\u0438\u0431\u043b\u0438\u044f\u0442\u0430": 2954,
  "\u2581\u043f\u043e\u0441\u0442\u043e\u044f\u043d\u043d\u043e": 2955,
  "\u2581\u0445": 2956,
  "land": 2957,
  "\u2581administration": 2958,
  "\u2581\u041c\u0430\u0439\u043a\u0430": 2959,
  "be": 2960,
  "\u2581Day": 2961,
  "\u2581\u0427\u0443\u0434\u0435\u0441\u043d\u043e": 2962,
  "\u2581Y": 2963,
  "\u2581France": 2964,
  "\u2581\u043d\u0430\u0432\u044a\u043d": 2965,
  "\u2581\u0441\u0438\u043b\u0430\u0442\u0430": 2966,
  "\u2581\u0433\u043e\u0440\u0435": 2967,
  "\u2581brain": 2968,
  "\u2581\u0432\u0438\u0436\u0434\u0430\u043b": 2969,
  "\u2581\u0443\u0447\u0430\u0441\u0442\u0438\u0435": 2970,
  "\u2581Damn": 2971,
  "\u2581dis": 2972,
  "\u2581\u0434\u043e\u0439\u0434\u0435\u0448": 2973,
  "\u2581\u0440\u043e\u0434\u0438\u0442\u0435\u043b\u0438\u0442\u0435": 2974,
  "\u2581card": 2975,
  "\u2581\u0434\u043e\u0439\u0434\u0430": 2976,
  "\u2581seven": 2977,
  "\u2581\u0441\u043f\u0435\u0446\u0438\u0430\u043b\u043d\u043e": 2978,
  "\u2581spend": 2979,
  "\u2581itself": 2980,
  "\u2581\u043f\u043e\u043b\u043e\u0436\u0435\u043d\u0438\u0435": 2981,
  "\u2581dark": 2982,
  "\u2581\u0438\u0433\u0440\u0430\u0442\u0430": 2983,
  "\u2581opportunity": 2984,
  "\u2581\u043f\u0440\u0430\u0432\u0430\u0442\u0430": 2985,
  "\u2581nor": 2986,
  "\u0440\u0443": 2987,
  "\u2581quickly": 2988,
  "\u2581\u043a\u043b\u0430\u0441": 2989,
  "\u2581\u043e\u0431\u0443\u0447\u0435\u043d\u0438\u0435": 2990,
  "\u2581en": 2991,
  "\u2581ways": 2992,
  "\u2581spirit": 2993,
  "\u2581numbers": 2994,
  "\u2581\u0438\u0437\u043a\u043b\u044e\u0447\u0438\u0442\u0435\u043b\u043d\u043e": 2995,
  "\u2581issues": 2996,
  "\u2581\u0437\u043b\u0435": 2997,
  "\u2581instead": 2998,
  "17": 2999,
  "\u2581r": 3000,
  "\u2581South": 3001,
  "\u2581\u0434\u0440\u0443\u0433\u0430\u0442\u0430": 3002,
  "\u2581US": 3003,
  "\u2581internal": 3004,
  "1,": 3005,
  "\u2581faith": 3006,
  "\u2581born": 3007,
  "\u2581poor": 3008,
  "\u2581towards": 3009,
  "\u2581\u043e\u0431\u043b\u0430\u0441\u0442": 3010,
  "\u041d\u0430": 3011,
  "\u2581\u0443\u0442\u0440\u043e": 3012,
  "\u2581created": 3013,
  "\u0434\u043e\u043b\u0443": 3014,
  "\u2581\u041f\u043e\u043d\u044f\u043a\u043e\u0433\u0430": 3015,
  "\u2581equal": 3016,
  "\u2581\u0441\u044a\u0449\u0430\u0442\u0430": 3017,
  "\u2581Official": 3018,
  "\u2581\u0434\u043e\u0433\u043e\u0432\u043e\u0440": 3019,
  "\u2581intended": 3020,
  "\u2581\u043a\u043e\u0433\u0430": 3021,
  "\u2581submitted": 3022,
  "\u0447\u043d\u0430": 3023,
  "\u2581applied": 3024,
  "\u2581\u0434\u0432\u0438\u0436\u0435\u043d\u0438\u0435": 3025,
  "\u2581standards": 3026,
  "\u2581daily": 3027,
  "ism": 3028,
  "\u2581exchange": 3029,
  "\u2581meant": 3030,
  "\u2581Earth": 3031,
  "\u2581scared": 3032,
  "\u2581\u043c\u0430\u043c\u0430": 3033,
  "\u0441\u0442\u043e\u044f\u0449\u0430\u0442\u0430": 3034,
  "\u2581Therefore": 3035,
  "\u2581\u0434\u043e\u043b\u0430\u0440\u0430": 3036,
  "ide": 3037,
  "\u2581\u0434\u0438": 3038,
  "\u2581\u0440\u0435\u0448\u0438": 3039,
  "\u0444\u0430": 3040,
  "\u2581\u043f\u044a\u0440\u0432\u0430": 3041,
  "\u2581attack": 3042,
  "\u2581\u041d\u0430\u0447\u0430\u043b\u043e": 3043,
  "\u2581\u0434\u0430\u0442\u0430\u0442\u0430": 3044,
  "\u2581World": 3045,
  "\u2581crisis": 3046,
  "\u2581\u0446\u0435\u043d\u0442\u044a\u0440": 3047,
  "\u2581evening": 3048,
  "\u2581containing": 3049,
  "\u2581\u043f\u043e\u0438\u0441\u043a\u0430": 3050,
  "\u2581\u0432\u0438\u0434\u0438\u0442\u0435": 3051,
  "18": 3052,
  "\u2581\u043f\u0440\u0438\u043b\u043e\u0436\u0435\u043d\u0438\u0435\u0442\u043e": 3053,
  "\u2581Part": 3054,
  "\u2581\u0444\u0438\u043d\u0430\u043d\u0441\u043e\u0432\u0438": 3055,
  "\u2581consider": 3056,
  "\u2581\u041f\u0435": 3057,
  "\u258148": 3058,
  "\u2581\u043d\u044f\u043a\u043e\u044f": 3059,
  "\u2581\u0441\u0438\u043b\u043d\u043e": 3060,
  "\u2581sugar": 3061,
  "\u2581\u0441\u044a\u0431\u0438\u0442\u0438\u044f": 3062,
  "\u2581\u043f\u0440\u043e\u0433\u0440\u0430\u043c\u0438": 3063,
  "\u2581\u0418\u0441\u043a\u0430\u0445": 3064,
  "\u2581drop": 3065,
  "\u2581pull": 3066,
  "he": 3067,
  "\u2581\u041c\u0430\u0445\u043d\u0438": 3068,
  "ley": 3069,
  "\u2581dance": 3070,
  "line": 3071,
  "\u2581\u0441\u0443\u0442\u0440\u0438\u043d\u0442\u0430": 3072,
  "\u2581difference": 3073,
  "\u2581\u043f\u0440\u0435\u0434\u0441\u0442\u0430\u0432\u0430": 3074,
  "\u2581mistake": 3075,
  "\u2581Kingdom": 3076,
  "va": 3077,
  "\u2581\u20ac": 3078,
  "\u2581\u0447\u0430\u043a\u0430": 3079,
  "\u2581projects": 3080,
  "\u2581published": 3081,
  "\u2581\u0413\u0435\u0440\u043c\u0430\u043d\u0438\u044f": 3082,
  "\u2581Ben": 3083,
  "\u0442\u0440\u0430": 3084,
  "\u0431\u0443": 3085,
  "\u2581IT": 3086,
  "\u2581\u041b\u0435\u043a\u0430": 3087,
  "\u2581Allah": 3088,
  "\u2581text": 3089,
  "\u2581\u043e\u0431\u0449\u043d\u043e\u0441\u0442": 3090,
  "\u2581Michael": 3091,
  "\u2581\u0441\u043b\u0435\u0434\u043d\u043e\u0442\u043e": 3092,
  "\u0441\u043a\u0438\u044f": 3093,
  "ko": 3094,
  "bo": 3095,
  "\u2581accept": 3096,
  "\u2581\u0440\u0430\u0437\u0431\u0435\u0440\u0430": 3097,
  "\u0432\u0435": 3098,
  "\u0441\u043e": 3099,
  "\u2581computer": 3100,
  "\u258133": 3101,
  "\u2581starting": 3102,
  "\u2581role": 3103,
  "\u2581\u043c\u0430\u043c\u043e": 3104,
  "\u2581\u041d\u0430\u0441\u0442\u043e\u044f\u0449\u0438\u044f": 3105,
  "\u2581\u043f\u0438": 3106,
  "\u2581\u043a\u044a\u0449\u0438": 3107,
  "\u2581\u0444\u0435\u0432\u0440\u0443\u0430\u0440\u0438": 3108,
  "\u2581\u0433\u043e\u0442\u043e\u0432": 3109,
  "\u2581Top": 3110,
  "\u2581cash": 3111,
  "\u2581criteria": 3112,
  "\u2581groups": 3113,
  "\u2581fishing": 3114,
  "\u2581Help": 3115,
  "\u2581\u0432\u043a\u043b\u044e\u0447\u0435\u043d\u0438": 3116,
  "\u2581\u043f\u044a\u043b\u043d\u043e": 3117,
  "yl": 3118,
  "\u2581\u043e\u0431\u0430\u0434\u0438": 3119,
  "5/": 3120,
  "\u2581lower": 3121,
  "\u0447\u043d\u0438": 3122,
  "\u2581base": 3123,
  "\u2581create": 3124,
  "\u2581boss": 3125,
  "\u2581Whatever": 3126,
  "\u2581\u043f\u0438\u0448\u0435": 3127,
  "\u2581King": 3128,
  "\u2581Shit": 3129,
  "\u2581\u0420\u0430": 3130,
  "\u0441\u0442\u0440\u043e": 3131,
  "2/": 3132,
  "\u2581unless": 3133,
  "\u2581IN": 3134,
  "ah": 3135,
  "\u2581\u0441\u0438\u043b\u0438": 3136,
  "\u2581\u0441\u043a\u044a\u043f\u0438": 3137,
  "\u2581sounds": 3138,
  "\u2581\u0421\u0430": 3139,
  "\u2581\u0432\u044a\u0437\u0441\u0442\u0430\u043d\u043e\u0432\u044f\u0432\u0430\u043d\u0435": 3140,
  "\u2581imports": 3141,
  "\u2581voice": 3142,
  "\u2581\u0421\u0438\u0433\u0443\u0440\u0435\u043d": 3143,
  "We": 3144,
  "\u2581regards": 3145,
  "\u2581environment": 3146,
  "\u0438\u044f\u0442": 3147,
  "\u2581condition": 3148,
  "li": 3149,
  "\u043b\u0438\u043d": 3150,
  "\u2581\u043b\u0435\u0447\u0435\u043d\u0438\u0435\u0442\u043e": 3151,
  "\u2581\u043e\u043f\u0438\u0442\u0430": 3152,
  "\u2581\u0440\u0430\u0431\u043e\u0442\u044f\u0442": 3153,
  "\u2581board": 3154,
  "op": 3155,
  "\u2581art": 3156,
  "\u2581\u0434\u043e\u043a\u0430\u0437\u0430\u0442\u0435\u043b\u0441\u0442\u0432\u0430": 3157,
  "\u2581calls": 3158,
  "ler": 3159,
  "\u2581bag": 3160,
  "70": 3161,
  "\u2581\u043a\u043e\u0440\u0430\u0431": 3162,
  "\u041f\u043e": 3163,
  "\u2581\u041f\u0430\u043a": 3164,
  "\u2581amazing": 3165,
  "\u2581model": 3166,
  "\u2581partner": 3167,
  "\u2581\u0433\u0440\u0443\u043f\u0430\u0442\u0430": 3168,
  "\u0441\u043a\u043e\u0442\u043e": 3169,
  "\u2581gives": 3170,
  "\u2581\u0418\u043d": 3171,
  "\u2581\u043c\u0438\u043b\u0438\u043e\u043d\u0430": 3172,
  "\u2581\u0449\u043e": 3173,
  "\u2581establishing": 3174,
  "\u2581\u0432\u0440\u0430\u0442\u0430": 3175,
  "No": 3176,
  "if": 3177,
  "\u2581practice": 3178,
  "ted": 3179,
  "\u2581\u043e\u0441\u043d\u043e\u0432\u043d\u0438\u0442\u0435": 3180,
  "\u2581determined": 3181,
  "\u2581\u0427\u043b\u0435\u043d": 3182,
  "\u2581reasons": 3183,
  "16": 3184,
  "\u2581\u0441\u0442\u0440\u0430\u043d\u0438\u0446\u0430": 3185,
  "\u2581film": 3186,
  "\u2581growth": 3187,
  "\u2581\u0443\u0436\u0430\u0441\u043d\u043e": 3188,
  "\u2581holding": 3189,
  "\u2581feed": 3190,
  "\u2581\u043c\u0438\u043d\u0430": 3191,
  "\u2581\u0440\u044a\u0446\u0435": 3192,
  "\u2581\u0412\u0438\u0434\u044f\u0445": 3193,
  "\u2581\u043f\u043e\u0434\u0434\u044a\u0440\u0436\u0430": 3194,
  "\u2581regarding": 3195,
  "\u25810,": 3196,
  "\u2581FOR": 3197,
  "\u2581\u043e\u0431\u0430\u0434\u044f": 3198,
  "\u2581\u0446\u044f\u043b\u0430": 3199,
  "ner": 3200,
  "\u2581middle": 3201,
  "\u0432\u0436": 3202,
  "\u2581listed": 3203,
  "\u2581\u0438\u0437\u043f\u043e\u043b\u0437\u0432\u0430\u043d\u0435\u0442\u043e": 3204,
  "\u2581notice": 3205,
  "\u2581\u041c\u043e": 3206,
  "\u2581\u043f\u043e\u043b\u0443\u0447\u0430\u0432\u0430": 3207,
  "\u2581\u0440\u0435\u0437\u0443\u043b\u0442\u0430\u0442\u0438\u0442\u0435": 3208,
  "\u2581competition": 3209,
  "\u2581Red": 3210,
  "\u043d\u0435\u0442\u0435": 3211,
  "\u2581\u043e\u0447\u0438": 3212,
  "\u2581\u041c\u043e\u0436\u0435\u043c": 3213,
  "3,": 3214,
  "\u2581official": 3215,
  "\u2581sub": 3216,
  "\u2581\u0429\u043e\u043c": 3217,
  "mo": 3218,
  "\u2581\u043a\u043e\u043c\u0438\u0441\u0438\u044f": 3219,
  "\u2581Open": 3220,
  "\u2581\u0441\u043f\u0440\u0435": 3221,
  "\u2581\u043f\u0440\u043e\u0435\u043a\u0442\u0430": 3222,
  "\u2581framework": 3223,
  "\u2581build": 3224,
  "\u2581whom": 3225,
  "\u2581\u0434\u043e\u043a\u043b\u0430\u0434\u0430": 3226,
  "\u2581property": 3227,
  ":00": 3228,
  "\u2581dangerous": 3229,
  "\u2581shows": 3230,
  "+": 3231,
  "\u2581caught": 3232,
  "\u2581\u043f\u0440\u0435\u0434\u0432\u0438\u0434\u0435\u043d\u0438": 3233,
  "\u2581\u0410\u043b": 3234,
  "\u2581Articles": 3235,
  "\u2581\u0425\u0438": 3236,
  "\u2581\u0440\u0435\u0436\u0438\u043c": 3237,
  "\u2581\u043f\u0440\u043e\u0435\u043a\u0442\u0438": 3238,
  "\u2581\u0426\u0435\u043d\u0430": 3239,
  "\u2581designed": 3240,
  "\u2581\u041e\u0444\u0438\u0446\u0438\u0430\u043b\u0435\u043d": 3241,
  "\u2581\u043a\u044a\u0441\u043c\u0435\u0442": 3242,
  "\u2581\u0425\u0430\u0440\u0435\u0441\u0432\u0430": 3243,
  "\u2581\u0413\u043e": 3244,
  "\u2581plans": 3245,
  "\u2581\u0447\u0443\u0432\u0441\u0442\u0432\u0430": 3246,
  "\u2581bought": 3247,
  "IN": 3248,
  "\u2581Black": 3249,
  "\u2581contract": 3250,
  "info": 3251,
  "\u0434\u0436\u0438": 3252,
  "off": 3253,
  "\u2581\u043f\u0440\u043e\u043c\u0435\u043d\u044f": 3254,
  "\u2581\u0441\u0442\u043e\u0439\u043d\u043e\u0441\u0442\u0438": 3255,
  "Cause": 3256,
  "\u2581con": 3257,
  "\u2581Someone": 3258,
  "\u2581THIS": 3259,
  "\u2581street": 3260,
  "\u2581fully": 3261,
  "\u2581Mar": 3262,
  "\u2581di": 3263,
  "\u2581\u043e\u0440\u0433\u0430\u043d\u0438\u0437\u0430\u0446\u0438\u044f": 3264,
  "\u2581file": 3265,
  "\u2581\u0425": 3266,
  "\u2581Say": 3267,
  "ial": 3268,
  "\u2581Over": 3269,
  "\u2581payment": 3270,
  "\u2581usually": 3271,
  "\u2581allowed": 3272,
  "\u2581term": 3273,
  "\u2581greater": 3274,
  "\u2581funds": 3275,
  "\u2581\u0447\u0443\u0434\u0435\u0441\u043d\u043e": 3276,
  "\u2581\u0441\u0432\u0435\u0442\u043b\u0438\u043d\u0430": 3277,
  "\u2581\u043f\u043e\u0437\u0432\u043e\u043b\u0438": 3278,
  "\u2581lucky": 3279,
  "\u2581\u041d": 3280,
  "ba": 3281,
  "\u2581\u0412\u044a\u0437": 3282,
  "\u2581\u041c\u0435": 3283,
  "\u2581\u0432\u043e\u0434\u0430\u0442\u0430": 3284,
  "27": 3285,
  "\u2581\u0441\u043d\u0438\u043c\u043a\u0438": 3286,
  "\u2581\u041c\u043e\u0436\u0435\u0442\u0435": 3287,
  "\u2581remain": 3288,
  "go": 3289,
  "\u2581\u043e\u0441\u0442\u0430\u043d\u0435": 3290,
  "ster": 3291,
  "\u2581\u0438\u0437\u043e\u0431\u0449\u043e": 3292,
  "\u2581\u043b\u044e\u0431\u043e\u0432\u0442\u0430": 3293,
  "\u043d\u043e\u0441\u0442\u0442\u0430": 3294,
  "ard": 3295,
  "\u2581\u043d\u0435\u0437\u0430\u0432\u0438\u0441\u0438\u043c\u043e": 3296,
  "\u25816,": 3297,
  "\u2581various": 3298,
  "\u2581weren": 3299,
  "80": 3300,
  "\u2581injection": 3301,
  "\u2581\u043f\u043e\u044f\u0432\u0438": 3302,
  "\u2581Last": 3303,
  "\u2581supply": 3304,
  "\u2581Back": 3305,
  "23": 3306,
  "\u2581\u0420\u0438": 3307,
  "\u2581wine": 3308,
  "\u2581sun": 3309,
  "\u2581\u043f\u0440\u044f\u043a\u043e": 3310,
  "by": 3311,
  "\u2581interesting": 3312,
  "\u2581god": 3313,
  "\u2581store": 3314,
  "\u2581\u0431\u044a\u0434\u0435\u0449\u0435\u0442\u043e": 3315,
  "ca": 3316,
  "\u2581\u041a\u0430\u0437\u0432\u0430\u043c": 3317,
  "\u2581y": 3318,
  "\u2581analysis": 3319,
  "our": 3320,
  "\u2581prison": 3321,
  "\u2581\u042f\u0441\u043d\u043e": 3322,
  "\u2581staff": 3323,
  "\u2581\u041a\u0430": 3324,
  "\u2581exercise": 3325,
  "\u2581provides": 3326,
  "\u2581Group": 3327,
  "\u2581citizens": 3328,
  "\u2581written": 3329,
  "\u2581Car": 3330,
  "\u2581\u0411\u0435\u043d": 3331,
  "\u2581train": 3332,
  "\u2581\u043d\u043e\u043c\u0435\u0440\u0430": 3333,
  "\u2581design": 3334,
  "\u2581\u043d\u0435\u0433\u043e\u0432\u043e\u0442\u043e": 3335,
  "\u2581Move": 3336,
  "\u2581plant": 3337,
  "\u2581pro": 3338,
  "\u2581\u0432\u043a\u043b\u044e\u0447\u0432\u0430\u0442": 3339,
  "\u2581decide": 3340,
  "\u2581\u0442\u044a\u0440\u0441\u0438": 3341,
  "\u2581\u0440\u0435\u0441\u0443\u0440\u0441\u0438": 3342,
  "\u0420": 3343,
  "\u2581\u0418\u043c\u0430\u0448\u0435": 3344,
  "\u2581\u0441\u044a\u043f\u0440\u0443\u0433\u0430": 3345,
  "\u2581blue": 3346,
  "\u2581careful": 3347,
  "\u2581\u043f\u0440\u043e\u0446\u0435\u0434\u0443\u0440\u0430": 3348,
  "\u2581\u0438\u0437\u0432\u0435\u0441\u0442\u043d\u043e": 3349,
  "\u2581throw": 3350,
  "\u2581\u0443\u0441\u043b\u043e\u0432\u0438\u0435": 3351,
  "\u2581\u0430\u043d\u0442\u0438": 3352,
  "\u2581\u043d\u0430\u0447\u0438\u043d\u0430": 3353,
  "\u2581\u0434\u0435\u0441\u0435\u0442": 3354,
  "\u2581annual": 3355,
  "pe": 3356,
  "\u2581\u043d\u0430\u0440\u0438\u0447\u0430": 3357,
  "\u2581\u0435\u0434\u0438\u043d\u0441\u0442\u0432\u0435\u043d\u043e": 3358,
  "\u2581\u0421\u0430\u043c": 3359,
  "\u2581\u0441\u0432\u043e\u0435\u0442\u043e": 3360,
  "ke": 3361,
  "\u2581\u043f\u0440\u0435\u0434\u0441\u0442\u0430\u0432\u0438": 3362,
  "\u2581\u0438\u0437\u0446\u044f\u043b\u043e": 3363,
  "\u2581La": 3364,
  "000": 3365,
  "year": 3366,
  "35": 3367,
  "\u2581\u0440\u0430\u0437\u0431\u0438\u0440\u0430\u0448": 3368,
  "\u2581\u043e\u043a\u043e\u043b\u043d\u0430\u0442\u0430": 3369,
  "\u2581writing": 3370,
  "\u2581News": 3371,
  "\u2581\u0441\u0442\u0440\u0430\u0445": 3372,
  "\u2581\u0444\u0443\u043d\u043a\u0446\u0438\u043e\u043d\u0438\u0440\u0430\u043d\u0435\u0442\u043e": 3373,
  "\u2581\u0443\u043f\u0440\u0430\u0432\u043b\u044f\u0432\u0430": 3374,
  "\u2581\u043d\u0438\u043a\u0430\u043a\u0432\u0438": 3375,
  "\u2581likely": 3376,
  "\u2581\u043e\u0431\u043e\u0440\u0443\u0434\u0432\u0430\u043d\u0435": 3377,
  "\u2581\u0432\u0438\u0434\u0438": 3378,
  "\u2581negative": 3379,
  "\u2581wrote": 3380,
  "\u2581\u043d\u043e\u0449\u0442\u0430": 3381,
  "\u2581relating": 3382,
  "\u2581treated": 3383,
  "\u2581\u0440\u0438\u0441\u043a\u0430": 3384,
  "\u2581\u043f\u0440\u043e\u0433\u0440\u0430\u043c\u0430\u0442\u0430": 3385,
  "\u2581method": 3386,
  "\u2581lying": 3387,
  "\u2581\u0438\u043c\u0430\u0445": 3388,
  "ES": 3389,
  "\u0432\u0430\u043b": 3390,
  "\u2581\u0441\u043c\u044f\u0442\u0430": 3391,
  "29": 3392,
  "22": 3393,
  "ence": 3394,
  "\u2581\u0441\u044a\u043e\u0431\u0449\u0435\u043d\u0438\u0435": 3395,
  "\u2581\u0440\u0435\u0437\u0443\u043b\u0442\u0430\u0442\u0438": 3396,
  "\u2581original": 3397,
  "ho": 3398,
  "\u2581enjoy": 3399,
  "\u2581\u043c\u043e\u0436\u0435\u0445": 3400,
  "\u2581\u0419\u043e\u0440\u043a": 3401,
  "\u2581\u0443\u0441\u043b\u0443\u0433\u0430": 3402,
  "\u2581\u043d\u0435\u043e\u0431\u0445\u043e\u0434\u0438\u043c\u0438": 3403,
  "\u2581Christmas": 3404,
  "\u2581\u0446\u0435\u043d\u0438": 3405,
  "\u2581nobody": 3406,
  "\u2581Welcome": 3407,
  "\u2581\u0417\u0430\u0440\u0430\u0434\u0438": 3408,
  "\u2581\u0412\u0430\u0441": 3409,
  "\u2581Agency": 3410,
  "\u2581Watch": 3411,
  "\u2581round": 3412,
  "\u2581broke": 3413,
  "\u2581inter": 3414,
  "\u2581documents": 3415,
  "\u2013": 3416,
  "\u2581Everyone": 3417,
  "\u2581spent": 3418,
  "\u2581\u043d\u0430\u0441\u0430\u043c": 3419,
  "\u2581ran": 3420,
  "\u2581Remember": 3421,
  "\u2581American": 3422,
  "\u2581follows": 3423,
  "\u2581America": 3424,
  "\u2581Authority": 3425,
  "\u2581evil": 3426,
  "\u2581\u0441\u043f\u0435\u0447\u0435\u043b\u0438": 3427,
  "\u2581unit": 3428,
  "\u2581totally": 3429,
  "\u2581network": 3430,
  "\u2581watching": 3431,
  "\u2581\u0438\u043a\u043e\u043d\u043e\u043c\u0438\u0447\u0435\u0441\u043a\u0438": 3432,
  "26": 3433,
  "\u2581\u0434\u0435\u0439\u0441\u0442\u0432\u0430": 3434,
  "\u2581\u0445\u0430": 3435,
  "\u2581Israel": 3436,
  "\u2581\u043e\u0441\u0438\u0433\u0443\u0440\u0438": 3437,
  "men": 3438,
  "\u2581receive": 3439,
  "\u2581\u043f": 3440,
  "\u2581\u0438\u0433\u0440\u0430\u0435": 3441,
  "28": 3442,
  "\u2581\u0437\u0430\u044f\u0432\u0438": 3443,
  "\u2581\u0424": 3444,
  "\u2581\u043d\u0443\u0436\u043d\u043e": 3445,
  "\u2581h": 3446,
  "\u2581\u0440\u0430\u0432\u043d\u0438\u0449\u0435": 3447,
  "03": 3448,
  "\u2581\u043a\u0430\u043a\u0432\u0438": 3449,
  "\u2581\u0432\u0437\u0435\u043c\u0435\u043c": 3450,
  "\u2581Could": 3451,
  "\u2581\u0433\u0440\u0438\u0436\u0430": 3452,
  "\u2581deep": 3453,
  "\u2581\u043a\u043d\u0438\u0433\u0430": 3454,
  "\u2581\u0442\u044f\u043b\u043e": 3455,
  "\u2581glass": 3456,
  "\u2581color": 3457,
  "\u2581\u0430\u043d\u0430\u043b\u0438\u0437": 3458,
  "\u2581actions": 3459,
  "\u2581\u043a\u043e\u043c\u043f\u0430\u043d\u0438\u044f": 3460,
  "\u2581eating": 3461,
  "\u2581progress": 3462,
  "\u2581Brussels": 3463,
  "\u2581\u043d\u0438\u0432\u0430": 3464,
  "\u2581\u0438\u043d\u0441\u0442\u0438\u0442\u0443\u0446\u0438\u0438": 3465,
  "\u2581\u041d\u0438": 3466,
  "\u0430\u043b\u043d\u043e": 3467,
  "\u2581\u0437\u0432\u0443\u0447\u0438": 3468,
  "\u2581approved": 3469,
  "\u2581Time": 3470,
  "\u2581\u041c\u0430": 3471,
  "\u2581\u043e\u0440\u0433\u0430\u043d\u0438\u0437\u0430\u0446\u0438\u0438": 3472,
  "\u2581\u0427\u0443": 3473,
  "\u0438\u0435\u0442\u043e": 3474,
  "\u2581benefit": 3475,
  "\u2581\u0412\u044a\u0432": 3476,
  "\u2581Nobody": 3477,
  "\u2581\u0433\u043e\u0442\u043e\u0432\u0438": 3478,
  "\u2581k": 3479,
  "\u2581Three": 3480,
  "\u2581built": 3481,
  "ev": 3482,
  "\u2581meaning": 3483,
  "\u2581\u043a": 3484,
  "\u2581mission": 3485,
  "\u2581\u0437\u0435\u043c\u044f": 3486,
  "\u2581\u0442\u0440\u044a\u0433\u0432\u0430\u043c": 3487,
  "\u2581import": 3488,
  "\u2581\u0442\u044a\u0440\u0433\u043e\u0432\u0438\u044f": 3489,
  "term": 3490,
  "\u2581\u0444\u0438\u043d\u0430\u043d\u0441\u0438\u0440\u0430\u043d\u0435": 3491,
  "\u2581\u0432\u043b\u0435\u0437\u0435": 3492,
  "\u2581worried": 3493,
  "\u043d\u0438\u0446\u0438\u0442\u0435": 3494,
  "\u2581handle": 3495,
  "\u2581\u0444\u043e\u0440\u043c\u0430\u0442\u0430": 3496,
  "\u2581sale": 3497,
  "\u2581green": 3498,
  "\u2581transfer": 3499,
  "\u2581military": 3500,
  "\u2581\u0446\u0435\u043b\u0442\u0430": 3501,
  "\u2581\u043f\u043e\u0447\u0438\u0432\u043a\u0430": 3502,
  "\u2581machine": 3503,
  "\u2581avoid": 3504,
  "\u043d\u0438\u0446\u0430": 3505,
  "\u2581\u041c\u0430\u0439\u043a\u044a\u043b": 3506,
  "ER": 3507,
  "\u2581\u043d\u0430\u043f\u0440\u0430\u0432\u0438\u0442\u0435": 3508,
  "\u0434\u0435\u043b": 3509,
  "02": 3510,
  "\u0442\u044f": 3511,
  "\u2581Whoa": 3512,
  "\u2581\u0440\u0430\u0437\u0434\u0435\u043b": 3513,
  "\u2581\u0412\u0435\u0434\u043d\u0430\u0433\u0430": 3514,
  "\u2581fruit": 3515,
  "\u2581wonderful": 3516,
  "\u2581healthy": 3517,
  "\u2581\u0421\u0442\u0430\u0432\u0430": 3518,
  "ina": 3519,
  "\u2581\u0432\u0430\u0436\u043d\u0430": 3520,
  "\u2581\u043e\u0440\u044a\u0436\u0438\u0435": 3521,
  "\u2581\u043a\u0430\u0440\u0442\u0430": 3522,
  "\u2581clearly": 3523,
  "\u2581soul": 3524,
  "\u2581origin": 3525,
  "\u2581\u0440\u0430\u0437\u0431\u0435\u0440\u0435\u043c": 3526,
  "\u0438\u0440\u0430\u043d\u0438": 3527,
  "\u2581busy": 3528,
  "\u0434\u044a\u0440": 3529,
  "\u2581function": 3530,
  "\u2581video": 3531,
  "\u043d\u043e\u0432": 3532,
  "\u2581\u0440\u0430\u0431\u043e\u0442\u044f": 3533,
  "\u2581Once": 3534,
  "\u2581quick": 3535,
  "\u2581\u0444\u0438\u043b\u043c": 3536,
  "\u043e\u0440": 3537,
  "\u043d\u0442": 3538,
  "\u258137": 3539,
  "\u0442\u0435\u043d": 3540,
  "\u2581beat": 3541,
  "\u2581\u0412\u0438\u0436\u0434\u0430\u0448": 3542,
  "\u2581\u043f\u0440\u0435\u0434\u0432\u0430\u0440\u0438\u0442\u0435\u043b\u043d\u043e": 3543,
  "\u2581\u0432\u044a\u0440\u043d\u0435\u043c": 3544,
  "ise": 3545,
  "\u2581\u041f\u043e\u0441\u043b\u0435": 3546,
  "\u2581society": 3547,
  "\u2581\u0437\u0430\u043f\u043e\u0447\u043d\u0435": 3548,
  "po": 3549,
  "\u2581accident": 3550,
  "\u2581\u043f\u0440\u043e\u0443\u0447\u0432\u0430\u043d\u0438\u044f": 3551,
  "\u2581\u0434\u0438\u0440\u0435\u043a\u0442\u043e\u0440": 3552,
  "\u2581join": 3553,
  "\u2581\u043c\u0430\u0442\u0435\u0440\u0438\u0430\u043b": 3554,
  "\u2581\u0438\u043d\u0442\u0435\u0440\u043d\u0435\u0442": 3555,
  "\u2581\u0425\u0443\u0431\u0430\u0432\u043e": 3556,
  "\u2581monitoring": 3557,
  "\u2581wear": 3558,
  "\u2581\u0443\u0431\u0438\u043b": 3559,
  "\u2581\u0440\u0430\u0437\u0431\u0435\u0440\u0435": 3560,
  "\u2581prepared": 3561,
  "\u2581moved": 3562,
  "\u2581rule": 3563,
  "\u2581\u0412\u0430\u0448\u0438\u044f": 3564,
  "\u2581\u0411\u0440\u044e\u043a\u0441\u0435\u043b": 3565,
  "\u2581\u043b\u0438\u043f\u0441\u0432\u0430": 3566,
  "\u2581\u0441\u044a\u043e\u0442\u0432\u0435\u0442\u043d\u043e": 3567,
  "It": 3568,
  "\u2581certainly": 3569,
  "\u2581\u0431\u0438\u0432\u0430": 3570,
  "\u2581drug": 3571,
  "\u2581marriage": 3572,
  "\u2581\u0441\u044a\u0437\u0434\u0430\u0432\u0430\u043d\u0435": 3573,
  "\u2581\u0435\u043b\u0430": 3574,
  "\u2581\u0430\u0433\u0435\u043d\u0442": 3575,
  "\u25816.": 3576,
  "\u2581\u043d\u0430\u0432\u0441\u044f\u043a\u044a\u0434\u0435": 3577,
  "-2": 3578,
  "\u2581gold": 3579,
  "\u2581\u043a\u0440\u044a\u0432\u0442\u0430": 3580,
  "\u2581approach": 3581,
  "\u2581\u042e": 3582,
  "\u2581\u0431\u0443": 3583,
  "\u2581\u0432\u0438\u0436\u0434\u0430\u0448": 3584,
  "\u2581apartment": 3585,
  "\u2581\u0410\u043d": 3586,
  "\u0434\u043e\u0431\u0440\u0438\u0442\u0435": 3587,
  "\u258134": 3588,
  "EN": 3589,
  "\u2581Product": 3590,
  "ful": 3591,
  "\u2581\u043d\u0430\u0448\u0435\u0442\u043e": 3592,
  "\u2581\u0421\u043b\u0435\u0434\u043e\u0432\u0430\u0442\u0435\u043b\u043d\u043e": 3593,
  "ga": 3594,
  "\u2581reports": 3595,
  "\u041d": 3596,
  "\u2581\u0434\u043e\u0448\u044a\u043b": 3597,
  "\u2581\u0421\u044a\u0441": 3598,
  "\u2581\u0442\u044f\u0445\u043d\u0430\u0442\u0430": 3599,
  "\u2581finish": 3600,
  "\u2581anywhere": 3601,
  "\u044a\u043a": 3602,
  "\u2581\u043f\u0440\u0438\u0442\u0435\u0436\u0430\u0432\u0430": 3603,
  "\u2581clothes": 3604,
  "\u2581fell": 3605,
  "\u2581double": 3606,
  "time": 3607,
  "\u0449\u0438\u044f": 3608,
  "\u2581\u043d\u0430\u043e\u043a\u043e\u043b\u043e": 3609,
  "\u2581realize": 3610,
  "\u0431\u044a\u0440": 3611,
  "\u0438\u0447\u0435\u043d": 3612,
  "\u2581\u043d\u0430\u043f\u0440\u0430\u0432\u044f\u0442": 3613,
  "\u2581\u043f\u043e\u0441\u043e\u0447\u0435\u043d\u043e": 3614,
  "\u2581\u041c\u0443": 3615,
  "\u2581\u0417": 3616,
  "14": 3617,
  "\u2581\u0442\u0440\u044a\u0433\u043d\u0430": 3618,
  "\u2581response": 3619,
  "\u2581Check": 3620,
  "\u2581sales": 3621,
  "\u2581agreed": 3622,
  "\u2581\u043f\u043e\u0434\u043e\u0431\u043d\u043e": 3623,
  "\u2581seat": 3624,
  "\u2581inform": 3625,
  "\u2581birthday": 3626,
  "\u258175": 3627,
  "\u2581\u0441\u043d\u0438\u043c\u043a\u0430": 3628,
  "\u2581\u0432\u0438\u0436\u0434\u0430": 3629,
  "\u2581education": 3630,
  "\u2581\u0440\u0430\u0437\u0432\u0438\u0442\u0438\u0435\u0442\u043e": 3631,
  "\u2581forever": 3632,
  "\u2581\u0427\u0443\u0445": 3633,
  "day": 3634,
  "\u2581\u0434\u0443\u043c\u0438\u0442\u0435": 3635,
  "\u2581ball": 3636,
  "\u2581\u0441\u043b\u0435\u0434\u0432\u0430\u0449\u0430\u0442\u0430": 3637,
  "\u2581\u0430\u043f\u0440\u0438\u043b": 3638,
  "\u0446\u0438\u044f": 3639,
  "\u2581target": 3640,
  "\u2581\u0437\u0430\u043a\u043e\u043d": 3641,
  "\u2581sitting": 3642,
  "\u2581media": 3643,
  "\u2581Son": 3644,
  "\u2581therapy": 3645,
  "\u2581count": 3646,
  "\u2581\u0446\u0435\u043d\u0430\u0442\u0430": 3647,
  "\u2581Code": 3648,
  "\u2581yesterday": 3649,
  "\u2581assets": 3650,
  "\u2581fresh": 3651,
  "\u2581\u0435\u043b\u0435\u043c\u0435\u043d\u0442\u0438": 3652,
  "\u2581\u0434\u043e\u043f\u044a\u043b\u043d\u0435\u043d\u0438\u0435": 3653,
  "\u2581stage": 3654,
  "\u0430\u043b\u0435\u043d": 3655,
  "\u2581\u0441\u043f\u0430\u0441\u0438": 3656,
  "\u2581v": 3657,
  "old": 3658,
  "\u2581\u0412\u0441\u044f\u043a\u0430": 3659,
  "\u2581\u0438\u0437\u043b\u0438\u0437\u0430": 3660,
  "\u2581\u0433\u043b\u0435\u0434\u0430\u043c": 3661,
  "min": 3662,
  "9/": 3663,
  "\u2581source": 3664,
  "\u2581device": 3665,
  "\u2581150": 3666,
  "\u2581associated": 3667,
  "\u2581\u041f\u0438": 3668,
  "\u2581;": 3669,
  "\u2581Ro": 3670,
  "\u2581\u043f\u044a\u043b\u043d\u0430": 3671,
  "\u2581talked": 3672,
  "\u2581wall": 3673,
  "\u2581ride": 3674,
  "\u2581details": 3675,
  "\u2581ring": 3676,
  "\u2581\u041f\u0440\u0435\u0434": 3677,
  "\u2581extra": 3678,
  "\u2581Paris": 3679,
  "\u2581\u0433\u0430\u0437": 3680,
  "\u2581\u0442\u0435\u0445\u043d\u0438\u0447\u0435\u0441\u043a\u0438": 3681,
  "\u2581Before": 3682,
  "\u2581instruments": 3683,
  "\u2581\u0434\u044a\u0440\u0436\u0438": 3684,
  "\u2581\u0443\u0441\u0442\u0430\u0442\u0430": 3685,
  "\u2581\u0441\u043d\u043e\u0449\u0438": 3686,
  "\u043f\u043e\u0434": 3687,
  "\u2581\u0443\u0431\u0438\u044f": 3688,
  "\u2581\u043c\u0430\u0448\u0438\u043d\u0438": 3689,
  "\u2581\u043d\u0430\u043a\u0430\u0440\u0430": 3690,
  "\u2581\u043f\u043e\u0441\u0442\u0438\u0433\u0430\u043d\u0435": 3691,
  "3/": 3692,
  "\u2581CO": 3693,
  "\u2581stopped": 3694,
  "\u2581vehicles": 3695,
  "\u2581mentioned": 3696,
  "\u2581\u043f\u0440\u043e\u0434\u044a\u043b\u0436\u0435\u043d\u0438\u0435": 3697,
  "\u043c\u043e\u0440": 3698,
  "\u2581Looks": 3699,
  "\u2581technology": 3700,
  "\u2581\u043d\u0443\u0436\u0434\u0430\u0435": 3701,
  "\u2581\u0443\u0441\u0442\u0430\u043d\u043e\u0432\u0435\u043d\u0438": 3702,
  "\u2581Hmm": 3703,
  "\u2581\u0444\u043e\u043d\u0434": 3704,
  "\u2581showed": 3705,
  "\u258138": 3706,
  "\u2581foreign": 3707,
  "\u2581\u0431\u044a\u0434\u0435\u0442\u0435": 3708,
  "\u2581\u041f\u043e\u043d\u0435": 3709,
  "\u2581\u043f\u0440\u043e\u0446\u0435\u0434\u0443\u0440\u0430\u0442\u0430": 3710,
  "\u2581\u041e\u0431\u0449\u043e": 3711,
  "\u2581station": 3712,
  "\u2581\u00b0": 3713,
  "\u2581minimum": 3714,
  "\u2581rich": 3715,
  "\u2581\u043f\u043e\u043a\u0430\u0436\u0430": 3716,
  "\u2581\u0424\u0440\u0430\u043d\u0446\u0438\u044f": 3717,
  "\u2581\u0442\u043e\u043a\u0443": 3718,
  "\u2581doubt": 3719,
  "\u2581\u0441\u0442\u043e\u043a\u0438": 3720,
  "\u2581producers": 3721,
  "\u2581\u043a\u043e\u0434": 3722,
  "\u2581\u0446\u044f\u043b\u043e": 3723,
  "der": 3724,
  "\u2581\u0434\u0438\u0440\u0435\u043a\u0442\u0438\u0432\u0430": 3725,
  "\u0438\u0447\u043d\u0430": 3726,
  "\u2581killing": 3727,
  "\u2581responsibility": 3728,
  "\u2581\u043f\u043e\u0437\u043d\u0430\u0432\u0430\u043c": 3729,
  "\u2581\u0449\u044f\u0445": 3730,
  "\u2581\u0440\u0430\u0437\u0431\u0440\u0430\u0445": 3731,
  "\u2581\u0441\u043b\u0435\u0434\u0432\u0430\u0449\u0438\u044f": 3732,
  "\u2581\u0440\u0430\u0437\u0440\u0435\u0448\u0435\u043d\u0438\u0435": 3733,
  "\u0446\u0435\u043d": 3734,
  "\u2581\u0438\u0437\u043f\u0440\u0430\u0442\u0438": 3735,
  "\u2581territory": 3736,
  "\u2581students": 3737,
  "\u2581hang": 3738,
  "\u2581search": 3739,
  "\u2581\u0430\u043b\u0438\u043d\u0435\u044f": 3740,
  "\u2581\u0410\u0440": 3741,
  "\u2581document": 3742,
  "\u2581operations": 3743,
  "\u2581direction": 3744,
  "\u2581\u0443\u043c\u0440\u0435": 3745,
  "\u2581City": 3746,
  "\u2581\u043c\u0435\u0440\u043a\u0438\u0442\u0435": 3747,
  "ten": 3748,
  "\u2581\u0442\u0440\u0435\u0432\u043e\u0436\u0438": 3749,
  "\u2581eight": 3750,
  "\u2581Chinese": 3751,
  "\u2581Call": 3752,
  "\u2581\u0437\u0430\u0434\u044a\u043b\u0436\u0435\u043d\u0438\u044f": 3753,
  "\u2581combination": 3754,
  "\u2581driving": 3755,
  "\u2581\u0442\u0432\u043e\u0438\u0442\u0435": 3756,
  "\u2581\u0433\u043b\u0435\u0434\u0430": 3757,
  "\u2581Bo": 3758,
  "\u2581\u0417\u043d\u0430\u0435\u0445": 3759,
  "\u043e\u0432\u0430\u0442\u0430": 3760,
  "\u2581\u0431\u0430": 3761,
  "\u0422\u0410": 3762,
  "\u0433\u043e\u043b\u044f\u043c\u0430": 3763,
  "\u2581location": 3764,
  "\u2581Pre": 3765,
  "\u0432\u0430\u0448": 3766,
  "\u2581milk": 3767,
  "\u2581Party": 3768,
  "\u2581wonder": 3769,
  "\u2581Un": 3770,
  "\u043a\u043e\u0432": 3771,
  "\u2581recommended": 3772,
  "\u2581\u0421\u0435\u0440\u0438\u043e\u0437\u043d\u043e": 3773,
  "\u2581\u043d\u044f\u043a\u0430\u043a\u0432\u0438": 3774,
  "\u2581\u0442\u0432\u044a\u0440\u0434\u0438": 3775,
  "\u2581EN": 3776,
  "\u2581\u043a\u0440\u0430\u0441\u0438\u0432\u0430": 3777,
  "\u2581decisions": 3778,
  "IT": 3779,
  "\u2581physical": 3780,
  "\u2581\u0434\u0438\u0435\u0442\u0430": 3781,
  "\u2581statement": 3782,
  "\u2581Today": 3783,
  "\u2581limited": 3784,
  "\u2581connection": 3785,
  "\u2581George": 3786,
  "\u2581\u043a\u043b\u0438\u0435\u043d\u0442\u0438": 3787,
  "\u2581\u043f\u0435": 3788,
  "\u2581\u0438\u043c\u0430\u043b\u043e": 3789,
  "\u2581\u0434\u044f\u043b": 3790,
  "\u2581\u045d": 3791,
  "\u2581markets": 3792,
  "\u2581shown": 3793,
  "\u2581\u0431\u0430\u043d\u043a\u0430": 3794,
  "\u2581\u043f\u043e\u0441\u043b\u0435\u0434\u043d\u0430\u0442\u0430": 3795,
  "\u0446\u0438\u044f\u0442\u0430": 3796,
  "\u2581Charlie": 3797,
  "\u2581contains": 3798,
  "\u2581\u0410\u043c\u0435\u0440\u0438\u043a\u0430": 3799,
  "\u0441\u0435\u043d": 3800,
  "ig": 3801,
  "ger": 3802,
  "\u0441\u0442\u043e": 3803,
  "\u2581economy": 3804,
  "31": 3805,
  "\u2581\u043f\u0440\u0435\u0433\u043b\u0435\u0434": 3806,
  "\u2581assistance": 3807,
  "\u2581\u043e\u0442\u0438\u0432\u0430\u0448": 3808,
  "\u2581killer": 3809,
  "\u2581\u043f\u0440\u0430\u0432\u0438\u0442\u0435\u043b\u0441\u0442\u0432\u043e\u0442\u043e": 3810,
  "\u2581Leave": 3811,
  "\u2581gentlemen": 3812,
  "\u2581\u043e\u043f\u0440\u0430\u0432\u044f": 3813,
  "\u2581\u0440\u0430\u0437\u043f\u043e\u0440\u0435\u0434\u0431\u0438\u0442\u0435": 3814,
  "\u258139": 3815,
  "\u2581[1]": 3816,
  "\u2581agricultural": 3817,
  "\u2581University": 3818,
  "\u2581\u0441\u0442\u0430\u043d\u0434\u0430\u0440\u0442\u0438": 3819,
  "\u2581described": 3820,
  "\u2581\u043e\u043f\u0440\u0435\u0434\u0435\u043b\u0435\u043d": 3821,
  "\u2581\u043f\u0430": 3822,
  "\u2581\u0427\u0430\u0440\u043b\u0438": 3823,
  "\u2581window": 3824,
  "\u2581places": 3825,
  "\u2581\u043d\u0435\u0437\u0430\u0431\u0430\u0432\u043d\u043e": 3826,
  "\u2581\u0432\u044a\u0437\u043c\u043e\u0436\u043d\u043e\u0441\u0442\u0438": 3827,
  "om": 3828,
  "\u043b\u044e": 3829,
  "\u2581High": 3830,
  "\u2581\u043c\u0430\u0441\u0430": 3831,
  "\u2581\u043e\u043d\u0430\u0437\u0438": 3832,
  "\u2581Special": 3833,
  "\u2581House": 3834,
  "\u2581\u0432\u043d\u0438\u043c\u0430\u0442\u0435\u043b\u043d\u043e": 3835,
  "\u0434\u0440\u0430": 3836,
  "\u2581Place": 3837,
  "\u2581ya": 3838,
  "\u2581Show": 3839,
  "\u2581\u0441\u043b\u0443\u0436\u0431\u0430": 3840,
  "\u2581huge": 3841,
  "\u2581matters": 3842,
  "\u2581types": 3843,
  "\u0442\u043e\u0432\u0430": 3844,
  "\u2581etc": 3845,
  "\u2581\u0437\u0430\u0432\u0438\u0441\u0438": 3846,
  "gen": 3847,
  "\u2581broken": 3848,
  "\u2581Done": 3849,
  "\u043b\u0435\u0442": 3850,
  "\u2581status": 3851,
  "\u2581swear": 3852,
  "\u043d\u0443": 3853,
  "\u2581\u043f\u0440\u0430\u043a\u0442\u0438\u043a\u0430": 3854,
  "ow": 3855,
  "\u0444\u0435\u0440": 3856,
  "...\"": 3857,
  "\u2581\u043f\u0440\u043e\u0432\u0435\u0440\u043a\u0430": 3858,
  "\u2581\u0438\u0437\u043f\u044a\u043b\u043d\u044f\u0432\u0430": 3859,
  "\u2581girlfriend": 3860,
  "\u0440\u0435\u0431": 3861,
  "\u2581missed": 3862,
  "den": 3863,
  "\u2581\u0441\u0443\u043c\u0430": 3864,
  "\u2581mad": 3865,
  "\u258142": 3866,
  "\u2581proposal": 3867,
  "\u2581\u0425\u0440\u0438\u0441\u0442\u043e\u0441": 3868,
  "\u2581\u0417\u0435\u043c\u044f\u0442\u0430": 3869,
  "\u2581\u0433\u0440\u0438\u0436\u0438": 3870,
  "\u2581\u043d\u0430\u0446\u0438\u043e\u043d\u0430\u043b\u043d\u0438\u0442\u0435": 3871,
  "\u2581\u043c\u043e": 3872,
  "\u2581\u041a\u043e\u043b\u0435\u0434\u0430": 3873,
  "\u2581km": 3874,
  "\u2581\u0435\u0434\u0432\u0430": 3875,
  "\u2581smart": 3876,
  "\u0430\u043b\u043d\u0430": 3877,
  "\u2581village": 3878,
  "\u2581\u0449\u0430\u0441\u0442\u043b\u0438\u0432": 3879,
  "\u2581professional": 3880,
  "\u2581prove": 3881,
  "\u2581fixed": 3882,
  "\u2581approximately": 3883,
  "\u2581offers": 3884,
  "\u2581plane": 3885,
  "\u2581\u043e\u0442\u0434\u0435\u043b\u043d\u0438": 3886,
  "\u2581\u0433\u043b\u0443\u043f\u043e\u0441\u0442\u0438": 3887,
  "\u2581none": 3888,
  "\u2581Sam": 3889,
  "\u0447\u043b\u0435\u043d\u043a\u0430": 3890,
  "\u2581\u043f\u0440\u0435\u0432\u043e\u0437\u043d\u0438": 3891,
  "\u2581Air": 3892,
  "\u2581trip": 3893,
  "\u2581unto": 3894,
  "\u2581temperature": 3895,
  "\u2581\u0414\u043e\u0441\u0442\u0430": 3896,
  "\u2581victim": 3897,
  "\u2581\u043f\u043e\u043a\u0430\u0437\u0432\u0430\u0442": 3898,
  "\u2581church": 3899,
  "\u2581meat": 3900,
  "\u0438\u0447\u043d\u043e": 3901,
  "\u2581\u0434\u043e\u0448\u043b\u0438": 3902,
  "\u2581\u0412\u0440\u0435\u043c\u0435\u0442\u043e": 3903,
  "\u0422\u041e": 3904,
  "\u2581followed": 3905,
  "\u2581definitely": 3906,
  "\u2581finished": 3907,
  "lan": 3908,
  "\u043a\u044a\u0440": 3909,
  "\u043e\u0441": 3910,
  "\u2581EUROPE": 3911,
  "\u2581\u0442\u0432\u043e\u0435\u0442\u043e": 3912,
  "\u2581advice": 3913,
  "\u2581\u043a\u0430\u043f\u0438\u0442\u0430\u043b": 3914,
  "\u2581\u0434\u0440\u0443\u0433\u043e\u0442\u043e": 3915,
  "\u2581\u0443\u0431\u0438\u0439\u0441\u0442\u0432\u043e": 3916,
  "\u2581\u043a\u043e\u043d\u0442\u0430\u043a\u0442": 3917,
  "\u2581cop": 3918,
  "\u2581\u043f\u0440\u0435\u0434\u0441\u0442\u0430\u0432\u0438\u0442\u0435\u043b": 3919,
  "\u2581El": 3920,
  "\u2581appreciate": 3921,
  "\u2581\u0442\u044f\u0445\u043d\u043e\u0442\u043e": 3922,
  "\u2581\u043e\u0442\u0438\u0432\u0430": 3923,
  "8/": 3924,
  "\u2581focus": 3925,
  "\u2581\u043d\u044f\u043c\u0430\u0448": 3926,
  "\u2581\u0441\u043b\u0435\u0434\u0438": 3927,
  "\u2581standing": 3928,
  "6/": 3929,
  "\u2581\u0434\u0435\u043b\u043e": 3930,
  "\u2581existing": 3931,
  "ang": 3932,
  "\u043d\u0430\u043b\u0438": 3933,
  "\u043f\u0435\u0440": 3934,
  "\u2581summer": 3935,
  "\u2581\u0430\u0434\u0432\u043e\u043a\u0430\u0442": 3936,
  "\u0442\u043d\u0430": 3937,
  "\u2581\u0437\u0430\u0431\u0430\u0432\u043d\u043e": 3938,
  "\u2581\u043c\u0438\u043d\u0430\u043b\u0430\u0442\u0430": 3939,
  "\u2581clinical": 3940,
  "\u2581\u041c\u0430\u0440\u043a": 3941,
  "\u2581\u0432\u044a\u0440\u043d\u0435\u0448": 3942,
  "\u2581\u043f\u0440\u0438\u044f\u0442\u0435\u043b\u043a\u0430": 3943,
  "\u2581\u0420": 3944,
  "\u2581Table": 3945,
  "\u2581EC": 3946,
  "\u2581\u041b\u043e": 3947,
  "\u2581website": 3948,
  "\u2581terrible": 3949,
  "\u2581\u043f\u0440\u043e\u0438\u0437\u0432\u043e\u0434\u0438\u0442\u0435\u043b\u0438": 3950,
  "\u0445\u043e\u0434": 3951,
  "\u2581burn": 3952,
  "\u2581\u0435\u043a\u0438\u043f": 3953,
  "ium": 3954,
  "\u2581\u043c\u0438\u043d\u0430\u043b\u043e\u0442\u043e": 3955,
  "\u2581\u043e\u043f\u0440\u0435\u0434\u0435\u043b\u0435\u043d\u0430": 3956,
  "\u258101": 3957,
  "\u2581Frank": 3958,
  "\u2581names": 3959,
  "\u2581boat": 3960,
  "\u2581improve": 3961,
  "\u2581\u0418\u0441\u043a\u0430": 3962,
  "\u2581strange": 3963,
  "\u2581opening": 3964,
  "In": 3965,
  "\u2581\u0432\u0437\u0435\u043c\u0435\u0448": 3966,
  "\u2581\u043b\u0435\u0433\u043b\u043e\u0442\u043e": 3967,
  "\u2581\u0443\u0434\u043e\u0432\u043e\u043b\u0441\u0442\u0432\u0438\u0435": 3968,
  "\u2581\u0442\u0440\u0430\u043d\u0441\u043f\u043e\u0440\u0442": 3969,
  "\u2581China": 3970,
  "\u2581\u0442\u0435\u043b\u0435\u0444\u043e\u043d": 3971,
  "\u2581\u0424\u0440\u0430\u043d\u043a": 3972,
  "\u2581legislation": 3973,
  "\u2581\u043d\u0430\u0437\u0430\u0434": 3974,
  "ek": 3975,
  "\u0435\u043c\u0438": 3976,
  "\u2581surface": 3977,
  "ip": 3978,
  "\u2581presented": 3979,
  "\u2581\u0432\u0447\u0435\u0440\u0430": 3980,
  "\u2581\u0418\u0441\u043a\u0430\u0442\u0435": 3981,
  "\u2581\u0431\u044a\u0434\u0435\u0449\u0435": 3982,
  "\u2581Section": 3983,
  "\u2581Love": 3984,
  "\u2581\u043e\u043f\u0438\u0442\u0432\u0430": 3985,
  "\u2581lunch": 3986,
  "\u2581simply": 3987,
  "vi": 3988,
  "\u2581earlier": 3989,
  "\u2581substance": 3990,
  "\u2581\u043f\u0440\u043e\u0446\u0435\u0441\u0430": 3991,
  "so": 3992,
  "\u2581note": 3993,
  "\u2581\u0430\u043a\u0442\u0438\u0432\u0438": 3994,
  "\u2581\u043f\u0440\u043e\u0431\u043b\u0435\u043c\u0430": 3995,
  "\u2581\u0421\u043f\u043e\u043a\u043e\u0439\u043d\u043e": 3996,
  "\u2581operating": 3997,
  "\u2581gift": 3998,
  "\u2581\u0447\u0443\u0432\u0441\u0442\u0432\u0430\u0448": 3999,
  "\u2581ice": 4000,
  "\u2581birth": 4001,
  "\u2581\u043c\u043e\u0434\u0435\u043b": 4002,
  "AR": 4003,
  "\u2581Next": 4004,
  "\u2581\u0438\u0437\u0445\u043e\u0434": 4005,
  "\u044f\u0432\u0430": 4006,
  "\u2581guarantee": 4007,
  "\u2581\u043b\u0430": 4008,
  "\u2581press": 4009,
  "\u2581heading": 4010,
  "\u2581Mike": 4011,
  "\u2581Max": 4012,
  "ber": 4013,
  "\u2581\u0414\u0436\u043e\u0440\u0434\u0436": 4014,
  "\u2581Russian": 4015,
  "\u043c\u0435\u0440": 4016,
  "\u2581Mary": 4017,
  "ec": 4018,
  "\u2581\u0441\u043f\u0435\u0446\u0438\u0444\u0438\u0447\u043d\u0438": 4019,
  "\u2581\u043a\u043e\u044f": 4020,
  "\u2581stock": 4021,
  "\u2581ladies": 4022,
  "\u2581\u041a\u0430\u0437\u0432\u0430": 4023,
  "\u2581\u043f\u0430\u0446\u0438\u0435\u043d\u0442\u0438\u0442\u0435": 4024,
  "\u2581\u041a\u043e\u0439\u0442\u043e": 4025,
  "\u2581fix": 4026,
  "\u2581\u043e\u0442\u0438\u0434\u0435\u0448": 4027,
  "\u2581favor": 4028,
  "\u2581authorisation": 4029,
  "\u2581\u043e\u0444\u0438\u0441\u0430": 4030,
  "\u2581publication": 4031,
  "\u2581Everybody": 4032,
  "\u2581\u0432\u0438\u0441\u043e\u043a\u0430": 4033,
  "\u2581\u043c\u0440\u0435\u0436\u0430": 4034,
  "\u2581Whereas": 4035,
  "\u2581implementing": 4036,
  "\u2581tired": 4037,
  "\u2581[2]": 4038,
  "\u043a\u044a\u043b": 4039,
  "\u2581prevent": 4040,
  "\u2581\u043a\u0430\u0447\u0435\u0441\u0442\u0432\u043e\u0442\u043e": 4041,
  "\u2581\u0444\u0430\u043a\u0442\u0430": 4042,
  "\u2581regional": 4043,
  "\u2581\u043e\u043f\u0440\u0435\u0434\u0435\u043b\u044f\u0442": 4044,
  "\u2581dress": 4045,
  "\u2581\u041f\u043e\u043c\u043e\u0449": 4046,
  "\u00b0": 4047,
  "\u258185": 4048,
  "\u2581\u0421\u0443": 4049,
  "75": 4050,
  "\u2581\u0441\u044a\u0440\u0446\u0435": 4051,
  "\u2581quiet": 4052,
  "\u2581seconds": 4053,
  "\u2581Di": 4054,
  "\u2581\u0420\u0435\u0439": 4055,
  "\u0432\u043e\u0434": 4056,
  "\u2581track": 4057,
  "\u2581insurance": 4058,
  "\u2581strength": 4059,
  "ised": 4060,
  "\u2581previous": 4061,
  "\u2581\u0443\u0434\u0430\u0440\u0438": 4062,
  "\u2581Security": 4063,
  "\u2581vote": 4064,
  "\u2581\u0425\u043e": 4065,
  "\u2581\u043a\u0438": 4066,
  "\u2581German": 4067,
  "\u2581caused": 4068,
  "\u2581\u043d\u0430\u0431\u043b\u044e\u0434\u0430\u0432\u0430": 4069,
  "\u2581methods": 4070,
  "\u0437\u043e": 4071,
  "\u2581Internet": 4072,
  "\u2581\u0435\u0444\u0435\u043a\u0442": 4073,
  "\u2581Ex": 4074,
  "\u2581\u0440\u0430\u0437\u0442\u0432\u043e\u0440": 4075,
  "\u2581\u0421\u0442\u043e\u0439": 4076,
  "*": 4077,
  "\u2581began": 4078,
  "\u2581\u041a\u043e\u044f": 4079,
  "\u2581\u0446\u0432\u044f\u0442": 4080,
  "ron": 4081,
  "\u2581Big": 4082,
  "\u2581neither": 4083,
  "\u2581\u0440\u0430\u0437\u043b\u0438\u043a\u0430": 4084,
  "\u2581\u0433\u043e\u0441\u043f\u043e\u0434\u0430": 4085,
  "\u2581Each": 4086,
  "\u2581\u041f\u043e\u0447\u0442\u0438": 4087,
  "\u2581Mother": 4088,
  "\u2581tests": 4089,
  "\u2581\u043f\u0440\u0438\u044f\u0442\u0435\u043b\u0438\u0442\u0435": 4090,
  "\u2581consumption": 4091,
  "\u2581beyond": 4092,
  "\u2581movie": 4093,
  "\u2581tea": 4094,
  "\u2581\u0440\u0430\u0434\u0432\u0430\u043c": 4095,
  "\u043d\u0434\u0438": 4096,
  "\u0432\u044a\u0437": 4097,
  "\u2581closed": 4098,
  "\u2581\u043f\u044a\u0440\u0432\u0438\u0442\u0435": 4099,
  "\u0436\u0435\u043d": 4100,
  "\u2581\u043f\u0440\u043e\u0441\u0442\u0440\u0430\u043d\u0441\u0442\u0432\u043e": 4101,
  "\u2581\u041d\u0438\u0442\u043e": 4102,
  "08": 4103,
  "\u2581wearing": 4104,
  "\u2581begin": 4105,
  "ab": 4106,
  "\u2581\u0447\u0430\u043a\u0430\u0439": 4107,
  "\u0437\u0435": 4108,
  "\u2581proud": 4109,
  "\u2581While": 4110,
  "\u2581\u0421\u0438\u0433\u0443\u0440\u043d\u0430": 4111,
  "\u2581wake": 4112,
  "\u2581travel": 4113,
  "\u2581Chapter": 4114,
  "\u2581Think": 4115,
  "\u2581\u043f\u044a\u0440\u0432\u043e\u0442\u043e": 4116,
  "\u2581\u0431\u043e\u043b\u043d\u0438\u0446\u0430\u0442\u0430": 4117,
  "\u2581Central": 4118,
  "\u2581failure": 4119,
  "\u2581insulin": 4120,
  "ized": 4121,
  "\u2581\u0437\u0430\u043c\u0435\u043d\u044f": 4122,
  "EL": 4123,
  "ja": 4124,
  "\u2581lived": 4125,
  "\u2581central": 4126,
  "\u2581issued": 4127,
  "\u2581former": 4128,
  "\u2581En": 4129,
  "\u2581planet": 4130,
  "\u2581\u0441\u0443\u043f\u0435\u0440": 4131,
  "\u2581Daddy": 4132,
  "\u2581\u043f\u043e\u0434\u0445\u043e\u0434\u044f\u0449\u0438": 4133,
  "\u2581\u0437\u0430\u0432\u0438\u0441\u0438\u043c\u043e\u0441\u0442": 4134,
  "\u2581\u043a\u043e\u0436\u0430\u0442\u0430": 4135,
  "\u2581\u0438\u0434\u0432\u0430\u0442": 4136,
  "les": 4137,
  "\u2581amending": 4138,
  "\u2581behalf": 4139,
  "\u2581\u041a\u0440\u0430": 4140,
  "95": 4141,
  "\u2581acid": 4142,
  "\u2581\u0437\u043d\u0430\u0447\u0438\u0442\u0435\u043b\u043d\u043e": 4143,
  "\u2581\u043b\u0435\u043a\u0430\u0440\u0441\u0442\u0432\u0430": 4144,
  "\u2581\u041c\u0430\u0439\u043a": 4145,
  "\u2581regular": 4146,
  "iv": 4147,
  "\u0434\u043e\u0431\u044a\u0440": 4148,
  "\u2581boyfriend": 4149,
  "\u2581\u0443\u0441\u0442\u0430\u043d\u043e\u0432\u0438": 4150,
  "\u043b\u0438\u044f": 4151,
  "\u2581\u041f\u0440\u0430\u0432": 4152,
  "\u2581James": 4153,
  "\u2581Out": 4154,
  "\u2581\u0445\u0430\u0440\u0430\u043a\u0442\u0435\u0440\u0438\u0441\u0442\u0438\u043a\u0438": 4155,
  "\u2581buddy": 4156,
  "ator": 4157,
  "\u2581(\u201e": 4158,
  "\u2581\u0411\u0440\u0430\u0432\u043e": 4159,
  "\u2581reduce": 4160,
  "\u2581circumstances": 4161,
  "\u2581\u043e\u043f": 4162,
  "\u25817,": 4163,
  "\u2581song": 4164,
  "\u2581\u0421\u0443\u043f\u0435\u0440": 4165,
  "\u2581\u0447\u0443\u0445": 4166,
  "\u2581\u0432\u044a\u0437\u043c\u043e\u0436\u043d\u043e\u0441\u0442\u0442\u0430": 4167,
  "\u2581sold": 4168,
  "\u2581\u043f\u043b\u043e\u0434\u043e\u0432\u0435": 4169,
  "\u2581developed": 4170,
  "\u2581\u043e\u0442\u0432\u043e\u0440\u0438": 4171,
  "\u2581\u0441\u0440\u0435\u0449\u0430\u0442\u0430": 4172,
  "\u2581\u043f\u0440\u0438\u043a\u043b\u044e\u0447\u0438": 4173,
  "\u2581\u0431\u0430\u0437\u0430": 4174,
  "\u2581\u0440\u0438\u0431\u043e\u043b\u043e\u0432": 4175,
  "\u2581\u041a\u0438": 4176,
  "\u2581saved": 4177,
  "\u2581acts": 4178,
  "\u2581located": 4179,
  "\u2581release": 4180,
  "\u2581CD": 4181,
  "\u0444\u0435": 4182,
  "\u2581\u0412\u0438\u0436\u0434\u0430\u043c": 4183,
  "\u2581\u043f\u043e\u0441\u043b\u0435\u0434\u043d\u043e": 4184,
  "\u2581\u043b\u0435\u043a\u0430\u0440\u0441\u0442\u0432\u0435\u043d\u0438": 4185,
  "\u2581compared": 4186,
  "\u2581\u043f\u0440\u0438\u043c\u0435\u0440": 4187,
  "\u2581\u043f\u0440\u0435\u0437\u0438\u0434\u0435\u043d\u0442": 4188,
  "\u0435\u0448": 4189,
  "\u0438\u043d\u0433": 4190,
  "\u2581\u043f\u0440\u0435\u0434\u043e\u0441\u0442\u0430\u0432\u044f\u0442": 4191,
  "\u2581Sometimes": 4192,
  "\u2581\u043f\u0440\u043e\u0446\u0435\u0434\u0443\u0440\u0438": 4193,
  "\u2581\u043f\u0443\u043a\u0430": 4194,
  "\u2581\u0441\u0438\u0433\u0443\u0440\u043d\u0430": 4195,
  "\u25812015/": 4196,
  "\u2581\u0434\u044a\u0440\u0436\u0430": 4197,
  "\u2581\u0430\u0434\u0440\u0435\u0441": 4198,
  "\u2581\u0432\u0435\u043a": 4199,
  "ot": 4200,
  "\u2581Such": 4201,
  "\u2581achieve": 4202,
  "br": 4203,
  "\u2581add": 4204,
  "\u2581Christian": 4205,
  "\u2581Business": 4206,
  "\u043a\u043e\u043d": 4207,
  "\u2581\u042f\u0432\u043d\u043e": 4208,
  "\u0448\u043a\u0438": 4209,
  "\u2581\u041b\u0443": 4210,
  "\u2581hide": 4211,
  "\u2581scene": 4212,
  "\u2581\u043c\u043e\u0433\u044a\u043b": 4213,
  "2)": 4214,
  "pa": 4215,
  "\u2581\u0447": 4216,
  "\u2581\u043f\u0430\u0440\u0442\u0438": 4217,
  "que": 4218,
  "\u2581community": 4219,
  "\u2581August": 4220,
  "\u2581limit": 4221,
  "\u2581slow": 4222,
  "\u2581\u0436\u0438\u0432\u0435\u044f": 4223,
  "\u2581\u0443\u0434\u0430\u0440": 4224,
  "\u2581prior": 4225,
  "\u2581\u0441\u043b\u0443\u0436\u0438\u0442\u0435\u043b\u0438": 4226,
  "\u2581drugs": 4227,
  "\u2581\u0414\u043e\u0441\u0442\u0430\u0442\u044a\u0447\u043d\u043e": 4228,
  "\u2581officer": 4229,
  "\u2581\u043f\u043e\u0441\u043b\u0435\u0434\u043d\u0438\u044f": 4230,
  "\u2581lack": 4231,
  "\u2581freedom": 4232,
  "\u2581books": 4233,
  "\u043a\u044a\u0442": 4234,
  "\u2581\u043d\u0435\u0433\u043e\u0432\u0438\u044f": 4235,
  "\u2581\u0441\u0430\u043c\u0438": 4236,
  "\u2581\u0437\u043e\u043d\u0430": 4237,
  "\u2581\u0411\u0440\u043e\u0439": 4238,
  "\u2581\u041c\u0435\u0440\u0438": 4239,
  "\u2581\u043f\u043e\u0441\u043e\u043a\u0430": 4240,
  "\u2581\u0443\u043f\u0440\u0430\u0432\u043b\u0435\u043d\u0438\u0435\u0442\u043e": 4241,
  "\u2581\u043a\u0430\u0436\u0435\u043c": 4242,
  "\u2581\u043f\u0440\u0435\u0434\u043e\u0441\u0442\u0430\u0432\u0438": 4243,
  "\u2581passed": 4244,
  "\u2581thus": 4245,
  "\u2581cm": 4246,
  "\u2581White": 4247,
  "\u2581\u043f\u0440\u0435\u0434\u043b\u043e\u0436\u0435\u043d\u0438\u0435": 4248,
  "33": 4249,
  "\u2581\u0441\u044a\u043e\u0442\u0432\u0435\u0442\u043d\u0430\u0442\u0430": 4250,
  "\u0433\u0435\u043d": 4251,
  "\u2581Information": 4252,
  "\u2581\u041f\u0443\u0441\u043d\u0438": 4253,
  "\u2581series": 4254,
  "\u2581Mark": 4255,
  "\u2581\u0421\u0442\u0440\u0430\u0445\u043e\u0442\u043d\u043e": 4256,
  "\u2581blow": 4257,
  "\u043f\u0430\u0440": 4258,
  "\u2581Functioning": 4259,
  "\u2581\u0442\u0440\u0435\u0442\u0430": 4260,
  "\u0434\u043e\u0431\u0440\u0438\u044f\u0442": 4261,
  "\u2581states": 4262,
  "\u2581\u0434\u043e\u043a\u0443\u043c\u0435\u043d\u0442": 4263,
  "\u2581\u0412\u0438\u0434\u044f": 4264,
  "\u2581hundred": 4265,
  "\u2581VI": 4266,
  "\u2581\u041e\u0422": 4267,
  "\u2581\u0432\u0438\u0434\u0430": 4268,
  "\u2581\u041a\u043e\u0434": 4269,
  "\u0431\u0435": 4270,
  "\u2581foot": 4271,
  "\u2581\u0434\u044a\u0440\u0436\u0430\u0432\u043d\u0430": 4272,
  "\u25812001": 4273,
  "ID": 4274,
  "\u2581reading": 4275,
  "\u2581global": 4276,
  "\u2581president": 4277,
  "\u2581balance": 4278,
  "\u2581mass": 4279,
  "\u2581\u043c\u0438\u043b\u0438": 4280,
  "\u2581Ka": 4281,
  "\u2581Joe": 4282,
  "\u2581\u043e\u0431\u0438\u0447\u0430\u0448": 4283,
  "\u2581pregnant": 4284,
  "\u2581\u0436\u0438\u0432\u0435\u044f\u0442": 4285,
  "\u2581hasn": 4286,
  "\u0434\u043e\u0431\u0440\u043e\u0442\u043e": 4287,
  "\u2581\u043e\u043f\u0440\u0435\u0434\u0435\u043b\u0438": 4288,
  "\u0430\u043b\u043d\u0438": 4289,
  "\u2581joint": 4290,
  "\u2581\u0440\u0430\u0437\u0431\u0435\u0440\u0435\u0448": 4291,
  "\u043b\u0430\u043d": 4292,
  "\u2581\u0424\u0430": 4293,
  "\u2581\u0447\u0435\u0441\u0442": 4294,
  "\u2581stick": 4295,
  "\u2581\u043d\u0430\u0435\u043c": 4296,
  "\u2581\u0421\u043a\u044a\u043f\u0430": 4297,
  "\u2581\u0434\u043e\u0441\u0435\u0433\u0430": 4298,
  "\u2581require": 4299,
  "\u2581\u0441\u044a\u0437\u0434\u0430\u0432\u0430": 4300,
  "\u2581electronic": 4301,
  "\u2581heat": 4302,
  "\u2581\u0412\u044a\u0440\u0432\u0438": 4303,
  "\u2581\u043f\u043e\u043b\u0438\u0442\u0438\u043a\u0430\u0442\u0430": 4304,
  "\u2581HAS": 4305,
  "\u2581\u0441\u0435\u043a\u0443\u043d\u0434\u0438": 4306,
  "\u0442\u043d\u0438": 4307,
  "\u2581\u0437\u0430\u0433\u0443\u0431\u0438": 4308,
  "\u2581construction": 4309,
  "\u2581\u041f\u0420\u0418\u0415": 4310,
  "ti": 4311,
  "\u2581\u043a\u0430\u0447\u0435\u0441\u0442\u0432\u043e": 4312,
  "\u2581Isn": 4313,
  "\u2581produced": 4314,
  "\u25818,": 4315,
  "\u043a\u0440\u0438": 4316,
  "\u2581bear": 4317,
  "\u2581\u0414\u043e\u0431\u0430\u0432\u0438": 4318,
  "\u2581\u0436\u0438\u0432\u043e\u0442\u043d\u0438\u0442\u0435": 4319,
  "\u043d\u0438\u043a\u0430": 4320,
  "\u0422\u043e\u0432\u0430": 4321,
  "\u2581grow": 4322,
  "\u0442\u0435\u043b\u0438\u0442\u0435": 4323,
  "\u2581truck": 4324,
  "\u2581billion": 4325,
  "\u2581Anyway": 4326,
  "\u2581particularly": 4327,
  "\u2581twice": 4328,
  "\u25811).": 4329,
  "32": 4330,
  "\u2581thousand": 4331,
  "\u2581\u043c\u043e\u043c\u0438\u0447\u0435\u0442\u043e": 4332,
  "\u2581\u043a\u0440\u0430\u043a\u0430\u0442\u0430": 4333,
  "\u2581\u0441\u043a\u043e\u0440\u043e\u0441\u0442": 4334,
  "\u2581principles": 4335,
  "\u2581pleasure": 4336,
  "\u2581\u043d\u0438\u043a\u043e\u0433\u043e": 4337,
  "io": 4338,
  "\u2581Jo": 4339,
  "\u2581\u0440\u0430\u0439\u043e\u043d\u0438": 4340,
  "\u2581center": 4341,
  "\u2581sight": 4342,
  "\u2581\u0443\u0447\u0430\u0441\u0442\u0432\u0430": 4343,
  "\u2581develop": 4344,
  "lin": 4345,
  "\u2581\u043f\u0438\u0441\u043c\u043e": 4346,
  "\u2581learned": 4347,
  "\u2581administrative": 4348,
  "\u2581calm": 4349,
  "\u2581\u0440\u0430\u0437\u043f\u043e\u043b\u0430\u0433\u0430": 4350,
  "ung": 4351,
  "\u2581\u0432\u0430\u0448\u0435\u0442\u043e": 4352,
  "\u0427": 4353,
  "\u2581\u043f\u0440\u0430\u0445": 4354,
  "\u2581\u0441\u0438\u0442\u0443\u0430\u0446\u0438\u044f": 4355,
  "\u2581\u0420\u0435\u043f\u0443\u0431\u043b\u0438\u043a\u0430": 4356,
  "\u2581tree": 4357,
  "\u2581War": 4358,
  "\u2581\u0423\u0442\u0440\u0435": 4359,
  "\u2581\u0441\u043e\u0431\u0441\u0442\u0432\u0435\u043d\u0430": 4360,
  "\u2581wind": 4361,
  "\u2581\u043c\u0443\u0437\u0438\u043a\u0430": 4362,
  "/2006": 4363,
  "2010": 4364,
  "\u2581Another": 4365,
  "\u2581\u0440\u0430\u0437\u043b\u0438\u0447\u043d\u043e": 4366,
  "\u2581\u043e\u043f\u0440\u0430\u0432\u0438": 4367,
  "\u2581\u043e\u0442\u0433\u043e\u0432\u0430\u0440\u044f\u0442": 4368,
  "\u2581\u043f\u044a\u043b\u0435\u043d": 4369,
  "\u2581population": 4370,
  "\u2581radio": 4371,
  "\u2581interests": 4372,
  "\u2581\u0418\u043c\u0430\u0445": 4373,
  "\u2581rooms": 4374,
  "\u2581\u043d\u044f\u043c\u0430\u0442": 4375,
  "\u2581\u0431\u0440\u043e\u044f": 4376,
  "\u2581Doctor": 4377,
  "\u2581\u043f\u0440\u043e\u0443\u0447\u0432\u0430\u043d\u0435": 4378,
  "2007": 4379,
  "\u2581substances": 4380,
  "\u2581mark": 4381,
  "\u2581\u0440\u0430\u0437\u0441\u0442\u043e\u044f\u043d\u0438\u0435": 4382,
  "\u2581elements": 4383,
  "/4": 4384,
  "\u2581Le": 4385,
  "\u2581\u043e\u0431\u0435\u0437": 4386,
  "\u2581\u043e\u0441\u0438\u0433\u0443\u0440\u044f\u0432\u0430": 4387,
  "\u2581Total": 4388,
  "\u0435\u0432": 4389,
  "\u2581\u0445\u0440\u0430\u043d\u0435\u043d\u0435": 4390,
  "99": 4391,
  "\u2581\u0447\u0430\u0439": 4392,
  "\u2581\u043b\u044a\u0436\u0430": 4393,
  "\u2581Still": 4394,
  "45": 4395,
  "\u2581\u041b\u0435": 4396,
  "\u2581\u0446\u0435\u043d\u0442\u044a\u0440\u0430": 4397,
  "\u2581\u043f\u0435\u0440": 4398,
  "IC": 4399,
  "\u2581favorite": 4400,
  "\u0447\u043d\u043e": 4401,
  "\u2581\u041f\u043e\u0432\u0435\u0447\u0435": 4402,
  "\u2581\u0440\u0430\u0437\u0431\u0440\u0430": 4403,
  "\u2581Hotel": 4404,
  "\u2581Use": 4405,
  "\u2581\u0438\u0437\u043d\u0435\u043d\u0430\u0434\u0430": 4406,
  "end": 4407,
  "\u2581\u0413\u044a\u0440\u0446\u0438\u044f": 4408,
  "\u2581\u041a\u0430\u043a\u0432\u043e\u0442\u043e": 4409,
  "\u2581\u043d\u0430\u043c\u0435\u0440\u0438\u0448": 4410,
  "ya": 4411,
  "\u2581\u043f\u0440\u0438\u0435\u043c\u0430\u0442": 4412,
  "\u2581\u0438\u0441\u0442\u0438\u043d\u0430": 4413,
  "\u043b\u0438\u0442\u0435": 4414,
  "\u2581walking": 4415,
  "hmm": 4416,
  "\u2581impossible": 4417,
  "\u2581\u043e\u0431\u0449\u0430": 4418,
  "\u2581oh": 4419,
  "\u2581arrest": 4420,
  "\u2581\u0430\u043d\u0433\u043b\u0438\u0439\u0441\u043a\u0438": 4421,
  "\u2581client": 4422,
  "\u2581Although": 4423,
  "\u2581club": 4424,
  "\u2581star": 4425,
  "\u2581\u0442\u0430\u043a\u0441\u0438": 4426,
  "\u2581strategy": 4427,
  "\u2581\u043d\u0435\u0431\u0435\u0442\u043e": 4428,
  "\u2581\u043f\u043e\u0434\u0430\u0440\u044a\u043a": 4429,
  "\u258102": 4430,
  "\u2581\u043e\u0431\u0449\u0430\u0442\u0430": 4431,
  "\u042f": 4432,
  "\u2581\u043c\u043e\u0436\u0435\u0448\u0435": 4433,
  "\u2581\u0438\u043d\u0430\u0447\u0435": 4434,
  "\u2581\u043f\u043e\u043b\u0435": 4435,
  "\u2581\u0434\u0440\u0435\u0445\u0438": 4436,
  "\u2581\u0441\u043f\u0435\u0446\u0438\u0430\u043b\u043d\u0438": 4437,
  "\u043a\u043e\u0440": 4438,
  "\u2581college": 4439,
  "\u2581\u043a\u043c": 4440,
  "\u2581named": 4441,
  "\u2581agent": 4442,
  "\u2581\u0431\u0435\u0431\u0435": 4443,
  "\u0430\u0437": 4444,
  "\u2581\u043d\u043e\u0432\u0430\u0442\u0430": 4445,
  "\u2581separate": 4446,
  "\u2581Parties": 4447,
  "\u2581correct": 4448,
  "\u0434\u0443": 4449,
  "\u2581Fund": 4450,
  "\u2581\u0414\u0430\u0442\u0430": 4451,
  "\u2581\u0432\u0435\u0449\u0435\u0441\u0442\u0432\u043e": 4452,
  "\u2581horse": 4453,
  "\u2581\u0434\u0430\u0434\u0435\u043d\u0430": 4454,
  "\u2581\u0431\u043e\u043b\u043a\u0430": 4455,
  "\u2581\u0434\u0440\u0443\u0436\u0435\u0441\u0442\u0432\u0430": 4456,
  "\u2581planning": 4457,
  "\u2581Greece": 4458,
  "\u2581flight": 4459,
  "\u2581imagine": 4460,
  "\u2581\u0434\u043e\u043f\u044a\u043b\u043d\u0438\u0442\u0435\u043b\u043d\u043e": 4461,
  "lic": 4462,
  "\u2581\u0443\u0431\u0438": 4463,
  "\u2581fighting": 4464,
  "\u2581raise": 4465,
  "\u2581smell": 4466,
  "\u2581\u043f\u0440\u0430\u0432\u0438\u043b\u043e": 4467,
  "\u2581signed": 4468,
  "\u2581ourselves": 4469,
  "\u2581\u043c\u043b\u043d": 4470,
  "\u2581environmental": 4471,
  "\u2581\u041a\u0438\u0442\u0430\u0439": 4472,
  "\u2581orders": 4473,
  "\u2581forgot": 4474,
  "\u0434\u0436": 4475,
  "\u2581\u043a\u043e\u0435": 4476,
  "\u2581Economic": 4477,
  "\u2581\u041f\u0420\u0418\u041b\u041e\u0416\u0415\u041d\u0418\u0415": 4478,
  "\u2581North": 4479,
  "\u2581\u0441\u0435\u0434\u0435\u043c": 4480,
  "\u2581\u043a\u043e\u0440\u0430\u0431\u0430": 4481,
  "\u2581presence": 4482,
  "\u2581\u043d\u0430\u0440\u0443\u0448\u0435\u043d\u0438\u044f": 4483,
  "\u2581\u043f\u0440\u043e\u0446\u0435\u043d\u0442": 4484,
  "\u2581miles": 4485,
  "\u2581Director": 4486,
  "\u2581symptoms": 4487,
  "\u2581\u0413\u043e\u0441\u043f\u043e\u0434\u0438": 4488,
  "\u2581\u043c\u0435\u0441\u043e": 4489,
  "\u2581destroy": 4490,
  "\u2581damage": 4491,
  "\u2581arm": 4492,
  "\u2581\u043d\u0430\u0434\u043e\u043b\u0443": 4493,
  "\u2581\u0445\u0430\u0440\u0435\u0441\u0432\u0430\u043c": 4494,
  "36": 4495,
  "\u041a\u0430\u043a\u0432\u043e": 4496,
  "\u2581\u0441\u0434\u0435\u043b\u043a\u0430": 4497,
  "\u2581principle": 4498,
  "\u2581match": 4499,
  "\u2581treat": 4500,
  "\u2581forms": 4501,
  "\u2581\u041d\u0430\u043f\u0440\u0430\u0432\u0438\u0445": 4502,
  "\u2581acting": 4503,
  "\u2581mess": 4504,
  "\u2581ANNEX": 4505,
  "\u2581\u043c\u0438\u0440": 4506,
  "\u0435\u0448\u0435": 4507,
  "\u2581machines": 4508,
  "\u2581volume": 4509,
  "\u2581\u0442\u0432\u043e\u0439": 4510,
  "\u2581400": 4511,
  "\u2581\u043f\u0430\u0440\u0442\u043d\u044c\u043e\u0440": 4512,
  "\u2581\u0435\u0434\u0438\u043d\u0441\u0442\u0432\u0435\u043d\u0438\u044f\u0442": 4513,
  "\u2581institution": 4514,
  "\u2581\u043e\u0431\u0449\u0435\u0441\u0442\u0432\u043e": 4515,
  "\u2581otherwise": 4516,
  "\u2581\u043a\u043e\u043b\u0438\u0447\u0435\u0441\u0442\u0432\u043e": 4517,
  "\u0435\u043b\u0438": 4518,
  "\u2581\u00a9": 4519,
  "\u2581\u043c\u0435\u0442\u043e\u0434": 4520,
  "\u2581serve": 4521,
  "\u2581\u0415\u0432\u0440\u043e\u043f\u0435\u0439\u0441\u043a\u0438\u044f\u0442": 4522,
  "\u2581\u0421\u0430\u0440\u0430": 4523,
  "\u2581\u0438\u0437\u0442\u043e\u0447\u043d\u0438\u0446\u0438": 4524,
  "\u2581accounts": 4525,
  "\u2581Anything": 4526,
  "\u2581\u0414\u0435\u0439\u0432\u0438\u0434": 4527,
  "\u2581\u0443\u0441\u0442\u0430\u043d\u043e\u0432\u044f\u0432\u0430\u043d\u0435": 4528,
  "OR": 4529,
  "\u2581\u0438\u0441\u043a\u0430\u043b\u0430": 4530,
  "\u2581draw": 4531,
  "\u258155": 4532,
  "\u2581units": 4533,
  "\u2581\u0441\u0438\u0433\u043d\u0430\u043b": 4534,
  "\u2581\u043e\u0434\u043e\u0431\u0440\u0435\u043d\u0438\u0435": 4535,
  "\u2581\u043a\u0443\u0447\u0435": 4536,
  "\u2581modern": 4537,
  "RO": 4538,
  "\u2581\u0424\u0438": 4539,
  "\u2581ability": 4540,
  "bi": 4541,
  "\u2581\u043e\u0431\u0449\u0438\u044f": 4542,
  "\u2581taste": 4543,
  "\u2581\u043c\u043e\u0433\u043b\u0438": 4544,
  "IA": 4545,
  "\u2581\u0441\u0440\u0435\u0434\u0430\u0442\u0430": 4546,
  "\u2581\u043f\u0440\u043e\u0434\u0443\u043a\u0442\u0438\u0442\u0435": 4547,
  "\u2581\u041f\u043e\u0433\u043b\u0435\u0434\u043d\u0438": 4548,
  "\u2581~": 4549,
  "\u2581reached": 4550,
  "2008": 4551,
  "\u2581\u043f\u043e\u0441\u043b\u0435\u0434\u0432\u0430": 4552,
  "\u0442\u0438\u043a\u0430": 4553,
  "\u2581honest": 4554,
  "\u043a\u043e\u0432\u0430": 4555,
  "\u043a\u0440\u0430": 4556,
  "\u2581fuel": 4557,
  "\u2581\u043f\u0440\u0435\u0441\u043b\u0435\u0434\u0432\u0430": 4558,
  "\u2581\u0440\u0443": 4559,
  "38": 4560,
  "\u2581\u043f\u043e\u0434\u0445\u043e\u0434": 4561,
  "\u2581[...]": 4562,
  "\u2581lawyer": 4563,
  "\u2581\u0445\u043e\u0442\u0435\u043b": 4564,
  "\u2581army": 4565,
  "\u2581cells": 4566,
  "\u2581\u0440\u043e\u043b\u044f": 4567,
  "\u25811999": 4568,
  "\u2581\u043a\u0440\u0430\u0439\u043d\u0430": 4569,
  "\u2581\u043e\u0431\u044f\u0441\u043d\u0438": 4570,
  "\u2581\u043c\u043d\u0435\u043d\u0438\u0435": 4571,
  "\u0438\u0441\u0442": 4572,
  "\u2581San": 4573,
  "II": 4574,
  "\u2581\u043a\u043d\u0438\u0433\u0430\u0442\u0430": 4575,
  "\u2581Try": 4576,
  "\u2581camera": 4577,
  "\u041d\u0410": 4578,
  "\u2581debt": 4579,
  "\u2581brothers": 4580,
  "\u2581sad": 4581,
  "\u2581claim": 4582,
  "\u2581\u0441\u044a\u0434\u044a\u0440\u0436\u0430\u0449\u0438": 4583,
  "oc": 4584,
  "\u2581\u0414\u0440\u044a\u0436": 4585,
  "34": 4586,
  "\u2581cops": 4587,
  "\u2581weapon": 4588,
  "\u2581\u0441\u044a\u0436\u0430\u043b\u0435\u043d\u0438\u0435": 4589,
  "\u2581\u0436\u0435\u0440\u0442\u0432\u0430": 4590,
  "IS": 4591,
  "\u2581\u041f\u043e\u043b": 4592,
  "\u2581feels": 4593,
  "\u2581ADOPT": 4594,
  "\u2581emergency": 4595,
  "\u2581\u041e\u041e\u041d": 4596,
  "\u2581led": 4597,
  "\u2581fly": 4598,
  "\u2581\u0434\u044a\u0440\u0432\u043e": 4599,
  "\u2581recent": 4600,
  "\u2581Italy": 4601,
  "\u2581providing": 4602,
  "\u2581Ok": 4603,
  "\u2581includes": 4604,
  "\u2581\u0411\u043e": 4605,
  "\u2581\u0440\u0430\u043d\u043e": 4606,
  "\u2581airport": 4607,
  "\u2581Se": 4608,
  "\u2581rock": 4609,
  "\u2581\u0438\u0437\u043f\u0438\u0442\u0432\u0430\u043d\u0435": 4610,
  "\u2581putting": 4611,
  "\u2581Huh": 4612,
  "\u2581weapons": 4613,
  "\u2581\u043b\u0435\u043a\u043e": 4614,
  "\u2581\u0441\u0438\u0433\u0443\u0440\u043d\u043e\u0441\u0442\u0442\u0430": 4615,
  "\u2581\u0442\u0435\u0445\u043d\u043e\u043b\u043e\u0433\u0438\u0438": 4616,
  "\u2581Read": 4617,
  "\u2581surprise": 4618,
  "\u2581Master": 4619,
  "ice": 4620,
  "\u0431\u0438\u043b": 4621,
  "\u2581entered": 4622,
  "\u2581\u0432\u0438\u0441\u043e\u043a\u0438": 4623,
  "\u2581\u0437\u0430\u0441\u044f\u0433\u0430": 4624,
  "\u0442\u0438\u0447\u043d\u0438": 4625,
  "\u2581opened": 4626,
  "\u2581bathroom": 4627,
  "\u043d\u0430\u043a\u0440\u0430\u044f": 4628,
  "\u2581powerful": 4629,
  "\u2581signal": 4630,
  "4/": 4631,
  "\u2581suppose": 4632,
  "\u2581keeping": 4633,
  "\u2581honor": 4634,
  "\u2581package": 4635,
  "\u2581Sea": 4636,
  "\u2581\u0434\u0443\u0445": 4637,
  "ub": 4638,
  "\u2581adopt": 4639,
  "\u2581\u0440\u0430\u0431\u043e\u0442\u043d\u0438": 4640,
  "\u2581determine": 4641,
  "\u0434\u044a\u043d": 4642,
  "\u2581rid": 4643,
  "\u2581article": 4644,
  "ud": 4645,
  "\u2581promised": 4646,
  ".12.": 4647,
  "\u2581\u0437\u0434\u0440\u0430\u0432\u0435\u0442\u043e": 4648,
  "\u258143": 4649,
  "\u2581\u0431\u0435\u0431\u0435\u0442\u043e": 4650,
  "\u2581hearing": 4651,
  "\u258144": 4652,
  "\u2581\u0433\u0440\u0430\u0436\u0434\u0430\u043d\u0438": 4653,
  "\u2581Development": 4654,
  "\u0441\u0442\u0440\u0438": 4655,
  "\u2581euro": 4656,
  "\u2581obligations": 4657,
  "\u2581\u0437\u0430\u043f\u043e\u0447\u043d\u0435\u043c": 4658,
  "\u2581\u0421\u044a\u0441\u0442\u0430\u0432\u0435\u043d": 4659,
  "\u2581\u0433\u043e\u0432\u043e\u0440\u044f\u0442": 4660,
  "\u2581\u0412\u0430\u0448\u0430\u0442\u0430": 4661,
  "\u2581\u0425\u0435\u043d\u0440\u0438": 4662,
  "\u2581compliance": 4663,
  "\u2581\u043f\u043e\u0441\u0442\u0430\u0432\u044f": 4664,
  "\u2581\u0440\u0430\u0437\u0441\u043b\u0435\u0434\u0432\u0430\u043d\u0435": 4665,
  "\u2581During": 4666,
  "\u2581UN": 4667,
  "\u2581\u0441\u044a\u0437\u0434\u0430\u0434\u0435": 4668,
  "\u2581\u0432\u043e\u0439\u043d\u0430\u0442\u0430": 4669,
  "\u2581\u043d\u0430\u043f\u0440\u0430\u0432\u0435\u043d\u0438": 4670,
  "my": 4671,
  "\u2581distance": 4672,
  "\u2581\u0418\u0442\u0430\u043b\u0438\u044f": 4673,
  "\u2581Tom": 4674,
  "\u2581Mac": 4675,
  "\u2581disorders": 4676,
  "\u2581commercial": 4677,
  "\u2581\u043d\u0438\u043a\u0430\u043a\u044a\u0432": 4678,
  "\u2581Center": 4679,
  "\u2581programmes": 4680,
  "\u2581aware": 4681,
  "\u2581\u0432\u043a\u0443\u0441": 4682,
  "\u2581\u043b\u0435": 4683,
  "\u2581\u043f\u0440\u0435\u0434\u043f\u043e\u043b\u0430\u0433\u0430\u043c": 4684,
  "\u2581\u0443\u0441\u0442\u0440\u043e\u0439\u0441\u0442\u0432\u0430": 4685,
  "\u2581medicinal": 4686,
  "\u2581\u043d\u0430\u0431\u043b\u044e\u0434\u0435\u043d\u0438\u0435": 4687,
  "\u2581\u041c\u0430\u043a\u0441": 4688,
  "\u2581excuse": 4689,
  "\u0441\u044a\u0440": 4690,
  "\u2581complex": 4691,
  "\u2581\u0437\u0430\u043f\u043e\u0432\u0435\u0434": 4692,
  "\u2581race": 4693,
  "\u2581wood": 4694,
  "\u2581teach": 4695,
  "\u2581observed": 4696,
  "\u2581email": 4697,
  "\u2581\u043c\u0438\u0441\u043b\u044f\u0442": 4698,
  "\u2581\u0437\u0430\u043a\u043e\u043d\u0430": 4699,
  "\u2581\u0445\u0430\u0440\u0430\u043a\u0442\u0435\u0440": 4700,
  "\u2581medicine": 4701,
  "\u2581movement": 4702,
  "\u2581\u0432\u0440\u044a\u0437\u043a\u0430\u0442\u0430": 4703,
  "\u2581comments": 4704,
  "\u0445\u043e": 4705,
  "\u2581length": 4706,
  "\u2581image": 4707,
  "\u2581\u041f\u0438\u0442\u044a\u0440": 4708,
  "\u2581\u043f\u044a\u0440\u0432\u0438\u044f\u0442": 4709,
  "\u2581\u0411\u044a\u0440\u0437\u043e": 4710,
  "\u2581Friday": 4711,
  "\u2581communication": 4712,
  "\u2581Up": 4713,
  "\u2581feelings": 4714,
  "\u2581Should": 4715,
  "\u2581fit": 4716,
  "\u2581\u0420\u043e": 4717,
  "\u2581\u043a\u043e\u043c\u043f\u0435\u0442\u0435\u043d\u0442\u043d\u0438": 4718,
  "\u2581kiss": 4719,
  "\u2581benefits": 4720,
  "\u2581\u043f\u0440\u0435\u0434\u043b\u043e\u0436\u0438": 4721,
  "\u2581throughout": 4722,
  "\u2581\u0443\u043c\u0438\u0440\u0430": 4723,
  "\u2581\u041f\u0435\u0442": 4724,
  "\u043d\u0435\u0448": 4725,
  "\u2581\u043f\u0440\u0435\u0434\u0438\u0437\u0432\u0438\u043a\u0430": 4726,
  "\u2581loves": 4727,
  "\u2581\u043e\u0447\u0435\u0432\u0438\u0434\u043d\u043e": 4728,
  "\u2581\u0421\u043a\u043e\u0440\u043e": 4729,
  "\u2581exposure": 4730,
  "\u041b": 4731,
  "\u2581\u0434\u0443\u043c\u0430\u0442\u0430": 4732,
  "\u0432\u0438\u0440": 4733,
  "che": 4734,
  "\u0432\u0430\u043d": 4735,
  "\u2581\u043a\u0430\u0442\u0435\u0433\u043e\u0440\u0438\u044f": 4736,
  "\u2581\u0421\u044a\u0432\u0435\u0442\u044a\u0442": 4737,
  "\u2581\u0443\u0441\u0438\u043b\u0438\u044f": 4738,
  "\u2581Joint": 4739,
  "98": 4740,
  "\u2581\u0446\u0435\u043d\u0438\u0442\u0435": 4741,
  "\u0435\u043d\u0435": 4742,
  "\u2581mention": 4743,
  "\u2581provision": 4744,
  "\u2581south": 4745,
  "\u2581\u043f\u0440\u0438\u043d\u0446\u0438\u043f": 4746,
  "\u2581\u0442\u0430\u0439\u043d\u0430": 4747,
  "\u2581north": 4748,
  "\u2581contribution": 4749,
  "\u2581export": 4750,
  "\u2581dry": 4751,
  "\u2581Agent": 4752,
  "\u0438\u043c": 4753,
  "\u2581processing": 4754,
  "\u2581\u0432\u0438\u0434\u044f\u043b": 4755,
  "\u0435\u0442\u0438": 4756,
  "\u2581Bar": 4757,
  "\u2581\u043d\u0430\u043b\u044f\u0433\u0430\u043d\u0435": 4758,
  "\u25811/": 4759,
  "\u2581\u043e\u043f\u0430\u0441\u043d\u043e\u0441\u0442": 4760,
  "\u2581\u043e\u0440\u044a\u0436\u0438\u044f": 4761,
  "\u2581Henry": 4762,
  "\u2581Ms": 4763,
  "\u2581\u043a\u0440\u044a\u0433": 4764,
  "\u2581bus": 4765,
  "\u2581Turkey": 4766,
  "\u2581ha": 4767,
  "\u2581\u041a\u043e\u0435": 4768,
  "tor": 4769,
  "\u2581efforts": 4770,
  "\u2581reporting": 4771,
  "mail": 4772,
  "\u2581\u0441\u0442\u0430\u0440": 4773,
  "\u2581\u0433\u044a\u0440\u0431\u0430": 4774,
  "\u2581\u0436\u0435\u043d\u0430\u0442\u0430": 4775,
  "\u2581\u043d\u0430\u0447\u0430\u043b\u043e": 4776,
  "\u2581\u043a\u0430\u043f\u0430\u0446\u0438\u0442\u0435\u0442": 4777,
  "\u2581\u043f\u0440\u0435\u0434\u0432\u0438\u0436\u0434\u0430": 4778,
  "\u2581\u0432\u0430\u0436\u043d\u0438": 4779,
  "\u2581\u043a\u0440\u0438\u0437\u0430": 4780,
  "\u043e\u043a": 4781,
  "\u2581\u0441\u0442\u044a\u043f\u043a\u0430": 4782,
  "za": 4783,
  "\u2581\u043d\u0430\u043a\u0440\u0430\u044f": 4784,
  "\u2581helped": 4785,
  "\u2581cat": 4786,
  "\u2581\u043d\u043e\u0432\u0438\u0442\u0435": 4787,
  "\u2581organisation": 4788,
  "\u2581\u0432\u0438\u0434\u0435\u043e": 4789,
  "\u2581\u0441\u043c\u0438\u0441\u044a\u043b\u0430": 4790,
  "\u2581Ne": 4791,
  "\u2581\u0440\u0438\u0431\u0430": 4792,
  "\u2581\u0442\u044a\u0440\u0433\u043e\u0432\u0441\u043a\u0438": 4793,
  "\u2581absolutely": 4794,
  "\u2581manufacturer": 4795,
  "\u2581external": 4796,
  "\u2581essential": 4797,
  "\u2581shop": 4798,
  "\u0430\u043d\u0442": 4799,
  "\u043f\u044a\u0440": 4800,
  "ative": 4801,
  "\u2581\u043f\u0440\u0435\u0434\u043e\u0441\u0442\u0430\u0432\u044f\u043d\u0435": 4802,
  "\u2581Quantity": 4803,
  "\u2581subparagraph": 4804,
  "\u2581\u043d\u0430\u043b\u0430\u0433\u0430": 4805,
  "`": 4806,
  "\u2581\u043c\u043e\u0435": 4807,
  "\u043b\u043e\u0436": 4808,
  "\u0447\u043a\u0430\u0442\u0430": 4809,
  "\u2581overall": 4810,
  "\u0433\u043e\u043b\u044f\u043c": 4811,
  "\u2581empty": 4812,
  "\u2581\u0441\u044a\u043f\u0440\u0443\u0433": 4813,
  "\u2581\u043e\u0431\u043b\u0430\u0441\u0442\u0438": 4814,
  "\u2581resolution": 4815,
  "\u2581\u041d\u0438\u043a": 4816,
  "\u2581helping": 4817,
  "\u2581\u043f\u043e\u0441\u043e\u0447\u0432\u0430": 4818,
  "\u2581engine": 4819,
  "\u2581\u043f\u0430\u0437\u0430\u0440\u0438": 4820,
  "\u2581plus": 4821,
  "\u2581lines": 4822,
  "\u2581\u043a\u043e\u043c\u043f\u0430\u043d\u0438\u044f\u0442\u0430": 4823,
  "\u2581\u0438\u043d\u0441\u0442\u0440\u0443\u043c\u0435\u043d\u0442": 4824,
  "fat": 4825,
  "\u2581\u0414\u0436\u0435\u0439": 4826,
  "\u2581\u0443\u0441\u043f\u0435\u0445": 4827,
  "\u2581600": 4828,
  "\u2581Remove": 4829,
  "\u2581\u0438\u043d\u0444\u043e\u0440\u043c\u0438\u0440\u0430": 4830,
  "\u0416": 4831,
  "\u2581\u043e\u0431\u0449\u0438": 4832,
  "\u201d,": 4833,
  "\u2581\u0431\u0430\u0437\u0430\u0442\u0430": 4834,
  "ey": 4835,
  "\u2581\u043f\u043e\u043b\u0438\u0442\u0438\u0447\u0435\u0441\u043a\u0438": 4836,
  "\u2581\u043f\u0440\u0438\u043b\u043e\u0436\u0438\u043c\u0438": 4837,
  "\u2581\u041d\u0435\u0434\u0435\u0439": 4838,
  "\u2581\u0437\u043d\u0430\u0435\u0448\u0435": 4839,
  "\u0432\u0438\u043d": 4840,
  "\u2581relation": 4841,
  "\u0440\u0430\u0441": 4842,
  "\u25812019": 4843,
  "\u2581reduction": 4844,
  "\u2581kidding": 4845,
  "\u2581ideas": 4846,
  "\u2581\u043e\u0442\u043d\u0435\u043c\u0435": 4847,
  "\u2581\u0441\u044a\u0437\u0434\u0430\u0432\u0430\u043d\u0435\u0442\u043e": 4848,
  "ier": 4849,
  "\u2581Honey": 4850,
  "ki": 4851,
  "\u2581\u041e\u0445": 4852,
  "\u2581entity": 4853,
  "\u2581\u0443\u0431\u0438\u0439\u0441\u0442\u0432\u043e\u0442\u043e": 4854,
  "\u043c\u043d\u043e\u0433\u043e": 4855,
  "\u2581metal": 4856,
  "\u2581\u0438\u0437\u043f\u0440\u0430\u0449\u0430": 4857,
  "\u2581objectives": 4858,
  "\u258147": 4859,
  "\u2581category": 4860,
  "\u2581\u043f\u0440\u0435\u0434\u0430\u0434\u0435": 4861,
  "\u2581steps": 4862,
  "\u2581customs": 4863,
  "\u2581London": 4864,
  "\u2581Na": 4865,
  "\u2581Ar": 4866,
  "\u25811000": 4867,
  "\u2581\u043f\u0440\u043e\u0432\u0435\u0434\u0435": 4868,
  "\u2581\u041a\u0430\u0440": 4869,
  "\u2581science": 4870,
  "\u2581shoes": 4871,
  "2012": 4872,
  "\u2581\u0434\u043e\u043a\u0430\u0437\u0430\u0442\u0435\u043b\u0441\u0442\u0432\u043e": 4873,
  "\u2581\u043f\u0443\u0441\u043d\u0430": 4874,
  "\u2581\u043e\u043f\u0435\u0440\u0430\u0446\u0438\u044f": 4875,
  "\u2581\u0433\u043e\u0442\u043e\u0432\u0430": 4876,
  "\u25819,": 4877,
  "\u2581Holy": 4878,
  "\u0440\u0435\u0434": 4879,
  "\u2581\u043f\u043b\u0430\u043d\u0430": 4880,
  "\u2581\u0431\u0430\u0440": 4881,
  "\u2581Many": 4882,
  "\u2581laying": 4883,
  "\u2581\u043c\u0430\u0441\u043b\u043e": 4884,
  "\u2581\u0435\u0434\u043d\u043e\u0432\u0440\u0435\u043c\u0435\u043d\u043d\u043e": 4885,
  "\u2581\u041f\u043e\u043c\u043d\u0438\u0448": 4886,
  "\u2581powers": 4887,
  "\u2581\u0430\u043b\u043a\u043e\u0445\u043e\u043b": 4888,
  "\u2581\u0432\u044a\u0437\u0434\u0443\u0445": 4889,
  "\u2581trial": 4890,
  "\u2581advantage": 4891,
  "\u2581kitchen": 4892,
  "\u2581risks": 4893,
  "\u2581obtained": 4894,
  "\u2581\u041a\u043e\u0435\u0442\u043e": 4895,
  "\u2581warm": 4896,
  "46": 4897,
  "\u2581\u0438\u0437\u043f\u043e\u043b\u0437\u0432\u0430\u0442\u0435": 4898,
  "ong": 4899,
  "\u2581indicated": 4900,
  "\u2581jail": 4901,
  "\u0430\u0440\u0438": 4902,
  "\u2581\u0432\u043b\u0430\u0441\u0442": 4903,
  "\u043d\u0438\u0435\u0442\u043e": 4904,
  "\u2581remains": 4905,
  "\u2581\u043c\u044a\u0436\u0435\u0442\u0435": 4906,
  "\u2581afternoon": 4907,
  "\u2581expenditure": 4908,
  "\u2581\u0440\u0430\u0431\u043e\u0442\u0438\u0448": 4909,
  "\u2581\u043c\u0430\u0433\u0430\u0437\u0438\u043d": 4910,
  "\u043f\u0443": 4911,
  "\u2581century": 4912,
  "\u0440\u044a\u0447": 4913,
  "\u2581items": 4914,
  "\u2581\u043d\u0430\u043b\u043e\u0436\u0438": 4915,
  "\u2581\u043c\u0435\u0442\u043e\u0434\u0438": 4916,
  "\u2581\u043f\u0440\u0430\u0432\u0438\u0442\u0435\u043b\u0441\u0442\u0432\u043e": 4917,
  "over": 4918,
  "\u2581identified": 4919,
  "\u2581\u0440\u0430\u0437\u043b\u0438\u0447\u043d\u0438\u0442\u0435": 4920,
  "\u0430\u043b": 4921,
  "\u2581scheme": 4922,
  "\u2581\u0441\u044a\u0449\u0438\u0442\u0435": 4923,
  "\u2581Greek": 4924,
  "ph": 4925,
  "\u2581master": 4926,
  "\u2581comply": 4927,
  "\u0431\u0435\u0437": 4928,
  "\u2581\u0444\u043e\u0440\u043c\u0438": 4929,
  "mon": 4930,
  "48": 4931,
  "\u2581pictures": 4932,
  "\u2581witness": 4933,
  "\u2581\u0441\u043b\u0435\u0434\u0432\u0430\u0449\u0438\u0442\u0435": 4934,
  "\u2581\u043d\u044f\u043c\u0430\u043c\u0435": 4935,
  "sh": 4936,
  "\u2581\u043f\u0440\u044a\u0432": 4937,
  "\u2581\u043f\u0440\u0435\u0434\u043f\u0440\u0438\u044f\u0442\u0438\u0435": 4938,
  "\u2581criminal": 4939,
  "\u2581Free": 4940,
  "ee": 4941,
  "\u2581offered": 4942,
  "\u2581storage": 4943,
  "\u2581indeed": 4944,
  "\u2581\u0426": 4945,
  "\u2581spot": 4946,
  "\u2581[3]": 4947,
  "\u2581\u0432\u0440\u044a\u0437\u043a\u0438": 4948,
  "\u2581\u0433\u043b\u0430\u0441": 4949,
  "\u2581\u0434\u043e\u0432\u0435\u0447\u0435\u0440\u0430": 4950,
  "\u2581photo": 4951,
  "65": 4952,
  "\u2581\u0443\u0441\u0442\u0440\u043e\u0439\u0441\u0442\u0432\u043e": 4953,
  "\u2581Date": 4954,
  "\u2581cancer": 4955,
  "\u0430\u0440": 4956,
  "\u2581applicant": 4957,
  "\u2581\u043d\u043e\u0432\u0438\u044f": 4958,
  "\u2581dude": 4959,
  "37": 4960,
  "\u25812020": 4961,
  "ile": 4962,
  "\u2581\u043d\u0430\u043f\u0440\u0430\u0432\u043e": 4963,
  "\u2581arms": 4964,
  "\u0442\u0440\u043e": 4965,
  "\u2581\u043f\u0440\u0435\u0434\u043d\u0430\u0437\u043d\u0430\u0447\u0435\u043d\u0438": 4966,
  ".6.": 4967,
  "ors": 4968,
  "49": 4969,
  "\u2581\u043f\u0440\u0438\u044f\u0442\u043d\u043e": 4970,
  "\u0441\u0442\u0430\u043d": 4971,
  "39": 4972,
  "\u2581\u043d\u0430\u043f\u0440\u0435\u0436\u0435\u043d\u0438\u0435": 4973,
  "\u2581worst": 4974,
  "\u2581\u0444\u0438\u043d\u0430\u043d\u0441\u043e\u0432\u0430": 4975,
  "mp": 4976,
  "\u2581\u043e\u0441\u0435\u043c": 4977,
  "tri": 4978,
  "\u258165": 4979,
  "\u2581\u043b\u043e\u0448\u0438": 4980,
  "\u2581\u0437\u0430\u0432\u0438\u043d\u0430\u0433\u0438": 4981,
  "\u2581upset": 4982,
  "\u2581Too": 4983,
  "\u2581\u043d\u0430\u043f\u0440\u0430\u0432\u0438\u043b\u0430": 4984,
  "\u2581dogs": 4985,
  "\u2581\u0428": 4986,
  "\u2581severe": 4987,
  "\u2581signs": 4988,
  "\u2581steel": 4989,
  "\u2581drunk": 4990,
  "\u2581\u0438\u043c\u0435\u043d\u043d\u043e": 4991,
  "1/": 4992,
  "\u2581\u0440\u0435\u043f\u0443\u0431\u043b\u0438\u043a\u0430": 4993,
  "\u2581dying": 4994,
  "\u043f\u043b\u0430": 4995,
  "\u2581\u0440\u0430\u0434\u0438\u043e": 4996,
  "\u0447\u0435\u0442\u043e": 4997,
  "\u2581context": 4998,
  "\u2581\u043c\u043e\u0449\u043d\u043e\u0441\u0442": 4999,
  "\u2581civil": 5000,
  "\u2581\u0432\u0438\u043d\u043e": 5001,
  "\u2581\u041e\u0447\u0435\u0432\u0438\u0434\u043d\u043e": 5002,
  "\u2581\u0438\u0437\u0441\u043b\u0435\u0434\u0432\u0430\u043d\u0435": 5003,
  "fi": 5004,
  "\u2581universe": 5005,
  "2004": 5006,
  "ag": 5007,
  "\u2581rates": 5008,
  "\u2581\u0442\u0440\u0430": 5009,
  "\u2581\u0438\u0437\u0434\u0435\u043b\u0438\u044f": 5010,
  ".3.": 5011,
  "\u2581objective": 5012,
  "but": 5013,
  "\u2581seriously": 5014,
  "\u2581traffic": 5015,
  ":30": 5016,
  "\u2581cars": 5017,
  "\u2581\u0418\u0437\u0433\u043b\u0435\u0436\u0434\u0430\u0448": 5018,
  "AT": 5019,
  "\u0422\u0415": 5020,
  "\u0432\u044f": 5021,
  "\u2581Sit": 5022,
  "\u2581\u041f\u043e\u0447\u0430\u043a\u0430\u0439": 5023,
  "\u2581\u0420\u0443\u0441\u0438\u044f": 5024,
  "\u2581Pa": 5025,
  "\u2581\u0447\u043e\u0432\u0435\u0448\u043a\u0438": 5026,
  "\u2581path": 5027,
  "\u2581\u043e\u0442\u043d\u043e\u0448\u0435\u043d\u0438\u044f": 5028,
  "\u2581Kids": 5029,
  "\u2581currently": 5030,
  "\u2581memory": 5031,
  "\u2581\u043d\u0430\u043c\u0430\u043b\u0438": 5032,
  "\u2581w": 5033,
  "\u2581binding": 5034,
  "\u2581\u041e\u0442\u0438\u0432\u0430\u043c": 5035,
  "\u2581Find": 5036,
  "\u2581Weather": 5037,
  "\u041d\u041e": 5038,
  "\u2581Serbia": 5039,
  "\u2581vessels": 5040,
  "\u2581(1)": 5041,
  "\u2581Hurry": 5042,
  "\u2581\u0434\u043e\u0441\u0442\u0430\u0432\u043a\u0430": 5043,
  "\u2581excellent": 5044,
  "\u2581\u0447\u0438\u0447\u043e": 5045,
  "\u2581Kosovo": 5046,
  "\u2581tough": 5047,
  "\u2581Protocol": 5048,
  "\u2581\u0422\u043e\u043c": 5049,
  "\u2581\u0441\u0432\u043e\u0431\u043e\u0434\u0430": 5050,
  "\u2581\u0441\u043b\u043e\u0436\u0438": 5051,
  "\u043f\u043e\u0440": 5052,
  "\u2581chief": 5053,
  "\u2581\u0411\u0443": 5054,
  "\u2581\u043d\u0430\u043c\u0435\u0440\u0438\u0442\u0435": 5055,
  "\u0441\u0443": 5056,
  "\u2581super": 5057,
  "\u2581al": 5058,
  "\u2581\u0422\u043e\u043a\u0443": 5059,
  "\u2581\u0431\u044e\u0434\u0436\u0435\u0442": 5060,
  "tra": 5061,
  "\u2581suit": 5062,
  "\u2581password": 5063,
  "\u2581perhaps": 5064,
  "\u2581weather": 5065,
  "\u2581Chief": 5066,
  "can": 5067,
  "\u043a\u0441\u0438": 5068,
  "\u2581policies": 5069,
  "\u2581\u0434\u0430\u0439": 5070,
  "\u2581detailed": 5071,
  "\u2581infrastructure": 5072,
  "\u2581reduced": 5073,
  "\u2581description": 5074,
  "\u2581\u0442\u0435\u043c\u043f\u0435\u0440\u0430\u0442\u0443\u0440\u0430": 5075,
  "\u2581ID": 5076,
  "\u2581\u0431\u0435\u0437\u043e\u043f\u0430\u0441\u043d\u043e\u0441\u0442\u0442\u0430": 5077,
  "\u2581losing": 5078,
  "\u2581\u043f\u043e\u043b\u043e\u0432\u0438\u043d": 5079,
  "act": 5080,
  "\u2581\u043f\u043b\u0430\u0442\u0438": 5081,
  "\u0447\u043e": 5082,
  "\u2581liked": 5083,
  "\u2581\u0434\u043e\u0437\u0430\u0442\u0430": 5084,
  "\u2581\u0423\u0438\u043b": 5085,
  "\u2581\u043f\u0440\u043e\u0434\u0430\u0436\u0431\u0430": 5086,
  "\u2581\u0445\u043b\u0430\u043f\u0435": 5087,
  "\u2581\u0437\u0430\u0442\u0432\u043e\u0440\u0438": 5088,
  "\u2581\u043c\u043e\u0440\u0435": 5089,
  "\u2581\u0412\u043d\u0438\u043c\u0430\u0432\u0430\u0439": 5090,
  "\u2581\u0441\u043f\u0440\u0430\u0432\u044f": 5091,
  "\u2581willing": 5092,
  "\u2581\u041d\u044f\u043c\u0430\u0448\u0435": 5093,
  "\u2581\u0422\u0443\u0440\u0446\u0438\u044f": 5094,
  "\u2581\u043e\u043f\u0435\u0440\u0430\u0446\u0438\u0438": 5095,
  "\u0422\u0418": 5096,
  "\u25811:": 5097,
  "ap": 5098,
  "\u2581\u0441\u0430\u0439\u0442\u0430": 5099,
  "\u2581\u0431\u044a\u0434\u0438": 5100,
  "\u2581\u043c\u0438\u043d\u0438\u0441\u0442\u044a\u0440": 5101,
  "\u0441\u0442\u044a\u0440": 5102,
  "\u2581\u043f\u0440\u0430\u0432\u0438\u043b": 5103,
  "\u2581Russia": 5104,
  "\u2581\u0442\u0435\u0441\u0442": 5105,
  "\u2581push": 5106,
  "\u2581escape": 5107,
  "\u2581scientific": 5108,
  "\u043a\u0430\u043b": 5109,
  "\u2581\u0438\u0437\u043f\u044a\u043b\u043d\u0438": 5110,
  "\u2581\u043a\u0440\u0430\u043a\u0430": 5111,
  "CH": 5112,
  "\u2581Green": 5113,
  "\u0431\u0440\u0438": 5114,
  "\u2581\u043f\u0440\u0438\u043b\u0438\u0447\u0430": 5115,
  "\u2581Turn": 5116,
  "\u2581authorised": 5117,
  "\u2581\u0412\u044f\u0440\u043d\u043e": 5118,
  "\u2581\u0414\u044a\u0440\u0436\u0430\u0432\u0438\u0442\u0435": 5119,
  "\u2581establish": 5120,
  "\u2581Ho": 5121,
  "\u2581\u0431\u0435\u0437\u043f\u043b\u0430\u0442\u043d\u043e": 5122,
  "\u258151": 5123,
  "\u2581Common": 5124,
  "\u2581\u0421\u044a\u0440\u0431\u0438\u044f": 5125,
  "\u2581(\u2018": 5126,
  "\u2581plants": 5127,
  "dy": 5128,
  "\u2581net": 5129,
  "\u2581heaven": 5130,
  "\u2581(1": 5131,
  "\u043b\u043e\u0442\u043e": 5132,
  "\u2581unique": 5133,
  "\u0432\u0435\u0441": 5134,
  "\u0438\u0437\u044a\u043c": 5135,
  "\u2581Alex": 5136,
  "\u2581\u0438\u0441\u043a\u0430\u043d\u0435": 5137,
  "\u2581affect": 5138,
  "\u2581Board": 5139,
  "\u2581duties": 5140,
  "\u2581Art": 5141,
  "\u2581250": 5142,
  "\u2581career": 5143,
  "ze": 5144,
  "led": 5145,
  "\u2581\u0444\u0438\u043d\u0430\u043d\u0441\u043e\u0432\u0438\u0442\u0435": 5146,
  "\u0442\u0435\u0440": 5147,
  "\u2581\u041d\u0430\u043f\u0440\u0438\u043c\u0435\u0440": 5148,
  "\u2581leading": 5149,
  "\u2581\u043f\u043e\u043a\u0430\u043d\u0438": 5150,
  "\u2581\u0443\u0432\u0435\u043b\u0438\u0447\u0438": 5151,
  "\u0435\u043d\u0438\u0442\u0435": 5152,
  "\u0435\u0440\u0438": 5153,
  "\u2581\u041a\u044a\u043c": 5154,
  "\u2581\u0434\u043e\u043a\u0442\u043e\u0440": 5155,
  "\u2581\u0436\u0438\u0432\u0435\u0435\u0448": 5156,
  "\u2581\u043c\u044f\u0440\u043a\u0430": 5157,
  "\u2581\u043f\u044a\u0442\u0443\u0432\u0430\u043d\u0435": 5158,
  "\u2581border": 5159,
  "\u2581played": 5160,
  "\u0434\u043d\u0438": 5161,
  "\u2581\u0434\u0432\u0430\u0442\u0430": 5162,
  "\u2581\u043a\u0438\u0441\u0435\u043b\u0438\u043d\u0430": 5163,
  "isation": 5164,
  "\u2581\u0414\u0436\u0435\u0439\u043c\u0441": 5165,
  "\u043c\u0438\u0440": 5166,
  "\u2581\u0438\u0434\u0438\u043e\u0442": 5167,
  "\u2581angry": 5168,
  "\u2581successful": 5169,
  "\u2581records": 5170,
  "\u043d\u0434": 5171,
  "\u2581answers": 5172,
  "\u2581\u0437": 5173,
  "\u0448\u0435\u043d": 5174,
  "\u2581bottle": 5175,
  "\u2581success": 5176,
  "\u2581Yo": 5177,
  "\u2581\u0434\u0435\u043b\u0430": 5178,
  "\u2581\u0434\u0435\u0439\u043d\u043e\u0441\u0442\u0442\u0430": 5179,
  "\u2581driver": 5180,
  "\u2581\u043f\u0440\u0438\u0447\u0438\u043d\u0430\u0442\u0430": 5181,
  "\u2581\u0441\u044a\u0434\u0430": 5182,
  "\u2581applications": 5183,
  "\u2581actual": 5184,
  "\u2581discuss": 5185,
  "\u2581maintain": 5186,
  "\u2581\u0442\u044a\u0440\u0433\u043e\u0432\u0438\u044f\u0442\u0430": 5187,
  "\u2581\u043d\u0430\u0448\u0438\u044f\u0442": 5188,
  "\u2581\u043f\u043e\u043b\u0443\u0447\u0435\u043d\u0438": 5189,
  "\u2581\u043f\u0440\u0435\u0434\u043c\u0435\u0442": 5190,
  "\u2581\u0434\u0430\u0434\u0435\u043d": 5191,
  "\u2581\u041c\u0435\u0436\u0434\u0443": 5192,
  "\u2581\u043f\u043e\u0442\u0440\u0435\u0431\u0438\u0442\u0435\u043b\u0438\u0442\u0435": 5193,
  "\u2581\u0410\u043c\u0430": 5194,
  "\u2581exist": 5195,
  "\u2581\u0414\u043e\u0432\u0438\u0436\u0434\u0430\u043d\u0435": 5196,
  "\u0438\u0448": 5197,
  "\u2581owe": 5198,
  "\u2581\u0443\u0431\u0438\u0435\u0446": 5199,
  "\u2581\u0438\u043a\u043e\u043d\u043e\u043c\u0438\u043a\u0430": 5200,
  "\u2581\u043f\u043e\u0441\u0440\u0435\u0434\u0441\u0442\u0432\u043e\u043c": 5201,
  "\u0437\u043d\u0430": 5202,
  "\u2581\u0432\u043d\u043e\u0441\u0430": 5203,
  "\u2581Their": 5204,
  "\u2581\u0442\u0435\u043a\u0441\u0442": 5205,
  "ities": 5206,
  "\u2581concern": 5207,
  "\u044a\u0441": 5208,
  "85": 5209,
  "\u0414\u043e": 5210,
  "\u2581\u0446\u0432\u0435\u0442\u044f": 5211,
  "\u2581\u043f\u0443\u0431\u043b\u0438\u043a\u0443\u0432\u0430\u043d\u0435\u0442\u043e": 5212,
  "\u2581theory": 5213,
  "\u0442\u044a\u043f": 5214,
  "\u2581\u043f\u043e\u0441\u0442\u0430\u0432\u0438": 5215,
  "\u2581\u0438\u0437\u0432\u0435\u0441\u0442\u0435\u043d": 5216,
  "\u2581\u043c\u043e\u043c\u0447\u0435\u0442\u043e": 5217,
  "\u2581\u043e\u0441\u043d\u043e\u0432\u043d\u0438": 5218,
  "ft": 5219,
  "\u2581firm": 5220,
  "\u2581\u0440\u0430\u0437\u043b\u0438\u0447\u0435\u043d": 5221,
  "\u2581\u043e\u0441\u043d\u043e\u0432\u043d\u0438\u044f": 5222,
  "\u2581\u043f\u043e\u0441\u043e\u0447\u0435\u043d\u0430": 5223,
  "\u2581\u044f\u0434\u0435": 5224,
  "\u041d\u0415": 5225,
  "ren": 5226,
  "\u2581park": 5227,
  "pi": 5228,
  "\u2581spread": 5229,
  "\u2581\u043d\u0435\u0436\u0435\u043b\u0430\u043d\u0438": 5230,
  "\u2581\u041f\u0443": 5231,
  "\u2581\u0440\u0430\u0437\u043f\u043e\u043b\u043e\u0436\u0435\u043d\u0438\u0435": 5232,
  "\u2581magic": 5233,
  "\u2581\u0432\u0442\u043e\u0440\u0430": 5234,
  "\u2581\u0417\u0432\u0443\u0447\u0438": 5235,
  "\u2581\u043f\u0438\u0442\u0430\u043c": 5236,
  "44": 5237,
  "ally": 5238,
  "\u2581\u00ab": 5239,
  "\u2581\u0447\u043b\u0435\u043d\u043e\u0432\u0435\u0442\u0435": 5240,
  "\u043f\u0440\u0430\u0432": 5241,
  "\u2581\u0437\u0430\u043a\u043e\u043d\u043e\u0434\u0430\u0442\u0435\u043b\u0441\u0442\u0432\u043e": 5242,
  "\u2581\u0417\u0430\u0431\u0440\u0430\u0432\u0438": 5243,
  "\u2581\u0421\u0430\u043d": 5244,
  "\u2581Ra": 5245,
  "\u2581maintenance": 5246,
  "\u2581\u0435\u0432\u0440\u043e\u043f\u0435\u0439\u0441\u043a\u0438\u0442\u0435": 5247,
  "\u2581Didn": 5248,
  "\u2581\u0428\u0430": 5249,
  "\u2581\u0438\u0434\u0435\u044f\u0442\u0430": 5250,
  "\u2581\u043f\u043b\u0430\u043d\u043e\u0432\u0435": 5251,
  "\u2581\u0420\u0443": 5252,
  "\u2581\u043f\u043e\u043a\u0440\u0438\u0432\u0430": 5253,
  "\u2581Saturday": 5254,
  "\u2581easily": 5255,
  "\u2581percent": 5256,
  "\u2581importance": 5257,
  "\u2581\u043a\u043b\u0435\u0442\u043a\u0438": 5258,
  "\u0443\u043d": 5259,
  "\u2581\u0438\u0437\u0431\u044f\u0433\u0430": 5260,
  "\u2581\u0433\u043e\u0441\u0442\u0438": 5261,
  "ino": 5262,
  "\u2581\u043f\u0438\u0441\u0442\u043e\u043b\u0435\u0442": 5263,
  "\u2581\u0440\u0430\u0437\u0433\u043b\u0435\u0436\u0434\u0430": 5264,
  "\u2581\u0432\u0442\u043e\u0440\u0438": 5265,
  "\u2581structure": 5266,
  "\u2581version": 5267,
  "\u2581\u043f\u0440\u043e\u0434\u0430\u0432\u0430": 5268,
  "\u0440\u044a\u0441": 5269,
  "her": 5270,
  "\u2581\u043f\u0440\u0435\u0434\u043f\u043e\u043b\u0430\u0433\u0430": 5271,
  "\u0442\u044a\u0442": 5272,
  "\u2581amounts": 5273,
  "\u2581setting": 5274,
  "\u2581\u0438\u043c\u0430\u043b\u0438": 5275,
  "\u2581crap": 5276,
  "\u2581favour": 5277,
  "09": 5278,
  "\u2581\u043d\u0435\u0432\u0435\u0440\u043e\u044f\u0442\u043d\u043e": 5279,
  "\u2581agreements": 5280,
  "\u2581bottom": 5281,
  "\u2581\u0432\u0440\u0435\u043c\u0435\u043d\u043d\u043e": 5282,
  "nd": 5283,
  "\u2581\u043c\u043b\u0430\u0434\u0438": 5284,
  "\u2581\u0441\u043c": 5285,
  "\u2581\u041c\u043e\u044f\u0442": 5286,
  "\u2581\u0430\u0432\u0433\u0443\u0441\u0442": 5287,
  "\u0431\u043e\u043b": 5288,
  "\u2581Search": 5289,
  "\u2581\u043c\u0430\u043a\u0430\u0440": 5290,
  "1)": 5291,
  "\u0430\u0442\u043e\u0440": 5292,
  "\u2581initial": 5293,
  "\u043c\u0430\u0442\u0430": 5294,
  "\u2581\u0413\u043e\u0432\u043e\u0440\u0438": 5295,
  "55": 5296,
  "\u2581\u0437\u043b\u043e": 5297,
  "\u2581concluded": 5298,
  "\u2581proof": 5299,
  "\u2581\u043f\u0440\u0435\u043f\u043e\u0440\u044a\u0447\u0432\u0430": 5300,
  "\u2581placed": 5301,
  "\u0433\u0443": 5302,
  "\u2581Law": 5303,
  "vo": 5304,
  "\u2581fellow": 5305,
  "\u2581flowers": 5306,
  "\u2581sources": 5307,
  "\u2581Policy": 5308,
  "\u2581\u0441\u043f\u0440\u0438": 5309,
  "\u2581customers": 5310,
  "\u2581stuck": 5311,
  "\u043d\u043a\u0430": 5312,
  "\u2581\u0410\u043b\u0435\u043a\u0441": 5313,
  "\u2581\u0442\u0432\u043e\u044f\u0442": 5314,
  "\u2581latest": 5315,
  "\u2581\u0433\u043b\u0435\u0434\u0430\u0448": 5316,
  "\u2581laws": 5317,
  "\u2581item": 5318,
  "\u2581Li": 5319,
  "\u2581crew": 5320,
  "\u2581representative": 5321,
  "use": 5322,
  "\u2581leg": 5323,
  "\u2581\u043a\u0430\u0437\u0430\u0445\u0430": 5324,
  "\u043c\u0438\u043d": 5325,
  "au": 5326,
  "\u2581\u0441\u043f\u043e\u0440\u0430\u0437\u0443\u043c\u0435\u043d\u0438\u0435\u0442\u043e": 5327,
  "ship": 5328,
  "\u2581\u043e\u0441\u0442\u0430\u043d\u0430\u043b\u0438": 5329,
  "\u2581spoke": 5330,
  "\u2581collection": 5331,
  "\u2581Perhaps": 5332,
  "\u2581rise": 5333,
  "\u0434\u043e\u0431\u0440\u043e": 5334,
  "\u2581\u0440\u0430\u0441\u0442\u0435\u0436": 5335,
  "\u2581Tri": 5336,
  "\u2581\u043e\u0442\u043a\u0430\u043a\u0442\u043e": 5337,
  "\u2581\u0411\u0435": 5338,
  "\u2581\u043c\u0438\u043d\u0430\u0432\u0430": 5339,
  "\u2581\u0418\u043c\u0435\u0442\u043e": 5340,
  "\u2581\u0441\u043f\u0438\u0440\u0430": 5341,
  "\u2581registered": 5342,
  "\u2581\u0415\u043b": 5343,
  "\u2581proposed": 5344,
  "\u2581judge": 5345,
  "\u043c\u0443": 5346,
  "\u2581hurry": 5347,
  "\u043e\u0432\u0438\u0442\u0435": 5348,
  "\u2581bomb": 5349,
  "\u2581charges": 5350,
  "\u2581\u043e\u0431\u044f\u0441\u043d\u044f\u0432\u0430": 5351,
  "\u0426": 5352,
  "\u0428": 5353,
  "\u2581\u0429\u043e": 5354,
  "\u2581\u043f\u043e\u0432\u0438\u0448\u0430\u0432\u0430\u043d\u0435": 5355,
  "\u2581\u0414\u0432\u0435": 5356,
  "\u0446\u0438\u043e\u043d": 5357,
  "\u2581\u041d\u0438\u043c\u0430": 5358,
  "\u043b\u0438\u0432": 5359,
  "\u2581Sa": 5360,
  "\u2581\u043f\u0430\u0440\u0430\u0433\u0440\u0430\u0444\u0438": 5361,
  "\u2581users": 5362,
  "ps": 5363,
  "[": 5364,
  "\u2581\u0445\u043e\u0434\u044f": 5365,
  "\u2581sleeping": 5366,
  "\u2581entities": 5367,
  "\u2581\u0434\u0440\u0443\u0436\u0435\u0441\u0442\u0432\u043e": 5368,
  "\u2581\u0440\u0430\u0432\u043d\u043e": 5369,
  "\u2581\u0412\u0438\u0436\u0434\u0430\u043b": 5370,
  "\u2581finding": 5371,
  "\u2581\u0434\u0435\u0442\u0435\u043a\u0442\u0438\u0432": 5372,
  "\u0449\u043e\u0442\u043e": 5373,
  "\u2581\u0410\u0444\u0440\u0438\u043a\u0430": 5374,
  "\u2581fill": 5375,
  "\u2581Has": 5376,
  "\u0431\u0435\u043b": 5377,
  "\u2581admit": 5378,
  "\u2581\u043f\u0440\u0438\u0442\u0435\u0441\u043d\u044f\u0432\u0430\u0439": 5379,
  "\u2581possibility": 5380,
  "\u2581Description": 5381,
  "\u2581\u043f\u043e\u043b\u0438\u0446\u0430\u0439": 5382,
  "\u2581West": 5383,
  "\u2581\u0441\u0435\u043a\u0443\u043d\u0434\u0430": 5384,
  "\u2581\u043a\u0430\u0437\u0430\u043d\u043e": 5385,
  "\u2581justice": 5386,
  "\u2581meetings": 5387,
  "\u2581\u0431\u043e\u0440\u0431\u0430": 5388,
  "\u2581\u0434\u043e\u043f\u044a\u043b\u043d\u0438\u0442\u0435\u043b\u043d\u0430": 5389,
  "47": 5390,
  "\u043d\u0441\u043a\u0438": 5391,
  "\u2581\u0438\u0437\u043f\u043e\u043b\u0437\u0432\u0430\u043c\u0435": 5392,
  "\u2581drinking": 5393,
  "\u0430\u0446\u0438\u0438": 5394,
  "\u2581\u043a\u0435": 5395,
  "\u2581\u0447\u0430\u043a\u0430\u043c": 5396,
  "rd": 5397,
  "\u2581recently": 5398,
  "\u2581exceeding": 5399,
  "\u2581\u0412\u044a\u0437\u043c\u043e\u0436\u043d\u043e": 5400,
  "\u0442\u0438\u0447\u0435\u043d": 5401,
  "\u2581\u0445\u0430\u0440\u0442\u0438\u044f": 5402,
  "\u25812:": 5403,
  "ik": 5404,
  "\u2581Association": 5405,
  "\u2581\u043e\u0442\u0434\u0430\u0432\u043d\u0430": 5406,
  "\u2581ye": 5407,
  "\u2581domestic": 5408,
  "\u2581\u043f\u043e\u043f\u0438\u0442\u0430": 5409,
  "\u2581\u0446\u0430\u0440": 5410,
  "\u2581climate": 5411,
  "\u2581bigger": 5412,
  "\u044f\u0442\u0430": 5413,
  "\u2581goal": 5414,
  "\u2581\u0444\u0438": 5415,
  "\u2581pool": 5416,
  "\u2581\u043f\u043e\u0434\u043a\u0440\u0435\u043f\u044f": 5417,
  "\u2581\u043a\u043e\u043d\u0442\u0440\u043e\u043b\u0438\u0440\u0430": 5418,
  "car": 5419,
  "\u2581factors": 5420,
  "\u2581\u0437\u0430\u0432\u044a\u0440\u0448\u0438": 5421,
  "\u2581\u043c\u0435\u0436\u0434\u0443\u043d\u0430\u0440\u043e\u0434\u043d\u0438": 5422,
  "\u2581\u043e\u0431\u0441\u043b\u0443\u0436\u0432\u0430\u043d\u0435": 5423,
  "\u2581\u0441\u044a\u043e\u0431\u0449\u0435\u043d\u0438\u044f": 5424,
  "\u2581\u0441\u0440\u0435\u0449\u043d\u0430": 5425,
  "\u2581\u043c\u043e\u0440\u0435\u0442\u043e": 5426,
  "\u2581\u043d\u0430\u0433\u043e\u0440\u0435": 5427,
  "\u0433\u043e\u043b\u044f\u043c\u0430\u0442\u0430": 5428,
  "\u2581\u0433\u043e\u0434\u0438\u043d\u0430\u0442\u0430": 5429,
  "\u2581famous": 5430,
  "\u2581speaking": 5431,
  "\u2581\u043f\u0440\u0438\u0435\u043c\u0435": 5432,
  "Q": 5433,
  "\u0432\u0430\u0439": 5434,
  "\u2581\u043f\u043e\u0433\u043b\u0435\u0434": 5435,
  "\u2581Ask": 5436,
  "\u2581\u043e\u0442\u0431\u043e\u0440": 5437,
  "\u2581\u0432\u0441\u044f\u043a\u0430\u043a\u0432\u0438": 5438,
  "\u2581cute": 5439,
  "\u2581THAT": 5440,
  "\u2581\u043f\u043b\u0430\u043d\u0438\u0440\u0430": 5441,
  "\u2581\u0441\u0438\u043b\u0435\u043d": 5442,
  "\u2581\u043a\u0440\u0430\u043b\u0441\u0442\u0432\u043e": 5443,
  "ris": 5444,
  "\u043d\u0430\u043b": 5445,
  "\u2581raised": 5446,
  "\u2581uses": 5447,
  "\u25811234/2007": 5448,
  "\u0435\u043b\u0430": 5449,
  "\u2581\u0438\u043d\u0432\u0435\u0441\u0442\u0438\u0446\u0438\u0438": 5450,
  "\u2581requested": 5451,
  "3)": 5452,
  "\u2581\u041b\u043e\u043d\u0434\u043e\u043d": 5453,
  "\u2581\u0414\u043e\u0431\u0440\u0430": 5454,
  "\u2581\u043d\u0435\u0432\u044a\u0437\u043c\u043e\u0436\u043d\u043e": 5455,
  "\u2581\u043a\u0430\u0437\u0432\u0430\u0439": 5456,
  "\u2581cart": 5457,
  "\u2581\u0442\u0440\u0443\u0434": 5458,
  "\u2581\u043f\u043e\u0433\u043b\u0435\u0434\u043d\u0430": 5459,
  "\u2581\u0430\u0433\u0435\u043d\u0446\u0438\u044f": 5460,
  "\u2581\u0443\u043b\u0438\u0446\u0430\u0442\u0430": 5461,
  "\u2581contain": 5462,
  "\u2581\u0433\u043e\u0432\u043e\u0440\u0438\u0442\u0435": 5463,
  "\u2581partners": 5464,
  "\u2581season": 5465,
  "\u2581\u043a\u043e\u0440\u0430\u0431\u0438": 5466,
  "\u2581leaves": 5467,
  "\u2581\u0432\u0438\u043d\u043e\u0432\u0435\u043d": 5468,
  "\u0448\u043a\u0430": 5469,
  "\u2581\u0433\u0435\u043d\u0435\u0440\u0430\u043b": 5470,
  "\u2581\u043e\u043f\u0438\u0442\u0430\u043c": 5471,
  "\u2581\u0438\u0437\u0442\u043e\u0447\u043d\u0438\u043a": 5472,
  "\u2581\u043e\u0441\u043d\u043e\u0432\u0430\u0432\u0430": 5473,
  "\u2581influence": 5474,
  "\u2581\u041d\u0430\u043c\u0435\u0440\u0438\u0445": 5475,
  "pro": 5476,
  "\u2581\u0436\u0435\u043b\u0430\u043d\u0438\u0435": 5477,
  "\u0434\u0440\u0438": 5478,
  "\u2581\u0441\u0432\u044a\u0440\u0437\u0430\u043d\u0430": 5479,
  "eu": 5480,
  "\u2581\u0442\u0440\u043e": 5481,
  "sen": 5482,
  "ast": 5483,
  "\u2581\u043e\u0444\u0438\u0446\u0438\u0430\u043b\u043d\u043e": 5484,
  "\u2581\u0435\u0432\u0440\u043e\u043f\u0435\u0439\u0441\u043a\u0438": 5485,
  "\u2581biggest": 5486,
  "\u2581\u0437\u0430\u043f\u0430\u0437\u0438": 5487,
  "\u2581Convention": 5488,
  "\u2581\u041f\u0430\u0432\u0435\u043b": 5489,
  "\u2581ON": 5490,
  "\u2581tablets": 5491,
  "iz": 5492,
  "\u2581copy": 5493,
  "\u2581\u0445\u0440\u0430\u043d\u0430\u0442\u0430": 5494,
  "\u2581battle": 5495,
  "ari": 5496,
  "\u2581\u041c\u0430\u0445\u0430\u0439": 5497,
  "\u2581\u041f\u0430": 5498,
  "\u2581apart": 5499,
  "\u2581arrangements": 5500,
  "\u2581\u043f\u043e\u043c\u043d\u044f": 5501,
  "\u2581\u0436\u0438\u0432\u043e\u0442\u044a\u0442": 5502,
  "\u2581taught": 5503,
  "\u0440\u0435\u0434\u0438": 5504,
  "\u2581staying": 5505,
  "\u2581Ko": 5506,
  "\u2581\u0413\u0430": 5507,
  "\u2581\u0442\u043e\u044f": 5508,
  "\u2581sufficient": 5509,
  "\u2581\u043a\u0440\u0438\u0435": 5510,
  "\u2581\u043c\u0435\u0442\u0440\u0430": 5511,
  "\u2581\u043c\u044a\u0440\u0442\u0432\u0438": 5512,
  "\u2581\u0443\u0431\u0438\u0432\u0430": 5513,
  "\u041a\u041e": 5514,
  "\u2581\u0438\u0437\u043d\u043e\u0441": 5515,
  "\u2581\u0440\u0435\u0433\u0438\u043e\u043d": 5516,
  "\u2581\u0438\u0437\u043f\u0438\u0442\u0432\u0430": 5517,
  "\u2581lay": 5518,
  "\u2581\u043f\u043e\u0441\u043e\u0447\u0435\u043d\u0438\u0442\u0435": 5519,
  "\u2581\u0441\u043f\u0438": 5520,
  "\u2581Italian": 5521,
  "cy": 5522,
  "\u0440\u0438\u0441": 5523,
  "\u2581idiot": 5524,
  "\u2581proper": 5525,
  "\u2581\u043f\u0440\u0435\u0434\u0441\u0442\u0430\u0432\u0438\u0442\u0435\u043b\u0438": 5526,
  "lu": 5527,
  "ana": 5528,
  "\u2581\u0420\u0430\u0437\u0431\u0440\u0430\u0445": 5529,
  "4)": 5530,
  "\u2581\u043e\u0431\u0435\u043c": 5531,
  "\u258141": 5532,
  "\u2581closer": 5533,
  "\u2581enemy": 5534,
  "\u2581figured": 5535,
  "\u2581spiritual": 5536,
  "\u2581neck": 5537,
  "\u2581\u041e\u043f\u0438\u0441\u0430\u043d\u0438\u0435": 5538,
  "97": 5539,
  "\u2581Ooh": 5540,
  "\u2581independent": 5541,
  "\u2581easier": 5542,
  "\u2581\u043a\u043e\u0441\u0430": 5543,
  "\u2581\u0447\u0443": 5544,
  "He": 5545,
  "\u2581\u043d\u0430\u0440\u043e\u0434": 5546,
  "\u041c\u0430": 5547,
  "\u201c)": 5548,
  "\u2581\u043c\u044a\u0440\u0442\u0432\u0430": 5549,
  "\u0438\u0440\u0430\u043d\u0430": 5550,
  "\u2581hole": 5551,
  "\u2581\u0441\u0430\u0439\u0442": 5552,
  "port": 5553,
  "\u2581Jane": 5554,
  "\u2581\u0434\u0430\u0432\u0430\u0442": 5555,
  "\u2581Food": 5556,
  "idae": 5557,
  "\u2581\u0419\u043e": 5558,
  "\u2581accepted": 5559,
  "\u2581\u0437\u0430\u0434\u043d\u0438\u043a\u0430": 5560,
  "\u0440\u0435\u0441": 5561,
  "\u2581\u041a\u043e\u043b\u043a\u043e\u0442\u043e": 5562,
  "\u2581banks": 5563,
  "\u2581wild": 5564,
  "\u2581joke": 5565,
  "\u2581families": 5566,
  "\u2581\u041d\u044f\u043c\u0430\u043c\u0435": 5567,
  "\u044c\u043e\u0440": 5568,
  "fer": 5569,
  "\u2581\u043c\u0438\u043d\u0443\u0442\u0430": 5570,
  "\u2581heavy": 5571,
  "\u2581\u0413\u0443": 5572,
  "\u2581performed": 5573,
  "\u2581\u0447\u0435\u0441\u0442\u043d\u043e": 5574,
  "\u2581ancient": 5575,
  "\u2581\u0445\u043e\u0434\u0438": 5576,
  "\u2581\u0412\u044a\u0440\u043d\u0438": 5577,
  "\u0446\u0438\u0438": 5578,
  "\u2581\u0434\u044a\u043b\u0431\u043e\u043a\u043e": 5579,
  "\u2581\u0432\u0435\u0440\u0441\u0438\u044f": 5580,
  "tion": 5581,
  "\u2581bringing": 5582,
  "\u2581Spain": 5583,
  "ring": 5584,
  "\u2581operator": 5585,
  "\u2581\u041c\u0435\u0440\u0441\u0438": 5586,
  "\u0442\u043e\u0440": 5587,
  "\u2581\u0441\u0432\u044a\u0440\u0437\u0430\u043d\u043e": 5588,
  "ru": 5589,
  ".11.": 5590,
  "78": 5591,
  "burn": 5592,
  "\u0432\u0430\u0442\u0430": 5593,
  "\u2581command": 5594,
  "\u2581innocent": 5595,
  "\u2581\u0432\u044a\u0437\u0434\u0435\u0439\u0441\u0442\u0432\u0438\u0435": 5596,
  "\u2581100%": 5597,
  "\u2581\u0432\u044f\u0440\u0430": 5598,
  "\u2581\u0431\u043e\u0440\u0434\u0430": 5599,
  "\u2581\u043a\u043b\u0438\u0435\u043d\u0442": 5600,
  "\u2581\u0441\u044a\u0431\u0438\u0440\u0430": 5601,
  "\u043d\u043e\u0441": 5602,
  "\u2581\u0430\u043a\u0442\u043e\u0432\u0435": 5603,
  "\u2581\u0414\u0430\u043d\u0438": 5604,
  "\u2581leader": 5605,
  "\u2581teacher": 5606,
  "\u2581\u0447\u0430\u043a": 5607,
  "\u2581\u0425\u0435": 5608,
  "\u2581vegetables": 5609,
  "ham": 5610,
  "\u2581Run": 5611,
  "\u2581\u041d\u044f\u043c\u0430\u0448": 5612,
  "\u2581camp": 5613,
  "mer": 5614,
  "\u2581\u0427\u0443\u0432\u0441\u0442\u0432\u0430\u043c": 5615,
  "\u2581greatest": 5616,
  "\u2581\u0442\u0438\u043f\u0430": 5617,
  "tro": 5618,
  "\u2581files": 5619,
  "\u2581evaluation": 5620,
  "\u2581\u0445\u0443\u0431\u0430\u0432\u0430": 5621,
  "\u2581Without": 5622,
  "\u2581truly": 5623,
  "\u2581\u043a\u043e\u043b\u0438": 5624,
  "\u0435\u0442\u0430": 5625,
  "\u2581\u041f\u0430\u0440\u0438\u0436": 5626,
  "\u2581\u0442\u044a\u0440\u0441\u044f\u0442": 5627,
  "\u2581\u0438\u0437\u0433\u043b\u0435\u0436\u0434\u0430\u0448": 5628,
  "\u2581Detective": 5629,
  "\u2581iron": 5630,
  "\u2581\u0434\u043e\u043d\u0435\u0441\u0435": 5631,
  "\u2581\u0432\u044a\u0440\u0432\u044f": 5632,
  "\u2581\u043d\u0438\u0432\u043e\u0442\u043e": 5633,
  "\u2581Sunday": 5634,
  "\u2581expressed": 5635,
  "\u2581Ray": 5636,
  "\u2581\u0432\u0438\u0434\u044f\u0442": 5637,
  "\u2581submit": 5638,
  "\u2581scope": 5639,
  "\u2581\u0437\u043d\u0430\u043a": 5640,
  "\u2581\u0410\u043d\u0430": 5641,
  "\u2581\u043a\u0440\u0435\u0434\u0438\u0442\u0438": 5642,
  "\u2581\u043f\u0440\u0435\u0434\u043b\u043e\u0436\u0435\u043d\u0438\u0435\u0442\u043e": 5643,
  "\u2581\u0441\u0442\u0438\u043b": 5644,
  "\u2581flat": 5645,
  "\u2581jobs": 5646,
  "\u2581\u0438\u043d\u0441\u0443\u043b\u0438\u043d": 5647,
  "\u2581\u041a\u0440\u0438\u0441": 5648,
  "\u2581tells": 5649,
  "\u2581\u0432\u0440\u044a\u0449\u0430": 5650,
  "ver": 5651,
  "\u2581jump": 5652,
  "\u2581Financial": 5653,
  "\u2581hungry": 5654,
  "\u2581Exactly": 5655,
  "\u2581\u043f\u043e\u0437\u0438\u0446\u0438\u0438": 5656,
  "\u2581wide": 5657,
  "\u2581band": 5658,
  "\u2581\u0418\u0437\u043f\u043e\u043b\u0437\u0432\u0430": 5659,
  "/3": 5660,
  "\u2581highly": 5661,
  "\u2581\u0418\u0441\u043f\u0430\u043d\u0438\u044f": 5662,
  "ON": 5663,
  "\u2581smoke": 5664,
  "\u2581Ta": 5665,
  "\u2581nervous": 5666,
  "\u2581surgery": 5667,
  "\u2581\u043a\u043e\u043c\u0431\u0438\u043d\u0430\u0446\u0438\u044f": 5668,
  "\u2581\u043d\u0430\u0434\u044f\u0432\u0430\u043c": 5669,
  "\u2581demand": 5670,
  "\u2581\u0441\u0435\u0440\u0438\u043e\u0437\u043d\u0438": 5671,
  "\u2581\u0413\u043e\u0441\u043f\u043e\u0434\u0430": 5672,
  "\u2581\u043e\u0440\u044a\u0436\u0438\u0435\u0442\u043e": 5673,
  "\u2581\u043e\u0441\u0438\u0433\u0443\u0440\u044f\u0432\u0430\u043d\u0435": 5674,
  "\u2581articles": 5675,
  "\u2581\u043a\u0430\u043b\u043e\u0440\u0438\u0438": 5676,
  "\u2581\u043d\u0430\u0442\u0430\u0442\u044a\u043a": 5677,
  "\u2581\u043e\u0431\u0441\u0442\u043e\u044f\u0442\u0435\u043b\u0441\u0442\u0432\u0430": 5678,
  "\u2581popular": 5679,
  "\u2581\u043b\u0438\u0447\u043d\u0438": 5680,
  "\u2581invited": 5681,
  "\u2581\u0421\u0438\u043d": 5682,
  "chi": 5683,
  "ski": 5684,
  "\u043a\u0430\u043d": 5685,
  "\u2581delivery": 5686,
  "\u2581understanding": 5687,
  "\u2581victims": 5688,
  "\u2581\u041f\u041e": 5689,
  "\u2581\u0442\u0435\u0440\u0438\u0442\u043e\u0440\u0438\u044f\u0442\u0430": 5690,
  "\u258172": 5691,
  "\u2581suspect": 5692,
  "\u2581\u041d\u0430\u043c\u0435\u0440\u0438": 5693,
  "\u2581\u0443\u043c\u0440\u044f": 5694,
  "\u2581\u043a\u043e\u0438": 5695,
  "\u2581Somebody": 5696,
  "\u2581Su": 5697,
  "\u2581\u043f\u0440\u0435\u0434\u043e\u0441\u0442\u0430\u0432\u0435\u043d\u0438": 5698,
  "\u2581appear": 5699,
  "ical": 5700,
  "\u2581\u0424\u0411\u0420": 5701,
  "\u2581Office": 5702,
  "\u2581BE": 5703,
  "\u0433\u043b\u0438": 5704,
  "42": 5705,
  "\u2581turns": 5706,
  "\u2581workers": 5707,
  "\u2581\u0437\u0434\u0440\u0430\u0432\u0435": 5708,
  "\u2581IS": 5709,
  "ible": 5710,
  "\u2581arrived": 5711,
  "\u2581humans": 5712,
  "\u2581\u0434\u043e\u0432\u0435\u0440\u0438\u0435": 5713,
  "\u2581\u043b\u043e\u0448": 5714,
  "\u2581\u043f\u043e\u0435\u043c\u0430": 5715,
  "\u2581\u0432\u0438\u043d\u0430": 5716,
  "\u2581\u043e\u0442\u0432\u044a\u043d": 5717,
  "\u2581\u0411\u0440\u0430\u0442": 5718,
  "\u2581devices": 5719,
  "\u2581\u0430\u043a\u0442": 5720,
  "ens": 5721,
  "AM": 5722,
  "\u2581organisations": 5723,
  "\u2581debate": 5724,
  "\u2581deliver": 5725,
  "\u2581\u0441\u043b\u0443\u0447\u0430\u0438\u0442\u0435": 5726,
  "\u2581\u042e\u043b\u0438": 5727,
  "\u2581\u0438\u043d\u0444\u0440\u0430\u0441\u0442\u0440\u0443\u043a\u0442\u0443\u0440\u0430": 5728,
  "\u2581sample": 5729,
  "\u2581\u0442\u0440\u044f\u0431\u0432\u0430\u0442": 5730,
  "ize": 5731,
  "\u2581sky": 5732,
  "\u2581danger": 5733,
  "\u2581\u043e\u0431\u0440\u0430\u0437\u043e\u0432\u0430\u043d\u0438\u0435": 5734,
  "\u2581participation": 5735,
  "\u2581\u0445\u0438": 5736,
  "\u2581\u0430\u043f\u0430\u0440\u0442\u0430\u043c\u0435\u043d\u0442": 5737,
  "\u2581\u041f\u043e\u0432\u0435\u0447\u0435\u0442\u043e": 5738,
  "\u2581\u043f\u043e\u043b\u043e\u0432\u0438\u043d\u0430\u0442\u0430": 5739,
  "\u2581\u0441\u043e\u0431\u0441\u0442\u0432\u0435\u043d\u043e\u0441\u0442": 5740,
  "\u2581financing": 5741,
  "\u043b\u0435\u0440": 5742,
  "\u2581\u0412\u0435": 5743,
  "\u2581\u0432\u044a\u043f\u0440\u043e\u0441\u0438\u0442\u0435": 5744,
  "ning": 5745,
  "\u2581\u043e\u0431\u044f\u0434": 5746,
  "\u2581character": 5747,
  "\u2581\u0440\u0430\u0434\u043e\u0441\u0442": 5748,
  "\u2581\u043f\u0440\u0435\u0432\u044a\u0440\u043d\u0430": 5749,
  "\u2581\u0432\u044a\u0442\u0440\u0435\u0448\u043d\u0438\u044f": 5750,
  "\u2581payments": 5751,
  "\u2581\u0438\u0434\u0435\u0438": 5752,
  "\u2581\u043f\u043e\u0434\u0430": 5753,
  "\u2581Nick": 5754,
  "\u2581\u0411\u0438\u043b\u0438": 5755,
  "\u2581\u0441\u044a\u0433\u043b\u0430\u0441\u0438": 5756,
  "\u2581\u0435\u0434\u043d\u0438": 5757,
  "Re": 5758,
  "\u2581Fa": 5759,
  "\u2581\u043d\u0435\u0439\u043d\u0438\u0442\u0435": 5760,
  "\u2581\u0440\u0430\u0437\u0433\u043e\u0432\u043e\u0440": 5761,
  "\u2581Want": 5762,
  "\u2581120": 5763,
  "\u2581dreams": 5764,
  "\u2581(2)": 5765,
  "\u2581Service": 5766,
  "\u2581failed": 5767,
  "han": 5768,
  "\u0433\u044a\u0440": 5769,
  "\u2581\u0411\u044a\u0434\u0438": 5770,
  "\u2581requires": 5771,
  "\u2581Privacy": 5772,
  "\u2581\u0437\u0430\u0441\u043b\u0443\u0436\u0430\u0432\u0430": 5773,
  "\u2581\u043f\u0440\u0438\u0442\u0435\u0441\u043d\u044f\u0432\u0430": 5774,
  "\u2581\u043e\u0431\u043c\u0435\u043d": 5775,
  "\u2581kick": 5776,
  "\u2581\u043a\u0430\u0440\u0442\u0438": 5777,
  "\u2581\u043c\u043e\u0437\u044a\u043a\u0430": 5778,
  "\u2581Act": 5779,
  "\u2581\u0434\u0435\u0439\u0441\u0442\u0432\u0438\u0442\u0435\u043b\u043d\u043e\u0441\u0442": 5780,
  "\u2581\u043b\u0443\u0434": 5781,
  "\u2581certificate": 5782,
  "har": 5783,
  "\u2581\u0441\u044a\u0445\u0440\u0430\u043d\u044f\u0432\u0430": 5784,
  "\u2581carrying": 5785,
  "\u0434\u043e\u0431\u0440\u0438": 5786,
  "\u2581\u0449\u0430\u0441\u0442\u043b\u0438\u0432\u0430": 5787,
  "\u2581\u0431\u0438\u0437\u043d\u0435\u0441\u0430": 5788,
  "\u2581\u0421\u043f\u0440\u0435\u0442\u0435": 5789,
  "ell": 5790,
  "\u2581\u043e\u0431\u0435\u043a\u0442": 5791,
  "\u2581Per": 5792,
  "\u0432\u043d\u0430": 5793,
  "\u2581although": 5794,
  "\u2581\u043f\u0440\u043e\u0441\u0442\u0438": 5795,
  "\u0442\u043e\u043d": 5796,
  "\u258152": 5797,
  "\u2581calculated": 5798,
  "\u043b\u0435\u0439": 5799,
  "\u2581contracts": 5800,
  "\u2581Long": 5801,
  "\u2581beach": 5802,
  "\u2581grand": 5803,
  "\u2581restaurant": 5804,
  "\u2581\u0440\u0430\u043c\u043a\u0430": 5805,
  "\u2581\u041d\u043e\u0432\u0438\u043d\u0438": 5806,
  "\u2581Monday": 5807,
  "\u0433\u0435": 5808,
  "\u2581\u0448\u0443\u043c": 5809,
  "\u2581\u043f\u0440\u043e\u043c\u0438\u0448\u043b\u0435\u043d\u043e\u0441\u0442\u0442\u0430": 5810,
  "\u2581protected": 5811,
  "\u2581Q": 5812,
  "\u044a\u0437": 5813,
  "\u2581\u043f\u0440\u0435\u043a\u0430\u0440\u0430": 5814,
  "\u2581\u043f\u0438\u0442\u0430": 5815,
  "cho": 5816,
  "\u2581distribution": 5817,
  "\u0443\u0437": 5818,
  "\u2581\u043f\u0430\u0434\u0430": 5819,
  "\u2581conference": 5820,
  "ick": 5821,
  "\u2581\u0441\u044a\u043d": 5822,
  "\u2581breakfast": 5823,
  "\u2581\u0438\u0434\u0432\u0430\u043c": 5824,
  "\u2581\u043d\u0430\u0443\u0447\u0438": 5825,
  "\u2581\u0435\u0444\u0435\u043a\u0442\u0438\u0432\u043d\u043e\u0441\u0442": 5826,
  ".1.": 5827,
  "\u2581\u0432\u043b\u0438\u044f\u043d\u0438\u0435": 5828,
  "\u2581\u043a\u043e\u0440": 5829,
  "book": 5830,
  "\u2581emissions": 5831,
  "\u2581\u0438\u0437\u0432\u044a\u0440\u0448\u0438": 5832,
  "\u2581\u0433\u043e\u0440\u0438\u0432\u043e": 5833,
  "mar": 5834,
  "\u0442\u0438\u0447\u043d\u043e": 5835,
  "\u2581instrument": 5836,
  "\u2581\u043f\u0440\u0435\u0434\u0441\u0442\u0430\u0432\u0435\u043d\u0438": 5837,
  "\u2581\u0441\u0442\u043e\u0438": 5838,
  "\u2581\u0444\u0443\u043d\u043a\u0446\u0438\u044f": 5839,
  "\u2581pen": 5840,
  "\u2581believed": 5841,
  "\u258108": 5842,
  "\u2581bird": 5843,
  "\u2581\u0440\u0435\u0448\u0438\u0445": 5844,
  "\u2581\u043d\u0430\u043f\u0440\u0430\u0432\u0438\u043b\u0438": 5845,
  "\u2581\u0441\u043c\u0435\u0448\u043d\u043e": 5846,
  "\u2581\u043f\u0440\u0435\u0434\u0441\u0442\u0430\u0432\u043b\u044f\u0432\u0430\u0442": 5847,
  "\u2581\u0421\u044f\u043a\u0430\u0448": 5848,
  "eth": 5849,
  "\u2581Bring": 5850,
  "\u2581\u0435\u043b\u0435\u043a\u0442\u0440\u043e": 5851,
  "\u0418\u0437": 5852,
[...]
