{
  "</s>": 0,
  "<unk>": 1,
  ".": 2,
  ",": 3,
  "\u2581the": 4,
  "\u2581of": 5,
  "s": 6,
  "\u2581to": 7,
  "\u2581on": 8,
  "\u2581and": 9,
  "\u2581ja": 10,
  "'": 11,
  "\u2581in": 12,
  "?": 13,
  "\u2581": 14,
  "\u2581-": 15,
  "\u2581a": 16,
  "\u2581(": 17,
  "-": 18,
  "d": 19,
  "\u2581I": 20,
  ")": 21,
  "t": 22,
  "\u2581for": 23,
  ":": 24,
  "\u2581you": 25,
  "\u2581is": 26,
  "\u2581that": 27,
  "\u2581et": 28,
  "\u2581be": 29,
  "!": 30,
  "\u2581ei": 31,
  "le": 32,
  "st": 33,
  "\u2581with": 34,
  "e": 35,
  "l": 36,
  "ga": 37,
  "\u2581\"": 38,
  "\u2581The": 39,
  "\u2581it": 40,
  "\u2581or": 41,
  "\u2581v\u00f5i": 42,
  "i": 43,
  ";": 44,
  "n": 45,
  "\u2581by": 46,
  "\u2581as": 47,
  "\u2581are": 48,
  "\u2581not": 49,
  "\u2581this": 50,
  "...": 51,
  "\u2581kui": 52,
  "a": 53,
  "\u2581see": 54,
  "\u2581mis": 55,
  "\u2581Ma": 56,
  "ks": 57,
  "\u2581me": 58,
  "\u2581ning": 59,
  "\u2581have": 60,
  "id": 61,
  "/": 62,
  "te": 63,
  "m": 64,
  "\u2581from": 65,
  "b": 66,
  "\u2581was": 67,
  "\u25811": 68,
  "\u2581shall": 69,
  "ing": 70,
  "\u2581No": 71,
  "\u2581at": 72,
  "\u2581ma": 73,
  "\u2581A": 74,
  "\u2581Article": 75,
  "\u2581You": 76,
  "\u2581Euroopa": 77,
  "\u2581sa": 78,
  "\u2581oma": 79,
  "\u2581L": 80,
  "\u2581an": 81,
  "\u2581all": 82,
  "\u2581ta": 83,
  "\u2581ka": 84,
  "\u2581See": 85,
  "\u2581we": 86,
  "\u2581which": 87,
  "ed": 88,
  "\u2581seda": 89,
  "\u2581your": 90,
  "\u25812": 91,
  "\u2581selle": 92,
  "\u2581can": 93,
  "y": 94,
  "re": 95,
  "\u2581Regulation": 96,
  "\u2581European": 97,
  "ne": 98,
  "\u2581It": 99,
  "me": 100,
  "\u2581Commission": 101,
  "\u2581will": 102,
  "\u2581Kui": 103,
  "\u2581kohta": 104,
  "\u2581out": 105,
  "\u2581should": 106,
  "\u2581S": 107,
  "\u2581do": 108,
  "\u2581In": 109,
  "\u2581C": 110,
  "lt": 111,
  "\u2581has": 112,
  "\u2581Member": 113,
  "\u25813": 114,
  "\u2581oli": 115,
  "\u2581.": 116,
  "da": 117,
  "\u2581he": 118,
  "\u2581my": 119,
  "\u2581nr": 120,
  "de": 121,
  "na": 122,
  "\"": 123,
  "ly": 124,
  "in": 125,
  "\u2581What": 126,
  "\u2581other": 127,
  "\u2581B": 128,
  "\u2581know": 129,
  "\u2581ole": 130,
  "\u2581one": 131,
  "ma": 132,
  "\u2581need": 133,
  "h": 134,
  "\u2581up": 135,
  "\u2581This": 136,
  "\u2581been": 137,
  ").": 138,
  "\u2581Ta": 139,
  "\u2581mida": 140,
  "\u2581aasta": 141,
  "EC": 142,
  "\u2581We": 143,
  "\u2581E": 144,
  "\u2581what": 145,
  "\u2581may": 146,
  "\u2581Sa": 147,
  "\u2581they": 148,
  "\u2581their": 149,
  "\u2581its": 150,
  "sse": 151,
  "\u2581v\u00f5ib": 152,
  "\u2581p": 153,
  "\u2581just": 154,
  "\u2581T": 155,
  "\u2581Kas": 156,
  "E\u00dc": 157,
  "\u2581States": 158,
  "\u25814": 159,
  "\u2581no": 160,
  "\u2581K": 161,
  "\u2581v\u00e4lja": 162,
  "\u2581artikli": 163,
  "\u2581but": 164,
  "\u2581if": 165,
  "\u2581nii": 166,
  "\u2581more": 167,
  "\u2581about": 168,
  "\u25815": 169,
  "\u2581pole": 170,
  "\u2581there": 171,
  "ta": 172,
  "gi": 173,
  "\u2581nende": 174,
  "\u2581were": 175,
  "\u2581siis": 176,
  "\u2581g": 177,
  "\u2581kes": 178,
  "\u2581so": 179,
  "u": 180,
  "\u2581like": 181,
  "\u2581don": 182,
  "\u2581would": 183,
  "\u2581any": 184,
  "\u2581He": 185,
  "\u2581into": 186,
  "\u2581And": 187,
  "\u2581Ja": 188,
  "\u2581time": 189,
  "ll": 190,
  "\u2581Council": 191,
  "\u2581here": 192,
  "S": 193,
  "\u2581right": 194,
  "\u2581than": 195,
  "\u2581P": 196,
  "\u2581also": 197,
  "v": 198,
  "\u2581get": 199,
  "\u2581Union": 200,
  "er": 201,
  "\u2581mille": 202,
  "\u2581his": 203,
  "\u2581tuleb": 204,
  "\u2581Me": 205,
  "nud": 206,
  "ge": 207,
  "ve": 208,
  "c": 209,
  "\u2581H": 210,
  "A": 211,
  "\u2581him": 212,
  "k": 213,
  "\u2581EU": 214,
  "\u2581did": 215,
  "\u2581k\u00f5ik": 216,
  "\u2581Ei": 217,
  "tud": 218,
  "\u2581under": 219,
  "se": 220,
  "\u2581\u00fcle": 221,
  "\u2581such": 222,
  "\u2581who": 223,
  "mine": 224,
  "o": 225,
  "\u25811.": 226,
  "\u25816": 227,
  "\u2581R": 228,
  "\u2581use": 229,
  "\u2581information": 230,
  "sid": 231,
  "\u258110": 232,
  "\u2581nagu": 233,
  "\u2581when": 234,
  "\u2581nad": 235,
  "\u2581vastu": 236,
  "\u2581M": 237,
  "\u2581go": 238,
  "\u2581mitte": 239,
  "g": 240,
  "sin": 241,
  "\u2581must": 242,
  "al": 243,
  "\u2581p\u00e4rast": 244,
  "\u2581them": 245,
  "C": 246,
  "ni": 247,
  "\u2581down": 248,
  "\u2581That": 249,
  "\u2581D": 250,
  ".\"": 251,
  "or": 252,
  "\u2581where": 253,
  "ti": 254,
  "\u2581Jah": 255,
  "\u2581Oh": 256,
  "\u2581mind": 257,
  "\u2581had": 258,
  "\u2581puhul": 259,
  "\u2581only": 260,
  "\u2581tema": 261,
  "\u2581take": 262,
  "\u2581F": 263,
  "\u2581these": 264,
  "es": 265,
  "\u2581m\u00e4\u00e4ruse": 266,
  "ke": 267,
  "\u2581some": 268,
  "\u2581her": 269,
  "\u2581our": 270,
  "\u2581Mis": 271,
  "\u2581\u00e4ra": 272,
  "\u2581eest": 273,
  "\u2581those": 274,
  "r": 275,
  "\u2581seotud": 276,
  "\u2581Directive": 277,
  "\u2581aga": 278,
  "\u2581mg": 279,
  "\u2581te": 280,
  "\u2581us": 281,
  "\u2581If": 282,
  "\u2581olen": 283,
  "\u2581n\u00f5ukogu": 284,
  "\u2581following": 285,
  "\u2581Artikkel": 286,
  "\u2581could": 287,
  "\u2581mu": 288,
  "\u2581new": 289,
  "\u2581suhtes": 290,
  "\u2581want": 291,
  "\u2581midagi": 292,
  "us": 293,
  "\u2581siin": 294,
  "\u2581State": 295,
  "\u2581measures": 296,
  "\u2581between": 297,
  "\u2581k": 298,
  "\u2581Community": 299,
  "\u2581kas": 300,
  "\u2581V": 301,
  "\u2581got": 302,
  "\u2581think": 303,
  "\u2581Annex": 304,
  "\u2581For": 305,
  "\u2581products": 306,
  "\u2581Mida": 307,
  "\u2581now": 308,
  "ki": 309,
  "2": 310,
  "\u2581So": 311,
  "\u2581tagasi": 312,
  "\u2581accordance": 313,
  "\u2581arvesse": 314,
  "\u2581oleks": 315,
  "\u2581oled": 316,
  "\u2581used": 317,
  "E": 318,
  "\u25817": 319,
  "\u2581first": 320,
  "\u2581saa": 321,
  "\u2581e": 322,
  "\u2581market": 323,
  "is": 324,
  "vad": 325,
  "\u2581'": 326,
  "\u2581s": 327,
  "on": 328,
  "ja": 329,
  "),": 330,
  "\u2581On": 331,
  "\u2581N": 332,
  "\u2581lk": 333,
  "\u2581kuni": 334,
  "\u2581olla": 335,
  "\u2581over": 336,
  "\u2581meie": 337,
  "\u2581v\u00e4ga": 338,
  "\u2581Yea": 339,
  "\u2581But": 340,
  "\u2581peab": 341,
  "\u25818": 342,
  "\u2581veel": 343,
  "\u2581make": 344,
  "des": 345,
  "\u2581su": 346,
  "\u2581teha": 347,
  "\u2581ELi": 348,
  "\u2581vastavalt": 349,
  "\u2581work": 350,
  "\u2581two": 351,
  "]": 352,
  "\u2581[": 353,
  "\u2581back": 354,
  "\u2581way": 355,
  "\u2581i": 356,
  "\u2581_": 357,
  "\u2581ette": 358,
  "\u2581does": 359,
  "\u2581made": 360,
  "\u2581good": 361,
  "\u2581people": 362,
  "\u2581set": 363,
  "\u258120": 364,
  "\u2581olema": 365,
  "\u2581years": 366,
  "\u2581komisjoni": 367,
  "\u258112": 368,
  "\u2581peaks": 369,
  "\u2581\u00fcks": 370,
  "\u2581after": 371,
  "\u2581f": 372,
  "\u2581vaja": 373,
  "\u2581minu": 374,
  "\u2581data": 375,
  "\u2581kuid": 376,
  "\u2581within": 377,
  "p": 378,
  "\u2581neid": 379,
  "\u2581Liidu": 380,
  "\u2581lisa": 381,
  "line": 382,
  "\u2581referred": 383,
  "\u2581b": 384,
  "\u2581They": 385,
  "\u2581G": 386,
  "\u2581s\u00e4testatud": 387,
  "\u2581&": 388,
  "\u2581real": 389,
  "\u2581particular": 390,
  "\u2581she": 391,
  "\u2581kogu": 392,
  "\u2581kus": 393,
  "\u2581iga": 394,
  "\u2581going": 395,
  "EL": 396,
  "\u25819": 397,
  "\u2581order": 398,
  "\u2581well": 399,
  "\u2581koos": 400,
  "\u2581provided": 401,
  "\u2581l\u00e4bi": 402,
  "mist": 403,
  "\u2581how": 404,
  "onna": 405,
  "\u2581regard": 406,
  "\u2581Decision": 407,
  "an": 408,
  "\u2581millega": 409,
  "\u2581jaoks": 410,
  "\u2581l\u00f5ike": 411,
  "\u258115": 412,
  "\u2581said": 413,
  "\u2581mulle": 414,
  "\u2581end": 415,
  "\u2581k\u00e4esoleva": 416,
  "\u2581national": 417,
  "\u2581THE": 418,
  "\u2581II": 419,
  "\u2581sind": 420,
  "\u2581number": 421,
  "I": 422,
  "\u2581tuleks": 423,
  "\u2581sellest": 424,
  "\u2581before": 425,
  "\u2581enne": 426,
  "\u2581All": 427,
  "B": 428,
  "\u2581O": 429,
  "\u258130": 430,
  "_": 431,
  "\u2581How": 432,
  "\u2581year": 433,
  "\u2581ainult": 434,
  "\u2581Well": 435,
  "\u2581W": 436,
  "\u2581korral": 437,
  "\u2581liikmesriikide": 438,
  "\u2581n\u00fc\u00fcd": 439,
  "\u2581There": 440,
  "\u2581v": 441,
  "\u2581l": 442,
  "\u2581ajal": 443,
  "\u2581financial": 444,
  "\u2581poolt": 445,
  "\u2581God": 446,
  "\u2581very": 447,
  "D": 448,
  "\u2581system": 449,
  "\u2581palju": 450,
  "\u2581re": 451,
  "\u2581man": 452,
  "mise": 453,
  "\u2581each": 454,
  "\u2581de": 455,
  "\u2581Aga": 456,
  "EU": 457,
  "di": 458,
  "\u2581period": 459,
  "\u2581kohaselt": 460,
  "\u2581sinu": 461,
  "\u2581alusel": 462,
  "das": 463,
  "\u2581jooksul": 464,
  "\u2581saab": 465,
  "\u2581through": 466,
  "\u2581Parliament": 467,
  "\u2581Do": 468,
  "\u2581o": 469,
  "\u2581day": 470,
  "\u2581osa": 471,
  "T": 472,
  "va": 473,
  "\u25812.": 474,
  "\u2581t\u00f6\u00f6": 475,
  "\u2581direktiivi": 476,
  "\u2581case": 477,
  "f": 478,
  "\u2581countries": 479,
  "\u2581juba": 480,
  "\u2581same": 481,
  "\u2581komisjon": 482,
  "ad": 483,
  "\u2581point": 484,
  "\u2581...": 485,
  "\u2581v\u00f5ttes": 486,
  "\u2581including": 487,
  "\u2581aastal": 488,
  "\u2581vaid": 489,
  "\u2581come": 490,
  "to": 491,
  "\u2581/": 492,
  "\u2581Mr": 493,
  "\u2581then": 494,
  "P": 495,
  "K": 496,
  "H": 497,
  "\u2581esitatud": 498,
  "\u2581(1)": 499,
  "\u2581too": 500,
  "\u2581To": 501,
  "\u2581necessary": 502,
  "\u2581level": 503,
  "\u2581t": 504,
  "\u2581hea": 505,
  "\u2581ravi": 506,
  "\u2581nimetatud": 507,
  "\u2581\u00fchenduse": 508,
  "\u2581part": 509,
  "\u2581patients": 510,
  "\u2581Committee": 511,
  "\u2581paragraph": 512,
  "\u2581help": 513,
  "\u2581She": 514,
  "\u2581rules": 515,
  "\u258111": 516,
  "\u2581public": 517,
  "\u258118": 518,
  "ide": 519,
  "\u2581m": 520,
  "\u2581authorities": 521,
  "\u2581abi": 522,
  "\u2581conditions": 523,
  "\u2581sulle": 524,
  "\u2581services": 525,
  "\u2581last": 526,
  "\u2581teda": 527,
  "el": 528,
  "\u2581say": 529,
  "be": 530,
  "\u2581alla": 531,
  "\u2581Te": 532,
  "mis": 533,
  "\u258113": 534,
  "\u2581ensure": 535,
  "\u2581olnud": 536,
  "\u2581pea": 537,
  "\u2581kasutada": 538,
  "\u2581d": 539,
  "ka": 540,
  "\u2581teie": 541,
  "\u2581means": 542,
  "\u2581Ole": 543,
  "\u2581osutatud": 544,
  "en": 545,
  "\u2581aid": 546,
  "\u2581life": 547,
  "\u2581because": 548,
  "\u2581rohkem": 549,
  "\u2581v\u00f5ivad": 550,
  "\u2581eriti": 551,
  "\u2581even": 552,
  "\u25814.": 553,
  "takse": 554,
  "\u2581kuidas": 555,
  "\u2581k\u00fcll": 556,
  "\u2581elu": 557,
  "\u2581As": 558,
  "N": 559,
  "\u2581Where": 560,
  "\u2581being": 561,
  "\u2581without": 562,
  "\u2581am": 563,
  "\u2581application": 564,
  "\u2581place": 565,
  "\u2581Mul": 566,
  "\u2581m\u00e4\u00e4rus": 567,
  "\u2581support": 568,
  "\u2581during": 569,
  "\u2581v\u00f5tta": 570,
  "\u258114": 571,
  "\u2581product": 572,
  "EEC": 573,
  "the": 574,
  "\u2581risk": 575,
  "EM\u00dc": 576,
  "\u2581c": 577,
  "ku": 578,
  "\u25813.": 579,
  "\u2581requirements": 580,
  "\u2581J": 581,
  "\u2581certain": 582,
  "\u2581sest": 583,
  "lik": 584,
  "\u258119": 585,
  "\u2581tell": 586,
  "\u2581per": 587,
  "\u2581seoses": 588,
  "\u2581v\u00f5imalik": 589,
  "\u2581Re": 590,
  "\u2581\u00fche": 591,
  "\u2581Hey": 592,
  "ra": 593,
  "\u2581OF": 594,
  "\u2581tea": 595,
  "\u2581most": 596,
  "\u2581provisions": 597,
  "\u2581Nad": 598,
  "\u2581something": 599,
  "3": 600,
  "\u2581kokku": 601,
  "\u2581Komisjoni": 602,
  "\u2581olid": 603,
  "\u2581Come": 604,
  "\u2581appropriate": 605,
  "\u2581juhul": 606,
  "\u258116": 607,
  "\u2581non": 608,
  "\u2581development": 609,
  "\u2581Yes": 610,
  "M": 611,
  "ist": 612,
  "\u2581off": 613,
  "\u2581riigi": 614,
  "\u2581mean": 615,
  "\u2581third": 616,
  "it": 617,
  "\u2581Miks": 618,
  "\u2581Why": 619,
  "\u2581long": 620,
  "est": 621,
  "\u2581taken": 622,
  "li": 623,
  "\u2581kindlaks": 624,
  "\u2581enam": 625,
  "\u2581seal": 626,
  "\u2581report": 627,
  "\u2581Ka": 628,
  "\u258117": 629,
  "\u2581vahel": 630,
  "\u2581Treaty": 631,
  "th": 632,
  "\u2581(2)": 633,
  "si": 634,
  "\u2581account": 635,
  "\u2581Je": 636,
  "\u2581basis": 637,
  "O": 638,
  "\u2581lihtsalt": 639,
  "\u258125": 640,
  "\u2581policy": 641,
  "\u2581much": 642,
  "\u2581three": 643,
  "\u2581m\u00f5ju": 644,
  "\u2581K\u00f5ik": 645,
  "\u2581koosk\u00f5las": 646,
  "\u2581Having": 647,
  "\u2581Let": 648,
  "\u2581mul": 649,
  "\u2581100": 650,
  "\u2581available": 651,
  "\u2581Just": 652,
  "\u2581little": 653,
  "\u2581v\u00e4hemalt": 654,
  "ic": 655,
  "\u2581apply": 656,
  "\u2581economic": 657,
  "\u2581treatment": 658,
  "\u2581l\u00f5ikes": 659,
  "ar": 660,
  "\u2581let": 661,
  "tu": 662,
  "\u2581concerned": 663,
  "\u2581own": 664,
  "\u2581give": 665,
  "\u2581My": 666,
  "\u2581therefore": 667,
  "as": 668,
  "\u2581Don": 669,
  "\u2581Oka": 670,
  "\u2581still": 671,
  "\u2581saada": 672,
  "\u2581ega": 673,
  "\u2581kaasa": 674,
  "\u2581both": 675,
  "\u2581May": 676,
  "\u2581Europe": 677,
  "\u258124": 678,
  "use": 679,
  "\u2581k\u00f5ige": 680,
  "\u2581provide": 681,
  "il": 682,
  "\u2581korda": 683,
  "1": 684,
  "BAR": 685,
  "F": 686,
  "\u2581specific": 687,
  "\u2581common": 688,
  "\u2581liidu": 689,
  "\u2581never": 690,
  "\u2581sul": 691,
  "\u258121": 692,
  "\u2581possible": 693,
  "\u2581peale": 694,
  "\u2581name": 695,
  "\u2581OJ": 696,
  "\u2581Agreement": 697,
  "\u2581Parlamendi": 698,
  "\u2581world": 699,
  "\u2581Komisjon": 700,
  "\u2581country": 701,
  ",\"": 702,
  "R": 703,
  "\u2581control": 704,
  "\u2581find": 705,
  "\u2581applicable": 706,
  "\u2581lepingu": 707,
  "\u2581When": 708,
  "\u2581\u00f5igus": 709,
  "\u2581relevant": 710,
  "\u2581force": 711,
  "\u2581many": 712,
  "\u2581kaks": 713,
  "\u2581\u00fcles": 714,
  "\u2581President": 715,
  "\u2581area": 716,
  "\u2581peavad": 717,
  "\u2581selles": 718,
  "\u2581least": 719,
  "\u2581lisas": 720,
  "\u2581look": 721,
  "\u2581ju": 722,
  "\u2581given": 723,
  "L": 724,
  "\u2581eri": 725,
  "um": 726,
  "\u2581against": 727,
  "\u2581oleme": 728,
  "\u2581important": 729,
  "\u2581date": 730,
  "\u2581protection": 731,
  "\u2581doing": 732,
  "\u2581different": 733,
  "\u2581Thank": 734,
  "\u258122": 735,
  "\u258150": 736,
  "\u2581ilma": 737,
  "\u2581la": 738,
  "4": 739,
  "\u2581activities": 740,
  "\u2581sisse": 741,
  "ED": 742,
  "\u2581U": 743,
  "\u2581edasi": 744,
  "at": 745,
  "\u2581EUR": 746,
  "\u2581law": 747,
  "\u2581Eesti": 748,
  "\u2581pre": 749,
  "\u2581procedure": 750,
  "\u2581Nii": 751,
  "ur": 752,
  "ers": 753,
  "\u2581better": 754,
  "\u2581talle": 755,
  "ri": 756,
  "\u2581siia": 757,
  "\u2581Tule": 758,
  "ah": 759,
  "\u2581energy": 760,
  "ie": 761,
  "\u2581decision": 762,
  "\u2581high": 763,
  "\u2581December": 764,
  "\u2581respect": 765,
  "\u2581p\u00e4eva": 766,
  "\u2581otsus": 767,
  "et": 768,
  "\u2581sure": 769,
  "iga": 770,
  "\u2581III": 771,
  "\u2581subject": 772,
  "\u2581social": 773,
  "\u2581production": 774,
  "\u2581love": 775,
  "\u2581eelk\u00f5ige": 776,
  "\u2581why": 777,
  "\u2581+": 778,
  "\u2581n": 779,
  "\u2581amended": 780,
  "\u2581put": 781,
  "\u2581De": 782,
  "\u2581ml": 783,
  "\u2581samuti": 784,
  "\u2581management": 785,
  "\u2581alates": 786,
  "\u2581thing": 787,
  "\u2581mina": 788,
  "\u2581value": 789,
  "tus": 790,
  "\u2581Pea": 791,
  "nt": 792,
  "\u2581tee": 793,
  "\u2581muud": 794,
  "tele": 795,
  "\u2581Now": 796,
  ");": 797,
  "\u2022": 798,
  "\u2581Go": 799,
  "ud": 800,
  "\u2581another": 801,
  "\u2581found": 802,
  "\u2581implementation": 803,
  "\u2581based": 804,
  "\u2581aja": 805,
  "man": 806,
  "\u2581However": 807,
  "\u2581kunagi": 808,
  "\u2581ise": 809,
  "\u2581type": 810,
  "\u2581otsuse": 811,
  "\u2581dose": 812,
  "\u2581mm": 813,
  "\u2581amount": 814,
  "\u2581osas": 815,
  "\u2581sina": 816,
  "\u2581tehtud": 817,
  "\u2581human": 818,
  "\u2581\u00c4ra": 819,
  "\u2581whether": 820,
  "tes": 821,
  "\u2581saanud": 822,
  "up": 823,
  "\u2581service": 824,
  "\u2581maha": 825,
  "\u2581K\u00e4esolev": 826,
  "\u2581meil": 827,
  "\u2581second": 828,
  "\u2581k\u00f5nealuse": 829,
  "\u2581isa": 830,
  "\u2581days": 831,
  "\u2581price": 832,
  "\u2581sellele": 833,
  "\u2581aru": 834,
  "\u258131": 835,
  "\u2581further": 836,
  "tel": 837,
  "\u2581side": 838,
  "\u2581artiklis": 839,
  "\u2581taking": 840,
  "\u2581Your": 841,
  "\u2581kaudu": 842,
  "\u2581home": 843,
  "\u2581meetmed": 844,
  "\u2581already": 845,
  "\u2581kohaldatakse": 846,
  "\u2581authority": 847,
  "\u2581sellega": 848,
  "\u2581thereof": 849,
  "\u2581Al": 850,
  "\u2581Need": 851,
  "\u258123": 852,
  "\u2581business": 853,
  "\u2581un": 854,
  "\u2581kord": 855,
  "\u2581legal": 856,
  "00": 857,
  "ite": 858,
  "\u2581again": 859,
  "\u2581costs": 860,
  "\u2581required": 861,
  "\u2581international": 862,
  "\u2581aega": 863,
  "\u2581T\u00e4na": 864,
  "\u2581every": 865,
  "\u2581rights": 866,
  "\u2581health": 867,
  "V": 868,
  "ate": 869,
  "\u2581established": 870,
  "\u2581Look": 871,
  "la": 872,
  "\u2581euro": 873,
  "\u2581concerning": 874,
  "\u2581less": 875,
  "\u258128": 876,
  "\u2581aastat": 877,
  "G": 878,
  "\u2581(3)": 879,
  "\u2581general": 880,
  "kay": 881,
  "\u2581competent": 882,
  "\u2581security": 883,
  "W": 884,
  "ry": 885,
  "\u2581Vaata": 886,
  "\u2581meeldi": 887,
  "\u2581teada": 888,
  "\u2581around": 889,
  "\u2581change": 890,
  "\u2581sealhulgas": 891,
  "\u2581form": 892,
  "\u2581considered": 893,
  "\u2581adopted": 894,
  "\u2581sama": 895,
  "\u2581programme": 896,
  "\u2581Not": 897,
  "\u2581raha": 898,
  "\u2581head": 899,
  "\u2581ema": 900,
  "\u2581Tere": 901,
  "uck": 902,
  "\u2581kaitse": 903,
  "\u2581teabe": 904,
  "\u25815.": 905,
  "ro": 906,
  "\u2581anti": 907,
  "\u2581until": 908,
  "im": 909,
  "\u2581laid": 910,
  "gu": 911,
  "\u2581t\u00e4na": 912,
  "\u2581Is": 913,
  "\u2581punkti": 914,
  "\u2581N\u00f5ukogu": 915,
  "\u2581water": 916,
  "ation": 917,
  "\u258127": 918,
  "\u2581Seda": 919,
  "\u2581things": 920,
  "\u2581punktis": 921,
  "\u2581kontrolli": 922,
  "\u2581tean": 923,
  "miseks": 924,
  "ia": 925,
  "\u2581months": 926,
  "\u2581Who": 927,
  "\u2581isegi": 928,
  "\u2581opinion": 929,
  "\u2581call": 930,
  "\u2581total": 931,
  "ega": 932,
  "\u2581course": 933,
  "\u2581[1]": 934,
  "\u2581tead": 935,
  "\u2581test": 936,
  "sed": 937,
  "\u2581tagada": 938,
  "\u25810": 939,
  "\u2581person": 940,
  "\u2581\u00fctles": 941,
  "\u2581kelle": 942,
  "\u2581action": 943,
  "\u2581while": 944,
  "OJ": 945,
  "\u2581La": 946,
  "\u2581trade": 947,
  "\u2581muu": 948,
  "\u2581best": 949,
  "hoova": 950,
  "\u2581body": 951,
  "\u2581having": 952,
  "\u2581access": 953,
  "\u2581kasutatakse": 954,
  "\u2581tohi": 955,
  "\u2581\u00dc": 956,
  "ter": 957,
  "\u2581milles": 958,
  "\u2581view": 959,
  "\u2581anda": 960,
  "\u2581nimel": 961,
  "\u2581using": 962,
  "one": 963,
  "\u2581above": 964,
  "\u2581kuu": 965,
  "\u2581cooperation": 966,
  "\u2581transport": 967,
  "\u2581liikmesriigid": 968,
  "\u2581arva": 969,
  "\u2581safety": 970,
  "able": 971,
  "vah": 972,
  "pa": 973,
  "\u2581*": 974,
  "\u2581arvatud": 975,
  "test": 976,
  "\u2581together": 977,
  "\u2581car": 978,
  "\u2581meid": 979,
  "\u2581x": 980,
  "x": 981,
  "\u2581h": 982,
  "\u2581Mu": 983,
  "\u2581An": 984,
  "\u2581n\u00e4htud": 985,
  "\u2581sector": 986,
  "\u2581suur": 987,
  "ik": 988,
  "\u2581kuna": 989,
  "\u2581Jeho": 990,
  "\u2581Olgu": 991,
  "\u2581great": 992,
  "ha": 993,
  "\u2581liikmesriigi": 994,
  "\u2581working": 995,
  "\u2581teeb": 996,
  "\u2581teiste": 997,
  "\u2581Selle": 998,
  "\u2581technical": 999,
  "\u2581group": 1000,
  "lise": 1001,
  "\u2581m\u00f5tle": 1002,
  "\u2581praegu": 1003,
  "\u258140": 1004,
  "\u2581w": 1005,
  "\u2581blood": 1006,
  "\u2581h\u00e4sti": 1007,
  "\u2581Co": 1008,
  "\u2581toodete": 1009,
  "\u2581areas": 1010,
  "see": 1011,
  "\u2581June": 1012,
  "\u258126": 1013,
  "\u2581Are": 1014,
  "\u2581n\u00e4iteks": 1015,
  "\u2581teid": 1016,
  "\u2581meetmete": 1017,
  "\u2581establishing": 1018,
  "\u2581away": 1019,
  "list": 1020,
  "am": 1021,
  "\u2581These": 1022,
  "\u2581kg": 1023,
  "\u2581p\u00f5llumajandus": 1024,
  "\u2581systems": 1025,
  "\u2581food": 1026,
  "\u2581sorry": 1027,
  "\u2581alati": 1028,
  "\u2581Lisaks": 1029,
  "\u2581increase": 1030,
  "eid": 1031,
  "\u2581tegi": 1032,
  "ile": 1033,
  "son": 1034,
  "\u2581Minu": 1035,
  "\u2581always": 1036,
  "mata": 1037,
  "vi": 1038,
  "\u2581since": 1039,
  "\u2581riikide": 1040,
  "\u2581free": 1041,
  "\u2581might": 1042,
  "\u2581tal": 1043,
  "\u2581Mina": 1044,
  "\u2581effects": 1045,
  "\u25812008": 1046,
  "\u2581At": 1047,
  "ce": 1048,
  "\u2581mees": 1049,
  "\u2581special": 1050,
  "\u2581teile": 1051,
  "\u2581Whereas": 1052,
  "\u2581selleks": 1053,
  "\u2581olete": 1054,
  "\u2581antud": 1055,
  "\u2581results": 1056,
  "\u00f5": 1057,
  "\u2581Get": 1058,
  "po": 1059,
  "tav": 1060,
  "\u2581believe": 1061,
  "\u2581night": 1062,
  "\u2581sai": 1063,
  "\u2581n\u00e4ha": 1064,
  "\u2581neile": 1065,
  "\u2581raames": 1066,
  "\u2581kinni": 1067,
  "\u2581tule": 1068,
  "\u2581minema": 1069,
  "\u25816.": 1070,
  "no": 1071,
  "\u2581children": 1072,
  "\u2581\u20ac": 1073,
  "\u2581care": 1074,
  "\u2581arvestades": 1075,
  "\u2581teed": 1076,
  "eri": 1077,
  "\u2581\u00f6elda": 1078,
  "ru": 1079,
  "sime": 1080,
  "ity": 1081,
  "\u2581cases": 1082,
  "ju": 1083,
  "\u2581process": 1084,
  "\u2581t\u00f5ttu": 1085,
  "ina": 1086,
  "ment": 1087,
  "\u2581komitee": 1088,
  "\u2581kohe": 1089,
  "\u2581Kuid": 1090,
  "\u2581r": 1091,
  "\u2581talk": 1092,
  "\u2581pro": 1093,
  "amp": 1094,
  "\u2581keep": 1095,
  "\u2581New": 1096,
  "\u2581situation": 1097,
  "\u2581quality": 1098,
  "\u2581=": 1099,
  "\u2581teise": 1100,
  "\u2581Vaba": 1101,
  "hi": 1102,
  "\u2581include": 1103,
  "\u2581juurde": 1104,
  "\u2581assessment": 1105,
  "\u2581ON": 1106,
  "\u2581thought": 1107,
  "\u2581full": 1108,
  "\u2581done": 1109,
  "\u25812009": 1110,
  "v\u00f5i": 1111,
  "\u25812007": 1112,
  "w": 1113,
  "\u2581reference": 1114,
  "\u258129": 1115,
  "\u2581anything": 1116,
  "\u2581andmed": 1117,
  "\u2581rate": 1118,
  "\u2581eesm\u00e4rk": 1119,
  "ine": 1120,
  "\u2581Artikli": 1121,
  "\u2581million": 1122,
  "\u2581kahe": 1123,
  "ol": 1124,
  "\u25812005": 1125,
  "\u2581Car": 1126,
  "\u2581power": 1127,
  "\u2581ELT": 1128,
  "\u2581interest": 1129,
  "\u2581import": 1130,
  "\u2581light": 1131,
  "\u2581goods": 1132,
  "\u2581korras": 1133,
  "j": 1134,
  "\u2581kind": 1135,
  "\u2581effect": 1136,
  "\u2581money": 1137,
  "and": 1138,
  "\u2581aeg": 1139,
  "\u2581related": 1140,
  "\u2581Kes": 1141,
  "\u2581whole": 1142,
  "\u2581proposal": 1143,
  "\u2581m\u00e4\u00e4rusega": 1144,
  "vt": 1145,
  "\u2581framework": 1146,
  "tis": 1147,
  "z": 1148,
  "\u2581question": 1149,
  "\u2581cannot": 1150,
  "pi": 1151,
  "\u2581January": 1152,
  "\u2581sisaldab": 1153,
  "\u2581Olen": 1154,
  "\u2581peaksid": 1155,
  "aja": 1156,
  "\u2581muudetakse": 1157,
  "\u2581muuta": 1158,
  "lo": 1159,
  "\u2581family": 1160,
  "\u2581kahju": 1161,
  "\u2581oluline": 1162,
  "\u25812004": 1163,
  "\u2581future": 1164,
  "\u2581keegi": 1165,
  "\u2581taha": 1166,
  "\u2581peame": 1167,
  "\u2581auto": 1168,
  "\u2581industry": 1169,
  "\u2581Good": 1170,
  "lu": 1171,
  "\u2581list": 1172,
  "\u2581next": 1173,
  "\u2581needs": 1174,
  "\u2581procedures": 1175,
  "\u2581teil": 1176,
  "un": 1177,
  "\u2581muude": 1178,
  "\u2581pean": 1179,
  "\u2581l\u00e4heb": 1180,
  "\u2581Mitte": 1181,
  "\u2581di": 1182,
  "ach": 1183,
  "sh": 1184,
  "\u2581Republic": 1185,
  "\u2581Can": 1186,
  "ksid": 1187,
  "\u2581Kuul": 1188,
  "\u2581minna": 1189,
  "\u2581old": 1190,
  "\u2581maa": 1191,
  "\u2581Vi": 1192,
  "\u2581please": 1193,
  "\u2581Jesus": 1194,
  "\u2581uue": 1195,
  "\u25812006": 1196,
  "\u2581study": 1197,
  "\u2581sir": 1198,
  "co": 1199,
  "ant": 1200,
  "\u2581company": 1201,
  "\u2581valmis": 1202,
  "\u2581line": 1203,
  "\u2581tahan": 1204,
  "\u2581finants": 1205,
  "\u2581section": 1206,
  "poliitika": 1207,
  "\u2581Court": 1208,
  "ible": 1209,
  "\u2581July": 1210,
  "\u2581Palu": 1211,
  "\u2581eurot": 1212,
  "\u2581meetmeid": 1213,
  "\u2581Mei": 1214,
  "\u2581\u00fcmber": 1215,
  "\u2581ever": 1216,
  "\u2581additional": 1217,
  "\u2581plan": 1218,
  "\u2581t\u00e4hendab": 1219,
  "\u2581Jumal": 1220,
  "\u2581told": 1221,
  "J": 1222,
  "ime": 1223,
  "Y": 1224,
  "\u2581research": 1225,
  "mas": 1226,
  "\u2581With": 1227,
  "\u2581due": 1228,
  "\u2581m\u00e4\u00e4rust": 1229,
  "\u2581asi": 1230,
  "\u2581able": 1231,
  "\u2581By": 1232,
  "\u2581\u00fcksnes": 1233,
  "\u2581j\u00e4relevalve": 1234,
  "\u2581single": 1235,
  "\u2581maailma": 1236,
  "\u2581vaba": 1237,
  "\u2581standard": 1238,
  "\u2581One": 1239,
  "\u2581N\u00fc\u00fcd": 1240,
  "\u2581j\u00e4rgi": 1241,
  "\u2581times": 1242,
  "\u2581fact": 1243,
  "\u2581agreement": 1244,
  "\u2581enda": 1245,
  "ir": 1246,
  "\u2581start": 1247,
  "\u2581October": 1248,
  "ck": 1249,
  "\u2581today": 1250,
  "\u2581siiski": 1251,
  "\u2581co": 1252,
  "\u2581pursuan": 1253,
  "\u2581Tel": 1254,
  "\u2581tegema": 1255,
  "\u2581carried": 1256,
  "\u2581teinud": 1257,
  "\u2581nimi": 1258,
  "em": 1259,
  "\u2581teavet": 1260,
  "nu": 1261,
  "\u2581hand": 1262,
  "\u2581\u00dcks": 1263,
  "\u2581Tema": 1264,
  "\u2581left": 1265,
  "\u25812010": 1266,
  "\u2581example": 1267,
  "\u2581levels": 1268,
  "\u2581j\u00e4rgmist": 1269,
  "ber": 1270,
  "ELT": 1271,
  "\u2581present": 1272,
  "\u2581kolm": 1273,
  "\u2581poole": 1274,
  "\u2581doctor": 1275,
  "\u2581koost\u00f6\u00f6": 1276,
  "\u2581V\u00f5i": 1277,
  "\u2581gu": 1278,
  "\u2581lot": 1279,
  "\u2581arengu": 1280,
  "\u2581asutamislepingu": 1281,
  "\u2581request": 1282,
  "\u2581Mar": 1283,
  "\u2581heaks": 1284,
  "\u2581result": 1285,
  "\u2581Pa": 1286,
  "\u2581companies": 1287,
  "sa": 1288,
  "\u2581current": 1289,
  "ch": 1290,
  "dega": 1291,
  "\u2581Nag": 1292,
  "\u2581prices": 1293,
  "\u2581Sul": 1294,
  "\u2581v\u00f5etud": 1295,
  "ion": 1296,
  "\u2581increased": 1297,
  "\u2581once": 1298,
  "\u2581studies": 1299,
  "\u2581replaced": 1300,
  "\u2581Su": 1301,
  "\u258160": 1302,
  "\u2581meet": 1303,
  "6": 1304,
  "\u2581directly": 1305,
  "\u2581toimub": 1306,
  "\u2581local": 1307,
  "\u2581Articles": 1308,
  "\u2581feel": 1309,
  "\u2581energia": 1310,
  "\u2581raske": 1311,
  "\u2581either": 1312,
  "\u2581liiga": 1313,
  "\u2581pool": 1314,
  "\u2581Na": 1315,
  "\u2581open": 1316,
  "\u2581patsientidel": 1317,
  "ust": 1318,
  "os": 1319,
  "\u2581abil": 1320,
  "\u2581poliitika": 1321,
  "mi": 1322,
  "maks": 1323,
  "\u2581impact": 1324,
  "\u2581tahad": 1325,
  "\u2581Hei": 1326,
  "\u2581Ra": 1327,
  "\u2581institutions": 1328,
  "\u2581l\u00f5ik": 1329,
  "\u2581saadud": 1330,
  "\u2581arvan": 1331,
  "\u2581purposes": 1332,
  "\u2581Siin": 1333,
  "\u2581far": 1334,
  "\u2581investment": 1335,
  "\u2581K\u00e4esoleva": 1336,
  "\u2581Kus": 1337,
  "\u2581pead": 1338,
  "kas": 1339,
  "\u2581show": 1340,
  "bi": 1341,
  "\u2581toote": 1342,
  "ng": 1343,
  "\u2581effective": 1344,
  "\u2581vana": 1345,
  "\u2581March": 1346,
  "\u2581vee": 1347,
  "\u2581k\u00f5igi": 1348,
  "\u2581miks": 1349,
  "\u2581vere": 1350,
  "\u2581points": 1351,
  "\u2581AND": 1352,
  "\u2581EEA": 1353,
  "\u2581matter": 1354,
  "\u2581legislation": 1355,
  "\u2581k\u00f5iki": 1356,
  "\u2581granted": 1357,
  "\u25812013": 1358,
  "\u2581United": 1359,
  "\u2581Be": 1360,
  "\u2581selliste": 1361,
  "\u2581punkt": 1362,
  "\u2581p\u00f5hi": 1363,
  "\u2581members": 1364,
  "\u2581annab": 1365,
  "\u2581active": 1366,
  "\u2581etten\u00e4htud": 1367,
  "\u2581ikka": 1368,
  "\u2581according": 1369,
  "mm": 1370,
  "\u2581muudetud": 1371,
  "\u2581air": 1372,
  "\u2581meile": 1373,
  "\u2581addition": 1374,
  "\u2581terms": 1375,
  "10": 1376,
  "\u2581Jumala": 1377,
  "\u2581liikmesriikides": 1378,
  "\u2581\u00dchenduse": 1379,
  "\u2581state": 1380,
  "he": 1381,
  "uh": 1382,
  "\u2581suuda": 1383,
  "\u2581tasandil": 1384,
  "\u2581Please": 1385,
  "\u2581called": 1386,
  "\u2581enter": 1387,
  "tega": 1388,
  "\u2581won": 1389,
  "\u2581purpose": 1390,
  "\u2581relating": 1391,
  "\u2581tuli": 1392,
  "\u2581[2]": 1393,
  "\u2581eks": 1394,
  "\u2581Ro": 1395,
  "\u2581s\u00fcsteemi": 1396,
  "ow": 1397,
  "\u2581m\u00e4\u00e4ratud": 1398,
  "\u2581persons": 1399,
  "\u2581vaata": 1400,
  "\u2581Ar": 1401,
  "\u2581majandus": 1402,
  "\u2581tax": 1403,
  "\u2581main": 1404,
  "\u2581position": 1405,
  "\u2581criteria": 1406,
  "\u2581p\u00e4eval": 1407,
  "\u2581small": 1408,
  "gt": 1409,
  "\u2581komisjonile": 1410,
  "\u2581IV": 1411,
  "\u2581clear": 1412,
  "\u2581covered": 1413,
  "\u2581training": 1414,
  "\u25812011": 1415,
  "sti": 1416,
  "\u2581imports": 1417,
  "\u2581vi": 1418,
  "ive": 1419,
  "\u2581turu": 1420,
  "\u2581hours": 1421,
  "\u2581nothing": 1422,
  "\u2581resources": 1423,
  "\u2581ago": 1424,
  "ty": 1425,
  "ies": 1426,
  "\u2581inimesed": 1427,
  "\u2581final": 1428,
  "ul": 1429,
  "\u2581aidata": 1430,
  "\u2581submitted": 1431,
  "\u2581code": 1432,
  "\u2581maximum": 1433,
  "\u2581coming": 1434,
  "\u2581field": 1435,
  "\u2581stop": 1436,
  "\u2581September": 1437,
  "\u2581v\u00f5ta": 1438,
  "\u2581equipment": 1439,
  "per": 1440,
  "7": 1441,
  "\u2581kasutamise": 1442,
  "\u2581leave": 1443,
  "\u2581Liikmesriigid": 1444,
  "\u2581regards": 1445,
  "\u2581kehtestatakse": 1446,
  "\u2581p\u00f5hjal": 1447,
  "\u2581Komitee": 1448,
  "\u2581standards": 1449,
  "\u2581asendatakse": 1450,
  "\u2581(4)": 1451,
  "\u2581making": 1452,
  "lised": 1453,
  "\u2581impordi": 1454,
  "AL": 1455,
  "\u2581Journal": 1456,
  "\u2581serious": 1457,
  "\u2581Anna": 1458,
  "ho": 1459,
  "\u2581understand": 1460,
  "\u2581defined": 1461,
  "ster": 1462,
  "30": 1463,
  "\u2581Kuna": 1464,
  "\u25812014": 1465,
  "\u2581animals": 1466,
  "\u2581eelarve": 1467,
  "\u2581everything": 1468,
  "\u25817.": 1469,
  "\u2581Or": 1470,
  "\u2581become": 1471,
  "\u2581Did": 1472,
  "8": 1473,
  "s\u00fcsteemi": 1474,
  "\u2581men": 1475,
  "\u25812016": 1476,
  "\u2581arv": 1477,
  "\u2581came": 1478,
  "dele": 1479,
  "\u2581t\u00f5esti": 1480,
  "\u2581November": 1481,
  "\u2581EESC": 1482,
  "\u2581V\u00e4": 1483,
  "ndust": 1484,
  "ex": 1485,
  "\u2581added": 1486,
  "\u2581ees": 1487,
  "\u2581Then": 1488,
  "\u2581problem": 1489,
  "\u2581Seega": 1490,
  "\u2581Pole": 1491,
  "\u2581organisatsiooni": 1492,
  "\u2581kehtestatud": 1493,
  "pe": 1494,
  "ko": 1495,
  "\u2581valdkonnas": 1496,
  "\u2581bring": 1497,
  "\u2581palun": 1498,
  "\u2581X": 1499,
  "\u2581kolme": 1500,
  "\u2581tahes": 1501,
  "olla": 1502,
  "\u2581konkurentsi": 1503,
  "\u2581Le": 1504,
  "\u2581Siis": 1505,
  "liste": 1506,
  "\u2581specified": 1507,
  "\u2581credit": 1508,
  "\u2581applied": 1509,
  "\u2581esitada": 1510,
  "\u2581received": 1511,
  "\u25812012": 1512,
  "\u2581asja": 1513,
  "\u2581v\u00e4ike": 1514,
  "\u2581Iga": 1515,
  "ste": 1516,
  "\u2581April": 1517,
  "ab": 1518,
  "\u2581Hea": 1519,
  "\u2581responsible": 1520,
  "\u2581parties": 1521,
  "\u2581John": 1522,
  "\u2581juures": 1523,
  "\u2581andmete": 1524,
  "\u2581entry": 1525,
  "uys": 1526,
  "\u2581Official": 1527,
  "\u2581capacity": 1528,
  "\u2581esimese": 1529,
  "\u2581yet": 1530,
  "\u2581weight": 1531,
  "\u2581animal": 1532,
  "\u2581Brussels": 1533,
  "mo": 1534,
  "\u2581Da": 1535,
  "ise": 1536,
  "\u2581cost": 1537,
  "\u2581took": 1538,
  "5": 1539,
  "\u2581Some": 1540,
  "\u2581payment": 1541,
  "\u2581later": 1542,
  "\u2581live": 1543,
  "\u2581Meie": 1544,
  "\u2581Estonia": 1545,
  "\u2581enough": 1546,
  "EUROOPA": 1547,
  "\u2581Dr": 1548,
  "\u2581kohtu": 1549,
  "\u2581vehicle": 1550,
  "\u2581Other": 1551,
  "\u2581.\"": 1552,
  "\u2581seen": 1553,
  "\u2581seega": 1554,
  "\u2581house": 1555,
  "\u2581capital": 1556,
  "\u2581growth": 1557,
  "\u2581project": 1558,
  "NUD": 1559,
  "\u2581few": 1560,
  "\u2581inimeste": 1561,
  "\u2581ex": 1562,
  "\u2581Seet\u00f5ttu": 1563,
  "\u2581review": 1564,
  "\u2581mere": 1565,
  "ton": 1566,
  "\u2581objectives": 1567,
  "\u2581Of": 1568,
  "\u2581potential": 1569,
  "\u2581sel": 1570,
  "ele": 1571,
  "\u2581programmes": 1572,
  "\u2581export": 1573,
  "\u2581keskkonna": 1574,
  "\u2581similar": 1575,
  "\u2581Di": 1576,
  "\u2581rahu": 1577,
  "\u2581EUROPEAN": 1578,
  "\u2581parem": 1579,
  "han": 1580,
  "\u2581individual": 1581,
  "\u2581budget": 1582,
  "\u2581hard": 1583,
  "\u2581ask": 1584,
  "\u2581neil": 1585,
  "\u2581girl": 1586,
  "ucking": 1587,
  "\u2581JA": 1588,
  "\u2581Samuti": 1589,
  "\u2581avaliku": 1590,
  "tuse": 1591,
  "\u2581significant": 1592,
  "\u2581existing": 1593,
  "\u2581intended": 1594,
  "20": 1595,
  "\u2581basic": 1596,
  "\u2581four": 1597,
  "\u2581teine": 1598,
  "\u2581internal": 1599,
  "\u2581listed": 1600,
  "\u2581dead": 1601,
  "\u2581Hi": 1602,
  "\u2581Et": 1603,
  "\u2581saan": 1604,
  "\u2581millest": 1605,
  "\u2581Z": 1606,
  "\u2581play": 1607,
  "ba": 1608,
  "\u2581P\u00e4rast": 1609,
  "\u2581containing": 1610,
  "\u2581issue": 1611,
  "oni": 1612,
  "\u2581problems": 1613,
  "\u00e4": 1614,
  "\u2581piisavalt": 1615,
  "\u2581low": 1616,
  "%": 1617,
  "\u2581big": 1618,
  "\u2581bad": 1619,
  "\u2581teave": 1620,
  "\u2581known": 1621,
  "\u2581t\u00e4ielikult": 1622,
  "\u2581neist": 1623,
  "\u2581solution": 1624,
  "\u25812015": 1625,
  "\u2581follows": 1626,
  "\u2581(\"": 1627,
  "\u2581kindel": 1628,
  "\u258190": 1629,
  "1/": 1630,
  "\u2581personal": 1631,
  "\u2581heart": 1632,
  "\u2581job": 1633,
  "\u2581r\u00e4\u00e4gi": 1634,
  "\u2581vajaduse": 1635,
  "\u2581m\u00f5ned": 1636,
  "\u2581toimimise": 1637,
  "\u2581experience": 1638,
  "del": 1639,
  "\u2581hear": 1640,
  "\u2581kill": 1641,
  "lane": 1642,
  "\u2581women": 1643,
  "\u2581t\u00f6\u00f6d": 1644,
  "\u2581continue": 1645,
  "\u2581stay": 1646,
  "\u2581kellel": 1647,
  "\u2581v\u00f5iks": 1648,
  "\u2581Pro": 1649,
  "\u25810,": 1650,
  "\u00f6": 1651,
  "\u2581reported": 1652,
  "\u2581values": 1653,
  "\u2581close": 1654,
  "\u2581environment": 1655,
  "\u2581material": 1656,
  "\u2581Tallinn": 1657,
  "ub": 1658,
  "\u2581teenuste": 1659,
  "\u2581key": 1660,
  "\u2581sh": 1661,
  "\u2581father": 1662,
  "\u2581wanted": 1663,
  "\u2581five": 1664,
  "\u2581included": 1665,
  "\u2581lahti": 1666,
  "\u2581sinuga": 1667,
  "liku": 1668,
  "\u2581r\u00e4\u00e4kida": 1669,
  "\u2581happened": 1670,
  "\u2581programmi": 1671,
  "\u2581000": 1672,
  "shit": 1673,
  "ua": 1674,
  "\u2581changes": 1675,
  "\u258110.": 1676,
  "ish": 1677,
  "less": 1678,
  "\u2581fine": 1679,
  "\u2581projects": 1680,
  "\u2581\u00fchise": 1681,
  "of": 1682,
  "\u2581l\u00f5ige": 1683,
  "\u2581k\u00f5rge": 1684,
  "\u2581v\u00f5tab": 1685,
  "\u2581natural": 1686,
  "\u2581meeting": 1687,
  "\u2581below": 1688,
  "\u2581tegevus": 1689,
  "\u2581kasu": 1690,
  "HIS": 1691,
  "\u2581ravimi": 1692,
  "\u2581m\u00f5ista": 1693,
  "\u2581juuni": 1694,
  "\u258180": 1695,
  "\u2581Teie": 1696,
  "lus": 1697,
  "bu": 1698,
  "\u2581tunne": 1699,
  "\u2581monitoring": 1700,
  "\u2581koost\u00f6\u00f6d": 1701,
  "\u2581competition": 1702,
  "\u2581sellise": 1703,
  "\u2581\u00e4ri": 1704,
  "\u2581provides": 1705,
  "\u2581wrong": 1706,
  "\u2581toime": 1707,
  "\u2581m\u00e4\u00e4rata": 1708,
  "\u2581Un": 1709,
  "op": 1710,
  "\u2581address": 1711,
  "The": 1712,
  "\u2581content": 1713,
  "\u2581VASTU": 1714,
  "\u2581v\u00f5imalus": 1715,
  "tavad": 1716,
  "\u2581Ko": 1717,
  "\u2581administrative": 1718,
  "\u2581linna": 1719,
  "\u2581Estonian": 1720,
  "\u2581looking": 1721,
  "\u2581young": 1722,
  "\u2581Tead": 1723,
  "\u2581gas": 1724,
  "\u2581minimum": 1725,
  "\u2581measure": 1726,
  "\u2581kohaldatav": 1727,
  "\u2581saavad": 1728,
  "nd": 1729,
  "\u2581EL": 1730,
  "\u2581mother": 1731,
  "\u2581uus": 1732,
  "\u2581instruments": 1733,
  "\u2581Economic": 1734,
  "\u2581environmental": 1735,
  "ika": 1736,
  "\u2581higher": 1737,
  "\u2581Here": 1738,
  "men": 1739,
  "\u2581implementing": 1740,
  "\u2581u": 1741,
  "\u2581saaks": 1742,
  "\u2581approved": 1743,
  "ness": 1744,
  "\u2581vajalik": 1745,
  "\u2581sotsiaal": 1746,
  "\u2581sinna": 1747,
  "\u25811/": 1748,
  "ver": 1749,
  "\u2581uuesti": 1750,
  "\u2581cover": 1751,
  "\u2581allow": 1752,
  "\u2581Lisa": 1753,
  "\u2581hope": 1754,
  "\u2581February": 1755,
  "\u2581operation": 1756,
  "\u2581political": 1757,
  "min": 1758,
  "ary": 1759,
  "eks": 1760,
  "jad": 1761,
  "\u2581activity": 1762,
  "\u2581viis": 1763,
  "ut": 1764,
  "\u2581na": 1765,
  "\u2581needed": 1766,
  "\u2581teatavate": 1767,
  "\u2581investeerimis": 1768,
  "\u2581Ha": 1769,
  "\u2581agricultural": 1770,
  "\u2581Kingdom": 1771,
  "\u2581After": 1772,
  "\u2581saad": 1773,
  "\u2581asjaomase": 1774,
  "\u25818.": 1775,
  "ksin": 1776,
  "tri": 1777,
  "\u2581age": 1778,
  "\u2581k\u00e4igus": 1779,
  "\u2581ala": 1780,
  "\u2581Any": 1781,
  "lased": 1782,
  "\u2581EC": 1783,
  "\u2581tegelikult": 1784,
  "01": 1785,
  "ak": 1786,
  "\u2581aitab": 1787,
  "\u2581exchange": 1788,
  "\u2581Har": 1789,
  "\u2581v\u00e4hem": 1790,
  "seks": 1791,
  "\u2581olemas": 1792,
  "anna": 1793,
  "ip": 1794,
  "\u2581taotluse": 1795,
  "\u2581role": 1796,
  "\u2581surma": 1797,
  "\u2581HAS": 1798,
  "\u25812003": 1799,
  "\u2581M\u00e4\u00e4ruse": 1800,
  "\u00e4sti": 1801,
  "\u2581president": 1802,
  "\u2581Sinu": 1803,
  "\u2581s\u00f5": 1804,
  "\u2581j\u00e4\u00e4": 1805,
  "2,": 1806,
  "\u2581talking": 1807,
  "\u2581s\u00f5na": 1808,
  "\u2581ettepaneku": 1809,
  "\u2581arsti": 1810,
  "vate": 1811,
  "dest": 1812,
  "\u25819.": 1813,
  "\u2581markets": 1814,
  "@": 1815,
  "\u2581Bank": 1816,
  "\u2581room": 1817,
  "\u2581disease": 1818,
  "\u2581usu": 1819,
  "\u2581General": 1820,
  "\u2581approach": 1821,
  "\u2581pa": 1822,
  "\u2581EMP": 1823,
  "\u2581varem": 1824,
  "\u2581actions": 1825,
  "\u2581education": 1826,
  "\u2581school": 1827,
  "\u2581p\u00e4rit": 1828,
  "\u2581polnud": 1829,
  "\u2581annual": 1830,
  "my": 1831,
  "\u2581hell": 1832,
  "\u2581cm": 1833,
  "\u2581origin": 1834,
  "\u2581selline": 1835,
  "\u2581uute": 1836,
  "by": 1837,
  "\u2581move": 1838,
  "\u2581V\u00d5T": 1839,
  "\u2581arvu": 1840,
  "\u2581esimene": 1841,
  "\u2581lubatud": 1842,
  "\u2581Agency": 1843,
  "\u2581supply": 1844,
  "\u2581teel": 1845,
  "\u2581miljonit": 1846,
  "\u2581Br\u00fcssel": 1847,
  "t\u00f6\u00f6": 1848,
  "\u2581Ho": 1849,
  "\u2581private": 1850,
  "\u2581inter": 1851,
  "actually": 1852,
  "\u2581Arva": 1853,
  "\u2581Pii": 1854,
  "hu": 1855,
  "\u2581taga": 1856,
  "\u258115.": 1857,
  "\u2581upon": 1858,
  "age": 1859,
  "\u2581l\u00e4ks": 1860,
  "ndus": 1861,
  "\u2581igal": 1862,
  "\u2581riski": 1863,
  "\u2581luba": 1864,
  "\u2581funds": 1865,
  "\u25812007.": 1866,
  "\u2581j\u00e4rele": 1867,
  "\u2581document": 1868,
  "\u2581share": 1869,
  "19": 1870,
  "\u2581bodies": 1871,
  "\u2581pidi": 1872,
  "\u2581hul": 1873,
  "\u2581cross": 1874,
  "\u258112.": 1875,
  "\u2581approval": 1876,
  "\u2581issues": 1877,
  "\u2581n\u00f5uetele": 1878,
  "\u2581CN": 1879,
  "\u2581fixed": 1880,
  "\u2581administration": 1881,
  "\u2581kiiresti": 1882,
  "\u2581direktiiv": 1883,
  "\u2581large": 1884,
  "ian": 1885,
  "\u2581producers": 1886,
  "\u2581son": 1887,
  "ler": 1888,
  "\u2581Mine": 1889,
  "\u2581Because": 1890,
  "\u2581proposed": 1891,
  "\u00e9": 1892,
  "U": 1893,
  "\u2581temaga": 1894,
  "\u2581Mo": 1895,
  "\u2581Muid": 1896,
  "\u2581h\u00f5lmab": 1897,
  "com": 1898,
  "3,": 1899,
  "12": 1900,
  "\u2581someone": 1901,
  "ravi": 1902,
  "\u2581Seep\u00e4rast": 1903,
  "\u2581toidu": 1904,
  "\u2581Ver": 1905,
  "\u2581injection": 1906,
  "\u2581Po": 1907,
  "\u2581average": 1908,
  "\u2581weeks": 1909,
  "\u2581else": 1910,
  "\u2581suurem": 1911,
  "llo": 1912,
  "\u2581citizens": 1913,
  "abi": 1914,
  "term": 1915,
  "\u2581contains": 1916,
  "\u2581several": 1917,
  "\u2581strateegia": 1918,
  "\u2581pay": 1919,
  "\u2581tegevuse": 1920,
  "\u2581soon": 1921,
  "\u2581analysis": 1922,
  "\u2581amending": 1923,
  "\u2581outside": 1924,
  "\u2581fishing": 1925,
  "\u2581evidence": 1926,
  "\u2581Kar": 1927,
  "\u2581party": 1928,
  "\u2581TO": 1929,
  "\u2581regional": 1930,
  "\u2581viisil": 1931,
  "\u2581policies": 1932,
  "\u2581terve": 1933,
  "\u25812000": 1934,
  "\u2581V\u00f5ta": 1935,
  "\u2581kasutamine": 1936,
  "\u2581v\u00f5ime": 1937,
  "\u2581performance": 1938,
  "\u2581getting": 1939,
  "\u2581authorisation": 1940,
  "1,": 1941,
  "ang": 1942,
  "\u2581mine": 1943,
  "\u2581t\u00e4helepanu": 1944,
  "\u2581\u00f5nne": 1945,
  "dy": 1946,
  "\u2581tootja": 1947,
  "\u2581ADOPT": 1948,
  "9": 1949,
  "\u2581v\u00f5ttis": 1950,
  "\u2581E\u00dcT": 1951,
  "5/": 1952,
  "\u2581yourself": 1953,
  "\u2581longer": 1954,
  "\u2581Ju": 1955,
  "\u2581operations": 1956,
  "\u2581benefit": 1957,
  "\u2581\u00fcld": 1958,
  "\u2581went": 1959,
  "Z": 1960,
  "\u2581act": 1961,
  "\u2581otse": 1962,
  "\u2581subparagraph": 1963,
  "\u2581nature": 1964,
  "\u2581siit": 1965,
  "\u2581\u00f5ige": 1966,
  "\u2581society": 1967,
  "\u2581among": 1968,
  "\u2581groups": 1969,
  "\u2581published": 1970,
  "\u2581helista": 1971,
  "\u2581materials": 1972,
  "\u2581maja": 1973,
  "\u2581investigation": 1974,
  "\u2581range": 1975,
  "\u2581trying": 1976,
  "\u2581assistance": 1977,
  "\u2581umbes": 1978,
  "\u2581loetletud": 1979,
  "\u2581Sina": 1980,
  "\u2581Bo": 1981,
  "\u2581major": 1982,
  "\u2581involved": 1983,
  "ugi": 1984,
  "eeritud": 1985,
  "\u2581idea": 1986,
  "du": 1987,
  "\u2581issued": 1988,
  "11": 1989,
  "tava": 1990,
  "\u25812006.": 1991,
  "\u2581vajalikud": 1992,
  "\u258132": 1993,
  "\u2581saw": 1994,
  "\u2581k\u00e4sitleva": 1995,
  "\u2581summa": 1996,
  "ksime": 1997,
  "\u2581limited": 1998,
  "\u2581j\u00f5ustub": 1999,
  "\u2581child": 2000,
  "\u2581face": 2001,
  "\u2581Y": 2002,
  "\u2581however": 2003,
  "\u2581leida": 2004,
  "\u2581direct": 2005,
  "\u2581Se": 2006,
  "\u2581K\u00c4ESOLEVA": 2007,
  "\u2581Tee": 2008,
  "\u2581da": 2009,
  "nda": 2010,
  "\u2581suure": 2011,
  "\u2581m\u00e4\u00e4ratletud": 2012,
  "bo": 2013,
  "\u2581remember": 2014,
  "\u2581try": 2015,
  "+": 2016,
  "\u2581reason": 2017,
  "\u2581met": 2018,
  "\u2581v\u00f5etakse": 2019,
  "\u2581publication": 2020,
  "yl": 2021,
  "\u2581taas": 2022,
  "\u2581others": 2023,
  "\u2581true": 2024,
  "\u2581tegemist": 2025,
  "\u00dc": 2026,
  "\u258111.": 2027,
  "\u2581kasutamist": 2028,
  "\u2581documents": 2029,
  "\u2581j\u00e4rel": 2030,
  "\u2581post": 2031,
  "ling": 2032,
  "\u2581asutus": 2033,
  "\u25812008.": 2034,
  "\u2581progress": 2035,
  "\u2581contact": 2036,
  "\u258131.": 2037,
  "pp": 2038,
  "\u2581Pre": 2039,
  "\u25811,": 2040,
  "\u2581info": 2041,
  "\u2581V\u00f5ib": 2042,
  "\u25812009.": 2043,
  "\u258136": 2044,
  "50": 2045,
  "lisi": 2046,
  "\u2581death": 2047,
  "ley": 2048,
  "\u2581teen": 2049,
  "\u258135": 2050,
  "\u2581Va": 2051,
  "\u2581organisations": 2052,
  "lin": 2053,
  "aegu": 2054,
  "\u2581paid": 2055,
  "\u2581soovi": 2056,
  "\u2581El": 2057,
  "\u2581equal": 2058,
  "mplementing": 2059,
  "\u2581says": 2060,
  "\u2581greater": 2061,
  "\u2581200": 2062,
  "\u2581employment": 2063,
  "\u2581event": 2064,
  "\u2581wait": 2065,
  "\u2581video": 2066,
  "tsi": 2067,
  "\u2581half": 2068,
  "\u2581juhtus": 2069,
  "\u2581duty": 2070,
  "ei": 2071,
  "\u2581sub": 2072,
  "\u2581France": 2073,
  "\u2581ko": 2074,
  "\u2581friend": 2075,
  "25": 2076,
  "\u2581teadus": 2077,
  "\u2581#": 2078,
  "\u2581boy": 2079,
  "\u2581Con": 2080,
  "\u2581saame": 2081,
  "\u2581m\u00e4\u00e4ruses": 2082,
  "\u2581alone": 2083,
  "\u2581katse": 2084,
  "\u2581waste": 2085,
  "\u2581Sest": 2086,
  "\u258133": 2087,
  "\u2581vehicles": 2088,
  "\u2581keda": 2089,
  "ance": 2090,
  "\u2581provision": 2091,
  "\u25812005.": 2092,
  "\u00fc": 2093,
  "ala": 2094,
  "\u2581Hiina": 2095,
  "\u2581ye": 2096,
  "\u2581Nende": 2097,
  "\u2581organisation": 2098,
  "\u2581substances": 2099,
  "\u2581tingimused": 2100,
  "\u2581regarding": 2101,
  "\u2581jah": 2102,
  "lan": 2103,
  "\u2581s\u00f6\u00f6": 2104,
  "\u2581minutes": 2105,
  "\u2581principles": 2106,
  "ski": 2107,
  "\u2581korra": 2108,
  "\u2581millele": 2109,
  "\u2581Group": 2110,
  "15": 2111,
  "\u2581Selleks": 2112,
  "\u2581mil": 2113,
  "\u2581deal": 2114,
  "\u2581principle": 2115,
  "\u2581ime": 2116,
  "ena": 2117,
  "\u2581heard": 2118,
  "\u2581short": 2119,
  "\u2581hoida": 2120,
  "2/": 2121,
  "\u2581held": 2122,
  "\u2581n\u00e4dala": 2123,
  "\u2581En": 2124,
  "\u2581ennast": 2125,
  "\u2581vara": 2126,
  "\u2581n\u00e4inud": 2127,
  "\u2581j\u00e4\u00e4b": 2128,
  "eu": 2129,
  "\u2581lead": 2130,
  "\u2581Right": 2131,
  "\u2581contract": 2132,
  "\u2581Authority": 2133,
  "\u2581mai": 2134,
  "\u2581associated": 2135,
  "\u2581mingi": 2136,
  "\u2581Ba": 2137,
  "\u25812002": 2138,
  "\u2581mitme": 2139,
  "\u2581m\u00f5ne": 2140,
  "\u2581endale": 2141,
  "\u2581olin": 2142,
  "\u2581nime": 2143,
  "\u2581read": 2144,
  "\u2581eraldi": 2145,
  "\u2581run": 2146,
  "\u2581minuga": 2147,
  "\u2581recommended": 2148,
  "05": 2149,
  "\u2581compliance": 2150,
  "\u2581sent": 2151,
  "\u2581t\u00e4is": 2152,
  "ting": 2153,
  "\u2581office": 2154,
  "set": 2155,
  "\u2581parts": 2156,
  "\u2581makes": 2157,
  "\u2581p\u00e4ev": 2158,
  "\u2581improve": 2159,
  "\u2581selge": 2160,
  "iv": 2161,
  "\u2581substance": 2162,
  "stus": 2163,
  "jate": 2164,
  "\u2581member": 2165,
  "\u2581obligations": 2166,
  "\u2581context": 2167,
  "\u258145": 2168,
  "\u2581viia": 2169,
  "\u2581normal": 2170,
  "\u2581assets": 2171,
  "\u2581Part": 2172,
  "\u258116.": 2173,
  "\u2581particularly": 2174,
  "\u2581expenditure": 2175,
  "DE": 2176,
  "\u2581USA": 2177,
  "\u2581various": 2178,
  "\u2581LISA": 2179,
  "\u2581knowledge": 2180,
  "\u2581juhataja": 2181,
  "\u2581government": 2182,
  "ani": 2183,
  "\u2581juuli": 2184,
  "maa": 2185,
  "\u258134": 2186,
  "for": 2187,
  "\u2581Ri": 2188,
  "it\u00e4h": 2189,
  "\u2581objective": 2190,
  "ES": 2191,
  "\u2581civil": 2192,
  "\u2581treated": 2193,
  "\u2581Seal": 2194,
  "\u2581adopt": 2195,
  "\u2581j\u00e4rgmised": 2196,
  "like": 2197,
  "\u2581text": 2198,
  "\u2581binding": 2199,
  "ini": 2200,
  "\u2581st": 2201,
  "\u2581week": 2202,
  "\u2581Done": 2203,
  "\u2581k\u00e4tte": 2204,
  "\u2581samal": 2205,
  "\u2581territory": 2206,
  "\u2581h\u00e4rra": 2207,
  "\u2581IN": 2208,
  "\u2581clinical": 2209,
  "\u2581silmas": 2210,
  "\u25811).": 2211,
  "\u2581Section": 2212,
  "tan": 2213,
  "\u2581detailed": 2214,
  "\u2581decisions": 2215,
  "\u2581six": 2216,
  "\u2581Pe": 2217,
  "\u2581pressure": 2218,
  "\u2581v\u00f5rra": 2219,
  "\u2581crisis": 2220,
  "\u2581Tah": 2221,
  "90": 2222,
  "14": 2223,
  "\u2581projekti": 2224,
  "\u2581suu": 2225,
  "\u2581reduce": 2226,
  "\u2581kava": 2227,
  "\u2581rakendamise": 2228,
  "\u2581transpordi": 2229,
  "\u2581network": 2230,
  "\u2581contribution": 2231,
  "\u2581designed": 2232,
  "\u2581hiljem": 2233,
  "\u2581l\u00f5iget": 2234,
  "\u2581kuhu": 2235,
  "\u2581samas": 2236,
  "\u2581proovi": 2237,
  "X": 2238,
  "\u2581v\u00f5rreldes": 2239,
  "\u2581v\u00f5imaldab": 2240,
  "\u2581CO": 2241,
  "\u2581Social": 2242,
  "\u2581Germany": 2243,
  "\u258113.": 2244,
  "6/": 2245,
  "\u2581puu": 2246,
  "\u2581ehk": 2247,
  "\u2581Therefore": 2248,
  "\u2581liikmesriik": 2249,
  "\u2581j\u00e4rgmine": 2250,
  "\u2581limit": 2251,
  "\u2581\u00f5igusaktide": 2252,
  "\u2581luua": 2253,
  "\u2581strategy": 2254,
  "\u2581words": 2255,
  "\u2581OK": 2256,
  "\u2581300": 2257,
  "\u2581y": 2258,
  "\u2581al": 2259,
  "\u2581keeles": 2260,
  "\u2581v\u00e4hendada": 2261,
  "\u00f6\u00f6": 2262,
  "osa": 2263,
  "\u2581par": 2264,
  "sus": 2265,
  "\u2581juurdep\u00e4\u00e4su": 2266,
  "\u2581VI": 2267,
  "\u2581term": 2268,
  "\u2581m\u00e4ngu": 2269,
  "\u2581saavutada": 2270,
  "\u25812004.": 2271,
  "\u2581turn": 2272,
  "\u2581laste": 2273,
  "\u2581kodu": 2274,
  "\u2581otsi": 2275,
  "\u2581k\u00e4sitleb": 2276,
  "/2006": 2277,
  "vis": 2278,
  "\u2581Jeesus": 2279,
  "\u2581response": 2280,
  "selt": 2281,
  "mus": 2282,
  "\u2581Man": 2283,
  "\u2581reduction": 2284,
  "toodete": 2285,
  "vat": 2286,
  "\u2581tooted": 2287,
  "\u2581International": 2288,
  "\u2581Ah": 2289,
  "\u2581authorised": 2290,
  "LE": 2291,
  "\u2581woman": 2292,
  "body": 2293,
  "kava": 2294,
  "\u2581Teatajas": 2295,
  "\u2581daily": 2296,
  "\u2581sisu": 2297,
  "\u2581scheme": 2298,
  "\u2581Paul": 2299,
  "\u2581customs": 2300,
  "\u2581check": 2301,
  "do": 2302,
  "\u2581ready": 2303,
  "\u2581surnud": 2304,
  "\u2581s\u00f5bra": 2305,
  "\u2581determined": 2306,
  "\u2581si": 2307,
  "\u2581vahe": 2308,
  "ca": 2309,
  "\u2581vastab": 2310,
  "mp": 2311,
  "\u2581acid": 2312,
  "\u2581Hu": 2313,
  "\u2581agreements": 2314,
  "\u258114.": 2315,
  "\u2581Date": 2316,
  "\u2581economy": 2317,
  "ima": 2318,
  "ig": 2319,
  "\u2581au": 2320,
  "\u2581staff": 2321,
  "\u2581size": 2322,
  "\u2581j\u00e4rgmisega": 2323,
  "\u2581koju": 2324,
  "ngu": 2325,
  "\u2581kuud": 2326,
  "\u2581maksa": 2327,
  "\")": 2328,
  "\u2581medicinal": 2329,
  "\u2581Tu": 2330,
  "\u2581land": 2331,
  "\u2581fully": 2332,
  "val": 2333,
  "\u2581t\u00f6\u00f6tajate": 2334,
  "\u2581N\u00e4": 2335,
  "\u2581v\u00f5tma": 2336,
  "\u2581tablets": 2337,
  "\u2581tehakse": 2338,
  "ised": 2339,
  "\u2581Take": 2340,
  "mat": 2341,
  "\u2581ECB": 2342,
  "\u2581sugar": 2343,
  "\u2581laeva": 2344,
  "\u2581andmeid": 2345,
  "\u2581consumption": 2346,
  "\u2581towards": 2347,
  "\u2581j\u00e4rgmiselt": 2348,
  "\u2581page": 2349,
  "\u2581COMMISSION": 2350,
  "\u2581elektri": 2351,
  "ven": 2352,
  "\u2581kuuluvad": 2353,
  "\u2581v\u00e4lis": 2354,
  "\u2581laying": 2355,
  "\u2581asjaomaste": 2356,
  "\u2581species": 2357,
  "\u2581Joint": 2358,
  "pea": 2359,
  "ING": 2360,
  "\u2581Chapter": 2361,
  "\u2581[3]": 2362,
  "\u2581Head": 2363,
  "40": 2364,
  "\u25812010.": 2365,
  "teenuste": 2366,
  "\u2581viga": 2367,
  "\u2581nice": 2368,
  "\u2581table": 2369,
  "ris": 2370,
  "\u2581(5)": 2371,
  "ner": 2372,
  "ama": 2373,
  "\u2581reasons": 2374,
  "\u2581$": 2375,
  "\u2581rest": 2376,
  "\u2581Sp": 2377,
  "\u2581Isa": 2378,
  "\u2581teatud": 2379,
  "\u25812013.": 2380,
  "\u2581eel": 2381,
  "\u2581seet\u00f5ttu": 2382,
  "\u2581essential": 2383,
  "\u2581suurendada": 2384,
  "ps": 2385,
  "24": 2386,
  "\u2581L\u00f5peta": 2387,
  "\u2581liikmesriigis": 2388,
  "9/": 2389,
  "\u2581ANNEX": 2390,
  "we": 2391,
  "Ma": 2392,
  "\u2581Oota": 2393,
  "ism": 2394,
  "\u2581method": 2395,
  "\u2581works": 2396,
  "\u2581gott": 2397,
  "\u2581saying": 2398,
  "ake": 2399,
  "\u2581Wait": 2400,
  "\u2581elus": 2401,
  "ade": 2402,
  "las": 2403,
  "\u258148": 2404,
  "\u2581game": 2405,
  "\u25812011.": 2406,
  "\u2581k\u00f5ikides": 2407,
  "\u2581teised": 2408,
  "\u2581applications": 2409,
  "\u2581marketing": 2410,
  "\u2581forward": 2411,
  "\u2581EKP": 2412,
  "\u2581<": 2413,
  "aat": 2414,
  "\u2581Oli": 2415,
  "\u2581\u00fctle": 2416,
  "\u258100": 2417,
  "\u2581arrangements": 2418,
  "\u2581kirjeldatud": 2419,
  "\u2581external": 2420,
  "2004": 2421,
  "\u2581lapse": 2422,
  "\u2581scope": 2423,
  "\u2581baby": 2424,
  "\u2581especially": 2425,
  "\u2581kooli": 2426,
  "16": 2427,
  "\u2581knew": 2428,
  "\u2581rahvusvahelise": 2429,
  "\u2581design": 2430,
  "\u2581sektori": 2431,
  "\u2581tor": 2432,
  "\u2581tulla": 2433,
  "\u258175": 2434,
  "\u2581sales": 2435,
  "\u2581month": 2436,
  "\u2581naine": 2437,
  "\u2581alles": 2438,
  "\u2581kaubandus": 2439,
  "\u2581kuradi": 2440,
  "\u2581often": 2441,
  "\u2581vahetult": 2442,
  "\u2581antakse": 2443,
  "\u2581methods": 2444,
  "\u2581keel": 2445,
  "all": 2446,
  "\u2581L\u00e4h": 2447,
  "\u2581sise": 2448,
  "\u2581produced": 2449,
  "\u2581hakka": 2450,
  "ses": 2451,
  "\u2581lost": 2452,
  "\u2581Saksamaa": 2453,
  "\u2581isikute": 2454,
  "\u2581Christ": 2455,
  "\u2581building": 2456,
  "\u2581pere": 2457,
  "\u2581oil": 2458,
  "\u2581sea": 2459,
  "\u2581Ne": 2460,
  "our": 2461,
  "03": 2462,
  "\u2581risks": 2463,
  "\u2581lase": 2464,
  "\u2581processing": 2465,
  "\u2581transfer": 2466,
  "\u2581patsientide": 2467,
  "\u2581Sam": 2468,
  "ili": 2469,
  "13": 2470,
  "bli": 2471,
  "\u2581across": 2472,
  "SE": 2473,
  "\u2581Kohtu": 2474,
  "umi": 2475,
  "02": 2476,
  "tada": 2477,
  "\u2581l\u00f5ikele": 2478,
  "\u2581communication": 2479,
  "\u2581maksu": 2480,
  "\u2581tervikuna": 2481,
  "\u2581\u00b0": 2482,
  "\u2581expected": 2483,
  "\u2581guarantee": 2484,
  "\u2581toetuse": 2485,
  "\u2581kulude": 2486,
  "ot": 2487,
  "\u2581Christian": 2488,
  "atsiooni": 2489,
  "\u2581global": 2490,
  "\u2581prior": 2491,
  "\u2581kehtestada": 2492,
  "rid": 2493,
  "mad": 2494,
  "\u2581\u00fcrita": 2495,
  "\u2581St": 2496,
  "\u2581cut": 2497,
  "17": 2498,
  "\u2581Per": 2499,
  "end": 2500,
  "\u2581kolmandate": 2501,
  "misel": 2502,
  "\u25812012.": 2503,
  "\u2581return": 2504,
  "\u2581Tri": 2505,
  "\u2581paremini": 2506,
  "\u258170": 2507,
  "\u2581eespool": 2508,
  "\u2581kaua": 2509,
  "\u2581wish": 2510,
  "\u2581comply": 2511,
  "\u2581oota": 2512,
  "\u2581August": 2513,
  "\u2581combination": 2514,
  "04": 2515,
  "ens": 2516,
  "\u2581s\u00fcste": 2517,
  "\u2581koht": 2518,
  "\u2581carry": 2519,
  "\u2581p\u00e4ris": 2520,
  "tty": 2521,
  "\u2581require": 2522,
  "\u2581Ameerika": 2523,
  "\u2581overall": 2524,
  "vo": 2525,
  "\u2581mingit": 2526,
  "\u2581immediately": 2527,
  "likud": 2528,
  "\u2581providing": 2529,
  "\u2581meaning": 2530,
  "\u2581lisatakse": 2531,
  "\u2581lower": 2532,
  "IT": 2533,
  "\u2581isiku": 2534,
  "\u2581reports": 2535,
  "tra": 2536,
  "\u2581indicated": 2537,
  "tse": 2538,
  "\u2581Fund": 2539,
  "\u2581haldus": 2540,
  "\u2581Enne": 2541,
  "\u2581km": 2542,
  "\u2581k\u00f5nealuste": 2543,
  "su": 2544,
  "\u2581sellist": 2545,
  "\u2581pain": 2546,
  "ron": 2547,
  "\u2581safe": 2548,
  "\u2581viimati": 2549,
  "\u2581compared": 2550,
  "\u2581\u00fctleb": 2551,
  "0": 2552,
  "\u2581500": 2553,
  "\u2581inimese": 2554,
  "\u2581millel": 2555,
  "\u266a": 2556,
  "\u2581plant": 2557,
  "\u2581\u00fcldse": 2558,
  "\u2581eba": 2559,
  "\u2581hulgas": 2560,
  "\u2581whose": 2561,
  "\u2581kaupade": 2562,
  "\u2581sustainable": 2563,
  "18": 2564,
  "\u2581practice": 2565,
  "\u2581Mulle": 2566,
  "\u2581ettev\u00f5tja": 2567,
  "ix": 2568,
  "\u258117.": 2569,
  "\u2581mass": 2570,
  "ning": 2571,
  "\u2581word": 2572,
  "4,": 2573,
  "\u2581relation": 2574,
  "\u2581po": 2575,
  "land": 2576,
  "\u2581Ben": 2577,
  "\u2581bit": 2578,
  "\u2581esitab": 2579,
  "\u2581teist": 2580,
  "\u2581dis": 2581,
  "\u2581friends": 2582,
  "\u2581tehnoloogia": 2583,
  "\u2581thus": 2584,
  "\u2581Have": 2585,
  "\u2581asked": 2586,
  "\u2581artiklit": 2587,
  "\u2581Vabariigi": 2588,
  "\u2581arvates": 2589,
  "\u2581rates": 2590,
  "\u2581function": 2591,
  "\u2581prevent": 2592,
  "\u2581k\u00f5ikide": 2593,
  "\u2581wife": 2594,
  "\u2581kulud": 2595,
  "ok": 2596,
  "\u2581regulatory": 2597,
  "\u2581cause": 2598,
  "\u2581killed": 2599,
  "ard": 2600,
  "\u2581inimesi": 2601,
  "\u2581esitatakse": 2602,
  "\u2581shown": 2603,
  "\u2581gave": 2604,
  "\u2581Common": 2605,
  "\u2581en": 2606,
  "\u2581duties": 2607,
  "\u2581decided": 2608,
  "\u2581leia": 2609,
  "\u258138": 2610,
  "\u2581kehtetuks": 2611,
  "\u2581inform": 2612,
  "aalne": 2613,
  "\u2581benefits": 2614,
  "\u2581m\u00e4\u00e4ratakse": 2615,
  "\u2581fight": 2616,
  "\u2581Bar": 2617,
  "\u2581kasuta": 2618,
  "kord": 2619,
  "p\u00e4ev": 2620,
  "tab": 2621,
  "hose": 2622,
  "\u2581tahab": 2623,
  "\u2581pi": 2624,
  "\u2581kasutamiseks": 2625,
  "\u2581(1": 2626,
  "kirja": 2627,
  "\u2581official": 2628,
  "\u2581insurance": 2629,
  "\u2581protect": 2630,
  "\u2581ra": 2631,
  "\u2581viimase": 2632,
  "\u2581follow": 2633,
  "\u2581j\u00e4rgmise": 2634,
  "\u2581juhtudel": 2635,
  "\u2581Tal": 2636,
  "\u2581Sea": 2637,
  "\u2581described": 2638,
  "\u2581road": 2639,
  "\u2581s\u00fcdame": 2640,
  "\u2581past": 2641,
  "\u258139": 2642,
  "=": 2643,
  "ep": 2644,
  "ent": 2645,
  "\u2581valu": 2646,
  "ts": 2647,
  "\u2581asutuste": 2648,
  "99": 2649,
  "\u2581asutused": 2650,
  "\u2581die": 2651,
  "\u2581Val": 2652,
  "\u258121.": 2653,
  "\u2581sp": 2654,
  "\u2581Central": 2655,
  "\u2581reduced": 2656,
  "\u2581workers": 2657,
  "fer": 2658,
  "oon": 2659,
  "\u2581morning": 2660,
  "\u2581events": 2661,
  "\u2581Our": 2662,
  "\u2581develop": 2663,
  "\u2581Protocol": 2664,
  "\u2581lepingut": 2665,
  "\u2581loss": 2666,
  "\u2581k\u00e4sitlevate": 2667,
  "\u2581obtained": 2668,
  "\u2581andnud": 2669,
  "\u2581parandada": 2670,
  "\u2581Act": 2671,
  "\u2581site": 2672,
  "\u2581book": 2673,
  "\u2581financing": 2674,
  "\u2581establish": 2675,
  "\u2581\u00fctlesin": 2676,
  "\u2581teema": 2677,
  "-2": 2678,
  "ors": 2679,
  "\u2581kindlasti": 2680,
  "\u2581andis": 2681,
  "\u2581brought": 2682,
  "\u2581\u00c4rge": 2683,
  "\u2581liige": 2684,
  "\u2581v\u00f5imaluse": 2685,
  "\u2581ettev\u00f5tete": 2686,
  "\u2581positive": 2687,
  "\u2581vahendite": 2688,
  "\u2581undertakings": 2689,
  "\u2581regulation": 2690,
  "\u2581tundi": 2691,
  "\u2581detsembri": 2692,
  "\u2581inim": 2693,
  "\u2581t\u00e4nu": 2694,
  "side": 2695,
  "uri": 2696,
  "\u2581Majandus": 2697,
  "ame": 2698,
  "\u2581p\u00f5": 2699,
  "\u2581offer": 2700,
  "fi": 2701,
  "\u2581\u00f5htu": 2702,
  "\u2581certificate": 2703,
  "\u2581hold": 2704,
  "\u2581milk": 2705,
  "\u2581skin": 2706,
  "\u2581language": 2707,
  "\u2581institution": 2708,
  "\u2581phone": 2709,
  "\u2581undertaking": 2710,
  "\u258143": 2711,
  "3/": 2712,
  "\u2581Ok": 2713,
  "\u2581living": 2714,
  "\u2581t\u00e4htis": 2715,
  "\u2581volume": 2716,
  "\u258122.": 2717,
  "):": 2718,
  "\u2581partner": 2719,
  "\u2581vasta": 2720,
  "\u2581therapy": 2721,
  "aal": 2722,
  "kg": 2723,
  "\u2581endast": 2724,
  "\u2581regions": 2725,
  "\u2581Uh": 2726,
  "\u2581keha": 2727,
  "\u2581questions": 2728,
  "\u2581strong": 2729,
  "\u2581exposure": 2730,
  "ny": 2731,
  "80": 2732,
  "\u2581region": 2733,
  "\u2581nendega": 2734,
  "matu": 2735,
  "\u2581KOMISJON": 2736,
  "\u2581operating": 2737,
  "\u2581central": 2738,
  "\u2581kasvu": 2739,
  "\u2581evaluation": 2740,
  "\u2581Tar": 2741,
  "\u2581oleksid": 2742,
  "\u2581electronic": 2743,
  "\u2581Jo": 2744,
  "\u2581kiire": 2745,
  "ker": 2746,
  "edaspidi": 2747,
  "\u2581Development": 2748,
  "eli": 2749,
  "*": 2750,
  "\u2581interests": 2751,
  "\u2581Convention": 2752,
  "\u2581thank": 2753,
  "\u2581lennu": 2754,
  "\u2581behalf": 2755,
  "ous": 2756,
  "ag": 2757,
  "\u2581kvaliteedi": 2758,
  "\u258130.": 2759,
  "\u2581lisaks": 2760,
  "\u2581complete": 2761,
  "\u2581identified": 2762,
  "Euroopa": 2763,
  "day": 2764,
  "\u2581muid": 2765,
  "\u2581remain": 2766,
  "\u2581guess": 2767,
  "\u2581du": 2768,
  "\u2581kuup\u00e4ev": 2769,
  "\u2581Total": 2770,
  "\u2581Ga": 2771,
  "\u2581payments": 2772,
  "\u2581From": 2773,
  "\u2581types": 2774,
  "\u2581vastavad": 2775,
  "\u2581observed": 2776,
  "\u2581Itaalia": 2777,
  "\u2581asjakohane": 2778,
  "\u2581attention": 2779,
  "\u2581unit": 2780,
  "suse": 2781,
  "gra": 2782,
  "\u2581kasutatud": 2783,
  "\u2581late": 2784,
  "\u2581hinnata": 2785,
  "ec": 2786,
  "\u2581Peter": 2787,
  "\u2581early": 2788,
  "\u2581acts": 2789,
  "\u2581Sel": 2790,
  "\u2581\u00f5iguse": 2791,
  "\u2581150": 2792,
  "\u25812014.": 2793,
  "\u2581isik": 2794,
  "\u00e4r": 2795,
  "\u2581airport": 2796,
  "\u2581asju": 2797,
  "\u2581Kura": 2798,
  "\u2581sound": 2799,
  "\u2581pidada": 2800,
  "\u2581kuule": 2801,
  "\u2581Otsi": 2802,
  "\u2581comes": 2803,
  "statud": 2804,
  "\u2581rahvusvaheliste": 2805,
  "\u2581door": 2806,
  "\u2581operators": 2807,
  "if": 2808,
  "\u2581applicant": 2809,
  "\u2581brother": 2810,
  "\u2581anal\u00fc\u00fcsi": 2811,
  "\u2581k\u00f5igile": 2812,
  "\u2581muidu": 2813,
  "\u2581San": 2814,
  "\u2581concluded": 2815,
  "\u2581kolmanda": 2816,
  "\u2581Programme": 2817,
  "\u2581muretse": 2818,
  "\u2581reporting": 2819,
  "net": 2820,
  "\u2581emissions": 2821,
  "\u2581establishment": 2822,
  "ndi": 2823,
  "\u2581E\u00dc": 2824,
  "tor": 2825,
  "\u2581poiss": 2826,
  "\u2581pen": 2827,
  "nn": 2828,
  "\u2581avoid": 2829,
  "\u2581funding": 2830,
  "\u2581\u00fchtse": 2831,
  "ure": 2832,
  "\u2581Since": 2833,
  "\u258187": 2834,
  "\u2581responsibility": 2835,
  "\u2581suunatud": 2836,
  "\u2581started": 2837,
  "\u2581turul": 2838,
  "\u2581previous": 2839,
  "\u2581Will": 2840,
  "\u2581Kuigi": 2841,
  "\u2581vessels": 2842,
  "\u2581maailmas": 2843,
  "\u2581His": 2844,
  "\u2581achieve": 2845,
  "\u2581tervise": 2846,
  "\u2581equivalent": 2847,
  "orry": 2848,
  "ves": 2849,
  "\u2581keskmise": 2850,
  "\u2581se": 2851,
  "\u2581natuke": 2852,
  "\u2581sit": 2853,
  "\u2581AS": 2854,
  "\u2581loetelu": 2855,
  "\u2581v\u00e4\u00e4rtus": 2856,
  "van": 2857,
  "\u2581plasma": 2858,
  "\u258118.": 2859,
  "sk": 2860,
  "ung": 2861,
  "ID": 2862,
  "ino": 2863,
  "\u2581Table": 2864,
  "mer": 2865,
  "\u2581takes": 2866,
  "\u2581amendments": 2867,
  "\u2581annuse": 2868,
  "PA": 2869,
  "\u2581circumstances": 2870,
  "\u2581otsusega": 2871,
  "\u2581teisi": 2872,
  "\u2581T\u00f6\u00f6": 2873,
  "tic": 2874,
  "iini": 2875,
  "\u2581tekst": 2876,
  "\u2581eeskirjade": 2877,
  "\u2581medicine": 2878,
  "time": 2879,
  "\u2581consider": 2880,
  "\u2581tegid": 2881,
  "\u2581though": 2882,
  "\u2581pidanud": 2883,
  "\u258137": 2884,
  "\u2581accounts": 2885,
  "ool": 2886,
  "je": 2887,
  "\u2581peal": 2888,
  "70": 2889,
  "tro": 2890,
  "her": 2891,
  "\u2581mentioned": 2892,
  "\u2581j\u00e4lle": 2893,
  "ida": 2894,
  "\u2581white": 2895,
  "\u2581medical": 2896,
  "site": 2897,
  "\u2581t\u00e4iesti": 2898,
  "\u2581FOR": 2899,
  "\u2581REGULATION": 2900,
  "\u2581l\u00f5puks": 2901,
  "tatud": 2902,
  "\u2581adoption": 2903,
  "5,": 2904,
  "\u2581n\u00f5uded": 2905,
  "................": 2906,
  "\u2581tavaliselt": 2907,
  "\u2581vale": 2908,
  "\u2581reisi": 2909,
  "v\u00e4lja": 2910,
  "\u2581contracts": 2911,
  "\u2581eesm\u00e4rkide": 2912,
  "\u2581English": 2913,
  "n\u00f5ukogu": 2914,
  "om": 2915,
  "\u2581li": 2916,
  "its": 2917,
  "\u2581Her": 2918,
  "\u2581hindamise": 2919,
  "\u2581gone": 2920,
  "tust": 2921,
  "\u2581eeskirjad": 2922,
  "\u2581asutuse": 2923,
  "\u2581commercial": 2924,
  "\u2581Board": 2925,
  "\u2581arutelu": 2926,
  "ack": 2927,
  "go": 2928,
  "ap": 2929,
  "\u2581More": 2930,
  "\u2581agreed": 2931,
  "\u2581piirkonna": 2932,
  "\u2581m\u00e4ngi": 2933,
  "\u2581julgeoleku": 2934,
  "\u2581wants": 2935,
  "\u258150%": 2936,
  "\u2581r\u00e4\u00e4kis": 2937,
  "\u2581m\u00e4\u00e4ral": 2938,
  "\u2581technology": 2939,
  "\u2581kohaldada": 2940,
  "\u2581status": 2941,
  "\u2581Keeg": 2942,
  "-1": 2943,
  "\u2581elements": 2944,
  "gen": 2945,
  "\u2581ro": 2946,
  "\u2581pe": 2947,
  "\u2581siduv": 2948,
  "\u2581city": 2949,
  "\u2581developed": 2950,
  "ci": 2951,
  "\u2581fire": 2952,
  "\u2581kauba": 2953,
  "ari": 2954,
  "\u2581balance": 2955,
  "\u2581ekspordi": 2956,
  "aar": 2957,
  "\u2581infrastructure": 2958,
  "\u2581s\u00f5iduki": 2959,
  "\u2581labour": 2960,
  "\u2581k\u00f5ike": 2961,
  "\u2581IT": 2962,
  "\u2581asemel": 2963,
  "\u2581leiab": 2964,
  "so": 2965,
  "kond": 2966,
  "uk": 2967,
  "\u2581Euro": 2968,
  "\u2581Gu": 2969,
  "\u2581Home": 2970,
  "\u2581avatud": 2971,
  "\u2581inside": 2972,
  "tavate": 2973,
  "\u2581importance": 2974,
  "\u2581bank": 2975,
  "\u2581Like": 2976,
  "\u2581amounts": 2977,
  "\u2581ellu": 2978,
  "\u2581aastaks": 2979,
  "kki": 2980,
  "\u2581National": 2981,
  "\u2581representative": 2982,
  "\u2581saama": 2983,
  "\u2581sufficient": 2984,
  "\u2581Tell": 2985,
  "\u2581riiklike": 2986,
  "\u2581instrument": 2987,
  "\u258120.": 2988,
  "\u258119.": 2989,
  "\u2581promote": 2990,
  "09": 2991,
  "\u2581tasu": 2992,
  "\u2581unusta": 2993,
  "sel": 2994,
  "\u2581sees": 2995,
  "\u2581taseme": 2996,
  "aadi": 2997,
  "\u2581class": 2998,
  "\u2581tunni": 2999,
  "\u2581Muud": 3000,
  "IN": 3001,
  "laste": 3002,
  "\u2581Special": 3003,
  "\u2581Ke": 3004,
  "\u2581Real": 3005,
  "\u2581artikkel": 3006,
  "ill": 3007,
  "23": 3008,
  "TE": 3009,
  "\u2581moment": 3010,
  "\u2581n\u00e4itab": 3011,
  "\u2581fruit": 3012,
  "\u2581French": 3013,
  "\u2581step": 3014,
  "\u2581artiklile": 3015,
  "av": 3016,
  "way": 3017,
  "\u2581hinna": 3018,
  "lor": 3019,
  "\u2581almost": 3020,
  "\u2581myself": 3021,
  "\u2581easy": 3022,
  "\u2581thinking": 3023,
  "\u2581population": 3024,
  "\u2581anyone": 3025,
  "mail": 3026,
  "RO": 3027,
  "\u2581ha": 3028,
  "\u2581Information": 3029,
  "ee": 3030,
  "6,": 3031,
  "\u2581toetus": 3032,
  "\u2581fish": 3033,
  "\u2581lo": 3034,
  "\u2581sellel": 3035,
  "\u2581esindaja": 3036,
  "der": 3037,
  "\u2581t\u00f6\u00f6h\u00f5ive": 3038,
  "\u258184": 3039,
  "\u258144": 3040,
  "\u2581kirja": 3041,
  "\u2581kultuuri": 3042,
  "con": 3043,
  "\u2581kon": 3044,
  "\u2581l\u00f5peta": 3045,
  "\u2581j\u00e4i": 3046,
  "\u2581vaadata": 3047,
  "II": 3048,
  "\u2581itself": 3049,
  "\u2581First": 3050,
  "EN": 3051,
  "\u2581rather": 3052,
  "\u2581innovation": 3053,
  "\u2581along": 3054,
  "\u2581eyes": 3055,
  "\u2581huvi": 3056,
  "\u2581t\u00e4pselt": 3057,
  "\u2581Financial": 3058,
  "\u2581original": 3059,
  "\u2581Las": 3060,
  "\u2581unless": 3061,
  "\u2581create": 3062,
  "\u2581uusi": 3063,
  "\u2581j\u00e4tta": 3064,
  "\u2581joint": 3065,
  "\u2581kuigi": 3066,
  "\u2581>": 3067,
  "\u2581Kogu": 3068,
  "\u2581Lase": 3069,
  "\u2581\u03bc": 3070,
  "\u2581[1],": 3071,
  "ren": 3072,
  "\u2581presented": 3073,
  "\u2581receive": 3074,
  "\u2581\u00fchine": 3075,
  "\u2581k\u00e4sitlevad": 3076,
  "\u2581riigiabi": 3077,
  "ssi": 3078,
  "ami": 3079,
  "are": 3080,
  "\u2581trust": 3081,
  "\u2581v\u00e4rvi": 3082,
  "\u2581teevad": 3083,
  "\u2581piiratud": 3084,
  "\u2581truth": 3085,
  "\u2581v\u00e4ltida": 3086,
  "\u2581except": 3087,
  "\u2581film": 3088,
  "\u2581Such": 3089,
  "\u2581hit": 3090,
  "\u2581interested": 3091,
  "\u2581v\u00f5in": 3092,
  "\u2581Management": 3093,
  "\u2581kodanike": 3094,
  "\u2581menetluse": 3095,
  "31": 3096,
  "\u2581Selles": 3097,
  "\u2581patient": 3098,
  "chi": 3099,
  "\u2581v\u00f5tnud": 3100,
  "\u2581k\u00e4esolevas": 3101,
  "\u2581likely": 3102,
  "\u2581numbers": 3103,
  "\u2581l\u00f5pp": 3104,
  "\u2581reactions": 3105,
  "\u2581proposals": 3106,
  "\u2581Sellest": 3107,
  "\u2581hind": 3108,
  "\u2581nelja": 3109,
  "\u2581themselves": 3110,
  "\u2581teatava": 3111,
  "aw": 3112,
  "\u2581kontroll": 3113,
  "\u2581professional": 3114,
  "\u2581comments": 3115,
  "\u2581ringi": 3116,
  "ori": 3117,
  "\u2581Oma": 3118,
  "\u2581Prantsusmaa": 3119,
  "\u2581paper": 3120,
  "\u2581p\u00e4ritolu": 3121,
  "\u2581model": 3122,
  "ude": 3123,
  "\u2581teeme": 3124,
  "75": 3125,
  "\u2581Euratom": 3126,
  "konna": 3127,
  "\u2581consumers": 3128,
  "\u2581efficiency": 3129,
  ".12.": 3130,
  "\u2581\u00dcRO": 3131,
  "\u258142": 3132,
  "\u2581ulatuses": 3133,
  "\u2581olevat": 3134,
  "60": 3135,
  "\u2581feed": 3136,
  "io": 3137,
  "\u258129.": 3138,
  "\u2581mitu": 3139,
  "\u2581clearly": 3140,
  "\u2581Association": 3141,
  "\u2581happen": 3142,
  "\u2581extent": 3143,
  "\u2581peamiselt": 3144,
  "ay": 3145,
  "\u2581exceeding": 3146,
  "\u2581storage": 3147,
  "\u2581Stop": 3148,
  "und": 3149,
  "\u2581tri": 3150,
  "\u2581l\u00e4hen": 3151,
  "\u2581tingimusel": 3152,
  "\u2581s\u00e4testatakse": 3153,
  "\u2581India": 3154,
  "pro": 3155,
  "\u2581red": 3156,
  "\u2581sectors": 3157,
  "liselt": 3158,
  "\u2581Pu": 3159,
  "\u2581writing": 3160,
  "tur": 3161,
  "\u25812,": 3162,
  "8/": 3163,
  "\u2581kuulub": 3164,
  "\u2581According": 3165,
  "\u2581sotsiaalse": 3166,
  "\u2581fair": 3167,
  "\u2581forms": 3168,
  "za": 3169,
  "\u2581kasutades": 3170,
  "\u2581\u00f5iguste": 3171,
  "\u2581consumer": 3172,
  "2008": 3173,
  "s\u00fcsteemide": 3174,
  "\u2581aruande": 3175,
  "\u2581welcome": 3176,
  "\u2581front": 3177,
  "\u2581self": 3178,
  "\u2581min": 3179,
  "\u2581hurt": 3180,
  "\u258110%": 3181,
  "\u2581happy": 3182,
  "\u2581operational": 3183,
  "\u2581Liit": 3184,
  "out": 3185,
  "\u2581m\u00f5eldud": 3186,
  "\u2581(6)": 3187,
  "\u2581participation": 3188,
  "\u2581loomade": 3189,
  "\u2581climate": 3190,
  "\u2581war": 3191,
  "\u2581everyone": 3192,
  "\u2581submit": 3193,
  "\u2581ensuring": 3194,
  "\u2581drive": 3195,
  "\u2581oska": 3196,
  "\u2581silma": 3197,
  "\u2581suurema": 3198,
  "\u2581probleeme": 3199,
  "ier": 3200,
  "\u2581base": 3201,
  "\u2581artikliga": 3202,
  "\u2581package": 3203,
  "\u2581affect": 3204,
  "\u2581efforts": 3205,
  "\u2581stock": 3206,
  "dus": 3207,
  "About": 3208,
  "\u2581source": 3209,
  "taks": 3210,
  "bel": 3211,
  "\u2581Vastavalt": 3212,
  "\u2581tests": 3213,
  "\u2581lahku": 3214,
  "\u2581m\u00e4leta": 3215,
  "\u2581panna": 3216,
  "\u2581makse": 3217,
  "port": 3218,
  "\u2581ettev\u00f5tjate": 3219,
  "\u2581developing": 3220,
  "\u2581sisaldavad": 3221,
  "\u2581condition": 3222,
  "\u2581entirety": 3223,
  "\u2581allowed": 3224,
  "\u2581loodud": 3225,
  "OR": 3226,
  "\u2581ohutus": 3227,
  "isa": 3228,
  "\u2581foreign": 3229,
  "IS": 3230,
  "\u2581tagamiseks": 3231,
  "\u2581online": 3232,
  "\u2581esitanud": 3233,
  "\u2581contribute": 3234,
  "\u2581tootmisharu": 3235,
  "\u2581hakkama": 3236,
  "\u2581ongi": 3237,
  "\u2581insulin": 3238,
  "\u2581matters": 3239,
  "\u2581anna": 3240,
  "\u2581con": 3241,
  "\u2581saate": 3242,
  "\u2581kapitali": 3243,
  "\u2581ti": 3244,
  "\u2581opportunity": 3245,
  "\u2581hands": 3246,
  "\u2581riigis": 3247,
  "\u2581Pi": 3248,
  "\u2581tohiks": 3249,
  "\u2581history": 3250,
  "\u2581category": 3251,
  "\u2581users": 3252,
  "una": 3253,
  "\u2581scientific": 3254,
  "\u2581UN": 3255,
  "45": 3256,
  "\u2581m\u00fc\u00fcgi": 3257,
  "\u2581draft": 3258,
  "\u2581achieved": 3259,
  "\u2581Ex": 3260,
  "\u258125.": 3261,
  "\u2581Sir": 3262,
  "\u2581huvitatud": 3263,
  "\u2581manufacturer": 3264,
  "omment": 3265,
  "\u2581prejudice": 3266,
  "\u2581Euroopas": 3267,
  "\u2581t\u00e4henduses": 3268,
  "\u2581maintenance": 3269,
  "\u2581k\u00f5ne": 3270,
  "\u2581t\u00e4idetud": 3271,
  "komitee": 3272,
  "\u2581toetust": 3273,
  "ER": 3274,
  "\u2581n\u00f5uete": 3275,
  "ten": 3276,
  "06": 3277,
  "res": 3278,
  "\u2581uut": 3279,
  "obi": 3280,
  "\u2581loa": 3281,
  "ence": 3282,
  "sektori": 3283,
  "\u2581Saa": 3284,
  "\u2581kid": 3285,
  "\u2581space": 3286,
  "\u258123.": 3287,
  "ey": 3288,
  "ran": 3289,
  "ek": 3290,
  "\u2581choice": 3291,
  "\u2581paragraphs": 3292,
  "\u2581quantities": 3293,
  "\u2581probably": 3294,
  "\u258155": 3295,
  "\u2581top": 3296,
  "\u2581mo": 3297,
  "sis": 3298,
  "\u2581decide": 3299,
  "\u25812001": 3300,
  "\u2581kohaldamise": 3301,
  "\u2581eesm\u00e4rgil": 3302,
  "\u2581currently": 3303,
  "\u2581\u00d5pp": 3304,
  "\u2581kuula": 3305,
  "including": 3306,
  "\u2581Am": 3307,
  "\u2581Functioning": 3308,
  "\u258101": 3309,
  "\u2581Food": 3310,
  "\u2581hulka": 3311,
  "\u2581kontrollida": 3312,
  "ava": 3313,
  "\u2581[...]": 3314,
  "\u2581notified": 3315,
  "\u2581domestic": 3316,
  "\u2581riikides": 3317,
  "\u2581Ge": 3318,
  "\u2581toimunud": 3319,
  "\u2581valge": 3320,
  "IL": 3321,
  "\u2581\u00fctlesid": 3322,
  "\u2581armasta": 3323,
  "\u2581M\u00c4\u00c4RUSE": 3324,
  "\u2581David": 3325,
  "\u2581selgelt": 3326,
  "\u2581\u00fcldise": 3327,
  "\u2581notification": 3328,
  "\u2581n\u00f5u": 3329,
  "\u2581alfa": 3330,
  "\u2581setting": 3331,
  "\u2581requested": 3332,
  "\u2581pane": 3333,
  "\u2581miljoni": 3334,
  "\u2581nor": 3335,
  "pu": 3336,
  "\u2581tulemused": 3337,
  "\u2581limits": 3338,
  "\u2581details": 3339,
  "\u2581letter": 3340,
  "\u2581device": 3341,
  "cy": 3342,
  "/2005": 3343,
  "\u2581mehe": 3344,
  "au": 3345,
  "\u2581k\u00e4sitletakse": 3346,
  "\u2581erinevate": 3347,
  "\u2581Lo": 3348,
  "che": 3349,
  "\u2581team": 3350,
  "\u2581Ainult": 3351,
  "\u2581\u00fchte": 3352,
  "\u2581J\u00e4t": 3353,
  "\u2581t\u00fc\u00fcpi": 3354,
  "\u2581practices": 3355,
  "\u2581juht": 3356,
  "\u2581otsust": 3357,
  "\u2581difficult": 3358,
  "\u2581laws": 3359,
  "\u2581v\u00e4he": 3360,
  "tamine": 3361,
  "\u2581medicines": 3362,
  "\u2581asjad": 3363,
  "\u2581hr": 3364,
  "ated": 3365,
  "\u2581chance": 3366,
  "\u2581kulu": 3367,
  "\u2581proceedings": 3368,
  "ze": 3369,
  "\u258188": 3370,
  "zi": 3371,
  "\u2581behind": 3372,
  "\u2581holding": 3373,
  "\u2581Name": 3374,
  "\u25812015.": 3375,
  "0,": 3376,
  "\u2581severe": 3377,
  "lis": 3378,
  "\u2581ground": 3379,
  "\u2581v\u00f5imalikul": 3380,
  "ful": 3381,
  "\u2581units": 3382,
  "\u2581trans": 3383,
  "\u2581includes": 3384,
  "\u2581Gal": 3385,
  "\u2581haven": 3386,
  "kui": 3387,
  "\u2581meat": 3388,
  "\u2581multi": 3389,
  "\u2581target": 3390,
  "\u2581Ca": 3391,
  "\u2581detsember": 3392,
  "9,": 3393,
  "\u2581sense": 3394,
  "\u2581billion": 3395,
  "\u2581teate": 3396,
  "\u2581protokolli": 3397,
  "\u2581Ltd": 3398,
  "\u2581opportunities": 3399,
  "28": 3400,
  "\u2581requires": 3401,
  "\u2581contain": 3402,
  "\u2581calculated": 3403,
  "\u2581kavandatud": 3404,
  "sete": 3405,
  "\u2581van": 3406,
  "\u2581states": 3407,
  "\u2581figure": 3408,
  "\u2581entity": 3409,
  "\u2581VII": 3410,
  "\u2581fall": 3411,
  "\u258147": 3412,
  "\u2581Health": 3413,
  "\u2581reach": 3414,
  "\u2581distribution": 3415,
  "\u2581v\u00f5imalust": 3416,
  "\u2581obligation": 3417,
  "\u2581\u00d7": 3418,
  "\u2581students": 3419,
  "kus": 3420,
  "\u2581krist": 3421,
  "\u2581\u00fchel": 3422,
  "\u2581Dad": 3423,
  "\u2581sega": 3424,
  "\u2581operator": 3425,
  "\u25811999": 3426,
  "\u2581kell": 3427,
  "\u258156": 3428,
  "\u2581toetada": 3429,
  "\u2581aluseks": 3430,
  "ita": 3431,
  "\u2581naiste": 3432,
  "\u2581Parties": 3433,
  "\u2581enese": 3434,
  "\u258149": 3435,
  "\u2581Hispaania": 3436,
  "\u2581implemented": 3437,
  "ham": 3438,
  "kena": 3439,
  "\u2581exactly": 3440,
  "\u2581konventsiooni": 3441,
  "mar": 3442,
  "\u2581Us": 3443,
  "iku": 3444,
  "\u2581kohustuste": 3445,
  "\u2581US": 3446,
  "tr": 3447,
  "\u2581j\u00f5u": 3448,
  "vel": 3449,
  "ium": 3450,
  "\u2581era": 3451,
  "\u2581m\u00f6\u00f6da": 3452,
  "\u2581recent": 3453,
  "\u2581aim": 3454,
  "\u2581Ru": 3455,
  "\u258141": 3456,
  "\u2581Maa": 3457,
  "\u25812017": 3458,
  "\u2581tagab": 3459,
  "\u2581etc": 3460,
  "\u2581rahastamis": 3461,
  "\u2581Sch": 3462,
  "\u258165": 3463,
  "\u2581sain": 3464,
  "\u2581ligikaudu": 3465,
  "\u2581Code": 3466,
  "\u25812003.": 3467,
  "\u2581throughout": 3468,
  "aeg": 3469,
  "\u2581veidi": 3470,
  "29": 3471,
  "\u2581Austria": 3472,
  "\u2581Van": 3473,
  "rs": 3474,
  "\u2581yes": 3475,
  "\u2581k\u00fcsimus": 3476,
  "s\u00fcsteem": 3477,
  "\u2581answer": 3478,
  "\u2581knows": 3479,
  "\u2581addressed": 3480,
  "\u2581entities": 3481,
  "ating": 3482,
  "\u2581factors": 3483,
  "\u2581Kon": 3484,
  "\u2581kuul": 3485,
  "\u258120%": 3486,
  "\u2581beautiful": 3487,
  "\u2581characteristics": 3488,
  "europa": 3489,
  "aari": 3490,
  "\u2581andmise": 3491,
  "\u2581IP": 3492,
  "\u2581tulemusi": 3493,
  "\u2581l\u00e4he": 3494,
  "\u258128.": 3495,
  "\u2581partners": 3496,
  "\u2581probleem": 3497,
  "\u2581k\u00e4si": 3498,
  "ata": 3499,
  "\u2581tulema": 3500,
  "\u2581police": 3501,
  "\u2581j\u00e4\u00e4da": 3502,
  "\u2581Italy": 3503,
  "\u2581olevate": 3504,
  "\u2581Too": 3505,
  "\u2581parents": 3506,
  "\u2581plans": 3507,
  "\u258102": 3508,
  "\u2581vastava": 3509,
  "\u2581Pane": 3510,
  "\u2581notice": 3511,
  "\u2581travel": 3512,
  "\u2581Jack": 3513,
  "\u2581adverse": 3514,
  "\u2581listen": 3515,
  "\u2581paha": 3516,
  "\u2581sageli": 3517,
  "\u2581transactions": 3518,
  "US": 3519,
  "\u2581Ireland": 3520,
  "\u2581Os": 3521,
  "\u2581symptoms": 3522,
  "\u2581Even": 3523,
  "\u2581keskmine": 3524,
  "\u2581independent": 3525,
  "\u2581looma": 3526,
  "\u2581rahva": 3527,
  "\u2581suunas": 3528,
  "\u2581luu": 3529,
  "\u2581para": 3530,
  "\u2581Joe": 3531,
  "\u2581valiku": 3532,
  "0/": 3533,
  "\u2581Mom": 3534,
  "\u2581tervishoiu": 3535,
  "\u2581ameti": 3536,
  "\u2581Frank": 3537,
  "\u2581j": 3538,
  "\u2581registered": 3539,
  "\u2581Give": 3540,
  "\u2581exceed": 3541,
  "\u2581t\u00fcdruku": 3542,
  "21": 3543,
  "\u2581giving": 3544,
  "\u2581kedagi": 3545,
  "44": 3546,
  "\u2581Ni": 3547,
  "kon": 3548,
  "\u2581Lihtsa": 3549,
  "fa": 3550,
  "\u258162": 3551,
  "\u2581heading": 3552,
  "Q": 3553,
  "36": 3554,
  "ever": 3555,
  "\u2581ettev\u00f5tte": 3556,
  "\u2581followed": 3557,
  "\u2581ela": 3558,
  "\u2581s\u00e4tteid": 3559,
  "\u2581k\u00f5rval": 3560,
  "\u2581kesk": 3561,
  "\u2581politsei": 3562,
  "\u2581income": 3563,
  "tas": 3564,
  "\u2581\u00f6\u00f6": 3565,
  "\u2581calls": 3566,
  "\u2581property": 3567,
  "\u2581Tom": 3568,
  "\u2581t\u00fcdruk": 3569,
  "\u2581website": 3570,
  "\u2581supposed": 3571,
  "ada": 3572,
  "\u2581oluliselt": 3573,
  "\u2581tootmise": 3574,
  "\u2581favour": 3575,
  "\u2581speak": 3576,
  "\u2581industrial": 3577,
  "ring": 3578,
  "\u2581naise": 3579,
  "\u2581failure": 3580,
  "\u2581neli": 3581,
  "\u2581inimene": 3582,
  "\u2581eligible": 3583,
  "\u2581Direktiivi": 3584,
  "\u2581entire": 3585,
  "\u2581j\u00e4ta": 3586,
  "\u2581Fa": 3587,
  "ml": 3588,
  "\u2581tulu": 3589,
  "\u2581kohaldamist": 3590,
  "\u2581joo": 3591,
  "\u2581board": 3592,
  "\u2581determine": 3593,
  "\u2581kala": 3594,
  "\u258185": 3595,
  "\u258146": 3596,
  "\u2581separate": 3597,
  "\u2581Office": 3598,
  "\u2581naha": 3599,
  "\u258152": 3600,
  "uhu": 3601,
  "ooni": 3602,
  "\u2581tonight": 3603,
  "\u2581k\u00fcsi": 3604,
  "\u2581jumal": 3605,
  "\u2581kaas": 3606,
  "\u2581exercise": 3607,
  "\u2581s\u00fcsteem": 3608,
  "\u2581skills": 3609,
  "ger": 3610,
  "\u2581Security": 3611,
  "\u2581lives": 3612,
  "\u2581send": 3613,
  "\u2581views": 3614,
  "\u2581Du": 3615,
  "based": 3616,
  "oma": 3617,
  "\u258124.": 3618,
  "33": 3619,
  "\u2581banks": 3620,
  "misega": 3621,
  "\u2581Keep": 3622,
  "\u2581lapsed": 3623,
  "\u2581liikmete": 3624,
  "\u2581Eri": 3625,
  "\u2581rolli": 3626,
  "\u2581considers": 3627,
  "\u2581aine": 3628,
  "\u2581originating": 3629,
  "\u2581Every": 3630,
  "\u2581rakendada": 3631,
  "quite": 3632,
  "\u2581ones": 3633,
  "\u2581net": 3634,
  "tama": 3635,
  "\u2581Contact": 3636,
  "\u2581(2": 3637,
  "\u2581otherwise": 3638,
  "\u2581expressed": 3639,
  "\u2581koha": 3640,
  "\u2581TV": 3641,
  "ou": 3642,
  "\u2581construction": 3643,
  "\u2581file": 3644,
  "\u2581parim": 3645,
  "\u2581stage": 3646,
  "mber": 3647,
  "\u2581possibility": 3648,
  "\u2581spirit": 3649,
  "\u2581m\u00e4rgitud": 3650,
  "\u2581resulting": 3651,
  "ick": 3652,
  "\u2581focus": 3653,
  "\u2581gaasi": 3654,
  "\u2581entered": 3655,
  "\u2581lisatud": 3656,
  "\u2581Par": 3657,
  "\u2581t\u00e4ita": 3658,
  "\u2581Mrs": 3659,
  "huh": 3660,
  "ole": 3661,
  "\u2581sale": 3662,
  "\u00e4\u00e4gi": 3663,
  "\u2581black": 3664,
  "\u2581ba": 3665,
  "\u2581regulations": 3666,
  "\u2581negative": 3667,
  "\u2581v\u00f5rgu": 3668,
  "\u2581hot": 3669,
  "\u2581High": 3670,
  "\u2581Listen": 3671,
  "\u2581receiving": 3672,
  "nduse": 3673,
  "\u2581learn": 3674,
  "\u2581lack": 3675,
  "\u2581charge": 3676,
  "35": 3677,
  "mees": 3678,
  "\u2581lisada": 3679,
  "\u2581hair": 3680,
  "\u2581powers": 3681,
  "\u25815%": 3682,
  "\u2581ship": 3683,
  "\u2581t\u00f6\u00f6le": 3684,
  "ii": 3685,
  "ase": 3686,
  "\u2581corresponding": 3687,
  "\u2581laenu": 3688,
  "\u258126.": 3689,
  "\u00e4rra": 3690,
  "\u2581producer": 3691,
  "\u2581kut": 3692,
  "\u2581bio": 3693,
  "\u2581arvamuse": 3694,
  "\u2581earth": 3695,
  "\u2581tele": 3696,
  "\u2581news": 3697,
  "\u2581himself": 3698,
  "\u2581tegevuskava": 3699,
  "?\"": 3700,
  "\u2581Gra": 3701,
  "\u2581demand": 3702,
  "\u2581initial": 3703,
  "\u258153": 3704,
  "08": 3705,
  "vahendite": 3706,
  "\u2581rule": 3707,
  "\u2581direktiiviga": 3708,
  "7/": 3709,
  "\u2581People": 3710,
  "\u2581tomorrow": 3711,
  "\u2581shot": 3712,
  "\u2581Mille": 3713,
  "46": 3714,
  "\u25811000": 3715,
  "ph": 3716,
  "\u2581speed": 3717,
  "\u258151": 3718,
  "\u2581looks": 3719,
  "\u2581movement": 3720,
  "\u2581written": 3721,
  "\u2581silm": 3722,
  "\u258154": 3723,
  "\u2581valitsus": 3724,
  "nni": 3725,
  "mu": 3726,
  "\u2581Ava": 3727,
  "\u2581territooriumil": 3728,
  "\u2581debt": 3729,
  "47": 3730,
  "ult": 3731,
  "\u2581jobs": 3732,
  "\u2581valmistatud": 3733,
  "\u00f5htul": 3734,
  "\u2581sleep": 3735,
  "\u2581grant": 3736,
  "\u2581resolution": 3737,
  "\u2581University": 3738,
  "\u2581Only": 3739,
  "95": 3740,
  "\u2581World": 3741,
  "\u2581cell": 3742,
  "\u2581hiljemalt": 3743,
  "ight": 3744,
  "\u2581guidelines": 3745,
  "\u2581German": 3746,
  "tsin": 3747,
  "\u2581prepared": 3748,
  "\u2581n\u00e4e": 3749,
  "22": 3750,
  "\u2581worry": 3751,
  "valu": 3752,
  "\u2581m\u00f5ni": 3753,
  "\u2581struktuuri": 3754,
  "\u2581\u00fchendust": 3755,
  "\u2581agree": 3756,
  "\u25812020": 3757,
  "27": 3758,
  "\u2581liitu": 3759,
  "\u2581r\u00e4\u00e4kima": 3760,
  "\u2581eat": 3761,
  "-2-": 3762,
  "\u2581regular": 3763,
  "\u2581l\u00e4inud": 3764,
  "\u2581conformity": 3765,
  "\u2581v\u00e4ljaspool": 3766,
  "\u2581break": 3767,
  "\u2581court": 3768,
  "\u2581\u00dcle": 3769,
  "\u2581tasks": 3770,
  "\u2581bo": 3771,
  "\u2581Ema": 3772,
  "\u2581Mi": 3773,
  "\u2581Sellise": 3774,
  "\u258161": 3775,
  "ice": 3776,
  "\u2581minute": 3777,
  "\u2581fuel": 3778,
  "\u2581otsa": 3779,
  "\u2581poeg": 3780,
  "kogu": 3781,
  "\u2581\u00f5hu": 3782,
  "ebo": 3783,
  "\u2581beginning": 3784,
  "\u2581Si": 3785,
  "\u2581kaalu": 3786,
  "\u2581olulise": 3787,
  "\u2581viie": 3788,
  "\u2581structure": 3789,
  "\u2581coordination": 3790,
  "\u2581ostu": 3791,
  "\u2581stuff": 3792,
  "\u2581s\u00e4tete": 3793,
  "mate": 3794,
  "\u2581administered": 3795,
  "\u2581t\u00fc\u00fcp": 3796,
  "\u2581v\u00f5imalusi": 3797,
  "\u2581YOU": 3798,
  "oo": 3799,
  "\u2581usku": 3800,
  "likku": 3801,
  "\u2581kriisi": 3802,
  "\u2581esitas": 3803,
  "ev": 3804,
  "ica": 3805,
  "\u2581increasing": 3806,
  "\u2581save": 3807,
  "\u2581kohaldata": 3808,
  "ants": 3809,
  "\u2581valitsuse": 3810,
  "\u2581components": 3811,
  "In": 3812,
  "\u2581oleva": 3813,
  "\u2581sources": 3814,
  "\u2581s\u00e4ilitada": 3815,
  "ong": 3816,
  ".10.": 3817,
  "\u2581declaration": 3818,
  "\u2581difference": 3819,
  "\u2581suurus": 3820,
  "eni": 3821,
  "rus": 3822,
  "\u2581Kreeka": 3823,
  "\u2581piirkonnas": 3824,
  "vin": 3825,
  "\u2581series": 3826,
  "\u2581China": 3827,
  "\u2581kaitsta": 3828,
  "que": 3829,
  "\u2581Book": 3830,
  "\u2581lugu": 3831,
  "\u2581Two": 3832,
  "ect": 3833,
  "\u2581t\u00f6\u00f6stus": 3834,
  "\u2581pakkuda": 3835,
  "ana": 3836,
  "\u2581EN": 3837,
  "\u2581aspects": 3838,
  "\u2581klassi": 3839,
  "\u2581riigid": 3840,
  "uma": 3841,
  "\u2581kohal": 3842,
  "iti": 3843,
  "\u2581enable": 3844,
  "\u2581kept": 3845,
  "\u2581laps": 3846,
  "\u2581[4]": 3847,
  "\u2581draw": 3848,
  "\u2581System": 3849,
  "\u2581seej\u00e4rel": 3850,
  "sest": 3851,
  "85": 3852,
  "andmed": 3853,
  "\u2581pika": 3854,
  "matic": 3855,
  "\u2581pakendi": 3856,
  "\u2581disorders": 3857,
  "\u2581seaduse": 3858,
  "\u2581t\u00e4itmise": 3859,
  "BS": 3860,
  "\u2581via": 3861,
  "\u2581riikidest": 3862,
  "border": 3863,
  "tal": 3864,
  "\u2581initiative": 3865,
  "\u2581riik": 3866,
  "pan": 3867,
  "\u2581Great": 3868,
  "\u2581statement": 3869,
  "\u2581facilitate": 3870,
  "\u2581turule": 3871,
  "\u2581concerns": 3872,
  "\u2581\u00fcksi": 3873,
  "\u2581town": 3874,
  "\u2581400": 3875,
  "\u2581n\u00f5uab": 3876,
  "yn": 3877,
  "ally": 3878,
  "\u2581ruumi": 3879,
  "\u2581goes": 3880,
  "\u2581beyond": 3881,
  "\u2581kehtib": 3882,
  "\u2581oktoobri": 3883,
  "2)": 3884,
  "\u2581applying": 3885,
  "\u2581r\u00fchma": 3886,
  "\u2581majanduse": 3887,
  "\u2581\u00fctlen": 3888,
  "\u2581maintain": 3889,
  "AD": 3890,
  "nik": 3891,
  "\u2581checks": 3892,
  "\u2581veelgi": 3893,
  "\u2581mark": 3894,
  "\u2581Party": 3895,
  "\u2581institutsiooni": 3896,
  "\u2581puudub": 3897,
  "\u2581oral": 3898,
  "\u2581Peale": 3899,
  "\u2581istu": 3900,
  "\u2581Finland": 3901,
  "\u2581music": 3902,
  "\u2581ring": 3903,
  "JA": 3904,
  "\u2581ability": 3905,
  "\u2581stand": 3906,
  "ator": 3907,
  "\u2581Director": 3908,
  "vus": 3909,
  "\u2581vahendeid": 3910,
  "\u2581starting": 3911,
  "\u2581kirjalikult": 3912,
  "\u2581tonni": 3913,
  "\u2581relationship": 3914,
  "ema": 3915,
  "\u2581teab": 3916,
  "\u2581manner": 3917,
  "\u2581worked": 3918,
  "\u2581kids": 3919,
  "\u2581physical": 3920,
  "\u2581teises": 3921,
  "\u00f0": 3922,
  "\u2581Tegelikult": 3923,
  "\u2581roll": 3924,
  "\u2581investments": 3925,
  "kar": 3926,
  "ff": 3927,
  "\u2581liha": 3928,
  "\u2581drink": 3929,
  "\u258195": 3930,
  "\u2581tuua": 3931,
  "\u2581Read": 3932,
  "\u2581Michael": 3933,
  "\u2581olukord": 3934,
  "\u2581Under": 3935,
  "tion": 3936,
  "\u2581caused": 3937,
  "\u2581cells": 3938,
  "\u2581mail": 3939,
  "\u2581T\u00f5": 3940,
  "ac": 3941,
  "89": 3942,
  ".7.": 3943,
  "\u2581categories": 3944,
  "endi": 3945,
  "\u2581Siiski": 3946,
  "\u2581Red": 3947,
  "alis": 3948,
  "\u2581art": 3949,
  "\u2581armastan": 3950,
  "off": 3951,
  "\u2581watch": 3952,
  "Charlie": 3953,
  "\u2581wine": 3954,
  "26": 3955,
  "\u2581(0)": 3956,
  "\u2581integration": 3957,
  "\u2581ainus": 3958,
  "4/": 3959,
  "\u2581Dur": 3960,
  "\u2581k\u00e4sk": 3961,
  "\u2581opening": 3962,
  "\u2581informed": 3963,
  "\u2581story": 3964,
  "\u2581http": 3965,
  "\u2581(1),": 3966,
  "\u2581eye": 3967,
  "\u2581priority": 3968,
  "\u2581nal": 3969,
  "\u2581Justice": 3970,
  "\u2581t\u00f6\u00f6ta": 3971,
  "\u2581sign": 3972,
  "\u2581message": 3973,
  "\u2581\u00e4ri\u00fchingu": 3974,
  "\u2581Hoid": 3975,
  "max": 3976,
  "\u2581paljud": 3977,
  "\u2581kulla": 3978,
  "\u2581n\u00e4eb": 3979,
  ".11.": 3980,
  "likult": 3981,
  "\u2581ravimite": 3982,
  "\u2581Milli": 3983,
  "\u2581steel": 3984,
  "isation": 3985,
  "\u25817,": 3986,
  "\u2581sex": 3987,
  "\u2581tasuta": 3988,
  "\u2581keele": 3989,
  "\u00fc\u00fcl": 3990,
  "\u2581j\u00e4\u00e4nud": 3991,
  "\u2581collection": 3992,
  "\u2581\u00fcht": 3993,
  "\u2581asub": 3994,
  "\u2581%": 3995,
  "\u2581punktides": 3996,
  "\u2581Em": 3997,
  "\u2581VIII": 3998,
  "\u2581loo": 3999,
  "\u2581requirement": 4000,
  "\u2581seni": 4001,
  "\u2581registreeritud": 4002,
  "\u2581Communication": 4003,
  "\u2581freedom": 4004,
  "asutuste": 4005,
  "\u258127.": 4006,
  "39": 4007,
  "\u2581approximately": 4008,
  "55": 4009,
  "\u2581quantity": 4010,
  "\u2581saavutamiseks": 4011,
  "\u2581alus": 4012,
  "\u2581near": 4013,
  "hal": 4014,
  "\u2581South": 4015,
  "nna": 4016,
  "\u2581War": 4017,
  "\u2581link": 4018,
  "\u2581tolli": 4019,
  "ast": 4020,
  "\u2581affected": 4021,
  "\u2581v\u00f5tavad": 4022,
  "\u25812019": 4023,
  "\u2581implement": 4024,
  "\u25811:": 4025,
  "\u2581j\u00e4rgmisi": 4026,
  "\u2581\u00f5ppe": 4027,
  "\u2581eesistuja": 4028,
  "EUR": 4029,
  "\u2581kuus": 4030,
  "\u2581walk": 4031,
  "\u2581s\u00f5ja": 4032,
  "\u2581m\u00f5r": 4033,
  "\u2581\u00fcleta": 4034,
  "\u2581running": 4035,
  "\u2581fun": 4036,
  "\u2581Stay": 4037,
  "\u2581adequate": 4038,
  "\u2581n\u00f5udeid": 4039,
  "\u2581Bi": 4040,
  "\u2581N\u00e4iteks": 4041,
  "\u2581h\u00f5lmatud": 4042,
  "den": 4043,
  "\u2581Follow": 4044,
  "kontrolli": 4045,
  "\u2581round": 4046,
  "\u2581machines": 4047,
  "\u2581uses": 4048,
  "\u2581k\u00e4i": 4049,
  "\u2581suurt": 4050,
  "\u2581connection": 4051,
  "\u2581avaldamist": 4052,
  "tamise": 4053,
  "\u2581HIV": 4054,
  "\u2581vormi": 4055,
  "\u2581olukorda": 4056,
  "\u2581ametiasutused": 4057,
  "\u2581turva": 4058,
  "valt": 4059,
  "\u2581exporting": 4060,
  "\u2581Q": 4061,
  "Article": 4062,
  "\u2581pakub": 4063,
  "kontsentratsioon": 4064,
  "form": 4065,
  "\u2581maga": 4066,
  "\u2581shows": 4067,
  "meetmete": 4068,
  "\u2581hakkab": 4069,
  "\u2581pu": 4070,
  "8.": 4071,
  "\u2581majority": 4072,
  "\u2581surface": 4073,
  "://": 4074,
  "\u2581kavatse": 4075,
  "ppi": 4076,
  "ug": 4077,
  "\u2581uuringus": 4078,
  "tegevuse": 4079,
  "bar": 4080,
  "\u2581negotiations": 4081,
  "\u2581lose": 4082,
  "\u2581Ac": 4083,
  "\u2581kood": 4084,
  "\u2581protsessi": 4085,
  "\u2581otsustas": 4086,
  "\u2581Tore": 4087,
  "\u2581medium": 4088,
  "\u2581Jim": 4089,
  "\u2581K\u00e4esolevas": 4090,
  "\u2581Vii": 4091,
  "\u2581applies": 4092,
  "rd": 4093,
  "\u2581raamatu": 4094,
  "ities": 4095,
  "\u2581completed": 4096,
  "\u2581innovatsiooni": 4097,
  "\u2581minutit": 4098,
  "\u2581tootmis": 4099,
  "2-": 4100,
  "\u258172": 4101,
  "\u2581debate": 4102,
  "\u2581Mon": 4103,
  "\u2581kujul": 4104,
  "\u25813,": 4105,
  "\u00d5": 4106,
  "\u2581Energy": 4107,
  "\u2581registration": 4108,
  "\u2581tender": 4109,
  "seadmete": 4110,
  "\u2581kirjuta": 4111,
  "\u2581relva": 4112,
  "\u2581plants": 4113,
  "koha": 4114,
  "\u2581Muu": 4115,
  "\u2581recommendations": 4116,
  "\u2581cash": 4117,
  "\u2581kohustusi": 4118,
  "\u2581uued": 4119,
  "\u2581vii": 4120,
  "\u2581renal": 4121,
  "par": 4122,
  "\u2581vote": 4123,
  "\u2581majanduskasvu": 4124,
  "\u2581---": 4125,
  "\u2581vahelise": 4126,
  "int": 4127,
  "\u2581toetab": 4128,
  "ngi": 4129,
  ".6.": 4130,
  "\u2581performed": 4131,
  "\u2581isikud": 4132,
  "\u2581\u00c4": 4133,
  "\u2581adjustment": 4134,
  "\u2581SA": 4135,
  "\u2581hour": 4136,
  "\u2581died": 4137,
  "\u00c3": 4138,
  "\u2581Portugal": 4139,
  "\u2581identification": 4140,
  "\u2581edu": 4141,
  "\u2581placed": 4142,
  "\u2581legislative": 4143,
  "\u2581kasutatavate": 4144,
  "\u2581recovery": 4145,
  "\u2581items": 4146,
  "\u2581Poola": 4147,
  "\u2581\u00fcsna": 4148,
  "\u2581n\u00f5us": 4149,
  "\u2581ten": 4150,
  "\u2581esitamise": 4151,
  "ef": 4152,
  "\u2581alg": 4153,
  "\u2581transmission": 4154,
  "\u2581j\u00e4tkuvalt": 4155,
  "\u2581koo": 4156,
  "\u2581p\u00e4evas": 4157,
  "\u2581(2),": 4158,
  "\u2581\u00f5igust": 4159,
  "49": 4160,
  "\u2581Bu": 4161,
  "rit": 4162,
  "\u2581Spain": 4163,
  "07": 4164,
  "\u2581Sin": 4165,
  "\u2581practical": 4166,
  "Te": 4167,
  "\u2581actual": 4168,
  "\u2581electricity": 4169,
  "\u2581leping": 4170,
  "pt": 4171,
  "\u2581efficient": 4172,
  "\u2581piima": 4173,
  "\u2581Jeesuse": 4174,
  "vee": 4175,
  "\u2581bed": 4176,
  "\u2581duration": 4177,
  "48": 4178,
  "\u2581Furthermore": 4179,
  "\u2581Nothing": 4180,
  "\u2581creation": 4181,
  "DA": 4182,
  "eva": 4183,
  "misest": 4184,
  "\u2581projektide": 4185,
  "\u2581challenges": 4186,
  "\u2581tegevust": 4187,
  "\u2581panga": 4188,
  "\u2581endiselt": 4189,
  "32": 4190,
  "\u2581rahastamise": 4191,
  "pine": 4192,
  "\u2581telefoni": 4193,
  "wa": 4194,
  "\u2581accordingly": 4195,
  "\u2581fast": 4196,
  "\u2581plaani": 4197,
  "\u2581Ti": 4198,
  "illa": 4199,
  "\u2581olemasolu": 4200,
  "\u2581teatavad": 4201,
  "\u2581aita": 4202,
  "\u2581degree": 4203,
  "\u2581created": 4204,
  "\u2581option": 4205,
  "\u2581seems": 4206,
  "\u2581,\"": 4207,
  "\u2581kurat": 4208,
  "\u2581abikaasa": 4209,
  "ib": 4210,
  "ikud": 4211,
  "\u2581definition": 4212,
  "\u2581gentle": 4213,
  "\u2581Does": 4214,
  "zz": 4215,
  "eerimine": 4216,
  "lase": 4217,
  "\u2581crazy": 4218,
  "65": 4219,
  "ette": 4220,
  "\u2581aastast": 4221,
  "\u2581Air": 4222,
  "vir": 4223,
  "\u2581piece": 4224,
  "ella": 4225,
  "\u2581Hr": 4226,
  "\u2581p\u00e4dev": 4227,
  "6%": 4228,
  "\u2581T\u00f5esti": 4229,
  "\u2581border": 4230,
  "nis": 4231,
  "\u2581poisi": 4232,
  "\u2581articles": 4233,
  "\u2581consultation": 4234,
  "\u2581fundamental": 4235,
  "\u2581\u2265": 4236,
  "\u2581tried": 4237,
  "\u2581changed": 4238,
  "7,": 4239,
  "\u2581esimest": 4240,
  "\u2581Luc": 4241,
  "\u2581vahendid": 4242,
  "CO": 4243,
  "\u2581ava": 4244,
  "\u2581EFTA": 4245,
  "car": 4246,
  "ock": 4247,
  "sion": 4248,
  "\u2581Chinese": 4249,
  "\u2581schemes": 4250,
  "\u2581kana": 4251,
  "\u2581toodud": 4252,
  "\u2581tase": 4253,
  "lar": 4254,
  "\u2581Sha": 4255,
  "\u2581p\u00f5hineb": 4256,
  "\u2581accepted": 4257,
  "\u2581kasutamisel": 4258,
  "\u25812002.": 4259,
  "\u2581advice": 4260,
  "\u2581pick": 4261,
  "\u2581viimane": 4262,
  "\u2581primary": 4263,
  "\u2581p\u00e4devate": 4264,
  "\u2581meist": 4265,
  "\u2581tagavad": 4266,
  "\u2581Russian": 4267,
  "\u2581asjade": 4268,
  "ike": 4269,
  "\u2581s\u00e4tted": 4270,
  "E\u00dcT": 4271,
  "\u2581Wi": 4272,
  "\u2581Trans": 4273,
  "\u2581whereas": 4274,
  "\u2581Regulations": 4275,
  "\u2581latest": 4276,
  "\u2581haridus": 4277,
  "\u2581Lord": 4278,
  "56": 4279,
  "\u2581Add": 4280,
  "\u2581M\u00e4\u00e4rust": 4281,
  "lf": 4282,
  "\u2581became": 4283,
  "\u2581m\u00f5lemad": 4284,
  "\u2581\u00fchis": 4285,
  "\u2581port": 4286,
  "\u2581conclusion": 4287,
  "\u2581sealt": 4288,
  "\u2581asjaolu": 4289,
  "\u2581meetme": 4290,
  "\u2581lihtne": 4291,
  "\u2581ii": 4292,
  "\u2581n\u00e4ed": 4293,
  "\u2581s\u00fc\u00fc": 4294,
  "\u2581restructuring": 4295,
  "\u2581tooteid": 4296,
  "\u2581hetkel": 4297,
  "\u2581stated": 4298,
  "\u2581fresh": 4299,
  "\u2581ways": 4300,
  "\u2581selliseid": 4301,
  "\u2581Cha": 4302,
  "\u2581ainete": 4303,
  "turu": 4304,
  "atsioon": 4305,
  "\u2581toodetud": 4306,
  "komisjoni": 4307,
  "ska": 4308,
  "\u2581arvamust": 4309,
  "\u2581kallis": 4310,
  "\u2581sweet": 4311,
  "\u2581pidades": 4312,
  "\u2581Action": 4313,
  "CAS": 4314,
  "\u258193": 4315,
  "\u00f6\u00f6r": 4316,
  "\u258157": 4317,
  "\u2581Uus": 4318,
  "\u2581aastas": 4319,
  "34": 4320,
  "\u2581box": 4321,
  "king": 4322,
  "\u2581integrated": 4323,
  "hr": 4324,
  "\u2581directive": 4325,
  "\u2581dialogue": 4326,
  "naviir": 4327,
  "\u2581tahaks": 4328,
  "\u2581kellele": 4329,
  "-3": 4330,
  "\u258159": 4331,
  "\u2581Use": 4332,
  "\u2581tapa": 4333,
  "les": 4334,
  "\u2581contained": 4335,
  "\u2581testing": 4336,
  "\u2581super": 4337,
  "\u2581conduct": 4338,
  "\u2581kuue": 4339,
  "\u2581karda": 4340,
  "\u2581kutse": 4341,
  "\u2581Loe": 4342,
  "xcuse": 4343,
  "\u2581huvides": 4344,
  "\u2581ni": 4345,
  "59": 4346,
  "\u2581kuuluvate": 4347,
  "\u2581Government": 4348,
  "vaid": 4349,
  "\u2581eeskirja": 4350,
  "\u2581reform": 4351,
  "\u2581peace": 4352,
  "\u2581filmi": 4353,
  "\u2581taotleja": 4354,
  "\u2581Dan": 4355,
  "\u2581arvuti": 4356,
  "\u2581k\u00f5rvale": 4357,
  "olu": 4358,
  "\u2581saaksid": 4359,
  "\u2581recognised": 4360,
  "\u2581Soovi": 4361,
  "\u2581radio": 4362,
  "87": 4363,
  "\u2581edendada": 4364,
  "\u2581Son": 4365,
  "\u258158": 4366,
  "\u2581concern": 4367,
  "\u2581uuringu": 4368,
  "\u2581CE": 4369,
  "\u2581meetings": 4370,
  "kaitse": 4371,
  "\u2581currency": 4372,
  "\u2581p\u00f5hjustada": 4373,
  "\u2581lubada": 4374,
  "anti": 4375,
  "\u2581v\u00e4\u00e4rtuse": 4376,
  "CE": 4377,
  "\u2581tootjate": 4378,
  "\u2581solutions": 4379,
  "\u2581\u00fclikooli": 4380,
  "\u2581t\u00e4ielik": 4381,
  "\u2581respectively": 4382,
  "\u2581riikliku": 4383,
  "\u25812018": 4384,
  "\u2581factor": 4385,
  "har": 4386,
  "ero": 4387,
  "\u00f5r": 4388,
  "\u2581While": 4389,
  "\u2581paar": 4390,
  "\u2581frequency": 4391,
  "\u2581Post": 4392,
  "\u2581Ilma": 4393,
  "kan": 4394,
  "\u2581pass": 4395,
  "\u2581usually": 4396,
  "\u2581temperature": 4397,
  "\u2581Lot": 4398,
  "\u2581pr": 4399,
  "\u25812016.": 4400,
  "\u2581asjakohaste": 4401,
  "\u2581andma": 4402,
  "\u2581sellised": 4403,
  "\u2581\u00f5pi": 4404,
  "\u2581Suur": 4405,
  "\u2581k\u00fcsimusi": 4406,
  "\u2581teistele": 4407,
  "\u2581refund": 4408,
  "\u2581olukorra": 4409,
  "\u2581Moreover": 4410,
  "\u2581t\u00e4htaja": 4411,
  "\u2581Art": 4412,
  "\u2581kodus": 4413,
  "\u2581daughter": 4414,
  "\u2581valid": 4415,
  "IC": 4416,
  "\u2581gives": 4417,
  "\u2581licence": 4418,
  "\u2581Park": 4419,
  "You": 4420,
  "\u2581v\u00f5eti": 4421,
  "illy": 4422,
  "\u2581description": 4423,
  "\u2581steps": 4424,
  "\u2581Mc": 4425,
  "org": 4426,
  "\u2581arm": 4427,
  "\u2581viha": 4428,
  "\u2581\u00f6elnud": 4429,
  "\u2581kokkuleppe": 4430,
  "\u2581tunnistatakse": 4431,
  "\u2581Commissioner": 4432,
  "\u2581devices": 4433,
  "\u2581Mind": 4434,
  "\u2581Soome": 4435,
  "\u2581reached": 4436,
  "miste": 4437,
  "\u2581tulnud": 4438,
  "\u2581250": 4439,
  "\u2581\u00fches": 4440,
  "\u2581Data": 4441,
  "\u2581inglise": 4442,
  "\u2581meelde": 4443,
  "\u2581parima": 4444,
  "\u2581glass": 4445,
  "68": 4446,
  "\u2581Minister": 4447,
  "\u2581BE": 4448,
  "\u2581Service": 4449,
  "\u2581Rootsi": 4450,
  "8,": 4451,
  "\u2581buy": 4452,
  "\u2581n\u00f5uda": 4453,
  "\u2581ilmselt": 4454,
  "\u2581120": 4455,
  "\u2581forget": 4456,
  "\u2581record": 4457,
  "related": 4458,
  "\u2581des": 4459,
  "38": 4460,
  "\u2581concentration": 4461,
  "\u2581osad": 4462,
  "\u2581Parlament": 4463,
  "\u2581claim": 4464,
  "\u2581acting": 4465,
  "\u2581note": 4466,
  "\u2581provisional": 4467,
  "\u2581simple": 4468,
  "\u2581lasta": 4469,
  "88": 4470,
  "\u2581Policy": 4471,
  "\u2581kerge": 4472,
  "\u2581Kaks": 4473,
  "\u2581release": 4474,
  "\u2581menetlus": 4475,
  "\u2581ISO": 4476,
  "pool": 4477,
  "\u2581supported": 4478,
  "qui": 4479,
  "\u2581couple": 4480,
  "\u2581programm": 4481,
  "\u2581hereby": 4482,
  "\u2581relations": 4483,
  "\u2581hakkas": 4484,
  "\u2581ahead": 4485,
  "over": 4486,
  "\u2581k\u00e4ia": 4487,
  "\u2581seven": 4488,
  "\u2581statistika": 4489,
  "\u2581Sta": 4490,
  "\u2581aastatel": 4491,
  "\u2581Report": 4492,
  "kad": 4493,
  "\u2581p\u00f5hja": 4494,
  "\u2581networks": 4495,
  "\u2581tappa": 4496,
  "\u2581v\u00e4r": 4497,
  "p\u00e4eva": 4498,
  "\u2581technologies": 4499,
  "\u2581\u00fcksk\u00f5ik": 4500,
  "\u2581temporary": 4501,
  "ood": 4502,
  "\u2581kuju": 4503,
  "kse": 4504,
  "\u2581card": 4505,
  "\u2581tools": 4506,
  "\u2581viivitamata": 4507,
  "\u2581\u00fclej\u00e4\u00e4nud": 4508,
  "\u2581Venemaa": 4509,
  "\u2581Malta": 4510,
  "\u2581arst": 4511,
  "GA": 4512,
  "\u2581Ehk": 4513,
  "\u2581ohtu": 4514,
  "\u2581meel": 4515,
  "\u2581raudtee": 4516,
  "\u2581tundub": 4517,
  "\u2581s\u00f5lmitud": 4518,
  "\u2581damage": 4519,
  "\u2581m\u00f5te": 4520,
  "\u2581stability": 4521,
  "malt": 4522,
  "\u2581continued": 4523,
  "\u2581programmide": 4524,
  "\u2581j\u00e4rgmiste": 4525,
  "tar": 4526,
  "1.": 4527,
  "\u2581t\u00f6\u00f6tab": 4528,
  "\u2581kindlustus": 4529,
  "\u2581t\u00f5en\u00e4oliselt": 4530,
  "kal": 4531,
  "\u2581sample": 4532,
  "\u2581koolitus": 4533,
  "\u2581examination": 4534,
  "\u2581waters": 4535,
  "\u2581perioodi": 4536,
  "\u2581vaate": 4537,
  "\u2581percentage": 4538,
  "\u2581juhtimise": 4539,
  "\u2581doses": 4540,
  "\u2581jne": 4541,
  "\u2581\u00dcHENDUST": 4542,
  "\u2581consideration": 4543,
  "\u258167": 4544,
  "\u2581COMMUNITIES": 4545,
  "\u2581emergency": 4546,
  "\u258164": 4547,
  "fe": 4548,
  "\u2581ELis": 4549,
  "uge": 4550,
  "\u258163": 4551,
  "\u2581p\u00e4\u00e4se": 4552,
  "\u2581occur": 4553,
  "\u2581kodaniku\u00fchiskon": 4554,
  "\u2581alive": 4555,
  "\u2581kirjeldus": 4556,
  "\u2581Help": 4557,
  "\u2581Mor": 4558,
  "\u00e1": 4559,
  "air": 4560,
  "\u2581Services": 4561,
  "\u2581afraid": 4562,
  "\u2581Internet": 4563,
  "\u2581choose": 4564,
  "\u2581mission": 4565,
  "\u2581feeling": 4566,
  "\u2581Pri": 4567,
  "\u2581enterprises": 4568,
  "AN": 4569,
  "\u2581k\u00f5nealune": 4570,
  "\u2581M\u00f5ned": 4571,
  "\u2581probleemi": 4572,
  "\u2581j\u00e4tkata": 4573,
  "\u2581selected": 4574,
  "\u2581valitud": 4575,
  "\u2581whatever": 4576,
  "\u2581ettepanek": 4577,
  "\u2581kasutaja": 4578,
  "zo": 4579,
  "AT": 4580,
  "41": 4581,
  "\u2581r\u00e4\u00e4gin": 4582,
  "\u2581City": 4583,
  "\u2581James": 4584,
  "\u2581l\u00f5ikega": 4585,
  "\u2581V\u00e4lja": 4586,
  "\u2581perekonna": 4587,
  "\u2581significantly": 4588,
  "ON": 4589,
  "ustatud": 4590,
  "\u2581Cor": 4591,
  "\u2581drawn": 4592,
  "IA": 4593,
  "\u2581protected": 4594,
  "\u2581loans": 4595,
  "\u2581media": 4596,
  "\u2581York": 4597,
  "rin": 4598,
  "\u2581waiting": 4599,
  "\u2581matemaati": 4600,
  "\u2581Would": 4601,
  "\u2581infrastruktuuri": 4602,
  "\u2581valdkondades": 4603,
  "eta": 4604,
  "\u2581Father": 4605,
  "\u2581indicate": 4606,
  "\u2581toob": 4607,
  "\u2581statistics": 4608,
  "\u2581subjects": 4609,
  "\u2581recognition": 4610,
  "\u2581Auto": 4611,
  "43": 4612,
  "\u258198": 4613,
  "91": 4614,
  "\u2581h\u00f5lmavad": 4615,
  "\u2581suuruse": 4616,
  "og": 4617,
  "\u2581digital": 4618,
  "\u2581controls": 4619,
  "\u2581pull": 4620,
  "98": 4621,
  "n\u00e4": 4622,
  "\u2581Star": 4623,
  "\u2581Info": 4624,
  "\u2581muutunud": 4625,
  "\u258166": 4626,
  "\u2581floor": 4627,
  "\u2581esineb": 4628,
  "\u2581presence": 4629,
  "\u2581wood": 4630,
  "\u2581register": 4631,
  "\u2581supporting": 4632,
  "\u2581Taani": 4633,
  "\u2581located": 4634,
  "\u2581transparency": 4635,
  "oli": 4636,
  "lic": 4637,
  "\u2581initiatives": 4638,
  "\u2581n\u00e4hakse": 4639,
  "\u2581trouble": 4640,
  "\u2581mon": 4641,
  "\u2581traffic": 4642,
  "ship": 4643,
  "\u2581enforcement": 4644,
  "\u2581arvamusega": 4645,
  "\u2581intervention": 4646,
  "\u2581k\u00f6\u00f6givilja": 4647,
  "\u2581Che": 4648,
  "\u2581planning": 4649,
  "\u2581commitment": 4650,
  "\u2581uurimise": 4651,
  "\u2581Although": 4652,
  "\u2581L\u00f5una": 4653,
  "\u2581surveillance": 4654,
  "\u2581Law": 4655,
  "\u2581loe": 4656,
  "\u2581n\u00e4gin": 4657,
  "\u2581direktiivis": 4658,
  "\u2581tariff": 4659,
  "\u258186": 4660,
  "\u2581bar": 4661,
  "\u2581hate": 4662,
  "cal": 4663,
  "vii": 4664,
  "\u2581t\u00f5si": 4665,
  "\u2581inspection": 4666,
  "\u2581olemasolevate": 4667,
  "\u2581annus": 4668,
  "\u2581derogation": 4669,
  "\u2581lie": 4670,
  "\u2581paari": 4671,
  "\u2581annust": 4672,
  "\u2581l\u00e4hedal": 4673,
  "\u258103": 4674,
  "\u2581\u00fcldiselt": 4675,
  "ooli": 4676,
  "\u2581siht": 4677,
  "\u2581saamiseks": 4678,
  "\u2581100%": 4679,
  "\u2581valida": 4680,
  "\u2581vegetables": 4681,
  "\u0161": 4682,
  "\u258174": 4683,
  "Pa": 4684,
  "\u2581Human": 4685,
  "\u2581Lisbon": 4686,
  "\u2581Neid": 4687,
  "\u2581enjoy": 4688,
  "\u2581linked": 4689,
  "\u2581preparation": 4690,
  "\u2581mom": 4691,
  "\u2581aircraft": 4692,
  "lon": 4693,
  "\u2581piiri": 4694,
  "\u2581tehniliste": 4695,
  "SK": 4696,
  "\u2581Rahu": 4697,
  "\u2581fields": 4698,
  "var": 4699,
  "\u2581kaupa": 4700,
  "tsu": 4701,
  "\u2581P\u00f5hja": 4702,
  "\u2581v\u00e4ikese": 4703,
  "\u2581functioning": 4704,
  "\u2581introduced": 4705,
  "\u2581]": 4706,
  "\u2581birth": 4707,
  "\u2581Ent": 4708,
  "\u2581\u00f6\u00f6p\u00e4evas": 4709,
  "era": 4710,
  "ized": 4711,
  "\u2581m\u00f5ttes": 4712,
  "\u2581engine": 4713,
  "\u2581Praegu": 4714,
  "\u2581vajadust": 4715,
  "right": 4716,
  "\u2581t\u00f5elise": 4717,
  "\u2581kuulnud": 4718,
  "\u2581otsuses": 4719,
  "\u2581kohustused": 4720,
  "itse": 4721,
  "\u2581completely": 4722,
  "gon": 4723,
  "\u2581tagama": 4724,
  "\u2581whom": 4725,
  "iin": 4726,
  "\u2581107": 4727,
  "\u2581Issand": 4728,
  "FR": 4729,
  "\u2581\u00fcksikasjalikud": 4730,
  "\u2581t\u00e4itmiseks": 4731,
  "\u2581periods": 4732,
  "\u2581oktoober": 4733,
  "\u2581v\u00e4hendamise": 4734,
  "ET": 4735,
  "\u2581claims": 4736,
  "\u2581Lissaboni": 4737,
  "\u2581developments": 4738,
  "ria": 4739,
  "eeru": 4740,
  "\u2581length": 4741,
  "\u2581kaota": 4742,
  "\u2581(7)": 4743,
  "\u2581teenuse": 4744,
  "\u2581k\u00e4ttesaadavaks": 4745,
  "{": 4746,
  "\u2581Gar": 4747,
  "}": 4748,
  "\u2581item": 4749,
  "\u2581erinevad": 4750,
  "\u2581l\u00f5petada": 4751,
  "\u2581double": 4752,
  "\u2581husband": 4753,
  "unny": 4754,
  "\u2581wear": 4755,
  "\u258105": 4756,
  "\u2581Centre": 4757,
  "\u2581mehed": 4758,
  "\u2581noor": 4759,
  "\u2581location": 4760,
  "\u2581Win": 4761,
  "muse": 4762,
  "No": 4763,
  "LI": 4764,
  "\u2581Veel": 4765,
  "67": 4766,
  "\u258192": 4767,
  "\u2581program": 4768,
  ".1": 4769,
  "\u2581absence": 4770,
  "lepingu": 4771,
  "\u2581Without": 4772,
  "\u2581gun": 4773,
  "\u2581kasutus": 4774,
  "tused": 4775,
  "\u2581investeeringute": 4776,
  "\u2581article": 4777,
  "\u2581kuulu": 4778,
  "\u2581Reg": 4779,
  "\u25811%": 4780,
  "luse": 4781,
  "\u2581otseselt": 4782,
  "\u2581military": 4783,
  "\u2581seadmete": 4784,
  "\u2581novembri": 4785,
  "bri": 4786,
  "\u2581eemale": 4787,
  "\u2581tingimustele": 4788,
  "\u2581cultural": 4789,
  "\u00f5pe": 4790,
  "\u2581contributions": 4791,
  "\u2581Communities": 4792,
  "Re": 4793,
  "\u2581processes": 4794,
  "\u2581explain": 4795,
  "\u2581tehnilise": 4796,
  "\u2581confirmed": 4797,
  "\u25812-": 4798,
  "79": 4799,
  "\u2581controlled": 4800,
  "\u2581andeks": 4801,
  "ali": 4802,
  "stamine": 4803,
  "\u2581flight": 4804,
  "\u2581nu": 4805,
  "programmi": 4806,
  "\u2581Number": 4807,
  "\u2581nimekirja": 4808,
  "\u2581moving": 4809,
  "\u2581muutub": 4810,
  "\u2581sold": 4811,
  "NE": 4812,
  "\u2581j\u00e4rgmisel": 4813,
  "\u2581Russia": 4814,
  "\u2581praeguse": 4815,
  "Me": 4816,
  "\u00dchendkuningriigi": 4817,
  "\u2581Kesk": 4818,
  "\u2581ent": 4819,
  "\u2581mechanism": 4820,
  "\u2581showed": 4821,
  "\u2581conducted": 4822,
  "\u2581clean": 4823,
  "\u2581tahtsi": 4824,
  "\u2581esile": 4825,
  "\u2581Plan": 4826,
  "\u2581Poland": 4827,
  "\u2581tulen": 4828,
  "\u2581faith": 4829,
  "\u2581placebo": 4830,
  "\u2581facilities": 4831,
  "usun": 4832,
  "\u2581t\u00f6\u00f6tada": 4833,
  "\u2581neeru": 4834,
  "\u2581tulista": 4835,
  ".3.": 4836,
  "\u2581Kat": 4837,
  "\u2581perfect": 4838,
  "\u2581shares": 4839,
  "\u2581annavad": 4840,
  "\u2581pidevalt": 4841,
  "\u2581jumala": 4842,
  "\u2581Framework": 4843,
  "\u2581direction": 4844,
  "\u2581veterinary": 4845,
  "\u2581seem": 4846,
  "General": 4847,
  "\u2581Aja": 4848,
  "\u2581vastama": 4849,
  "navir": 4850,
  "sen": 4851,
  "\u2581Esimese": 4852,
  "\u2581suhkru": 4853,
  "\u2581noorte": 4854,
  "pra": 4855,
  "\u2581teksti": 4856,
  "\u2581Isegi": 4857,
  "\u2581naer": 4858,
  "2012": 4859,
  "\u2581Events": 4860,
  "\u2581tunnen": 4861,
  "\u2581scar": 4862,
  "92": 4863,
  "\u2581although": 4864,
  "\u2581tava": 4865,
  "\u2581valeta": 4866,
  "info": 4867,
  "\u2581esitama": 4868,
  "\u2581z": 4869,
  "ura": 4870,
  "\u2581uuringutes": 4871,
  "\u2581Show": 4872,
  "\u2581dangerous": 4873,
  "84": 4874,
  "\u2581Sama": 4875,
  "iste": 4876,
  "\u2581girls": 4877,
  "OS": 4878,
  "\u2581avaldamise": 4879,
  "\u2581securities": 4880,
  "aasta": 4881,
  "teenused": 4882,
  "\u2581peate": 4883,
  "\u2581businesses": 4884,
  "\u2581powder": 4885,
  "\u2581v\u00f5rdlus": 4886,
  "\u2581phase": 4887,
  "mon": 4888,
  "\u2581eesm\u00e4rgi": 4889,
  "\u2581Eel": 4890,
  "\u2581drug": 4891,
  "\u2581determining": 4892,
  "uv": 4893,
  "\u2581tulemuste": 4894,
  "\u2581anymore": 4895,
  "\u2581injury": 4896,
  "\u2581licences": 4897,
  "ery": 4898,
  "\u2581vessel": 4899,
  "\u2581l\u00f5plik": 4900,
  "\u2581sinust": 4901,
  "\u2581produce": 4902,
  "eti": 4903,
  "\u2581n\u00e4en": 4904,
  "pre": 4905,
  "\u2581madala": 4906,
  "See": 4907,
  "\u2581ehitus": 4908,
  "\u2581osaliselt": 4909,
  "\u2581VAT": 4910,
  "seid": 4911,
  "tuna": 4912,
  "\u2581ratio": 4913,
  "IP": 4914,
  "\u2581j\u00e4lgida": 4915,
  "\u2581k\u00e4es": 4916,
  "')": 4917,
  "\u2581tahtnud": 4918,
  "\u2581kategooria": 4919,
  "94": 4920,
  "-4": 4921,
  "isu": 4922,
  "\u2581accounting": 4923,
  "\u2581compensation": 4924,
  "\u2581kindlad": 4925,
  "\u2581assess": 4926,
  "\u2581liver": 4927,
  "\u2581ettepanekut": 4928,
  "96": 4929,
  "\u2581married": 4930,
  "\u2581agencies": 4931,
  "\u2581ri": 4932,
  "\u2581\u00fclesannete": 4933,
  "\u2581extra": 4934,
  "\u2581Sub": 4935,
  "\u2581Lu": 4936,
  "\u2581led": 4937,
  "\u2581kasutab": 4938,
  "86": 4939,
  "\u2581Mer": 4940,
  "ace": 4941,
  "\u2581noted": 4942,
  "\u2581600": 4943,
  "ati": 4944,
  "\u2581leaving": 4945,
  "\u2581Business": 4946,
  "mit": 4947,
  "\u2581user": 4948,
  "vaba": 4949,
  "\u2581millin": 4950,
  "\u2581stakeholders": 4951,
  "\u2581uurimis": 4952,
  "\u2581metsa": 4953,
  "\u2581k\u00e4ibemaksu": 4954,
  "\u2581notes": 4955,
  "\u2581l\u00f5una": 4956,
  "\u2581raporti": 4957,
  "\u2581\u00d5": 4958,
  "\u2581Time": 4959,
  "\u2581p\u00f5gene": 4960,
  "\u2581Tra": 4961,
  "\u2581vajab": 4962,
  "amine": 4963,
  "\u2581tingitud": 4964,
  "\u2581remains": 4965,
  "low": 4966,
  "\u2581customers": 4967,
  "\u2581muusika": 4968,
  "\u2581teame": 4969,
  "lit": 4970,
  "ara": 4971,
  "\u258191": 4972,
  "\u2581iganes": 4973,
  "\u2581koosneb": 4974,
  "\u25812:": 4975,
  "\u2581centre": 4976,
  "\u2581nuclear": 4977,
  "\u2581\u00e4ri\u00fchingute": 4978,
  "jo": 4979,
  "\u2581k\u00e4e": 4980,
  "\u2581foto": 4981,
  "\u2581platse": 4982,
  "\u2581COM": 4983,
  "\u2581suri": 4984,
  "\u2581liikmed": 4985,
  "\u2581l\u00f5igus": 4986,
  "2009": 4987,
  "\u2581signed": 4988,
  "\u2581Oo": 4989,
  "\u2581introduction": 4990,
  "teks": 4991,
  "tuks": 4992,
  "\u2581m\u00e4rts": 4993,
  "\u2581n\u00f5ukogule": 4994,
  "\u2581nendest": 4995,
  "uke": 4996,
  "\u2581Product": 4997,
  "kin": 4998,
  "\u2581p\u00fcha": 4999,
  "aalse": 5000,
  "\u2581Sellega": 5001,
  "\u2581rise": 5002,
  "\u2581J\u00e4\u00e4": 5003,
  "\u2581alternative": 5004,
  "81": 5005,
  "\u258173": 5006,
  "\u2581improving": 5007,
  "\u2581functions": 5008,
  "\u2581picture": 5009,
  "\u2581seas": 5010,
  "\u2581Bra": 5011,
  "\u2581Ku": 5012,
  "\u2581kirjutas": 5013,
  "\u2581visit": 5014,
  "isk": 5015,
  "\u2581hinge": 5016,
  "\u2581l\u00e4hed": 5017,
  "\u2581otsustada": 5018,
  "\u2581liik": 5019,
  "book": 5020,
  "\u2581American": 5021,
  "\u2581options": 5022,
  "\u2581\u00fchenduses": 5023,
  "\u2581representatives": 5024,
  "\u2581born": 5025,
  "\u2581Aeg": 5026,
  "\u2581tingimustel": 5027,
  "\u2581flow": 5028,
  "\u2581selja": 5029,
  "\u2581audit": 5030,
  "\u2581bitch": 5031,
  "top": 5032,
  "TA": 5033,
  "77": 5034,
  "\u2581vahele": 5035,
  "\u2581carrying": 5036,
  "\u2581MA": 5037,
  "\u03bc": 5038,
  "\u2581Kontakt": 5039,
  "\u2581twice": 5040,
  "\u2581Nimetatu": 5041,
  "\u2581alustada": 5042,
  "\u2581Osa": 5043,
  "\u2581mar": 5044,
  "78": 5045,
  "\u2581identify": 5046,
  "\u2581Max": 5047,
  "\u2581kasutusele": 5048,
  "\u2581IU": 5049,
  "\u2581Sotsiaalkomitee": 5050,
  "\u2581fisheries": 5051,
  "\u2581rakendamine": 5052,
  "\u2581kuup\u00e4eva": 5053,
  "\u2581poja": 5054,
  "stada": 5055,
  "\u2581Hoia": 5056,
  "q": 5057,
  "\u2581ohutuse": 5058,
  "\u2581ilus": 5059,
  "\u2581conclusions": 5060,
  "\u2581otsuste": 5061,
  "97": 5062,
  "54": 5063,
  "r\u00fchma": 5064,
  "\u2581juhtub": 5065,
  "\u2581carbon": 5066,
  "\u2581minuti": 5067,
  "\u2581plus": 5068,
  "lad": 5069,
  "PL": 5070,
  "\u2581learning": 5071,
  "53": 5072,
  "\u2581m\u00f5juta": 5073,
  "valgu": 5074,
  "37": 5075,
  "\u2581l\u00e4henemisviisi": 5076,
  "aba": 5077,
  "\u2581accept": 5078,
  "\u2581proper": 5079,
  "\u2581p\u00f5hjendatud": 5080,
  "\u2581Norra": 5081,
  "\u2581asjakohase": 5082,
  "\u2581heat": 5083,
  "\u2581store": 5084,
  "66": 5085,
  "can": 5086,
  "PS": 5087,
  "\u2581peat\u00fcki": 5088,
  "\u2581\u00fchtegi": 5089,
  "\u2581build": 5090,
  "\u2581fat": 5091,
  "\u2581kuulda": 5092,
  "\u2581minust": 5093,
  "\u2581North": 5094,
  "\u2581thanks": 5095,
  "\u2581kirjas": 5096,
  "\u2581OTSUSE": 5097,
  "\u2581vial": 5098,
  "year": 5099,
  "\u2581liiki": 5100,
  "-5": 5101,
  "oosi": 5102,
  "\u2581Er": 5103,
  "\u2581kohaliku": 5104,
  "ndid": 5105,
  "\u2581Belgia": 5106,
  "\u2581m\u00e4rkida": 5107,
  "2005": 5108,
  "\u2581falling": 5109,
  "\u2581intra": 5110,
  "rite": 5111,
  "\u2581wide": 5112,
  "elli": 5113,
  "\u2581kohustus": 5114,
  "\u2581vend": 5115,
  "\u258125%": 5116,
  "\u2581Market": 5117,
  "\u2581liit": 5118,
  "\u2581\u00fcha": 5119,
  "\u2581trading": 5120,
  "ndatud": 5121,
  "post": 5122,
  "\u25814,": 5123,
  "\u2581Hold": 5124,
  "\u2581osta": 5125,
  "fil": 5126,
  "\u2581meiega": 5127,
  "\u2581poor": 5128,
  "\u2581h\u00e4ired": 5129,
  "\u2581Title": 5130,
  "\u2581ch": 5131,
  "\u2581imposed": 5132,
  "\u2581revenue": 5133,
  "\u2581(3": 5134,
  "imi": 5135,
  "\u2581committee": 5136,
  "\u2581eelnevalt": 5137,
  "-10": 5138,
  "\u2581Nor": 5139,
  "\u2581Black": 5140,
  ":00": 5141,
  "\u2581Type": 5142,
  "\u2581t\u00f5us": 5143,
  "\u2581jaanuarist": 5144,
  "\u2581leidis": 5145,
  "\u2581elada": 5146,
  "\u2581raw": 5147,
  "\u2581hommikul": 5148,
  "\u2581supervision": 5149,
  "\u00fcr": 5150,
  "\u2581arengut": 5151,
  "fin": 5152,
  "kood": 5153,
  "homme": 5154,
  "\u2581tarbija": 5155,
  "\u2581t\u00f5siselt": 5156,
  "\u2581assessed": 5157,
  "\u2581veo": 5158,
  "\u2581patsiendi": 5159,
  "\u2581kohale": 5160,
  "\u2581s\u00f5idukite": 5161,
  "\u2581Riigi": 5162,
  "\u00b0": 5163,
  "\u2581bi": 5164,
  "\u2581advantage": 5165,
  "\u2581View": 5166,
  "\u2581highly": 5167,
  "\u2581languages": 5168,
  "\u2581telling": 5169,
  "menetluse": 5170,
  "\u2581nimega": 5171,
  "\u2581kanda": 5172,
  "\u2581temast": 5173,
  "\u2581inim\u00f5iguste": 5174,
  "\u2581tulevikus": 5175,
  "\u2581Company": 5176,
  "\u2581t\u00f5sta": 5177,
  "\u2581kohase": 5178,
  "\u2581cold": 5179,
  "\u2581estimated": 5180,
  "\u2581mouth": 5181,
  "\u2581trials": 5182,
  "\u2581Research": 5183,
  "isi": 5184,
  "\u2581eesm\u00e4rgid": 5185,
  "\u2581m\u00f5nda": 5186,
  "\u2581mitmeid": 5187,
  "\u2581rapporteur": 5188,
  "\u2581amendment": 5189,
  "\u2581priorities": 5190,
  "\u2581criminal": 5191,
  "\u2581juhtumi": 5192,
  "\u2581Before": 5193,
  "\u2581meele": 5194,
  "\u2581boys": 5195,
  "\u2581effectiveness": 5196,
  "\u2581oluliste": 5197,
  "ft": 5198,
  "\u2581t\u00e4heldatud": 5199,
  "\u2581S\u00f5": 5200,
  "\u2581cool": 5201,
  "gin": 5202,
  "teri": 5203,
  "\u2581venna": 5204,
  "\u2581SMEs": 5205,
  "\u2581Selline": 5206,
  "\u2581dog": 5207,
  "\u2581UK": 5208,
  "\u2581Case": 5209,
  "\u2581Lau": 5210,
  "\u2581element": 5211,
  "\u258182": 5212,
  "\u2581tarbijate": 5213,
  "kat": 5214,
  "\u2581agents": 5215,
  "\u2581extended": 5216,
  "\u2581edaspidi": 5217,
  "\u2581korralduse": 5218,
  "eemia": 5219,
  "\u2581designated": 5220,
  "eda": 5221,
  "\u2581Put": 5222,
  "\u2581halb": 5223,
  "\u2581sister": 5224,
  "rad": 5225,
  "\u2581uurimisperioodi": 5226,
  "tasu": 5227,
  "\u2581statistical": 5228,
  "sp": 5229,
  "\u2581delay": 5230,
  "\u2581armu": 5231,
  "\u2581chemical": 5232,
  "\u2581treat": 5233,
  "\u2581m\u00e4\u00e4rusele": 5234,
  "\u2581channel": 5235,
  "\u2581K\u00f5ige": 5236,
  "\u2581delegeeritud": 5237,
  "\u2581september": 5238,
  "\u2581m\u00e4rgib": 5239,
  "\u2581playing": 5240,
  "\u2581instead": 5241,
  "\u2581competitiveness": 5242,
  "kuse": 5243,
  "\u2581sometimes": 5244,
  "ya": 5245,
  "\u2581dialoogi": 5246,
  "\u2581n\u00e4dalat": 5247,
  "\u2581luge": 5248,
  "\u2581alguses": 5249,
  "\u2581repeal": 5250,
  "ial": 5251,
  "\u2581offered": 5252,
  "\u2581experts": 5253,
  "\u2581peetakse": 5254,
  "\u2581Greece": 5255,
  "\u2581seire": 5256,
  "\u2581olukorras": 5257,
  "\u2581consistent": 5258,
  "rea": 5259,
  "93": 5260,
  "\u2581november": 5261,
  "\u2581v\u00e4iksem": 5262,
  "\u2581worth": 5263,
  "1)": 5264,
  "maja": 5265,
  "\u2581\u2264": 5266,
  "51": 5267,
  "ros": 5268,
  "\u2581va": 5269,
  "mini": 5270,
  "\u2581computer": 5271,
  "\u2581j\u00f5ua": 5272,
  "\u2581kasutavad": 5273,
  "\u2581andme": 5274,
  "\u2581eksi": 5275,
  "ius": 5276,
  "\u2581Chi": 5277,
  "\u2581hindade": 5278,
  "\u2581sick": 5279,
  "\u2581America": 5280,
  "\u2581quota": 5281,
  "erry": 5282,
  "\u2581former": 5283,
  "dan": 5284,
  "\u258177": 5285,
  "maksu": 5286,
  "\u2581accompanied": 5287,
  "\u2581n\u00e4idata": 5288,
  "\u2581Mag": 5289,
  "wi": 5290,
  "\u258168": 5291,
  "aasi": 5292,
  "\u2581Ms": 5293,
  "\u2581tingimuste": 5294,
  "\u2581calculation": 5295,
  "\u2581abiellu": 5296,
  "\u2581Open": 5297,
  "\u2581felt": 5298,
  "t\u00f6\u00f6d": 5299,
  "MS": 5300,
  "\u2581koostatud": 5301,
  "\u2581grounds": 5302,
  "\u2581impairment": 5303,
  "\u2581rakendus": 5304,
  "\u2581p\u00f6\u00f6ra": 5305,
  "\u2581generally": 5306,
  "\u2581everybody": 5307,
  "\u2581raamatupidamis": 5308,
  "avi": 5309,
  "\u2581uuringute": 5310,
  "\u2581kellega": 5311,
  "\u2581[5]": 5312,
  "\u2581m\u00e4rtsi": 5313,
  "coated": 5314,
  "\u2581mainly": 5315,
  "\u2581Sure": 5316,
  "\u2581names": 5317,
  "ess": 5318,
  "\u2581tulemusena": 5319,
  "\u2581136": 5320,
  "\u2581p\u00e4devad": 5321,
  "\u2581version": 5322,
  "lip": 5323,
  "\u2581loomise": 5324,
  "\u2581k\u00fclm": 5325,
  "excluding": 5326,
  "\u2581write": 5327,
  "\u2581seadmed": 5328,
  "\u2581Witnesses": 5329,
  "\u2581erinevaid": 5330,
  "\u2581Area": 5331,
  "\u2581entitled": 5332,
  "\u2581mikro": 5333,
  "\u2581m\u00f5jutada": 5334,
  "\u25814.2": 5335,
  "\u2581charges": 5336,
  "\u2581verification": 5337,
  "v\u00e4": 5338,
  "UL": 5339,
  "\u2581Free": 5340,
  "\u2581measured": 5341,
  "\u2581strengthen": 5342,
  "asutus": 5343,
  "\u2581suitable": 5344,
  "riigi": 5345,
  "taseme": 5346,
  "\u2581add": 5347,
  "RR": 5348,
  "\u2581Study": 5349,
  "maid": 5350,
  "\u2581COUNCIL": 5351,
  "\u25811998": 5352,
  "\u2581tekkinud": 5353,
  "\u2581103": 5354,
  "esi": 5355,
  "European": 5356,
  "\u2581Netherlands": 5357,
  "\u2581lines": 5358,
  "\u2581parlamendi": 5359,
  "ser": 5360,
  "\u2581olulised": 5361,
  "\u2581teenuseid": 5362,
  "\u2581complex": 5363,
  "71": 5364,
  "\u2581ajaloo": 5365,
  "idega": 5366,
  ".9.": 5367,
  "\u2581pani": 5368,
  "\u2581ametliku": 5369,
  "\u2581lepingute": 5370,
  "ista": 5371,
  "\u2581sodium": 5372,
  "cha": 5373,
  "konkurentsiv\u00f5ime": 5374,
  "\u2581George": 5375,
  "AR": 5376,
  "\u2581r\u00e4\u00e4gib": 5377,
  "\u2581Ab": 5378,
  "\u2581miss": 5379,
  "\u2581Mary": 5380,
  "\u2581pol\u00fcmeeri": 5381,
  "\u2581till": 5382,
  "2002": 5383,
  "\u2581leading": 5384,
  "\u2581h\u00fcper": 5385,
  ".1.": 5386,
  "\u258181": 5387,
  "\u2581p\u00fc\u00fcgi": 5388,
  "\u2581kasutama": 5389,
  "\u2581alcohol": 5390,
  "\u2581Kelle": 5391,
  "nia": 5392,
  "\u2581reasonable": 5393,
  "\u2581mingeid": 5394,
  "ides": 5395,
  "\u2581m\u00e4\u00e4r": 5396,
  ".2.": 5397,
  "\u2581row": 5398,
  "\u25811234/2007": 5399,
  "\u2581recital": 5400,
  "seadmed": 5401,
  "\u2581codes": 5402,
  "uda": 5403,
  "\u2581aprill": 5404,
  "\u2581l\u00f5pus": 5405,
  "ose": 5406,
  "\u2581train": 5407,
  "\u2581Luxembourg": 5408,
  "\u2581hetke": 5409,
  "\u2581Members": 5410,
  "\u2581s\u00fcsti": 5411,
  "lasi": 5412,
  "\u2581green": 5413,
  "\u2581tulevad": 5414,
  "\u2581insuliini": 5415,
  "aastase": 5416,
  "\u2581haigus": 5417,
  "\u2581juurdep\u00e4\u00e4s": 5418,
  "\u2581lennujaam": 5419,
  "ys": 5420,
  "asti": 5421,
  "\u2581dokumendid": 5422,
  "\u2581relevance": 5423,
  "\u2581puudutab": 5424,
  "\u2581teatatud": 5425,
  "\u2581differences": 5426,
  "\u258171": 5427,
  "\u25814.4": 5428,
  "\u258194": 5429,
  "\u2581Miss": 5430,
  "\u2581promoting": 5431,
  "dumping": 5432,
  "but": 5433,
  "elda": 5434,
  "\u2581valik": 5435,
  "rist": 5436,
  "\u2581paljude": 5437,
  "\u2581obtain": 5438,
  "\u2581Ak": 5439,
  "\u2581seat": 5440,
  "\u2581infusion": 5441,
  "mused": 5442,
  "\u2581palus": 5443,
  "\u2581promise": 5444,
  "\u2581saata": 5445,
  "\u2581Abi": 5446,
  "cor": 5447,
  "\u2581Standard": 5448,
  "2000": 5449,
  "\u2581earlier": 5450,
  "\u2581piirkondade": 5451,
  "tric": 5452,
  "\u2581juhi": 5453,
  "\u2581teadusuuringute": 5454,
  "\u2581aju": 5455,
  "\u2581hooli": 5456,
  "\u2581k\u00fcmne": 5457,
  "\u2581vajaliku": 5458,
  "\u2581strategic": 5459,
  "-1-": 5460,
  "\u2581s\u00fcsteemide": 5461,
  "\u2581serve": 5462,
  "\u2581Lei": 5463,
  "\u2581stocks": 5464,
  "\u2581competitive": 5465,
  "\u2581geographical": 5466,
  "\u2581M\u00f5": 5467,
  "\u00f5iguse": 5468,
  "\u2581dry": 5469,
  "\u2581vihka": 5470,
  "where": 5471,
  "tesse": 5472,
  "kulud": 5473,
  "\u2581asjakohased": 5474,
  "\u2581n\u00e4gi": 5475,
  "kattega": 5476,
  "\u2581kur": 5477,
  "IM": 5478,
  "\u2581Mark": 5479,
  "\u2581m\u00e4\u00e4ra": 5480,
  "2016": 5481,
  "\u2581kaitstud": 5482,
  "\u2581tonnes": 5483,
  "8%": 5484,
  "\u2581taotlus": 5485,
  "\u2581effectively": 5486,
  "nder": 5487,
  "\u2581olulist": 5488,
  "\u2581leaflet": 5489,
  "\u2581t\u00e4ieliku": 5490,
  "ative": 5491,
  "2011": 5492,
  "\u2581v\u00f5iksid": 5493,
  "\u2581eeln\u00f5u": 5494,
  "\u2581aprilli": 5495,
  "\u2581Han": 5496,
  "oos": 5497,
  "\u2581games": 5498,
  "\u2581operatsiooni": 5499,
  "\u2581lugeda": 5500,
  "\u2581leidsi": 5501,
  "\u2581spiritual": 5502,
  "\u2581Iirimaa": 5503,
  "\u2581allocated": 5504,
  "\u2581ohutu": 5505,
  "0,000": 5506,
  "\u2581Kokku": 5507,
  "\u2581loetakse": 5508,
  "\u2581wall": 5509,
  "\u2581\u00dclemkogu": 5510,
  "aani": 5511,
  "\u2581judgment": 5512,
  "\u2581permit": 5513,
  "\u2581puuduvad": 5514,
  "\u2581residence": 5515,
  "\u2581profit": 5516,
  "\u25812005,": 5517,
  "\u2581straight": 5518,
  "\u2581combined": 5519,
  "\u2581individuals": 5520,
  "\u2581hinnangu": 5521,
  "\u2581needle": 5522,
  "sust": 5523,
  "BI": 5524,
  "\u2581inimest": 5525,
  "\u2581Green": 5526,
  "v\u00e4\u00e4rtus": 5527,
  "\u2581Alates": 5528,
  "\u2581p\u00f5llumajanduse": 5529,
  "\u2581Hall": 5530,
  "\u2581aitavad": 5531,
  "AM": 5532,
  "\u2581sun": 5533,
  "\u2581P\u00fcha": 5534,
  "kiri": 5535,
  "\u2581meeste": 5536,
  "\u2581rakendamist": 5537,
  "\u2581detail": 5538,
  "ox": 5539,
  "\u2581Up": 5540,
  "\u2581Inter": 5541,
  "\u2581App": 5542,
  "\u2581Gi": 5543,
  "58": 5544,
  "\u2581Make": 5545,
  "\u2581konkreetse": 5546,
  "\u2581Anti": 5547,
  "\u258130%": 5548,
  "\u2581Kahju": 5549,
  "\u2581meeles": 5550,
  "\u2581simply": 5551,
  "\u2581Bro": 5552,
  "ameti": 5553,
  "5.": 5554,
  "\u2581osaleda": 5555,
  "\u2581patsiendid": 5556,
  "old": 5557,
  "\u2581sets": 5558,
  "\u2581micro": 5559,
  "\u2581inimestele": 5560,
  "\u2581Jean": 5561,
  "\u2581varade": 5562,
  "\u2581ad": 5563,
  "ize": 5564,
  "enda": 5565,
  "\u2581laadi": 5566,
  "\u2581catch": 5567,
  "\u2581t\u00f5i": 5568,
  "dra": 5569,
  "\u2581Liidus": 5570,
  "\u2581opened": 5571,
  "3)": 5572,
  "\u2581driving": 5573,
  "itis": 5574,
  "\u2581recorded": 5575,
  "\u2581teadnud": 5576,
  "\u25812001.": 5577,
  "\u2581bear": 5578,
  "9%": 5579,
  "korra": 5580,
  "\u2581NUMBER": 5581,
  "\u2581kust": 5582,
  "PT": 5583,
  "\u2581metal": 5584,
  "\u2581tablet": 5585,
  "\u2581numbri": 5586,
  "CH": 5587,
  "\u2581t\u00fctar": 5588,
  "\u2581\u00fctlema": 5589,
  "\u2581omadused": 5590,
  "\u2581Kuni": 5591,
  "\u2581IS": 5592,
  "\u2581Word": 5593,
  "\u2581win": 5594,
  "\u2581constitute": 5595,
  "\u2581suurte": 5596,
  "\u2581motor": 5597,
  "\u2581ametiasutuste": 5598,
  "\u2581search": 5599,
  "\u2581rakendamiseks": 5600,
  "\u2581muudatused": 5601,
  "\u2581s\u00f5it": 5602,
  "\u2581notify": 5603,
  "\u2581agency": 5604,
  "\u2581rakendatakse": 5605,
  "art": 5606,
  "\u2581delivery": 5607,
  "\u2581pet": 5608,
  "\u2581participate": 5609,
  "nfusiooni": 5610,
  "\u2581s\u00f5ltub": 5611,
  "gg": 5612,
  "57": 5613,
  "\u2581Dam": 5614,
  "\u2581happens": 5615,
  "\u2581modified": 5616,
  "\u2581suutnud": 5617,
  "\u2581p\u00e4\u00e4sta": 5618,
  "\u2581touch": 5619,
  "\u2581veebruar": 5620,
  "\u2581monitor": 5621,
  "oomi": 5622,
  "leht": 5623,
  "\u2581component": 5624,
  "\u2581krediidi": 5625,
  "\u2581West": 5626,
  "ST": 5627,
  "ola": 5628,
  "\u2581Niisiis": 5629,
  "\u2581presidendi": 5630,
  "\u2581closed": 5631,
  "\u2581s\u00f5nad": 5632,
  "\u2581maitse": 5633,
  "\u2581Patients": 5634,
  "\u2581Ros": 5635,
  "\u2581kohalike": 5636,
  "\u25812006,": 5637,
  "Si": 5638,
  "ics": 5639,
  "\u2581cancer": 5640,
  "\u2581visa": 5641,
  "\u2581l\u00f5ppu": 5642,
  "\u258169": 5643,
  "\u2581comprehensive": 5644,
  "73": 5645,
  "\u2581personali": 5646,
  "\u2581situations": 5647,
  "\u2581manustamist": 5648,
  "\u2581muul": 5649,
  "\u2581k\u00f5igest": 5650,
  "uni": 5651,
  "\u2581Credit": 5652,
  "assi": 5653,
  "2006": 5654,
  "\u2581Sweden": 5655,
  "\u2581ligi": 5656,
  "\u2581participating": 5657,
  "\u2581\u00b1": 5658,
  "What": 5659,
  "\u2581leg": 5660,
  "\u2581P\u00e4r": 5661,
  "\u2581finally": 5662,
  "64": 5663,
  "tsid": 5664,
  "aine": 5665,
  "\u2581tulid": 5666,
  "ane": 5667,
  "\u2581sajandi": 5668,
  "ume": 5669,
  "\u2581allocation": 5670,
  "\u2581\u00fcksik": 5671,
  "\u258179": 5672,
  "\u2581extreme": 5673,
  "\u2581palga": 5674,
  "likke": 5675,
  "\u2581reducing": 5676,
  "\u2581toimet": 5677,
  "\u2581vs": 5678,
  "\u2581successful": 5679,
  "rt": 5680,
  "\u2581loan": 5681,
  "tooted": 5682,
  "\u2581t\u00fc\u00fcbi": 5683,
  "m\u00e4\u00e4ra": 5684,
  "\u2581quickly": 5685,
  "\u2581vastavate": 5686,
  "\u2581load": 5687,
  "kala": 5688,
  "tule": 5689,
  "\u2581sellep\u00e4rast": 5690,
  "\u2581decrease": 5691,
  "eth": 5692,
  "\u2581kohaldamisel": 5693,
  "\u2581valdkonna": 5694,
  "ax": 5695,
  "\u2581Which": 5696,
  "\u2581detsembril": 5697,
  "\u2581god": 5698,
  "\u2581brain": 5699,
  "\u2581oodata": 5700,
  "\u2581vaimu": 5701,
  "\u2581syringe": 5702,
  "\u2581Safety": 5703,
  "desse": 5704,
  "\u2581commitments": 5705,
  "\u2581seep\u00e4rast": 5706,
  "\u2581attack": 5707,
  "!\"": 5708,
  "stiku": 5709,
  "\u2581K\u00f5nealuse": 5710,
  "\u2581understanding": 5711,
  "\u2581Pal": 5712,
  "\u2581Pat": 5713,
  "andmete": 5714,
  "\u2581v\u00f5imu": 5715,
  "tult": 5716,
  "war": 5717,
  "\u2581certificates": 5718,
  "enti": 5719,
  "\u2581lamps": 5720,
  "kra": 5721,
  "MA": 5722,
  "\u2265": 5723,
  "\u2581lu": 5724,
  "82": 5725,
  "\u2581budgetary": 5726,
  "\u2581eesm\u00e4rgiga": 5727,
  "\u2581copy": 5728,
  "\u2581j\u00e4": 5729,
  "\u2581reformi": 5730,
  "\u2581nt": 5731,
  "\u2581hommiku": 5732,
  "\u2581prevention": 5733,
  "\u2581encourage": 5734,
  "dis": 5735,
  "\u2581Ren": 5736,
  "\u2581Martin": 5737,
  "\u2581rikkumise": 5738,
  "\u2581breast": 5739,
  "\u2581London": 5740,
  "\u2581granting": 5741,
  "kust": 5742,
  "\u2581Saada": 5743,
  "\u2581kriteeriumid": 5744,
  "\u25813:": 5745,
  "\u2581toode": 5746,
  "\u2581kantud": 5747,
  "\u2581Affairs": 5748,
  "alt": 5749,
  "\u2581reading": 5750,
  "ted": 5751,
  "\u2581dokumentide": 5752,
  "\u2581ohu": 5753,
  "\u00dcVJP": 5754,
  "\u2581count": 5755,
  "\u2581uurida": 5756,
  "kk": 5757,
  "uli": 5758,
  "vas": 5759,
  "ov": 5760,
  "\u2581offers": 5761,
  "[": 5762,
  "\u2581Vt": 5763,
  "\u2581m\u00e4ng": 5764,
  "\u2581n\u00e4itavad": 5765,
  "\u2581kehtivad": 5766,
  "alli": 5767,
  "\u2581meditsiini": 5768,
  "\u2581signs": 5769,
  "\u2581exist": 5770,
  "last": 5771,
  "red": 5772,
  "\u2581majandusliku": 5773,
  "\u2581correct": 5774,
  "\u2581classification": 5775,
  "\u2581shoot": 5776,
  "iz": 5777,
  "\u2581indicators": 5778,
  "\u2581septembri": 5779,
  "ano": 5780,
  "\u2581Za": 5781,
  "\u2581Fe": 5782,
  "\u2581jms": 5783,
  "\u2581tingimusi": 5784,
  "\u2581involving": 5785,
  ".4.": 5786,
  "\u2581instructions": 5787,
  "\u2581Over": 5788,
  "kuu": 5789,
  "\u2581Col": 5790,
  "\u2581Gre": 5791,
  "iness": 5792,
  "\u2581flag": 5793,
  "\u2581kutsub": 5794,
  "\u2581ajutise": 5795,
  "\u2581deep": 5796,
  "\u2581p\u00f6\u00f6rdu": 5797,
  "-6": 5798,
  "\u2581track": 5799,
  "\u2581hilja": 5800,
  "\u2581t\u00fc\u00fcbikinnituse": 5801,
  "\u2581allows": 5802,
  "\u2581liikumise": 5803,
  "friend": 5804,
  "\u2581rakenduseeskirj": 5805,
  "\u2581Daniel": 5806,
  "\u2581tabletti": 5807,
  "\u2581News": 5808,
  "\u2581governance": 5809,
  "\u2581k\u00e4itaja": 5810,
  "\u2581kulusid": 5811,
  "76": 5812,
  "pul": 5813,
  "don": 5814,
  "\u2581eesm\u00e4rke": 5815,
  "\u2581influence": 5816,
  "\u2581mechanisms": 5817,
  "\u2581muutmise": 5818,
  "\u2581built": 5819,
  "\u2581heli": 5820,
  "\u2581vanemad": 5821,
  "\u2581Paris": 5822,
  "\u2581strength": 5823,
  "\u2581tants": 5824,
  "\u2581p\u00fcsi": 5825,
  "ez": 5826,
  "\u2581n\u00f5": 5827,
  "\u2581Kasuta": 5828,
  "\u2581liikme": 5829,
  "\u2581em": 5830,
  "\u2581milleks": 5831,
  "\u2581damn": 5832,
  "berg": 5833,
  "\u2581uniform": 5834,
  "\u00fc\u00fc": 5835,
  "\u2581scale": 5836,
  "\u2581Pan": 5837,
  "\u00e4\u00e4": 5838,
  "\u258196": 5839,
  "kindlaksm\u00e4\u00e4ratud": 5840,
  "\u2581leidnud": 5841,
  "\u2581Africa": 5842,
  "long": 5843,
  "\u2581existence": 5844,
  "\u2581suurusega": 5845,
  "\u2581piiraks": 5846,
  "\u2581respective": 5847,
  "\u2581procurement": 5848,
  "burg": 5849,
  "cho": 5850,
  "\u2581j\u00f5ud": 5851,
  "vuse": 5852,
  "\u2581asking": 5853,
  "\u2581fund": 5854,
  "meetmed": 5855,
  "\u2581aware": 5856,
  "\u2581tehti": 5857,
  "\u25811997": 5858,
  "\u25811992": 5859,
  "\u2581software": 5860,
  "\u2581GmbH": 5861,
  "\u2581incorporated": 5862,
  "\u2581infection": 5863,
  "\u2581effort": 5864,
  "part": 5865,
  "\u2581Kust": 5866,
  "\u2581raise": 5867,
  "fr": 5868,
  "\u2581tekib": 5869,
  "\u2581crime": 5870,
  "\u2581kohane": 5871,
  "uba": 5872,
  "\u2581ravim": 5873,
  "\u2581advance": 5874,
  "unt": 5875,
  "nime": 5876,
  "61": 5877,
  "\u2581CHAPTER": 5878,
  "\u2581column": 5879,
  "\u2581olgu": 5880,
  "\u2581Kur": 5881,
  "\u2581Nice": 5882,
  "\u2581reaction": 5883,
  "-7": 5884,
  "\u2581decree": 5885,
  "\u2581meest": 5886,
  "korvi": 5887,
  "\u2581Annexes": 5888,
  "\u2581wrote": 5889,
  "\u2581Denmark": 5890,
  "\u2581dr": 5891,
  "\u2581Czech": 5892,
  "\u2581holder": 5893,
  "\u2581sem": 5894,
  "hind": 5895,
  "\u2581processed": 5896,
  "CFSP": 5897,
  "\u2581tahaksin": 5898,
  "\u2581pakkumise": 5899,
  "\u2581DECISION": 5900,
  "\u2581r\u00e4\u00e4kinud": 5901,
  "\u00fcritus": 5902,
  "1%": 5903,
  "\u2581p\u00e4deva": 5904,
  "\u2581kutsu": 5905,
  "\u2581iron": 5906,
  "\u2581alal": 5907,
  "\").": 5908,
  "puu": 5909,
  "\u2581lay": 5910,
  "ates": 5911,
  "r\u00fc": 5912,
  "\u2581lahendada": 5913,
  "\u2581vea": 5914,
  "m\u00e4": 5915,
  "\u2581tul": 5916,
  "\u2581tulenevad": 5917,
  "\u2581kohas": 5918,
  "\u2581suspension": 5919,
  "\u2581Vali": 5920,
  "\u2581secret": 5921,
  "\u2581tasemel": 5922,
  "\u2581tugevdada": 5923,
  "\u2581t\u00f6\u00f6deldud": 5924,
  "\u2581places": 5925,
  "ture": 5926,
  "/4": 5927,
  "\u2581appear": 5928,
  "\u2581usalda": 5929,
  "\u2581Belgium": 5930,
  "\u2581community": 5931,
  "\u2581\u00dche": 5932,
  "\u2581Millal": 5933,
  "\u2581massist": 5934,
  "\u2581Kolm": 5935,
  "\u2581tugev": 5936,
  "\u2581seed": 5937,
  "\u2581Zo": 5938,
  "\u2581Finally": 5939,
  "\u2581\u00d5igus": 5940,
  "\u2581OR": 5941,
  "ksite": 5942,
  "\u258176": 5943,
  "\u2581Pen": 5944,
  "\u2581deemed": 5945,
  "\u2581fear": 5946,
  "\u2581viib": 5947,
  "\u2581tehnika": 5948,
  "\u2581tehingute": 5949,
  "elu": 5950,
  "\u2581hindamine": 5951,
  "\u2581lennujaama": 5952,
  "\u2581loodan": 5953,
  "\u258104": 5954,
  "\u2581AUTHORISATION": 5955,
  "\u2581lays": 5956,
  "\u2581pregnant": 5957,
  "\u25812020.": 5958,
  "\u2581avalik": 5959,
  "\u2581s\u00e4\u00e4stva": 5960,
  "\u2581positions": 5961,
  "\u2581Italian": 5962,
  "\u2581structural": 5963,
  "\u2581ukse": 5964,
  "\";": 5965,
  "\u2581aadress": 5966,
  "\u2581kohvi": 5967,
  "\u2581v\u00e4ltel": 5968,
  "\u2581\u00dcld": 5969,
  "\u2581feet": 5970,
  "ky": 5971,
  "\u2581tasandi": 5972,
  "\u2581n\u00f5uetekohaselt": 5973,
  "\u2581supervisory": 5974,
  "bit": 5975,
  "uch": 5976,
  "alase": 5977,
  "\u2581posti": 5978,
  "\u2581vaatama": 5979,
  "\u2581aimed": 5980,
  "\u2581kaheksa": 5981,
  "\u2581ajaks": 5982,
  "\u2581soovitatav": 5983,
  "misele": 5984,
  "linna": 5985,
  "eerimise": 5986,
  "pel": 5987,
  "\u2581125": 5988,
  "\u2581promotion": 5989,
  "\u2581discuss": 5990,
  "\u2581\u00fchiskonna": 5991,
  "72": 5992,
  "\u2581l\u00f5igu": 5993,
  "\u2581kohustuse": 5994,
  "\u2581volinik": 5995,
  "\u2581SE": 5996,
  "kategooria": 5997,
  "\u2581window": 5998,
  "\u2581siseriiklike": 5999,
  "\u2581tegemise": 6000,
  "\u25812004,": 6001,
  "\u2581vajalike": 6002,
  "\u2581Uue": 6003,
  "\u2581transaction": 6004,
  "\u2581closely": 6005,
  "\u2581Ser": 6006,
  "\u2581declared": 6007,
  "\u20ac": 6008,
  "\u2581ID": 6009,
  "\u2581exports": 6010,
  "\u2581veini": 6011,
  "\u2581teatab": 6012,
  "\u2581identifitseeri": 6013,
  "\u2581kasutatava": 6014,
  "\u2581manufacture": 6015,
  "number": 6016,
  "\u2581k\u00f5rvaltoimed": 6017,
  "\u2581oht": 6018,
  "\u2581pension": 6019,
  "\u2581K\u00fc": 6020,
  "\u2581employees": 6021,
  "\u2581planned": 6022,
  "\u2581hooldus": 6023,
  "\u2581Rules": 6024,
  ".5.": 6025,
  "\u2581Aita": 6026,
  "\u2581arvamus": 6027,
  "\u2581targets": 6028,
  "7%": 6029,
  "ping": 6030,
  "bis": 6031,
  "bor": 6032,
  "\u2581selection": 6033,
  "\u2581Rumeenia": 6034,
  "\u2581suurep\u00e4rane": 6035,
  "\u2581consequences": 6036,
  "\u2581teisiti": 6037,
  "\u2581Most": 6038,
  "\u2581p\u00f5hjus": 6039,
  "\u2581quotas": 6040,
  "\u2581hiljuti": 6041,
  "\u2581m\u00f5lema": 6042,
  "\u2581Vabariik": 6043,
  "misi": 6044,
  "\u2581v\u00f5idakse": 6045,
  "board": 6046,
  "\u2581jaanuar": 6047,
  "\u2581kindla": 6048,
  "\u2581asjaomane": 6049,
  "ale": 6050,
  "oloogia": 6051,
  "\u2581guarantees": 6052,
  "\u2581t\u00f6\u00f6taja": 6053,
  "\u2581mutual": 6054,
  "\u2581kaetud": 6055,
  "rik": 6056,
  "raha": 6057,
  "\u2581delivered": 6058,
  "\u2581fondi": 6059,
  "42": 6060,
  "\u2581Search": 6061,
  "\u2581h\u00e4\u00e4leta": 6062,
  "aks": 6063,
  "\u2581appointed": 6064,
  "\u2581tarkvara": 6065,
  "\u2581kogus": 6066,
  "\u2581rare": 6067,
  "\u2581improved": 6068,
  "mal": 6069,
  "\u2581eight": 6070,
  "\u2581koost\u00f6\u00f6s": 6071,
  "\u2581k\u00fcla": 6072,
  "\u2581stupid": 6073,
  "\u2581smart": 6074,
  "\u2581suurim": 6075,
  "\u2581kutsus": 6076,
  "\u2581konto": 6077,
  "rick": 6078,
  "ula": 6079,
  "\u2581Romania": 6080,
  "\u2581Products": 6081,
  "\u25812007,": 6082,
  "\u2581v\u00f5imaliku": 6083,
  "\u2581Madam": 6084,
  "\u2581eraldatud": 6085,
  "taja": 6086,
  "\u2581seisukohast": 6087,
  "\u2581hoia": 6088,
  "ssa": 6089,
  "\u2581Kohe": 6090,
  "YP": 6091,
  "uff": 6092,
  "\u2581piisav": 6093,
  "\u2581growing": 6094,
  "ore": 6095,
  "\u2581honey": 6096,
  "\u2581neutr": 6097,
  "\u2581S\u00fcn": 6098,
  "omi": 6099,
  "addy": 6100,
  "\u2581Kor": 6101,
  "\u2581improvement": 6102,
  "\u2581tahavad": 6103,
  "\u2581\u00e4r": 6104,
  "\u2581Teil": 6105,
  "\u2581square": 6106,
  "\u2581K\u00e4i": 6107,
  "ents": 6108,
  "\u2581arendada": 6109,
  "\u2581classified": 6110,
  "\u2581t\u00e4nava": 6111,
  "fo": 6112,
  "\u2581laevade": 6113,
  "v\u00f5ime": 6114,
  "\u2581fell": 6115,
  "\u2581jo": 6116,
  "\u2581Palju": 6117,
  "\u2581subsequent": 6118,
  "\u2581hospital": 6119,
  "UM": 6120,
  "\u2581esimesel": 6121,
  "\u2581calling": 6122,
  "100": 6123,
  "\u2581liikmesriike": 6124,
  "\u2581mobility": 6125,
  "tsus": 6126,
  "\u2581Ana": 6127,
  "\u2581finance": 6128,
  "\u2581k\u00f5igil": 6129,
  "\u2581hu": 6130,
  "\u2581Sil": 6131,
  "\u2581\u00fclemaailmse": 6132,
  "\u2581laul": 6133,
  "\u2581tagatud": 6134,
  "\u2581s\u00f5ltumatu": 6135,
  "ell": 6136,
  "\u2581kinnitatud": 6137,
  "\u2581tervita": 6138,
  "\u2581siseturu": 6139,
  "\u2581hetk": 6140,
  "mid": 6141,
  "\u2581moved": 6142,
  "\u2581latter": 6143,
  "tingimused": 6144,
  "\u2581rural": 6145,
  "\u2581Bill": 6146,
  "\u25811999.": 6147,
  "\u2581extension": 6148,
  "69": 6149,
  "olo": 6150,
  "\u2581began": 6151,
  "tika": 6152,
  "\u2581bra": 6153,
  "\u2581t\u00f6\u00f6stuse": 6154,
  "\u2581burden": 6155,
  "\u2581IX": 6156,
  "\u2581haiguse": 6157,
  "\u25812000.": 6158,
  "\u2581concentrations": 6159,
  "ign": 6160,
  "\u2581Kohus": 6161,
  "\u2581decreased": 6162,
  "\u2581mootori": 6163,
  "\u2581firm": 6164,
  "not": 6165,
  "\u2581ca": 6166,
  "\u2581s\u00f6\u00f6da": 6167,
  "\u2581poliitilise": 6168,
  "unud": 6169,
  "\u2581soovib": 6170,
  "\u2581Lepingu": 6171,
  "\u2581Dar": 6172,
  "\u2581maksta": 6173,
  "74": 6174,
  "\u2581raised": 6175,
  "\u2581abielu": 6176,
  "\u2581Min": 6177,
  "\u2581tegele": 6178,
  "ians": 6179,
  "DC": 6180,
  "eg": 6181,
  "\u2581eeskirju": 6182,
  "\u2581kin": 6183,
  "\u2581Sal": 6184,
  "\u2581toimus": 6185,
  "tuste": 6186,
  "\u2581Ch": 6187,
  "\u2581committed": 6188,
  "\u2581restrictions": 6189,
  "\u2581turned": 6190,
  "\u2581Cal": 6191,
  "nny": 6192,
  "\u2581asukoha": 6193,
  "\u2581Mil": 6194,
  "\u2581t\u00f5de": 6195,
  "\u2581Ungari": 6196,
  "\u25812009,": 6197,
  "\u2581k\u00f5igis": 6198,
  "\u2581nimetatakse": 6199,
  "ras": 6200,
  "\u2581multiple": 6201,
  "\u2581teenused": 6202,
  "\u2581culture": 6203,
  "\u2581pisut": 6204,
  "\u2581Got": 6205,
  "/100": 6206,
  "\u258189": 6207,
  "\u25811995": 6208,
  "\u2581dream": 6209,
  "\u2581permanent": 6210,
  "\u2581proportsionaals": 6211,
  "\u2581tulemus": 6212,
  "Kui": 6213,
  "\u2581tool": 6214,
  "\u2581outcome": 6215,
  "\u2581m\u00e4\u00e4rab": 6216,
  "-8": 6217,
  "\u2581managed": 6218,
  "unk": 6219,
  "ruumi": 6220,
  "\u2581l\u00e4h": 6221,
  "\u2581\u00fcllat": 6222,
  "2%": 6223,
  "mmi": 6224,
  "oid": 6225,
  "\u2581voodi": 6226,
  "\u2581tehingu": 6227,
  "/2007": 6228,
  "\u25811996": 6229,
  "\u2581raviks": 6230,
  "\u2581t\u00f6\u00f6kohtade": 6231,
  "\u258197": 6232,
  "\u2581millal": 6233,
  "\u2581t\u00e4iendavaid": 6234,
  "\u2581standing": 6235,
  "\u2581telli": 6236,
  "verything": 6237,
  "\u2581settlement": 6238,
  "\u2581Swedish": 6239,
  "\u2581juhatuse": 6240,
  "\u2581Kir": 6241,
  "\u2581fil": 6242,
  "\u2581Vastu": 6243,
  "\u2581l\u00e4bivaatamise": 6244,
  "ife": 6245,
  "\u2581riide": 6246,
  "\u2581exception": 6247,
  "\u2581agenda": 6248,
  "\u2581allpool": 6249,
  "\u2581vastastikuse": 6250,
  "ete": 6251,
  "\u2581Once": 6252,
  "\u2581com": 6253,
  "\u258107": 6254,
  "\u2581zone": 6255,
  ".';": 6256,
  "RE": 6257,
  "\u2581viisa": 6258,
  "\u2581lahe": 6259,
  "\u2581toimeaine": 6260,
  "\u2581aims": 6261,
  "liini": 6262,
  "\u2581m\u00f5elda": 6263,
  "ucky": 6264,
  "\u2581dokumendi": 6265,
  "\u2581n\u00e4ita": 6266,
  "\u2581alkoholi": 6267,
  "\u2581hoolikalt": 6268,
  "met\u00fc\u00fcl": 6269,
  "\u2581piires": 6270,
  "\u2581selgitada": 6271,
  "\u2581alalise": 6272,
  "\u2581var": 6273,
  "\u2581imported": 6274,
  "\u2581vormis": 6275,
  "\u2581tablett": 6276,
  "\u2581station": 6277,
  "od": 6278,
  "\u2581tr": 6279,
  "Tulge": 6280,
  "work": 6281,
  "\u2581liikide": 6282,
  "\u2581voice": 6283,
  "\u2581hoopis": 6284,
  "asutuse": 6285,
  "vu": 6286,
  "\u2581peamine": 6287,
  "\u2581juhtimis": 6288,
  "\u2581k\u00f5hu": 6289,
  "\u2581Port": 6290,
  "\u2581erilist": 6291,
  "\u2581osade": 6292,
  "\u2581remaining": 6293,
  "\u2581Tre": 6294,
  "\u2581miinimum": 6295,
  "\u2581volitatud": 6296,
  "\u2581haldamise": 6297,
  "\u2581perform": 6298,
  "\u2581jaanuaril": 6299,
  "\u2581losses": 6300,
  "\u2581proof": 6301,
  "\u2581t\u00fc\u00fcbikinnitus": 6302,
  "\u2581Rights": 6303,
  "\u2581teatise": 6304,
  "\u2581Var": 6305,
  "\u2581tabeli": 6306,
  "\u25812008,": 6307,
  "uta": 6308,
  "ob": 6309,
  "\u2581King": 6310,
  "n\u00e4iteks": 6311,
  "\u2581klassifitseeri": 6312,
  "tehnoloogia": 6313,
  "ado": 6314,
  "arv": 6315,
  "\u2581pildi": 6316,
  "organisatsiooni": 6317,
  "\u00fcle": 6318,
  "akti": 6319,
  "\u2581Watch": 6320,
  "\u2581avaldatakse": 6321,
  "\u2581teisel": 6322,
  "\u2581findings": 6323,
  "\u2581certification": 6324,
  "lust": 6325,
  "\u2581spent": 6326,
  "\u2581Many": 6327,
  "\u2581Ze": 6328,
  "\u2581omavahel": 6329,
  "\u2581Non": 6330,
  "\u2581diseases": 6331,
  "\u2581teaching": 6332,
  "-4-": 6333,
  "\u2581Angel": 6334,
  "\u2581avaldada": 6335,
  "well": 6336,
  "\u2581arendamise": 6337,
  "loo": 6338,
  "\u2581pilt": 6339,
  "\u2581destination": 6340,
  "mast": 6341,
  "\u2581viidud": 6342,
  "alaste": 6343,
  "\u2581acquis": 6344,
  "\u2581capable": 6345,
  "\u2581Tur": 6346,
  "\u2581maaelu": 6347,
  "\u2581Trade": 6348,
  "mann": 6349,
  "\u2581Could": 6350,
  "\u2581k\u00fctuse": 6351,
  "\u2581Three": 6352,
  "petsi": 6353,
  "\u2581secure": 6354,
  "\u2581v\u00f5rdne": 6355,
  "\u2581difficulties": 6356,
  "\u258106": 6357,
  "\u2581PEAT\u00dcKK": 6358,
  "\u2581hoo": 6359,
  "\u2581emission": 6360,
  "\u2581riiki": 6361,
  "ME": 6362,
  "\u2581Jan": 6363,
  "\u2581k\u00f5nealust": 6364,
  "\u2581perioodil": 6365,
  "az": 6366,
  "\u2581m\u00e4ngida": 6367,
  "fondi": 6368,
  "OT": 6369,
  "Ko": 6370,
  "\u2581formal": 6371,
  "\u2581pealt": 6372,
  "RI": 6373,
  "ndage": 6374,
  "\u2581Israel": 6375,
  "\u2581Aafrika": 6376,
  "filled": 6377,
  "\u2581Joo": 6378,
  "flu": 6379,
  "\u2581olulisi": 6380,
  "\u2581T\u00fcrgi": 6381,
  "\u2581v\u00e4ikeste": 6382,
  "\u2581prepare": 6383,
  "\u2581p\u00e4\u00e4st": 6384,
  "luck": 6385,
  "\u2581Neil": 6386,
  "\u2581astme": 6387,
  "\u2581teisele": 6388,
  "\u2581Dis": 6389,
  "\u2581certainly": 6390,
  "\u00ed": 6391,
  "\u2581olles": 6392,
  "\u2581recently": 6393,
  "/2003": 6394,
  "\u2581image": 6395,
  "\u2581Korea": 6396,
  "\u2581kohu": 6397,
  "uka": 6398,
  "ause": 6399,
  "\u2581muutus": 6400,
  "\u2581kol": 6401,
  "Se": 6402,
  "lam": 6403,
  "\u2581shut": 6404,
  "\u2581lennuki": 6405,
  "\u2581tollimaksu": 6406,
  "\u2581j\u00e4\u00e4vad": 6407,
  "\u2581expect": 6408,
  "\u2581hirmu": 6409,
  "bus": 6410,
  "ability": 6411,
  "ress": 6412,
  "\u2581Mur": 6413,
  "ons": 6414,
  "\u2581t\u00f5e": 6415,
  "sch": 6416,
  "\u2581laua": 6417,
  "\u2581tuleviku": 6418,
  "\u2581orders": 6419,
  "\u2581rinna": 6420,
  "\u2581collected": 6421,
  "\u2581talu": 6422,
  "\u2581exemption": 6423,
  "\u2581uuringud": 6424,
  "ivi": 6425,
  "\u2581vastuv\u00f5tmise": 6426,
  "4)": 6427,
  "\u2581T\u00e4": 6428,
  "\u2581sellesse": 6429,
  "\u2581Mac": 6430,
  "\u2581Appendix": 6431,
  "2014": 6432,
  "\u2581veebruari": 6433,
  "nie": 6434,
  "\u2581passenger": 6435,
  "\u2581raamistiku": 6436,
  "\u2581Loo": 6437,
  "\u25811.1": 6438,
  "\u2581seek": 6439,
  "\u2581k\u00e4est": 6440,
  "\u2581realize": 6441,
  "\u2581Ya": 6442,
  "hen": 6443,
  "\u2581jagu": 6444,
  "\u2581m\u00e4rk": 6445,
  "\u2581Luba": 6446,
  "vali": 6447,
  "\u2581avaldatud": 6448,
  "\u2581Eks": 6449,
  "\u2581v\u00f5imaldavad": 6450,
  "\u2581vitro": 6451,
  "\u2581instance": 6452,
  "rich": 6453,
  "\u2581hinnad": 6454,
  "\u2581justified": 6455,
  "\u2581regime": 6456,
  "\u2581sobib": 6457,
  "\u2581distance": 6458,
  "\u2581l\u00f5i": 6459,
  "\u2581Shit": 6460,
  "j\u00e4relevalve": 6461,
  "l\u00f5p": 6462,
  "\u2581Subject": 6463,
  "\u2581v\u00f5tme": 6464,
  "\u2581parema": 6465,
  "institutsioonide": 6466,
  "\u2581180": 6467,
  "\u00dc\u00dcGILOA": 6468,
  "\u2581k\u00f5va": 6469,
  "\u2581neither": 6470,
  "\u2581fail": 6471,
  "\u2581nimetus": 6472,
  "\u2581punktid": 6473,
  "\u2581House": 6474,
  "\u2581kliima": 6475,
  "\u25813-": 6476,
  "\u2581punktile": 6477,
  "\u2581vait": 6478,
  "\u2581Im": 6479,
  "\u2581Inimese": 6480,
  "cu": 6481,
  "\u2581\u00f5hukese": 6482,
  "\u2581\u00fclemineku": 6483,
  "\u2581compatible": 6484,
  "-12": 6485,
  "\u017e": 6486,
  "ew": 6487,
  "\u2581suured": 6488,
  "punkti": 6489,
  "\u2581chain": 6490,
  "\u25812006/": 6491,
  "\u2581award": 6492,
  "ndu": 6493,
  "s\u00f5na": 6494,
  "\u2581lennuettev\u00f5tja": 6495,
  "\u2581task": 6496,
  "\u2581del": 6497,
  "\u2581esialgse": 6498,
  "\u2581m\u00f5iste": 6499,
  "oc": 6500,
  "\u2581Raha": 6501,
  "\u258178": 6502,
  "\u2581turuosa": 6503,
  "\u2581N\u00d5UKOGU": 6504,
  "sama": 6505,
  "\u2581machine": 6506,
  "\u2581Bulgaria": 6507,
  "\u2581eesm\u00e4rgiks": 6508,
  "\u2581kasutatavad": 6509,
  "Plus": 6510,
  "\u2581disposal": 6511,
  "\u2581renewable": 6512,
  "\u2581tar": 6513,
  "\u2581muudatusi": 6514,
  "\u2581Strategy": 6515,
  "\u2581l\u00f6\u00f6": 6516,
  "\u2581MEDICIN": 6517,
  "\u2581grupi": 6518,
  "\u2581amend": 6519,
  "\u2581v\u00f5la": 6520,
  "\u2581viidatud": 6521,
  "\u2581Hal": 6522,
  "tta": 6523,
  "stamise": 6524,
  "\u2581pack": 6525,
  "\u2581humans": 6526,
  "\u2581teiega": 6527,
  "\u2581mono": 6528,
  "\u2581dumping": 6529,
  "\u2581Contract": 6530,
  "\u2581accession": 6531,
  "\u2581k\u00fcsimuse": 6532,
  "elt": 6533,
  "\u2581kohandada": 6534,
  "\u2581organised": 6535,
  "\u2581Today": 6536,
  "impordiv\u00e4\u00e4rtused": 6537,
  "\u2581drop": 6538,
  "83": 6539,
  "\u2581k\u00fclasta": 6540,
  "\u2581Samas": 6541,
  "\u2581Public": 6542,
  "\u2581ana": 6543,
  "\u2581EM": 6544,
  "\u2581elab": 6545,
  "\u2581k\u00f5nealuses": 6546,
  "\u2581Nimi": 6547,
  "\u2581demonstrated": 6548,
  "\u2581soovin": 6549,
  "ony": 6550,
  "\u2581preparations": 6551,
  "\u2581tu": 6552,
  "\u2581Ravi": 6553,
  "\u2581success": 6554,
  "1999": 6555,
  "ladies": 6556,
  "PP": 6557,
  "\u2581useful": 6558,
  "\u2581mingil": 6559,
  "RU": 6560,
  "rii": 6561,
  "\u2581\u00fchendus": 6562,
  "TU": 6563,
  "\u2581inclusion": 6564,
  "III": 6565,
  "2015": 6566,
  "\u2581sheet": 6567,
  "\u2581Ukraina": 6568,
  "\u2581CI": 6569,
  "\u2581sala": 6570,
  "\u2581andes": 6571,
  "patic": 6572,
  "\u2581vastus": 6573,
  "\u2581Land": 6574,
  "\u2581meant": 6575,
  "\u2581kadunud": 6576,
  "keskuse": 6577,
  "\u2581keelatud": 6578,
  "radi": 6579,
  "\u2581kivi": 6580,
  "\u2581[2],": 6581,
  "\u2581kuup\u00e4evast": 6582,
  "mes": 6583,
  "\u2581probleemid": 6584,
  "\u2581miljardit": 6585,
  "\u2581DNA": 6586,
  "pri": 6587,
  "\u2581alt": 6588,
  "\u2581files": 6589,
  "\u2581translation": 6590,
  "\u2581vastutav": 6591,
  "\u2581l\u00f5bus": 6592,
  "aan": 6593,
  "rey": 6594,
  "arry": 6595,
  "\u2581n\u00e4idanud": 6596,
  "\u2581sort": 6597,
  "\u2581Test": 6598,
  "\u2581pigem": 6599,
  "rix": 6600,
  "2013": 6601,
  "\u2581plane": 6602,
  "\u2581koli": 6603,
  "\u2581v\u00e4\u00e4rt": 6604,
  "yan": 6605,
  "\u2581grow": 6606,
  "\u2581century": 6607,
  "\u2581host": 6608,
  "\u2581Sellep\u00e4rast": 6609,
  "posti": 6610,
  "\u2581j\u00e4rgneva": 6611,
  "\u2581Ala": 6612,
  "\u2581Eli": 6613,
  "\u2581refer": 6614,
  "\u2581massi": 6615,
  "\u2581\u00fchest": 6616,
  "\u25812013,": 6617,
  "\u2581farmers": 6618,
  "\u2581vastutava": 6619,
  "\u25812%": 6620,
  "1-": 6621,
  "kul": 6622,
  "ulation": 6623,
  "\u2581operate": 6624,
  "\u2581k\u00fcsida": 6625,
  "\u2581\u00f5igusi": 6626,
  "\u2581\u00fclesanne": 6627,
  "\u2581assigned": 6628,
  "\u2581Pla": 6629,
  "\u258180%": 6630,
  "\u2581suuremat": 6631,
  "\u2581Directives": 6632,
  "\u2581muudab": 6633,
  "\u2581Check": 6634,
  "\u2581buildings": 6635,
  "\u2581tulemusel": 6636,
  "\u2581remove": 6637,
  "cia": 6638,
  "EK": 6639,
  "\u2581increases": 6640,
  "\u2581T\u0161ehhi": 6641,
  "\u25812010,": 6642,
  "wood": 6643,
  "\u2581uskuda": 6644,
  "\u2581Bas": 6645,
  "act": 6646,
  "\u2581v\u00f5imaldada": 6647,
  "\u2581erasektori": 6648,
  "\u2581Maailma": 6649,
  "\u2581Ukraine": 6650,
  "\u2581East": 6651,
  "\u2581color": 6652,
  "\u2581kohus": 6653,
  "\u25812017.": 6654,
  "aga": 6655,
  "eeri": 6656,
  "\u2581foot": 6657,
  "\u2581800": 6658,
  "COM": 6659,
  "\u2581Work": 6660,
  "\u2581Bio": 6661,
  "\u2581tihti": 6662,
  "\u2581Guidelines": 6663,
  "/1": 6664,
  "\u25813.1": 6665,
  "\u2581specifically": 6666,
  "\u2581s\u00fc\u00fca": 6667,
  "\u2581\u00f5ppi": 6668,
  "rate": 6669,
  "\u2581130": 6670,
  "\u2581m\u00e4rka": 6671,
  "\u2581beneficiary": 6672,
  "\u2581toodet": 6673,
  "\u2581science": 6674,
  "\u2581Teataja": 6675,
  "ical": 6676,
  "\u2581vajalikuks": 6677,
  "\u2581juunil": 6678,
  "\u2581justice": 6679,
  "\u2581\u00f5de": 6680,
  "\u2581Shut": 6681,
  "\u2581haige": 6682,
  "\u2581suurima": 6683,
  "\u2581invitation": 6684,
  "\u2581t\u00e4iendava": 6685,
  "lastele": 6686,
  "\u2581ajavahemiku": 6687,
  "\u2581\u00fcksuste": 6688,
  "\u00f5hu": 6689,
  "\u2581k\u00fcsimuses": 6690,
  "\u2581Vaadake": 6691,
  "\u2581n\u00e4itas": 6692,
  "/2": 6693,
  "\u2581Prantsuse": 6694,
  "\u2581immediate": 6695,
  "\u2581imp": 6696,
  "\u2581clearance": 6697,
  "\u2581healthy": 6698,
  "\u2581Greek": 6699,
  "\u2581k\u00e4sitlev": 6700,
  "m\u00e4rkimisv\u00e4\u00e4rselt": 6701,
  "\u2581Move": 6702,
  "\u2581t\u00f5eline": 6703,
  "\u2581margin": 6704,
  "\u2581purchase": 6705,
  "\u2581hoone": 6706,
  "\u2581specifications": 6707,
  "\u2581vali": 6708,
  "\u2581\u00fcldist": 6709,
  "\u2581toimuva": 6710,
  "\u2581Nu": 6711,
  "\u2581happening": 6712,
  "\u2581m\u00f5el": 6713,
  "\u2581konkreetsete": 6714,
  "\u2581p\u00f5hjustel": 6715,
  "\u2581vesi": 6716,
  "\u2581mujal": 6717,
  "\u2581veri": 6718,
  "\u2581vision": 6719,
  "\u2581supplied": 6720,
  "\u2581partnership": 6721,
  "\u2581glad": 6722,
  "www": 6723,
  "\u2581cycle": 6724,
  "dia": 6725,
  "RA": 6726,
  "\u2581Ber": 6727,
  "\u2581RN": 6728,
  "\u2581Latvia": 6729,
  "col": 6730,
  "\u2581kolmandatest": 6731,
  "\u2581Um": 6732,
  "tser": 6733,
  "punkt": 6734,
  "\u2581missing": 6735,
  "\u2581communicate": 6736,
  "\u2581Was": 6737,
  "\u2581tunde": 6738,
  "ingu": 6739,
  "\u2581Hel": 6740,
  "\u2581huvita": 6741,
  "\u2581jaanuari": 6742,
  "\u2581king": 6743,
  "\u2581\u00fcksuse": 6744,
  "juht": 6745,
  "jas": 6746,
  "\u2581pal": 6747,
  "\u2581tekkida": 6748,
  "\u2581loomine": 6749,
  "\u00a9": 6750,
  "ins": 6751,
  "\u2581aktiivse": 6752,
  "\u2581respond": 6753,
  "\u2581\u00f5igusakti": 6754,
  "\u2581nut": 6755,
  "\u2581requests": 6756,
  "\u2581blue": 6757,
  "\u2581(8)": 6758,
  "\u2581governing": 6759,
  "\u2581Ur": 6760,
  "rom": 6761,
  "itch": 6762,
  "\u2581materjali": 6763,
  "\u25812014,": 6764,
  "\u2581deliver": 6765,
  "tsioon": 6766,
  "\u2581artiklites": 6767,
  "\u2581join": 6768,
  "\u2581jala": 6769,
  "poet": 6770,
  "\u2581highest": 6771,
  "\u2581older": 6772,
  "\u2581pikk": 6773,
  "\u2581refunds": 6774,
  "\u2581p\u00f5hjustatud": 6775,
  "\u2581\u00f5igusakte": 6776,
  "MI": 6777,
  "EF": 6778,
  "\u2581previously": 6779,
  "\u2581kehtivate": 6780,
  "\u2581doubt": 6781,
  "\u2581tabletid": 6782,
  "SI": 6783,
  "\u2581extend": 6784,
  "\u2581hariduse": 6785,
  "\u2581Seoses": 6786,
  "\u2581studied": 6787,
  "non": 6788,
  "\u25814:": 6789,
  "\u258108": 6790,
  "\u2581Teine": 6791,
  "\u2581creating": 6792,
  "2017": 6793,
  "een": 6794,
  "\u2581unique": 6795,
  "perioodi": 6796,
  "\u2581career": 6797,
  "\u2581J\u00e4rgmi": 6798,
  "\u2581p\u00fc\u00fca": 6799,
  "\u2581maintained": 6800,
  "ory": 6801,
  "anda": 6802,
  "\u2581association": 6803,
  "\u2581igas": 6804,
  "\u2581Toote": 6805,
  "\u2581Wa": 6806,
  "sele": 6807,
  "tsiooni": 6808,
  "phy": 6809,
  "\u2581customer": 6810,
  "2001": 6811,
  "\u2581invited": 6812,
  "\u258199": 6813,
  "happe": 6814,
  "\u2581path": 6815,
  "\u2581rail": 6816,
  "\u2581s\u00fcnni": 6817,
  "\u2581tegevuste": 6818,
  "\u2581t\u00e4htsusega": 6819,
  "\u00fcl": 6820,
  "\u2581broken": 6821,
  "keskus": 6822,
  "\u2581v\u00e4rske": 6823,
  "\u2581anyway": 6824,
  "\u2581esimeses": 6825,
  "\u2581prove": 6826,
  "\u2581guidance": 6827,
  "\u2581moodustavad": 6828,
  "ache": 6829,
  "\u2581hearing": 6830,
  "\u2581isikutele": 6831,
  "ille": 6832,
  "\u2581challenge": 6833,
  "\u2581p\u00f5rgu": 6834,
  "\u2581ametisse": 6835,
  "\u2581esma": 6836,
  "\u2581keera": 6837,
  "\u2581placing": 6838,
  "\u2581agent": 6839,
  "\u2581t\u00f5endeid": 6840,
  "\u2581cohesion": 6841,
  "\u2581Last": 6842,
  "\u2581Selge": 6843,
  "\u2581ettevaatlik": 6844,
  "\u2581critical": 6845,
  "\u2581kontrollimise": 6846,
  "\u2581t\u00e4henda": 6847,
  "ester": 6848,
  "\u2581dark": 6849,
  "\u2581euroala": 6850,
  "\u2581middle": 6851,
  "\u2581tulenevalt": 6852,
  "key": 6853,
  "\u2581panuse": 6854,
  "\u2581Asi": 6855,
  "\u2581Esimene": 6856,
  "\u2581accident": 6857,
  "\u2581master": 6858,
  "\u2581teemal": 6859,
  "\u2581ET": 6860,
  "\u2581meede": 6861,
  "\u2581format": 6862,
  "\u2581tunnustatud": 6863,
  "\u2581arvata": 6864,
  "\u2581RAVIM": 6865,
  "\u2581examined": 6866,
  "-9": 6867,
  "\u2581lapsi": 6868,
  "\u2581ikkagi": 6869,
  "\u2581ravimit": 6870,
  "\u2581K\u00e4esolevat": 6871,
  "kulude": 6872,
  "leping": 6873,
  "\u2581determination": 6874,
  "\u2581Rob": 6875,
  "\u2581web": 6876,
  "\u2581providers": 6877,
  "\u2581\u00f5e": 6878,
  "\u2581eelista": 6879,
  "Pro": 6880,
  "\u2581m\u00f5jutab": 6881,
  "\u2581expiry": 6882,
  "\u2581covering": 6883,
  "\u2581kaitset": 6884,
  "\u2581manustada": 6885,
  "\u2581kalli": 6886,
  "\u2581riskide": 6887,
  "\u2581kujuta": 6888,
  "\u2581\u00fchenduste": 6889,
  "\u2581kuuluva": 6890,
  "\u2581standardi": 6891,
  "\u2581\u00dchendkuningriik": 6892,
  "\u2581Arvestades": 6893,
  "\u2581documentation": 6894,
  "2003": 6895,
  "\u2581traditional": 6896,
  "\u2581kusjuures": 6897,
  "aire": 6898,
  "\u2581Box": 6899,
  "\u25813%": 6900,
  "\u2581piirkondades": 6901,
  "\u2581easily": 6902,
  "\u2581k\u00e4ib": 6903,
  "\u2581innovative": 6904,
  "\u2581sight": 6905,
  "koht": 6906,
  "\u2581Tootja": 6907,
  "tide": 6908,
  "\u2581fixing": 6909,
  "iks": 6910,
  "\u2581officer": 6911,
  "\u2581sport": 6912,
  "\u2581V\u00f5tke": 6913,
  "\u2581omaduste": 6914,
  "\u2581sell": 6915,
  "63": 6916,
  "\u2581kaebuse": 6917,
  "\u2581\u00fcli": 6918,
  "-20": 6919,
  "\u2581algm\u00e4\u00e4ruse": 6920,
  "\u2581r\u00f6\u00f6vi": 6921,
  "idest": 6922,
  "\u2581Tabel": 6923,
  "\u2581110": 6924,
  "\u00c4": 6925,
  "\u2581GDP": 6926,
  "\u2581spread": 6927,
  "UN": 6928,
  "\u2581adults": 6929,
  "\u2581\u00fcletada": 6930,
  "\u2581Bulgaaria": 6931,
  "\u2581professor": 6932,
  "\u2581samm": 6933,
  "\u25810.": 6934,
  "\u2581kadu": 6935,
  "\u2581rating": 6936,
  "\u2581represent": 6937,
  "\u2581slow": 6938,
  "\u2581puhta": 6939,
  "\u2581suurenenud": 6940,
  "\u2581osutamise": 6941,
  "\u2581meta": 6942,
  "\u2581adult": 6943,
  "\u2581normally": 6944,
  "psi": 6945,
  "\u2581rakendamisel": 6946,
  "\u2581[6]": 6947,
  "\u2581Should": 6948,
  "kese": 6949,
  "\u2581looked": 6950,
  "TP": 6951,
  "\u2581appears": 6952,
  "\u2581n\u00e4gu": 6953,
  "strateegia": 6954,
  "\u2581passengers": 6955,
  "\"),": 6956,
  "\u2581Master": 6957,
  "rant": 6958,
  "\u2581Vana": 6959,
  "\u2581cook": 6960,
  "\u2581reflect": 6961,
  "\u2581blow": 6962,
  "\u258140%": 6963,
  "\u2581retail": 6964,
  "\u2581\u00fchiste": 6965,
  "\u2581\u00f5ppida": 6966,
  "He": 6967,
  "meetmeid": 6968,
  "\u2581heaolu": 6969,
  "ico": 6970,
  "\u2581asutusele": 6971,
  "\u2581oks": 6972,
  "eerimis": 6973,
  "\u2581\u00fckski": 6974,
  "\u2581\u00fcldine": 6975,
  "\u258183": 6976,
  "\u2581kasulik": 6977,
  "\u2581www": 6978,
  "\u2581pharmacist": 6979,
  "put": 6980,
  "\u2581nafta": 6981,
  "\u2581suggest": 6982,
  "\u2581efficacy": 6983,
  "iaal": 6984,
  "\u2581planet": 6985,
  "EG": 6986,
  "\u2581begin": 6987,
  "2010": 6988,
  "omething": 6989,
  "\u2581Thus": 6990,
  "\u2581kohaldamine": 6991,
  "\u2581CYP": 6992,
  "\u2581segu": 6993,
  "\u2581connected": 6994,
  "\u2581sites": 6995,
  "\u2581wind": 6996,
  "\u2581evening": 6997,
  "\u25812011,": 6998,
  "\u2581vastutab": 6999,
  "VE": 7000,
  "\u2581muudatuste": 7001,
  "\u2581sarnane": 7002,
  "\u2581sobi": 7003,
  "HA": 7004,
  "run": 7005,
  "\u2581pensioni": 7006,
  "\u03b1": 7007,
  "\u2581otsuseid": 7008,
  "\u2581worse": 7009,
  "\u2581tootmine": 7010,
  "tlesin": 7011,
  "\u258115%": 7012,
  "\u2581dance": 7013,
  "\u2581resolutsiooni": 7014,
  "MISE": 7015,
  "\u2581vaeva": 7016,
  "\u2581press": 7017,
  "TI": 7018,
  "\u2581Sellel": 7019,
  "\u2581Bri": 7020,
  "\u2581Wh": 7021,
  "\u2581luuakse": 7022,
  "\u2581soovid": 7023,
  "\u2581spp": 7024,
  "\u2581l\u00f5iku": 7025,
  "\u2581Baltic": 7026,
  "\u2581Seej\u00e4rel": 7027,
  "\u2581dinner": 7028,
  "\u2581caught": 7029,
  "\u2581isikuandmete": 7030,
  "rah": 7031,
  "otsi": 7032,
  "\u2581vastavus": 7033,
  "\u2581veterinaar": 7034,
  "\u2581Eestis": 7035,
  "vers": 7036,
  "\u25811994": 7037,
  "TS": 7038,
  "\u2581108": 7039,
  "mod": 7040,
  "asutused": 7041,
  "\u2581Call": 7042,
  "\u2581governments": 7043,
  "\u2581confidence": 7044,
  "RS": 7045,
  "\u2581valesti": 7046,
  "\u2581Vee": 7047,
  "\u2581kontekstis": 7048,
  "\u2581driver": 7049,
  "kohtu": 7050,
  "\u2581selling": 7051,
  "\u2581UNION": 7052,
  "\u2581identity": 7053,
  "\u2581fault": 7054,
  "\u2581Bur": 7055,
  "ux": 7056,
  "hur": 7057,
  "\u2581discussion": 7058,
  "\u2581Heli": 7059,
  "\u2581idee": 7060,
  "\u2581l\u00f5puni": 7061,
  "\u2581asset": 7062,
  "summa": 7063,
  "illi": 7064,
  "too": 7065,
  "\u2581patsiendil": 7066,
  "\u2581ehita": 7067,
  "VA": 7068,
  "\u2581soo": 7069,
  "UR": 7070,
  "\u2581kii": 7071,
  "\u2581asutatud": 7072,
  "-3-": 7073,
  "\u2581virus": 7074,
  "\u2581grand": 7075,
  "\u2581movi": 7076,
  "\u2581trial": 7077,
  "\u25814.3": 7078,
  "\u2581Class": 7079,
  "\u2581j\u00f5udnud": 7080,
  "making": 7081,
  "\u2581Matt": 7082,
  "\u2581kiriku": 7083,
  "\u2581kliendi": 7084,
  "\u2581v\u00f5imalike": 7085,
  "\u2581tuuma": 7086,
  "\u2581pruugi": 7087,
  "\u2581dollarit": 7088,
  "ization": 7089,
  "\u2581vastuolus": 7090,
  "uva": 7091,
  "\u2581interneti": 7092,
  "\u2581poverty": 7093,
  "\u2581Str": 7094,
  "ebra": 7095,
  "\u2581properly": 7096,
  "\u00f5li": 7097,
  "\u2581failed": 7098,
  "\u2581eelmise": 7099,
  "\u2581screen": 7100,
  "\u2581standardite": 7101,
  "\u2581incurred": 7102,
  "\u2581k\u00f5la": 7103,
  "umis": 7104,
  "\u2581transferred": 7105,
  "atus": 7106,
  "\u2581tabelis": 7107,
  "\u2581101": 7108,
  "nenud": 7109,
  "\u2581Rohkem": 7110,
  "\u2581coffee": 7111,
  "\u2581kauplemise": 7112,
  "ret": 7113,
  "\u2581Wal": 7114,
  "\u2581Iisraeli": 7115,
  "hy": 7116,
  "\u2581huvide": 7117,
  "\u2581k\u00e4ttesaadav": 7118,
  "\u2581pikaajalise": 7119,
  "\u2581integreeritud": 7120,
  "\u2581m\u00f5tte": 7121,
  "kuju": 7122,
  "ule": 7123,
  "\u2581\u00f5li": 7124,
  "funktsiooni": 7125,
  "\u2581piiri\u00fclese": 7126,
  "\u2581t\u00f5husa": 7127,
  "\u2581aastaid": 7128,
  "\u2581probleemide": 7129,
  "\u2581substantial": 7130,
  "\u2581kiirus": 7131,
  "\u2581namely": 7132,
  "\u2581saavutatud": 7133,
  "\u2581palve": 7134,
  "rent": 7135,
  "\u2581Fine": 7136,
  "\u2581none": 7137,
  "asin": 7138,
  "\u2581Char": 7139,
  "\u2581liabilities": 7140,
  "We": 7141,
  "tame": 7142,
  "\u2581liability": 7143,
  "62": 7144,
  "\u2581Road": 7145,
  "ost": 7146,
  "\u2581Usu": 7147,
  "reg": 7148,
  "\u00f5igus": 7149,
  "\u2581records": 7150,
  "eerida": 7151,
  "\u2581arising": 7152,
  "eedi": 7153,
  "\u2581haigla": 7154,
  "\u2581k\u00fcsimustes": 7155,
  "\u2581p\u00e4ri": 7156,
  "\u2581samples": 7157,
  "\u2581joonis": 7158,
  "\u2581niimoodi": 7159,
  "\u2581Tuli": 7160,
  "\u2581m\u00e4rkimisv\u00e4\u00e4rse": 7161,
  "\u2581m\u00fc": 7162,
  "xi": 7163,
  "\u2581modern": 7164,
  "\u2581varsti": 7165,
  "\u2581opinions": 7166,
  "\u2581ravimeid": 7167,
  "\u2581teadma": 7168,
  "\u2581n\u00e4eme": 7169,
  "\u2581juulil": 7170,
  "\u2581organic": 7171,
  "\u2581Pank": 7172,
  "\u2581liidus": 7173,
  "\u2581Transport": 7174,
  "\u2581discussed": 7175,
  "\u2581naised": 7176,
  "\u2581hulk": 7177,
  "\u2581musta": 7178,
  "t\u00f5ttu": 7179,
  "\u2581areng": 7180,
  "igu": 7181,
  "\u2581\u00fchtne": 7182,
  "\u2581Robert": 7183,
  "phi": 7184,
  "\u2581liikmesriikidel": 7185,
  "CA": 7186,
  "hole": 7187,
  "\u2581submission": 7188,
  "soni": 7189,
  "\u2581borders": 7190,
  "\u2581varasta": 7191,
  "\u2581Back": 7192,
  "\u2581T\u00e4pse": 7193,
  "\u2581Fo": 7194,
  "\u25812012,": 7195,
  "\u2581inserted": 7196,
  "\u2581Category": 7197,
  "\u2581awareness": 7198,
  "aamid": 7199,
  "\u2581explained": 7200,
  "\u2581L\u00e4ti": 7201,
  "\u2581summary": 7202,
  "\u2581Day": 7203,
  "\u2581Single": 7204,
  "\u2581esitaja": 7205,
  "\u2581personnel": 7206,
  "\u2581Out": 7207,
  "\u2581pregnancy": 7208,
  "La": 7209,
  "&": 7210,
  "iline": 7211,
  "viku": 7212,
  "\u2581kinnitab": 7213,
  "ener": 7214,
  "NA": 7215,
  "sia": 7216,
  "\u2581mobile": 7217,
  "tase": 7218,
  "\u2581Animal": 7219,
  "\u2581generation": 7220,
  "\u2581regularly": 7221,
  "\u2581communications": 7222,
  "\u2581sum": 7223,
  "\u2581qualified": 7224,
  "\u25814.1": 7225,
  "lex": 7226,
  "\u2581tagamise": 7227,
  "\u2581taotleda": 7228,
  "aimu": 7229,
  "\u2581teadmiste": 7230,
  "niku": 7231,
  "\u2581ban": 7232,
  "SA": 7233,
  "\u2581tugi": 7234,
  "\u2581Organisation": 7235,
  "\u2581t\u00f5hus": 7236,
  "\u25812.1": 7237,
  "tegevus": 7238,
  "\u2581pol\u00fc": 7239,
  "\u2581\u00e4\u00e4rmisel": 7240,
  "tingimuste": 7241,
  "\u2581tarvis": 7242,
  "\u2581(3),": 7243,
  "\u2581participants": 7244,
  "\u2581kir": 7245,
  "\u2581Power": 7246,
  "\u2581suuniste": 7247,
  "\u2581exported": 7248,
  "\u2581express": 7249,
  "\u2581enhance": 7250,
  "\u2581indication": 7251,
  "af": 7252,
  "\u2581mure": 7253,
  "\u258109": 7254,
  "cus": 7255,
  "\u2581tsiviil": 7256,
  "\u2581lastel": 7257,
  "m\u00f5": 7258,
  "\u2581fulfil": 7259,
  "\u2581kaasas": 7260,
  "\u2581\u00f5igused": 7261,
  "\u2581Christmas": 7262,
  "\u2581Teise": 7263,
  "\u2581Pr": 7264,
  "\u2581transitional": 7265,
  "\u2581hoolimata": 7266,
  "\u2581indeed": 7267,
  "\u2581concept": 7268,
  "isse": 7269,
  "\u2581t\u00e4": 7270,
  "ming": 7271,
  "\u2581Para": 7272,
  "\u2581transparent": 7273,
  "\u2581Millest": 7274,
  "\u2581strengthening": 7275,
  "kel": 7276,
  "\u2581mahu": 7277,
  "\u2581k\u00f5": 7278,
  "\u2581Norway": 7279,
  "\u2581vajavad": 7280,
  "\u2581j\u00e4etakse": 7281,
  "\u2581tasakaalu": 7282,
  "\u2581updated": 7283,
  "\u2581v\u00f5taks": 7284,
  "tute": 7285,
  "2007": 7286,
  "\u2581examine": 7287,
  "\u2581t\u00f5usu": 7288,
  "\u2581ships": 7289,
  "rra": 7290,
  "\u2581Video": 7291,
  "\u2581saladus": 7292,
  "\u2581vaccine": 7293,
  "\u2581hindamis": 7294,
  "\u2581otsustab": 7295,
  "\u2581tundma": 7296,
  "\u2581kunsti": 7297,
  "\u2581handling": 7298,
  "\u2581output": 7299,
  "\u2581t\u00f5mba": 7300,
  "\u2581j\u00e4\u00e4tmete": 7301,
  "\u2581Step": 7302,
  "\u2581cap": 7303,
  "methyl": 7304,
  "\u2581Mitme": 7305,
  "\u2581ajast": 7306,
  "\u2581projekt": 7307,
  "\u2581ettev\u00f5tjad": 7308,
  "\u2581Com": 7309,
  "\u2581delegated": 7310,
  "\u2581gold": 7311,
  "\u2581kaardi": 7312,
  "\u2581otsused": 7313,
  "\u2581\u00fchendusse": 7314,
  "itu": 7315,
  "\u2581stable": 7316,
  "\u2581Kodu": 7317,
  "52": 7318,
  "rito": 7319,
  "\u2581kolmas": 7320,
  "\u2581suudab": 7321,
  "\u2581\u0160veitsi": 7322,
  "BA": 7323,
  "\u2581dear": 7324,
  "\u2581\u00fcletab": 7325,
  "\u2581occurred": 7326,
  "\u2581\u00fchele": 7327,
  "\u2581vastavuse": 7328,
  "PC": 7329,
  "\u2581Tagasi": 7330,
  "\u2581deleted": 7331,
  "\u2581hall": 7332,
  "\u2581spend": 7333,
  "LT": 7334,
  "\u2581allowing": 7335,
  "ned": 7336,
  "\u2581KOM": 7337,
  "\u2581throw": 7338,
  "\u2581LIIDU": 7339,
  "\u2581Ty": 7340,
  "\u2581Society": 7341,
  "\u2581sentence": 7342,
  "TUD": 7343,
  "\u2581prescribed": 7344,
  "\u2581drugs": 7345,
  "aastane": 7346,
  "\u2581Tea": 7347,
  "\u2581artiklite": 7348,
  "\u2581seisundi": 7349,
  "500": 7350,
  "\u2581RE": 7351,
  "\u2581teeks": 7352,
  "400": 7353,
  "s\u00fcsteemid": 7354,
  "\u2581answers": 7355,
  "\u2581monetary": 7356,
  "\u2581installation": 7357,
  "\u2581heite": 7358,
  "\u2581careful": 7359,
  "\u2581excluded": 7360,
  "teenuse": 7361,
  "\u2581138": 7362,
  "\u2581fees": 7363,
  "ugh": 7364,
  "\u2581judicial": 7365,
  "\u2581pikkus": 7366,
  "\u2581removed": 7367,
  "\u2581h\u00fcpo": 7368,
  "SC": 7369,
  "\u2581p\u00f5hjust": 7370,
  "\u2581Customs": 7371,
  "\u2581j\u00f5uda": 7372,
  "ergic": 7373,
  "fen": 7374,
  "\u2581rakendusm\u00e4\u00e4rus": 7375,
  "\u2581testi": 7376,
  ",000": 7377,
  "\u2581White": 7378,
  "\u00f5\u00f5": 7379,
  "vere": 7380,
  "\u25811.5": 7381,
  "\u2581toa": 7382,
  "\u2581seadme": 7383,
  "\u2581Spanish": 7384,
  "\u2581reisijate": 7385,
  "\u2581jurisdiction": 7386,
  "\u2581n\u00e4dalas": 7387,
  "\u2581calendar": 7388,
  "\u2581vt": 7389,
  "\u2581vangi": 7390,
  "\u2581tahame": 7391,
  "\u2581kaaluda": 7392,
  "hor": 7393,
  "\u2581t\u00fchi": 7394,
  "\u2581meedia": 7395,
  "moodi": 7396,
  "\u2581properties": 7397,
  "\u2581Presidency": 7398,
  "\u2581N\u00e4ita": 7399,
  "\u2581v\u00f5imaluste": 7400,
  "\u2581statements": 7401,
  "\u2581Elu": 7402,
  "\u2581discharge": 7403,
  "\u2581moodustab": 7404,
  "Li": 7405,
  "\u2581annan": 7406,
  "\u2581(4": 7407,
  "\u2581nimelt": 7408,
  "sektoris": 7409,
  "\u2581Cooperation": 7410,
  "\u2581edukalt": 7411,
  "\u2581Nations": 7412,
  "\u2581Hungary": 7413,
  "tanud": 7414,
  "\u2581CD": 7415,
  "\u2581v\u00f5rgustiku": 7416,
  "riski": 7417,
  "\u2581eesti": 7418,
  "\u2581\u00d6": 7419,
  "\u2581Sur": 7420,
  "\u2581enamik": 7421,
  "\u2581rats": 7422,
  "\u2581tugeva": 7423,
  "iva": 7424,
  "\u2581variety": 7425,
  "fu": 7426,
  "\u2581apteekri": 7427,
  "agen": 7428,
  "\u2581Au": 7429,
  "\u2581partnerlus": 7430,
  "\u2581tootjad": 7431,
  "\u2581tehnilised": 7432,
  "usi": 7433,
  "\u2581competence": 7434,
  "\u2581models": 7435,
  "\u2581(5": 7436,
  "\u2581asjakohaseid": 7437,
  "\u2581m\u00e4rtsil": 7438,
  "\u2581s\u00f5idu": 7439,
  "\u2581Fu": 7440,
  "\u2581Gen": 7441,
  "\u2581lemmik": 7442,
  "\u2581tulenevate": 7443,
  "2018": 7444,
  "\u2581loved": 7445,
  "\u2581Bon": 7446,
  "\u2581illegal": 7447,
  "\u2581kukku": 7448,
  "\u2581(9)": 7449,
  "\u2581Turkey": 7450,
  "\u2581l\u00e4bir\u00e4\u00e4kimiste": 7451,
  "led": 7452,
  "\u2581muutmine": 7453,
  "\u2581ingredients": 7454,
  "\u2581kel": 7455,
  "\u2581Igal": 7456,
  "kol": 7457,
  "\u2581route": 7458,
  "\u2581R\u00dc": 7459,
  "\u2581menetluste": 7460,
  "\u2581Eelk\u00f5ige": 7461,
  "-15": 7462,
  "\u2581surnu": 7463,
  "\u2581passed": 7464,
  "\u2581Super": 7465,
  "uhke": 7466,
  "\u2581kaubanduse": 7467,
  "\u2581PRC": 7468,
  "\u2581interesting": 7469,
  "\u2581organ": 7470,
  "\u2581proportion": 7471,
  "viir": 7472,
  "\u2581l\u00e4heme": 7473,
  "panga": 7474,
  "taneous": 7475,
  "\u2581Pharma": 7476,
  "\u2581\u00e4kk": 7477,
  "\u2581tahti": 7478,
  "\u2581keeping": 7479,
  "\u2581k\u00e4esolevale": 7480,
  "\u00e4ngi": 7481,
  "\u2581h\u00f5lma": 7482,
  "\u2581manage": 7483,
  "\u2581fellow": 7484,
  "\u2581K\u00f5nealu": 7485,
  "\u2581NO": 7486,
  "\u2581\u00fchelt": 7487,
  "\u25812.2": 7488,
  "tamist": 7489,
  "\u2581seconds": 7490,
  "\u2581comparison": 7491,
  "room": 7492,
  "\u2581derived": 7493,
  "\u2581Sky": 7494,
  "ford": 7495,
  "\u2581chosen": 7496,
  "\u2581tegeliku": 7497,
  "\u25816,": 7498,
  "\u2581Parlamendile": 7499,
  "\u2581heakskiidetud": 7500,
  "kooli": 7501,
  "\u2581veebi": 7502,
  "SS": 7503,
  "To": 7504,
  "\u2581komisjonil": 7505,
  "\u2581alia": 7506,
  "\u2581repair": 7507,
  "\u2581solid": 7508,
  "\u2581stopped": 7509,
  "ji": 7510,
  "\u2581stress": 7511,
  "kate": 7512,
  "\u2581tuleneb": 7513,
  "\u2581anybody": 7514,
  "\u2581rahalise": 7515,
  "\u2581ideas": 7516,
  "\u2581Sy": 7517,
  "\u2581kella": 7518,
  "\u2581Never": 7519,
  "Fi": 7520,
  "\u2581handle": 7521,
  "\u2581ootab": 7522,
  "hvi": 7523,
  "\u2581peatada": 7524,
  "vol": 7525,
  "\u2581plaan": 7526,
  "\u2581haiget": 7527,
  "\u2581Procedure": 7528,
  "field": 7529,
  "\u2581kaela": 7530,
  "\u2581harmonised": 7531,
  "\u2581Esiteks": 7532,
  "\u2581lady": 7533,
  "\u2581kasv": 7534,
  "ank": 7535,
  "\u2581asu": 7536,
  "\u2581features": 7537,
  "\u2581sections": 7538,
  "\u2581ME": 7539,
  "\u2581kohtuasjas": 7540,
  "It": 7541,
  "\u2581race": 7542,
  "\u2581olenemata": 7543,
  "\u2581Res": 7544,
  "\u2581toitu": 7545,
  "\u2581finish": 7546,
  "ious": 7547,
  "olli": 7548,
  "\u2581Paljud": 7549,
  "\u2581Next": 7550,
  "\u2581mandate": 7551,
  "teen": 7552,
  "\u2581Given": 7553,
  "\u2581flat": 7554,
  "LO": 7555,
  "idele": 7556,
  "\u2581mid": 7557,
  "\u2581block": 7558,
  "\u2581\u00fclesandeid": 7559,
  "\u2581saadetud": 7560,
  "ments": 7561,
  "ird": 7562,
  "\u2581j\u00e4lgi": 7563,
  "\u2581linnas": 7564,
  "\u2581taba": 7565,
  "ology": 7566,
  "001": 7567,
  "via": 7568,
  "\u2581Richard": 7569,
  "\u2581esinenud": 7570,
  "CS": 7571,
  "Ka": 7572,
  "\u2581riikidega": 7573,
  "\u2581brothers": 7574,
  "\u2581Toidu": 7575,
  "jaid": 7576,
  "\u2581n\u00e4dalal": 7577,
  "loa": 7578,
  "\u2581n\u00e4o": 7579,
  "\u2581s\u00fc": 7580,
  "\u2581kalap\u00fc\u00fcgi": 7581,
  "\u2581violence": 7582,
  "amet": 7583,
  "cause": 7584,
  "\u2581Aasta": 7585,
  "tatakse": 7586,
  "\u2581Agriculture": 7587,
  "\u2581kombineeritud": 7588,
  "\u2581eelneva": 7589,
  "kla": 7590,
  "\u2581antava": 7591,
  "\u2581comparable": 7592,
  "\u2581Earth": 7593,
  "\u2581labelling": 7594,
  "\u2581reklaami": 7595,
  "kka": 7596,
  "Sa": 7597,
  "\u2581Lithuania": 7598,
  "\u2581takista": 7599,
  "\u2581attached": 7600,
  "\u2581Rahvusvahelise": 7601,
  "\u2581kahte": 7602,
  "\u2581paberi": 7603,
  "\u2581kaasatud": 7604,
  "\u2581tegu": 7605,
  "\u2581Suu": 7606,
  "\u2581books": 7607,
  "\u2581core": 7608,
  "iaali": 7609,
  "\u2581er": 7610,
  "oba": 7611,
  "\u2581pidu": 7612,
  "\u2581v\u00f5tsid": 7613,
  "\u2581marriage": 7614,
  "\u2581asutustele": 7615,
  "\u2581label": 7616,
  "\u2581Ol": 7617,
  "\u2581background": 7618,
  "lcome": 7619,
  "mbi": 7620,
  "\u2581silmad": 7621,
  "\u2581adresseeritud": 7622,
  "\u2581toxicity": 7623,
  "\u2581muutusi": 7624,
  "ient": 7625,
  "\u2581esinemissagedus": 7626,
  "\u2581hinda": 7627,
  "\u2581indent": 7628,
  "\u2581carefully": 7629,
  "\u2581pure": 7630,
  "/10": 7631,
  "\u2581t\u00f5epoolest": 7632,
  "\u2581\u00fchist": 7633,
  "millega": 7634,
  "uti": 7635,
  "\u2581nn": 7636,
  "cker": 7637,
  "\u2581Ger": 7638,
  "\u2581vital": 7639,
  "\u2581hal": 7640,
  "\u2581lahus": 7641,
  "tee": 7642,
  "\u2581sta": 7643,
  "\u2581vaimse": 7644,
  "kindlustus": 7645,
  "excl": 7646,
  "\u2581session": 7647,
  "\u2581Tundub": 7648,
  "\u25811990": 7649,
  "\u2581Serbia": 7650,
  "\u00f5bra": 7651,
  "\u25815.1": 7652,
  "\u2581l\u00f5": 7653,
  "\u2581tingimustes": 7654,
  "hh": 7655,
  "oll": 7656,
  "\u2581Say": 7657,
  "\u2581Cyprus": 7658,
  "\u2581flu": 7659,
  "ees": 7660,
  "CR": 7661,
  "\u2581asukoht": 7662,
  "\u2581v\u00f5imalused": 7663,
  "\u2581laboratory": 7664,
  "reid": 7665,
  "\u2581introduce": 7666,
  "\u2581prison": 7667,
  "\u25813).": 7668,
  "\u2581machinery": 7669,
  "\u2581tavade": 7670,
  "press": 7671,
  "cur": 7672,
  "\u2581104": 7673,
  "\u2581pharmacokinetic": 7674,
  "bye": 7675,
  "\u2581forces": 7676,
  "\u2581profile": 7677,
  "\u2581sitting": 7678,
  "\u2581algab": 7679,
  "PRE": 7680,
  "\u2581kombe": 7681,
  "\u25813.2": 7682,
  "\u25816:": 7683,
  "\u2581liquid": 7684,
  "siooni": 7685,
  "\u2581planee": 7686,
  "ontsentratsiooni": 7687,
  "\u2581oh": 7688,
  "\u2581PRODUCT": 7689,
  "\u2581facility": 7690,
  "\u2581Bosnia": 7691,
  "\u2581muret": 7692,
  "\u2581comment": 7693,
  "\u2581learned": 7694,
  "\u2581seeing": 7695,
  "\u2581structures": 7696,
  "\u2581weapons": 7697,
  "\u2581beneficiaries": 7698,
  "\u2581sexual": 7699,
  "\u2581boat": 7700,
  "\u2581t\u00e4htsust": 7701,
  "\u2581voted": 7702,
  "\u2581lahk": 7703,
  "\u2581nationals": 7704,
  "\u2581successfully": 7705,
  "\u2581hotel": 7706,
  "\u2581conflict": 7707,
  "\u2581kaart": 7708,
  "\u2581experienced": 7709,
  "\u2581finding": 7710,
  "\u2581rida": 7711,
  "\u2581vastutus": 7712,
  "tunne": 7713,
  "\u2581ookeani": 7714,
  "\u2581vajadusel": 7715,
  "\u2581kiir": 7716,
  "\u2581k\u00e4esolev": 7717,
  "\u2581technological": 7718,
  "\u2581oktoobril": 7719,
  "\u2581L\u00e4\u00e4ne": 7720,
  "UD": 7721,
  "\u2581Ning": 7722,
  "\u2581\u00fcksus": 7723,
  "\u2581specify": 7724,
  "\u2581saamise": 7725,
  "\u2581maksma": 7726,
  "\u2581p\u00f5him\u00f5tte": 7727,
  "\u2581Samal": 7728,
  "gar": 7729,
  "\u2581pinge": 7730,
  "\u2581Protection": 7731,
  "\u2581l\u00f5igetes": 7732,
  "\u2581ourselves": 7733,
  "lim": 7734,
  "\u2581SO": 7735,
  "\u2581aastate": 7736,
  "\u2581fix": 7737,
  "\u2581turvalisuse": 7738,
  "\u2581Mik": 7739,
  "iro": 7740,
  "\u2581t\u00e4iendavad": 7741,
  "\u2581Vahe": 7742,
  "approval": 7743,
  "GB": 7744,
  "far": 7745,
  "\u2581k\u00f5ikidele": 7746,
  "\u2581repealed": 7747,
  "\u2581jaotus": 7748,
  "\u2581fulfilled": 7749,
  "\u2581trip": 7750,
  "\u2581P\u00f5hi": 7751,
  "\u2581esi": 7752,
  "\u00fchenduse": 7753,
  "\u2581otsese": 7754,
  "oot": 7755,
  "\u2581uni": 7756,
  "\u2581measurement": 7757,
  "\u2581siseriikliku": 7758,
  "programmide": 7759,
  "\u2581leitud": 7760,
  "IG": 7761,
  "\u2581issuing": 7762,
  "\u2581Phil": 7763,
  "\u2581covers": 7764,
  "v\u00e4\u00e4rne": 7765,
  "\u2581helped": 7766,
  "nusta": 7767,
  "serv": 7768,
  "\u2581reply": 7769,
  "\u2581goal": 7770,
  "\u2581WTO": 7771,
  "\u2581figures": 7772,
  "\u2581poliitiliste": 7773,
  "rat": 7774,
  "\u2581manufacturing": 7775,
  "\u2581piira": 7776,
  "HE": 7777,
  "kommunikatsiooni": 7778,
  "\u2581kujutab": 7779,
  "\u2581aluse": 7780,
  "\u2581gain": 7781,
  "\u2581Schengeni": 7782,
  "\u2581huge": 7783,
  "PR": 7784,
  "\u25811.2": 7785,
  "\u2581\u00f5petaja": 7786,
  "ken": 7787,
  "hinna": 7788,
  "IR": 7789,
  "\u2581piirata": 7790,
  "ige": 7791,
  "\u2581crew": 7792,
  "\u2581Captain": 7793,
  "\u2581vangla": 7794,
  "\u2581t\u00e4nan": 7795,
  "\u2581k\u00e4sitleda": 7796,
  "\u2581suhe": 7797,
  "vara": 7798,
  "cher": 7799,
  "\u2581adjusted": 7800,
  "\u2581maritime": 7801,
  "\u2581rom": 7802,
  "\u2581strategies": 7803,
  "\u2581cent": 7804,
  "\u2581t\u00f5hususe": 7805,
  "\u2581finished": 7806,
  "responsibilities": 7807,
  "\u2581Technical": 7808,
  "\u2581kuidagi": 7809,
  "\u2581saadaval": 7810,
  "\u2581Peg": 7811,
  "\u2581democratic": 7812,
  "\u2581Comp": 7813,
  "\u2581\u00f5": 7814,
  "FF": 7815,
  "SD": 7816,
  "itsi": 7817,
  "\u2581ettev\u00f5tted": 7818,
  "\u2581monitored": 7819,
  "\u2581543/2011": 7820,
  "\u2581Hakk": 7821,
  "\u2581aruanne": 7822,
  "\u2581vajalikke": 7823,
  "\u2581rea": 7824,
  "\u2581Tru": 7825,
  "\u2581annuste": 7826,
  "\u2581claimed": 7827,
  "\u2581assist": 7828,
  "light": 7829,
  "\u2581avaldab": 7830,
  "\u2581peatu": 7831,
  "\u2581Alg": 7832,
  "\u2581ometi": 7833,
  "lepingute": 7834,
  "\u2581jao": 7835,
  "\u2581Play": 7836,
  "\u2581tunda": 7837,
  "\u2581cars": 7838,
  "Al": 7839,
  "\u2581Cre": 7840,
  "iba": 7841,
  "000": 7842,
  "\u2581dogs": 7843,
  "\u2581bottle": 7844,
  "\u2581Far": 7845,
  "\u2581Schengen": 7846,
  "\u2581raamistik": 7847,
  "\u2581ravimitega": 7848,
  "\u2581asjaomased": 7849,
  "OP": 7850,
  "\u2581piirkondlike": 7851,
  "klassi": 7852,
  "\u2581harm": 7853,
  "pen": 7854,
  "\u2581L\u00f5": 7855,
  "free": 7856,
  "\u2581teavitab": 7857,
  "oodi": 7858,
  "\u2581mixed": 7859,
  "\u2581expenses": 7860,
  "\u2581Liikmesriikide": 7861,
  "AB": 7862,
  "\u2581p\u00f5hjusel": 7863,
  "ches": 7864,
  "MP": 7865,
  "AC": 7866,
  "\u2581kange": 7867,
  "\u2581summer": 7868,
  "eerumine": 7869,
  "\u2581Cap": 7870,
  "\u2581raja": 7871,
  "\u2581pilot": 7872,
  "\u2581Partnership": 7873,
  "ikku": 7874,
  "\u00fch": 7875,
  "AUC": 7876,
  "\u2581arms": 7877,
  "\u2581\u00e4rge": 7878,
  "\u2581vett": 7879,
  "\u2581esitavad": 7880,
  "\u2581112": 7881,
  "\u2581vabanda": 7882,
  "\u2581litsentsi": 7883,
  "\u2581Description": 7884,
  "\u2581suuna": 7885,
  "\u2581excluding": 7886,
  "\u2581Vol": 7887,
  "sisaldus": 7888,
  "\u2581infektsiooni": 7889,
  "kr": 7890,
  "\u2581ravimid": 7891,
  "\u2581osalevad": 7892,
  "\u2581taotluste": 7893,
  "\u00f5tle": 7894,
  "200": 7895,
  "\u2581bag": 7896,
  "\u2581juhtu": 7897,
  "\u2581pattern": 7898,
  "\u2581koolituse": 7899,
  "\u2581protein": 7900,
  "kud": 7901,
  "\u2581gender": 7902,
  "\u2581character": 7903,
  "\u2581impossible": 7904,
  "\u2581vastas": 7905,
  "\u2581koostada": 7906,
  "\u25812001/": 7907,
  "\u2581perhaps": 7908,
  "\u2581Another": 7909,
  "\u2581wild": 7910,
  "\u2581Horvaatia": 7911,
  "\u2581vast": 7912,
  "log": 7913,
  "\u2581viiakse": 7914,
  "house": 7915,
  "\u2581p\u00e4ikese": 7916,
  "used": 7917,
  "\u2581arvestada": 7918,
  "\u2581k\u00e4su": 7919,
  "\u2581suurendamise": 7920,
  "\u2581fiscal": 7921,
  "\u2581anal\u00fc\u00fcs": 7922,
  "\u2581Wil": 7923,
  "\u2581riigist": 7924,
  "hoo": 7925,
  "\u2581ball": 7926,
  "\u2581bleeding": 7927,
  "tasid": 7928,
  "\u2581supports": 7929,
  "p\u00f5hise": 7930,
  "\u2581investors": 7931,
  "eng": 7932,
  "\u2581Bureau": 7933,
  "\u2581k\u00fcsimused": 7934,
  "kor": 7935,
  "\u2581achieving": 7936,
  "\u2581star": 7937,
  "\u2581Vahemere": 7938,
  "\u2581secondary": 7939,
  "\u2581murder": 7940,
  "\u2581Kuu": 7941,
  "\u00f3": 7942,
  "\u2581transit": 7943,
  "\u2581l\u00e4hi": 7944,
  "\u2581spordi": 7945,
  "\u2581lenda": 7946,
  "\u2581rich": 7947,
  "\u2581mess": 7948,
  "\u2581Light": 7949,
  "\u2581s\u00fc\u00fcdista": 7950,
  "\u2581vajadus": 7951,
  "\u2581kuninga": 7952,
  "\u2581theory": 7953,
  "\u2581underlying": 7954,
  "\u2581demonstrate": 7955,
  "\u2581fourth": 7956,
  "\u2581sampling": 7957,
  "\u2581Life": 7958,
  "\u2581Support": 7959,
  "nes": 7960,
  "\u2581putting": 7961,
  "\u2581juhtida": 7962,
  "gy": 7963,
  "\u2581Hoo": 7964,
  "\u2581Paulus": 7965,
  "\u2581command": 7966,
  "\u2581Kosovo": 7967,
  "\u2581Koosk\u00f5las": 7968,
  "\u2581Del": 7969,
  "iidi": 7970,
  "\u2581appeal": 7971,
  "\u2581signal": 7972,
  "\u2581akna": 7973,
  "\u2581Student": 7974,
  "\u2581naist": 7975,
  "\u2581v\u00f5inud": 7976,
  "\u2581Full": 7977,
  "\u2581maksete": 7978,
  "\u25814.5": 7979,
  "\u2581Kontrolli": 7980,
  "\u2581varjupaiga": 7981,
  "luu": 7982,
  "\u2581toimib": 7983,
  "\u2581fee": 7984,
  "vil": 7985,
  "Tartu": 7986,
  "\u2581crucial": 7987,
  "\u2581teete": 7988,
  "\u2581nine": 7989,
  "\u2581j\u00f5upingutusi": 7990,
  "\u2581s\u00f5da": 7991,
  "\u2581\u00fchendatud": 7992,
  "ms": 7993,
  "oz": 7994,
  "\u2581reserve": 7995,
  "\u00f5mm": 7996,
  "\u2581defence": 7997,
  "\u2581NB": 7998,
  "ball": 7999,
  "veo": 8000,
  "\u2581Minge": 8001,
  "ljakas": 8002,
  "ray": 8003,
  "\u2581closer": 8004,
  "v\u00f5rgu": 8005,
  "\u2581easier": 8006,
  "EST": 8007,
  "row": 8008,
  "\u2581warning": 8009,
  "\u2581sobiva": 8010,
  "vahendid": 8011,
  "\u2581j\u00e4\u00e4kide": 8012,
  "\u2581valgust": 8013,
  "\u2581meeskonna": 8014,
  "\u2581farm": 8015,
  "pidi": 8016,
  "\u2581p\u00f5hinevad": 8017,
  "\u2581l\u00f5pliku": 8018,
  "\u2581sugu": 8019,
  "eeskirjade": 8020,
  "\u00f6r": 8021,
  "\u2581puutu": 8022,
  "laadi": 8023,
  "\u2581Mees": 8024,
  "aatori": 8025,
  "\u2581kohaldatavate": 8026,
  "Standing": 8027,
  "\u2581liigi": 8028,
  "rk": 8029,
  "\u25812.5": 8030,
  "\u2581map": 8031,
  "tz": 8032,
  "\u2581kogemus": 8033,
  "\u2581firma": 8034,
  "ela": 8035,
  "5)": 8036,
  "\u2581Leedu": 8037,
  "stab": 8038,
  "\u2581undertaken": 8039,
  "\u2581nina": 8040,
  "\u2581rakendusm\u00e4\u00e4ruse": 8041,
  "gem": 8042,
  "\u2581quarter": 8043,
  "meetri": 8044,
  "\u2581valmistamiseks": 8045,
  "\u2581flying": 8046,
  "\u2581packaging": 8047,
  "own": 8048,
  "\u2581firms": 8049,
  "\u2581teadmisi": 8050,
  "tamis": 8051,
  "\u2581hakata": 8052,
  "\u2581Must": 8053,
  "\u2581tree": 8054,
  "\u2581hyper": 8055,
  "\u2581African": 8056,
  "\u2581Kao": 8057,
  "\u2581manustamise": 8058,
  "\u2581showing": 8059,
  "\u2581Adv": 8060,
  "\u2581derivatives": 8061,
  "\u2581lib": 8062,
  "\u2581provider": 8063,
  "\u2581jaotise": 8064,
  "\u2581p\u00f5hjenduses": 8065,
  "5%": 8066,
  "\u2581kasumi": 8067,
  "\u2581bone": 8068,
  "\u2581erineva": 8069,
  "turgude": 8070,
  "\u2581involvement": 8071,
  "\u2581Remember": 8072,
  "\u2581august": 8073,
  "\u2581taset": 8074,
  "\u2581t\u00e4heldati": 8075,
  "jat": 8076,
  "IK": 8077,
  "\u2581forest": 8078,
  "\u2581adjustments": 8079,
  "\u2581rapid": 8080,
  "\u2581Kanada": 8081,
  "\u2581hel": 8082,
  "\u2581consult": 8083,
  "life": 8084,
  "\u2581SPECIAL": 8085,
  "\u043e": 8086,
  "\u2581tootmiseks": 8087,
  "\u2581t\u00f6\u00f6tajad": 8088,
  "\u2581Conference": 8089,
  "\u2581Finnish": 8090,
  "\u2581v\u00f5tke": 8091,
  "\u2581Fre": 8092,
  "\u2581lastele": 8093,
  "\u2581n\u00e4gid": 8094,
  "\u2581n\u00f5ude": 8095,
  "kest": 8096,
  "stan": 8097,
  "FI": 8098,
  "ismi": 8099,
  "\u2581eggs": 8100,
  "\u2581saved": 8101,
  "\u2581kiss": 8102,
  "\u2581believes": 8103,
  "gh": 8104,
  "\u2581arve": 8105,
  "\u2581height": 8106,
  "oksi": 8107,
  "telli": 8108,
  "ward": 8109,
  "\u2581threat": 8110,
  "\u2581r\u00f5\u00f5mu": 8111,
  "Ta": 8112,
  "\u2581cereals": 8113,
  "\u2581apparatus": 8114,
  "\u2581k\u00e4is": 8115,
  "v\u00f5imet": 8116,
  "CC": 8117,
  "mik": 8118,
  "\u2581s\u00fc\u00fcdi": 8119,
  "\u2581expert": 8120,
  "\u2581heavy": 8121,
  "n\u00f5uded": 8122,
  "\u2581VKEde": 8123,
  "\u2581Water": 8124,
  "\u2581fibres": 8125,
  "\u2581novembril": 8126,
  "\u2581hang": 8127,
  "\u2581seisukohal": 8128,
  "\u2581\u00e4": 8129,
  "amino": 8130,
  "\u2581MARKETING": 8131,
  "\u2581Op": 8132,
  "\u2581kohaldatavad": 8133,
  "ats": 8134,
  "\u2581maailm": 8135,
  "\u2581p\u00f6\u00f6rata": 8136,
  "\u2581p\u00f5him\u00f5tete": 8137,
  "\u2581update": 8138,
  "EX": 8139,
  "\u2581drawing": 8140,
  "ettev\u00f5tete": 8141,
  "\u2581EXP": 8142,
  "\u2581Gla": 8143,
  "\u2581ajavahemikul": 8144,
  "\u2581Mic": 8145,
  "\u2581stitch": 8146,
  "lahuse": 8147,
  "\u2581ice": 8148,
  "zy": 8149,
  "\u2581CON": 8150,
  "tage": 8151,
  "\u2581ilusa": 8152,
  "\u2581k\u00e4ed": 8153,
  "\u2581piib": 8154,
  "\u2581viska": 8155,
  "\u2581pankade": 8156,
  "\u2581Kristuse": 8157,
  "GI": 8158,
  "\u2581migration": 8159,
  "tori": 8160,
  "\u2581honor": 8161,
  "\u2581baseline": 8162,
  "\u2581wonderful": 8163,
  "\u2581permitted": 8164,
  "\u2581v\u00e4henemine": 8165,
  "\u2581murd": 8166,
  "\u2581uuring": 8167,
  "\u2581DE": 8168,
  "Mi": 8169,
  "\u2581transition": 8170,
  "\u2581consisting": 8171,
  "\u2581email": 8172,
  "\u2581quick": 8173,
  "ott": 8174,
  "\u2581Sise": 8175,
  "\u2581kor": 8176,
  "\u2581moel": 8177,
  "ists": 8178,
  "oomulikult": 8179,
  "\u2581broad": 8180,
  "riik": 8181,
  "\u2581olev": 8182,
  "\u2581behaviour": 8183,
  "\u2581bringing": 8184,
  "hku": 8185,
  "tades": 8186,
  "\u2581k\u00fclge": 8187,
  "\u2581Cat": 8188,
  "\u2581parent": 8189,
  "\u2581n\u00e4rvi": 8190,
  "katse": 8191,
  "\u2581puhas": 8192,
  "\u2581wonder": 8193,
  "LA": 8194,
  "\u2581advanced": 8195,
  "back": 8196,
  "\u2581Dia": 8197,
  "\u2581beat": 8198,
  "/2008": 8199,
  "seadme": 8200,
  "\u2581toit": 8201,
  "\u2581banking": 8202,
  "t\u00f6\u00f6stuse": 8203,
  "\u2581rahaliste": 8204,
  "alloo": 8205,
  "\u2581Maria": 8206,
  "\u2581ebaseadusliku": 8207,
  "\u00e4\u00e4r": 8208,
  "OM": 8209,
  "ison": 8210,
  "\u2581Also": 8211,
  "NG": 8212,
  "\u2581armas": 8213,
  "\u2581Ran": 8214,
  "\u2581s\u00f5ida": 8215,
  "gli": 8216,
  "\u2581Picture": 8217,
  "\u2581seis": 8218,
  "\u2581Kaitse": 8219,
  "\u2581neck": 8220,
  "\u2581Hol": 8221,
  "\u2581r\u00fcnd": 8222,
  "arve": 8223,
  "bank": 8224,
  "iial": 8225,
  "kur": 8226,
  "\u2581105": 8227,
  "\u2581recommendation": 8228,
  "\u2581heakskiidu": 8229,
  "\u2581koopia": 8230,
  "\u2581j\u00e4\u00e4ma": 8231,
  "\u2581surve": 8232,
  "\u2581soovite": 8233,
  "\u2581viiruse": 8234,
  "\u2581stick": 8235,
  "\u2581Institute": 8236,
  "\u2581aprillil": 8237,
  "\u2581s\u00f5numi": 8238,
  "\u2581teooria": 8239,
  "Co": 8240,
  "arsti": 8241,
  "\u2581saaksin": 8242,
  "vale": 8243,
  "\u2581miles": 8244,
  "b\u00fcroo": 8245,
  "ther": 8246,
  "\u2581consists": 8247,
  "you": 8248,
  "\u2581Emil": 8249,
  "\u2581Kin": 8250,
  "\u2581materjalide": 8251,
  "\u2581tegemiseks": 8252,
  "\u00f5ppe": 8253,
  "\u2581tahate": 8254,
  "j\u00e4\u00e4": 8255,
  "\u2581k\u00fcmme": 8256,
  "idding": 8257,
  "\u2581church": 8258,
  "\u2581taxation": 8259,
  "\u2581Blue": 8260,
  "\u2581m\u00f5nikord": 8261,
  "\u2581Liig": 8262,
  "\u2581kaugele": 8263,
  "\u2581IF": 8264,
  "\u0438": 8265,
  "\u2581Big": 8266,
  "\u2581esines": 8267,
  "\u2581reforms": 8268,
  "\u2581L\u00f5puks": 8269,
  "\u2581fu": 8270,
  "\u2581interpretation": 8271,
  "\u2581presentation": 8272,
  "\u2581Ida": 8273,
  "rand": 8274,
  "SH": 8275,
  "\u2581thereto": 8276,
  "/5": 8277,
  "\u2581aitama": 8278,
  "\u2581n\u00f5utakse": 8279,
  "poolse": 8280,
  "\u2581kriteeriumide": 8281,
  "hereinafter": 8282,
  "\u00f5i": 8283,
  "\u258160%": 8284,
  "\u2581kontakt": 8285,
  "\u2581v\u00f5rdse": 8286,
  "ric": 8287,
  "\u2581kavatseb": 8288,
  "ather": 8289,
  "\u2581L\u00e4he": 8290,
  "\u25815:": 8291,
  "\u2581m\u00e4rkis": 8292,
  "\u2581ida": 8293,
  "palli": 8294,
  "\u25811)": 8295,
  "\u2581maksimaalne": 8296,
  "\u2581fever": 8297,
  "\u2581becomes": 8298,
  "sealhulgas": 8299,
  "\u2581leiti": 8300,
  "\u2581infot": 8301,
  "\u2581missiooni": 8302,
  "\u2581s\u00f5lmimise": 8303,
  "\u2581moderate": 8304,
  "\u2581electrical": 8305,
  "\u2581seina": 8306,
  "\u2581marked": 8307,
  "\u2581RA": 8308,
  "law": 8309,
  "FC": 8310,
  "\u2581v\u00f5tmise": 8311,
  "mehe": 8312,
  "\u2581completion": 8313,
  "\u2581investor": 8314,
  "\u2581shared": 8315,
  "\u2581Regional": 8316,
  "\u2581osalemise": 8317,
  "\u2581taught": 8318,
  "\u2581democracy": 8319,
  "\u2581despite": 8320,
  "\u2581Proovi": 8321,
  "\u2581partial": 8322,
  "\u03bf": 8323,
  "\u2581largest": 8324,
  "\u2581receipt": 8325,
  "\u2581tagatakse": 8326,
  "\u2581kogumise": 8327,
  "\u2581Saad": 8328,
  "ns": 8329,
  "\u2581Sloveenia": 8330,
  "\u2581m\u00fc\u00fcgiloa": 8331,
  "mark": 8332,
  "\u2581l\u00f5hna": 8333,
  "\u2581totally": 8334,
  "\u2581asuvad": 8335,
  "\u2581laenude": 8336,
  "allis": 8337,
  "\u2581Opinion": 8338,
  "cc": 8339,
  "\u2581tutvusta": 8340,
  "\u2581\u00f6\u00f6d": 8341,
  "r\u00f5hu": 8342,
  "\u2581m\u00e4rgi": 8343,
  "\u2581paneb": 8344,
  "\u2581mode": 8345,
  "\u2581dealing": 8346,
  "\u2581families": 8347,
  "\u2581k\u00fcsimust": 8348,
  "\u2581soul": 8349,
  "\u2581reality": 8350,
  "\u2581varustatud": 8351,
  "\u2581MT": 8352,
  "viisi": 8353,
  "\u2581named": 8354,
  "\u2581\u00d5pi": 8355,
  "\u2581mad": 8356,
  "\u2581v\u00e4hendamine": 8357,
  "\u2581toru": 8358,
  "\u2581primarily": 8359,
  "\u2581Juhul": 8360,
  "\u2581olime": 8361,
  "Text": 8362,
  "\u2581114": 8363,
  "\u2581Transfer": 8364,
  "aator": 8365,
  "\u2581suurenemine": 8366,
  "\u2581suurep\u00e4rase": 8367,
  "kaart": 8368,
  "\u2581Paper": 8369,
  "\u2581withdrawal": 8370,
  "\u2581\u00f5igusliku": 8371,
  "sega": 8372,
  "\u2581meetodi": 8373,
  "\u25818,": 8374,
  "\u2581NAME": 8375,
  "\u2581Sii": 8376,
  "\u2581kogemuste": 8377,
  "\u2581William": 8378,
  "\u2581106": 8379,
  "\u2581m\u00fc\u00fc": 8380,
  "\u2581prohibited": 8381,
  "\u2581kom": 8382,
  "\u2581Wall": 8383,
  "\u2581Ali": 8384,
  "\u2581maksimaalse": 8385,
  "\u2581raadio": 8386,
  "\u2581kellelegi": 8387,
  "\u2581Note": 8388,
  "Le": 8389,
  "\u2581vastutuse": 8390,
  "\u2581Thomas": 8391,
  "\u2581liikmesriiki": 8392,
  "ear": 8393,
  "\u2581awarded": 8394,
  "\u2581t\u00e4hele": 8395,
  "n\u00f5uete": 8396,
  "akad": 8397,
  "\u2581ride": 8398,
  "ising": 8399,
  "\u2581lisale": 8400,
  "\u2581Mont": 8401,
  "\u2581koond": 8402,
  "\u2581excessive": 8403,
  "\u2581composition": 8404,
  "\u2581koguse": 8405,
  "\u2581victims": 8406,
  "iibi": 8407,
  "\u2581agriculture": 8408,
  "\u2581maht": 8409,
  "\u2581supplies": 8410,
  "cki": 8411,
  "\u2581Kahe": 8412,
  "energia": 8413,
  "hop": 8414,
  "\u2581eesm\u00e4rki": 8415,
  "\u2581indications": 8416,
  "\u2581m\u00fc\u00fck": 8417,
  "Mo": 8418,
  "\u2581student": 8419,
  "\u2581Ph": 8420,
  "\u2581j\u00e4rjest": 8421,
  "tise": 8422,
  "\u2581une": 8423,
  "\u2581electric": 8424,
  "loogi": 8425,
  "\u2581suuri": 8426,
  "\u2581paying": 8427,
  "\u2581rongi": 8428,
  "\u2581lodged": 8429,
  "\u2581soil": 8430,
  "\u2581m\u00f5jutavad": 8431,
  "\u2581kasutajate": 8432,
  "\u2581vanuse": 8433,
  "tlus": 8434,
  "\u2581miljardi": 8435,
  "wo": 8436,
  "\u2581jump": 8437,
  "\u2581t\u00f5husalt": 8438,
  "\u2581parameters": 8439,
  "\u2581parandamiseks": 8440,
  "piiri": 8441,
  "\u2581Executive": 8442,
  "\u2581arvutatakse": 8443,
  "\u2581infections": 8444,
  "\u2581officials": 8445,
  "\u2581hoolitse": 8446,
  "\u2581h\u00e4vita": 8447,
  "\u2581Hinna": 8448,
  "kes": 8449,
  "\u2581nendele": 8450,
  "otherapy": 8451,
  "\u2581discrimination": 8452,
  "\u2581140": 8453,
  "\u2581korraldada": 8454,
  "\u2581smell": 8455,
  "\u2581s\u00e4r": 8456,
  "\u2581kvaliteet": 8457,
  "\u2581Investment": 8458,
  "\u2581imagine": 8459,
  "country": 8460,
  "duse": 8461,
  "\u2581equity": 8462,
  "\u2581doktor": 8463,
  "\u2581worrie": 8464,
  "\u2581skeemi": 8465,
  "vahe": 8466,
  "\u2581circulation": 8467,
  "\u2581taxes": 8468,
  "asi": 8469,
  "\u2581klaas": 8470,
  "\u2581v\u00f5idelda": 8471,
  "\u258170%": 8472,
  "\u2581alapunkti": 8473,
  "\u2581Science": 8474,
  "\u2581fraktsiooni": 8475,
  "\u2581jagada": 8476,
  "protsessi": 8477,
  "\u2581dimension": 8478,
  "gre": 8479,
  "/3": 8480,
  "\u2581konfidentsiaals": 8481,
  "\u2581Charles": 8482,
  "\u2581s\u00f5prade": 8483,
  "\u2581exceptional": 8484,
  "\u2581Iran": 8485,
  "\u2581facts": 8486,
  "\u2581karj\u00e4\u00e4ri": 8487,
  "\u258190%": 8488,
  "\u2581Switzerland": 8489,
  "\u2581armastus": 8490,
  "\u2581s\u00fcst": 8491,
  "\u2581kehtestamise": 8492,
  "\u2581ru": 8493,
  "\u2581lived": 8494,
  "\u2581released": 8495,
  "reeni": 8496,
  "mba": 8497,
  "kke": 8498,
  "\u2581tested": 8499,
  "\u25812015,": 8500,
  "\u2581centres": 8501,
  "\u2581krediidiasutuse": 8502,
  "\u2581t\u00f6\u00f6tavad": 8503,
  "\u2581muutused": 8504,
  "\u2581v\u00e4\u00e4rtuste": 8505,
  "\u2581piht": 8506,
  "ries": 8507,
  "\u2581asuva": 8508,
  "word": 8509,
  "\u2581Place": 8510,
  "V\u00e4hemalt": 8511,
  "\u2581cooperate": 8512,
  "\u2581rist": 8513,
  "\u2581tii": 8514,
  "arva": 8515,
  "\u2581AT": 8516,
  "k\u00fcsimuste": 8517,
  "\u2581courses": 8518,
  "\u2581sufficiently": 8519,
  "\u2581fe": 8520,
  "\u2581gross": 8521,
  "\u2581kasvas": 8522,
  "\u2581kanna": 8523,
  "\u2581k\u00e4te": 8524,
  "\u2581t\u00fc": 8525,
  "\u2581saatis": 8526,
  "poole": 8527,
  "\u2581zones": 8528,
  "imine": 8529,
  "\u2581graduation": 8530,
  "\u2581poolest": 8531,
  "2004,": 8532,
  "\u2581Additional": 8533,
  "\u2581keelt": 8534,
  "koodi": 8535,
  "\u2581default": 8536,
  "indlasti": 8537,
  "s\u00fc": 8538,
  "iiri": 8539,
  "\u2581AG": 8540,
  "\u2581v\u00e4hendamiseks": 8541,
  "\u2581avasta": 8542,
  "misse": 8543,
  "\u2581Ministry": 8544,
  "viis": 8545,
  "\u2581alam": 8546,
  "\u2581ran": 8547,
  "\u2581mention": 8548,
  "\u2581Network": 8549,
  "\u2581hundred": 8550,
  "\u2581Foreign": 8551,
  "\u2581rejected": 8552,
  "ire": 8553,
  "4-": 8554,
  "oor": 8555,
  "\u2581risti": 8556,
  "';": 8557,
  "\u2581informatsiooni": 8558,
  "\u2581liiguta": 8559,
  "\u2581koge": 8560,
  "SP": 8561,
  "\u2581Sain": 8562,
  "\u2581l\u00f5pu": 8563,
  "\u2581v\u00e4\u00e4ri": 8564,
  "\u2581nemad": 8565,
  "EMPs": 8566,
  "\u2581kalandus": 8567,
  "\u2581object": 8568,
  "\u2581algus": 8569,
  "\u2581exposures": 8570,
  "\u2581refers": 8571,
  "\u2581kaugusel": 8572,
  "eldi": 8573,
  "\u2581ajutiselt": 8574,
  "\u2581paku": 8575,
  "\u2581k\u00f5igist": 8576,
  "\u2581Istu": 8577,
  "\u2581loodus": 8578,
  "\u2581lause": 8579,
  "\u2581septembril": 8580,
  "\u2581kohustatud": 8581,
  "\u2581n\u00e4itajate": 8582,
  "j\u00e4rgse": 8583,
  "\u2581seisukoha": 8584,
  "\u2581toetuste": 8585,
  "\u2581Siia": 8586,
  "sioon": 8587,
  "\u2581tired": 8588,
  "\u2581marine": 8589,
  "\u2581seade": 8590,
  "\u2581counter": 8591,
  "\u2581elama": 8592,
  "\u2581Street": 8593,
  "\u2581direktiivile": 8594,
  "\u2581RAVIMI": 8595,
  "\u2581north": 8596,
  "\u2581Bal": 8597,
  "\u2581housing": 8598,
  "och": 8599,
  "\u2581street": 8600,
  "pet": 8601,
  "\u2581val": 8602,
  "\u2581rahandus": 8603,
  "\u2581kuulsin": 8604,
  "\u25814-": 8605,
  "\u2581sisalda": 8606,
  "\u2581kohast": 8607,
  "\u2581seeking": 8608,
  "\u2581Pida": 8609,
  "\u2581mulje": 8610,
  "kli": 8611,
  "\u2581avalike": 8612,
  "ough": 8613,
  "\u2581hotelli": 8614,
  "\u2581kodukorra": 8615,
  "\u2581input": 8616,
  "\u2581School": 8617,
  "\u2581t\u00e4iendavate": 8618,
  "\u2581kodaniku": 8619,
  "asja": 8620,
  "spir": 8621,
  "ook": 8622,
  "\u2581appreciate": 8623,
  "jah": 8624,
  "\u2581concrete": 8625,
  "\u2581Rural": 8626,
  "\u2581verify": 8627,
  "ENT": 8628,
  "ification": 8629,
  "\u2581foodstuffs": 8630,
  "\u2581kliir": 8631,
  "\u2581omanik": 8632,
  "\u2581kick": 8633,
  "\u2581sage": 8634,
  "\u2581bovine": 8635,
  "aruande": 8636,
  "\u2581r\u00fchm": 8637,
  "rm": 8638,
  "\u2581Otsuse": 8639,
  "\u2581kapten": 8640,
  "\u2581v\u00e4henemise": 8641,
  "\u2581contents": 8642,
  "\u2581v\u00e4itis": 8643,
  "\u2581forever": 8644,
  "\\": 8645,
  "\u2581varasema": 8646,
  "\u2581Croatia": 8647,
  "lennu": 8648,
  "\u2581makstud": 8649,
  "-14": 8650,
  "nimi": 8651,
  "\u2581Vaja": 8652,
  "\u2581bilateral": 8653,
  "\u2581\u00f5hku": 8654,
  "\u2581involve": 8655,
  "\u2581youth": 8656,
  "\u2581sertifitseerimi": 8657,
  "\u2581Kuningriigi": 8658,
  "\u2581birds": 8659,
  "\u2581s\u00e4testada": 8660,
  "\u2581L\u00e4": 8661,
  "\u2581Point": 8662,
  "\u2581Year": 8663,
  "\u2581reguleerimisala": 8664,
  "\u2581vilja": 8665,
  "\u2581P\u00f5": 8666,
  "\u25811.3": 8667,
  "\u2581Moldova": 8668,
  "\u2581ongoing": 8669,
  "\u2581ekraani": 8670,
  "\u2581fit": 8671,
  "\u2581t\u00f5": 8672,
  "\u2581\u00f5igusaktid": 8673,
  "\u2581corporate": 8674,
  "j\u00f5u": 8675,
  "m\u00e4ngu": 8676,
  "\u2581Ilmsel": 8677,
  "\u2581helps": 8678,
  "\u2581returned": 8679,
  "\u2581thereby": 8680,
  "\u2581V\u00f5tte": 8681,
  "\u2581kogusumma": 8682,
  "\u2581powerful": 8683,
  "stik": 8684,
  "\u2581camp": 8685,
  "ions": 8686,
  "\u2581disclosure": 8687,
  "\u2581butter": 8688,
  "\u2581upper": 8689,
  "\u2581osale": 8690,
  "300": 8691,
  "\u2581hulga": 8692,
  "\u2581Bel": 8693,
  "\u2581contracting": 8694,
  "\u2581evaluated": 8695,
  "umine": 8696,
  "\u2581vahemikus": 8697,
  "\u2581Louis": 8698,
  "vast": 8699,
  "\u2581greatest": 8700,
  "\u2581loomi": 8701,
  "\u2581registreerimise": 8702,
  "\u2581aitaks": 8703,
  "\u2581causes": 8704,
  "\u2581l\u00e4hevad": 8705,
  "lahus": 8706,
  "\u2581represented": 8707,
  "\u2581ver": 8708,
  "\u2581tohutu": 8709,
  "\u2581anywhere": 8710,
  "uvad": 8711,
  "\u2581conference": 8712,
  "ave": 8713,
  "\u2581Novo": 8714,
  "\u2581depending": 8715,
  "\u2581pluss": 8716,
  "\u2581v\u00e4ljakutse": 8717,
  "\u2581t\u00f6\u00f6tlemise": 8718,
  "t\u00f5": 8719,
  "ohu": 8720,
  "plaani": 8721,
  "\u2581Fred": 8722,
  "\u2581bottom": 8723,
  "\u2581kohtuda": 8724,
  "\u2581kuningas": 8725,
  "\u2581lai": 8726,
  "\u2581mistake": 8727,
  "rr": 8728,
  "\u2581religious": 8729,
  "\u2581Leave": 8730,
  "\u2581spot": 8731,
  "\u2581jooks": 8732,
  "LY": 8733,
  "\u2581collective": 8734,
  "hl": 8735,
  "\u2581m\u00e4rkused": 8736,
  "\u2581becoming": 8737,
  "\u2581checked": 8738,
  "\u2581financed": 8739,
  "\u2581goals": 8740,
  "\u2581title": 8741,
  "\u2581Control": 8742,
  "\u2581ekspert": 8743,
  "\u2581Turn": 8744,
  "ts\u00fckli": 8745,
  "\u2581J\u00f5u": 8746,
  "\u2581th": 8747,
  "\u2581vaatamata": 8748,
  "n\u00f5u": 8749,
  "\u2581Bor": 8750,
  "\u2581patsientidele": 8751,
  "jutu": 8752,
  "zer": 8753,
  "\u2581vastav": 8754,
  "\u2581t\u00e4itmist": 8755,
  "\u2581und": 8756,
  "\u2581Ravimi": 8757,
  "\u2581manustamisel": 8758,
  "stairs": 8759,
  "\u2581List": 8760,
  "\u2581gift": 8761,
  "\u2581j\u00e4rgida": 8762,
  "\u2581k\u00e4ttesaadavad": 8763,
  "\u2581miski": 8764,
  "\u2581piiril": 8765,
  "vahendi": 8766,
  "\u2581vahetus": 8767,
  "\u2581toiduainete": 8768,
  "ucker": 8769,
  "\u2581t\u00e4itma": 8770,
  "\u2581v\u00e4hese": 8771,
  "\u2581appropriations": 8772,
  "\u2581s\u00f5nul": 8773,
  "CI": 8774,
  "\u2581ettev\u00f5tjatele": 8775,
  "\u2581voluntary": 8776,
  "\u2581aset": 8777,
  "\u2581tourism": 8778,
  "\u2581loomist": 8779,
  "\u2581bound": 8780,
  "\u2581\u00f5igusnormide": 8781,
  "\u2581madal": 8782,
  "\u2581Hotel": 8783,
  "\u2581Valmis": 8784,
  "\u2581juukse": 8785,
  "\u2581contrary": 8786,
  "\u2581replace": 8787,
  "\u2581chloride": 8788,
  "\u2581seatud": 8789,
  "\u2581Katse": 8790,
  "\u2581vastuv\u00f5etud": 8791,
  "\u2581versiooni": 8792,
  "\u2581160": 8793,
  "\u2581Access": 8794,
  "\u2581peamiste": 8795,
  "\u2581south": 8796,
  "\u2581\u00fchtlustamise": 8797,
  "datud": 8798,
  "pal": 8799,
  "ym": 8800,
  "\u2581elavad": 8801,
  "\u2581BY": 8802,
  "\u2581n\u00e4evad": 8803,
  "\u2581patsienti": 8804,
  "\u2581relative": 8805,
  "\u2581olevad": 8806,
  "\u2581v\u00f5imalikku": 8807,
  "\u2581asylum": 8808,
  "\u2581k\u00e4sitatakse": 8809,
  "j\u00f5ud": 8810,
  "\u2581\u00f5igesti": 8811,
  "\u2581kontrollitud": 8812,
  "\u2581traditsioonilis": 8813,
  "7.": 8814,
  "\u2581sammu": 8815,
  "\u2581aviation": 8816,
  "\u2581k\u00e4itu": 8817,
  "teist": 8818,
  "\u2581julge": 8819,
  "\u2581tuntud": 8820,
  "Kas": 8821,
  "\u2581kinnitus": 8822,
  "iiniga": 8823,
  "\u2581regarded": 8824,
  "\u2581\u00fcheksa": 8825,
  "\u2581ECR": 8826,
  "\u2581hindamisel": 8827,
  "\u2581teiselt": 8828,
  "AG": 8829,
  "rma": 8830,
  "\u2581guide": 8831,
  "\u2581ost": 8832,
  "\u2581tagant": 8833,
  "\u2581P\u00e4eva": 8834,
  "\u2581kliimamuutuste": 8835,
  "\u2581soovivad": 8836,
  "\u2581fighting": 8837,
  "san": 8838,
  "\u2581Sage": 8839,
  "\u2581Secretary": 8840,
  "\u2581noise": 8841,
  "\u2581ob": 8842,
  "\u2581Technology": 8843,
  "OL": 8844,
  "hin": 8845,
  "UT": 8846,
  "\u2581esitati": 8847,
  "\u2581smaller": 8848,
  "\u2010": 8849,
  "Pilt": 8850,
  "\u2581[7]": 8851,
  "\u2581peo": 8852,
  "\u2581nobody": 8853,
  "akt": 8854,
  "EV": 8855,
  "\u2581koera": 8856,
  "\u2581suletud": 8857,
  "Po": 8858,
  "\u2581engines": 8859,
  "\u2581halva": 8860,
  "6)": 8861,
  "ikute": 8862,
  "\u2581riba": 8863,
  "\u2581elektroonilise": 8864,
  "\u2581tarbimise": 8865,
  "\u2581koguduse": 8866,
  "\u2581represents": 8867,
  "instrumentide": 8868,
  "ettev\u00f5tte": 8869,
  "\u2581letters": 8870,
  "teabe": 8871,
  "\u2581Level": 8872,
[...]
