{
  "</s>": 0,
  "<unk>": 1,
  ".": 2,
  ",": 3,
  "\u2581the": 4,
  "?": 5,
  "'": 6,
  "\u2581\u043d\u0430": 7,
  "\u2581-": 8,
  "\u2581\u0434\u0430": 9,
  "s": 10,
  "\u2581I": 11,
  "\u2581to": 12,
  "\u2581of": 13,
  "\u2581you": 14,
  "\u2581\u0435": 15,
  "\u2581\u0438": 16,
  "\u2581\u0437\u0430": 17,
  "\u2581a": 18,
  "\u2581\u0441\u0435": 19,
  "\u2581and": 20,
  "!": 21,
  "\u2581": 22,
  "\u2581\u0432": 23,
  "\u2581in": 24,
  "\u2581\u043e\u0442": 25,
  "-": 26,
  "\u2581\u043d\u0435": 27,
  "...": 28,
  "t": 29,
  "\u2581that": 30,
  "\u2581\u0441": 31,
  "\u2581is": 32,
  "\u2581it": 33,
  "\u0442\u0435": 34,
  "\u2581\u0441\u0438": 35,
  "\u2581\u0447\u0435": 36,
  "\u2581for": 37,
  "\u043c": 38,
  "\u2581\u043f\u043e": 39,
  "\u2581\"": 40,
  "\u2581(": 41,
  "\u0442\u0430": 42,
  "\u2581on": 43,
  "\u0438": 44,
  "\u2581\u041d\u0435": 45,
  "\u0430": 46,
  "\u2581be": 47,
  "\u2581You": 48,
  "\u2581\u043b\u0438": 49,
  ":": 50,
  "\u2581\u0449\u0435": 51,
  "\u2581with": 52,
  "\u2581me": 53,
  "\u2581this": 54,
  ")": 55,
  "\u2581\u0442\u043e\u0432\u0430": 56,
  "\u0448": 57,
  "\u2581not": 58,
  "m": 59,
  "\u2581have": 60,
  "\u2581was": 61,
  "\u0442\u043e": 62,
  "\u2581\u043c\u0438": 63,
  "\u2581are": 64,
  "\u2581The": 65,
  "\u2581we": 66,
  "\u2581your": 67,
  "\u2581\u0442\u0438": 68,
  "\u2581\u0433\u043e": 69,
  "re": 70,
  "\u044f": 71,
  "\u2581\u0441\u0430": 72,
  "\u0442": 73,
  "y": 74,
  "\u2581No": 75,
  "ing": 76,
  "\u2581It": 77,
  "\u2581my": 78,
  "\u2581do": 79,
  "\u2581know": 80,
  "\u2581can": 81,
  "\u2581\u0414\u0430": 82,
  "\u2581What": 83,
  "\u2581he": 84,
  "\u2581as": 85,
  "\u2581go": 86,
  "\u2581or": 87,
  "\u2581\u0441\u044a\u043c": 88,
  "\u2581\u043a\u0430\u0442\u043e": 89,
  "n": 90,
  "\u2581all": 91,
  "\u2581what": 92,
  "\u2581at": 93,
  "\u2581\u0421": 94,
  "\u2581\u0418": 95,
  "\u2581from": 96,
  "\u2581by": 97,
  "\u2581\u0438\u043b\u0438": 98,
  "\u2581don": 99,
  "\u043e": 100,
  "\u2581out": 101,
  "\u2581We": 102,
  "\u2581\u0442\u0435": 103,
  "d": 104,
  "\u2581And": 105,
  "\u043d\u0430": 106,
  "ll": 107,
  "\u2581\u0422\u043e\u0432\u0430": 108,
  "\u2581just": 109,
  "h": 110,
  "\u2581like": 111,
  "\u043c\u0435": 112,
  "\u2581He": 113,
  "\u2581about": 114,
  "e": 115,
  ";": 116,
  "\u2581here": 117,
  "\u2581will": 118,
  "\u0439": 119,
  "\u2581up": 120,
  "\u2581\u043c\u0435": 121,
  "\u2581\u041a\u0430\u043a\u0432\u043e": 122,
  "\u043d": 123,
  "\u2581get": 124,
  "\u0445": 125,
  "ly": 126,
  "\u043d\u0438": 127,
  "\u2581\u0433": 128,
  "\u2581an": 129,
  "\u2581\u0442\u0440\u044f\u0431\u0432\u0430": 130,
  "\u2581him": 131,
  "\u2581\u0412": 132,
  "\u2581one": 133,
  "\u043b": 134,
  "ed": 135,
  "\u2581did": 136,
  "\u2581they": 137,
  "\u2581\u0434\u043e": 138,
  "\u2581there": 139,
  "\u2581right": 140,
  "\u2581\u0429\u0435": 141,
  "\u2581but": 142,
  "\u2581\u043d\u043e": 143,
  "\u2581A": 144,
  "ve": 145,
  "\u2581so": 146,
  "\u2581\u043c\u043e\u0436\u0435": 147,
  "\u2581\u043a\u043e\u0438\u0442\u043e": 148,
  "\u2581\u043a\u0430\u043a\u0432\u043e": 149,
  "\u2581her": 150,
  "a": 151,
  "\u2581\u0432\u0438": 152,
  "\u2581no": 153,
  "\u2581That": 154,
  "\u043b\u0438": 155,
  "\u2581\u043c\u0443": 156,
  "\u2581got": 157,
  "\"": 158,
  "\u2581if": 159,
  "\u0435\u043d": 160,
  ".\"": 161,
  "/": 162,
  "\u2581his": 163,
  "\u043d\u043e": 164,
  "\u2581\u0417\u0430": 165,
  "\u2581\u043f\u0440\u0438": 166,
  "\u2581want": 167,
  "\u2581\u043c\u043d\u043e\u0433\u043e": 168,
  "\u2581\u0442\u0443\u043a": 169,
  "\u2581Oh": 170,
  "\u2581\u043d\u0438": 171,
  "\u2581\u0438\u043c\u0430": 172,
  "\u2581\u0430": 173,
  "\u2581would": 174,
  "\u2581has": 175,
  "\u2581\u0410": 176,
  "\u2581think": 177,
  "\u2581This": 178,
  "\u2581time": 179,
  "\u2581\u043a\u043e\u0435\u0442\u043e": 180,
  "\u2581Yea": 181,
  "\u2581been": 182,
  "\u2581were": 183,
  "\u0441": 184,
  "\u2581\u0414\u043e\u0431\u0440\u0435": 185,
  "\u2581\u044f": 186,
  "nna": 187,
  "\u2581them": 188,
  "\u2581But": 189,
  "\u2581\u0442\u0430\u043a\u0430": 190,
  "\u2581\u041d\u043e": 191,
  "\u044a\u0442": 192,
  "\u0438\u0442\u0435": 193,
  "\u2581So": 194,
  "\u2581\u0430\u0437": 195,
  "\u043b\u0430": 196,
  "\u2581she": 197,
  "\u2581who": 198,
  "\u2581\u043d\u044f\u043c\u0430": 199,
  "\u2581\u0431\u0435\u0448\u0435": 200,
  "\u2581\u043d\u0435\u0449\u043e": 201,
  "\u2581\u043a\u044a\u043c": 202,
  "\u2581\u0430\u043a\u043e": 203,
  "\u2581us": 204,
  "\u2581now": 205,
  "\u2581see": 206,
  "\u2581should": 207,
  "\u043d\u0435": 208,
  "\u2581which": 209,
  "\u2581\u0410\u0437": 210,
  "\u0448\u0435": 211,
  "\u2581more": 212,
  "\u0435": 213,
  "\u2581our": 214,
  "\u2581Well": 215,
  "\u2581had": 216,
  "\u2581back": 217,
  "\u2581going": 218,
  "\u2581\u0441\u0430\u043c\u043e": 219,
  "\u2581when": 220,
  "\u2581shall": 221,
  "\u2581\u041e": 222,
  "\u2581\u041d\u0430": 223,
  "\u25811": 224,
  "\u2581could": 225,
  "\u2581\u043a\u043e\u0439\u0442\u043e": 226,
  "\u2581\u041f\u043e": 227,
  "\u2581some": 228,
  "\u2581need": 229,
  "\u2581good": 230,
  "\u2581In": 231,
  "\u2581\u043c\u0435\u043d": 232,
  "\u043a\u0430": 233,
  "\u2581\u0410\u043a\u043e": 234,
  "\u2581\u0442\u043e\u0437\u0438": 235,
  "er": 236,
  "\u2581their": 237,
  "\u2581real": 238,
  "\u2581L": 239,
  "\u2581S": 240,
  "\u2581\u0432\u0441\u0438\u0447\u043a\u0438": 241,
  "\u2581other": 242,
  "\u2581B": 243,
  "\u2581\u0442\u0430\u0437\u0438": 244,
  "\u2581\u043d\u0430\u0439": 245,
  "\u044f\u0442": 246,
  "\u2581\u0433\u0438": 247,
  "\u2581\u0431\u044a\u0434\u0435": 248,
  "\u2581\u043a\u043e\u0433\u0430\u0442\u043e": 249,
  "\u2581They": 250,
  "\u2581take": 251,
  "\u2581\u0422\u0438": 252,
  "\u2581She": 253,
  "\u2581\u0422\u0440\u044f\u0431\u0432\u0430": 254,
  "\u2581\u0431\u0438": 255,
  "\u2581If": 256,
  "\u2581\u0441\u043b\u0435\u0434": 257,
  "\u2581\u0441\u0442\u0435": 258,
  "\u2581How": 259,
  "\u2581down": 260,
  "\u2581\u041c\u043e\u0436\u0435": 261,
  "\u2581\u0432\u0440\u0435\u043c\u0435": 262,
  "\u2581\u0442\u043e\u0439": 263,
  "\u2581\u0442\u0435\u0431": 264,
  "\u2581\u0442\u0435\u0437\u0438": 265,
  "\u2581\u0441\u043c\u0435": 266,
  "\u2581\u0422\u043e\u0439": 267,
  "\u2581any": 268,
  "\u2581C": 269,
  "\u2581\u0435\u0434\u0438\u043d": 270,
  "\u2581way": 271,
  "\u2581how": 272,
  "in": 273,
  "\u2581\u041d\u044f\u043c\u0430": 274,
  "\u2581come": 275,
  "\u2581\u043e\u0449\u0435": 276,
  "\u25812": 277,
  "\u2581into": 278,
  "\u2581over": 279,
  "\u2581make": 280,
  "\u2581only": 281,
  "\u2581man": 282,
  "\u2581people": 283,
  "\u0432": 284,
  "\u2581say": 285,
  "\u0445\u0430": 286,
  "\u2581Article": 287,
  "\u2581Yes": 288,
  "\u2581than": 289,
  "\u2581\u043f\u0440\u0435\u0437": 290,
  "\u2581\u0432\u0441\u0438\u0447\u043a\u043e": 291,
  "\u2581There": 292,
  "\u043a": 293,
  "\u2581\u043a\u043e\u044f\u0442\u043e": 294,
  "\u2581\u0417\u0430\u0449\u043e": 295,
  "\u2581\u0441\u044a\u0441": 296,
  "\u2581Hey": 297,
  "\u2581E": 298,
  "\u2581tell": 299,
  "\u0434\u0435": 300,
  "\u2581said": 301,
  "\u2581something": 302,
  "\u2581Why": 303,
  "\u2581where": 304,
  "\u2581European": 305,
  "\u2581Do": 306,
  "\u25813": 307,
  "\u2581then": 308,
  "\u2581Oka": 309,
  "o": 310,
  "\u2581All": 311,
  "\u2581'": 312,
  "\u2581\u043d\u0435\u0433\u043e": 313,
  "\u2581God": 314,
  "\u2581\u0418\u043c\u0430": 315,
  "\u2581too": 316,
  "\u2581two": 317,
  "\u2581D": 318,
  "\u2581\u043c\u043e\u0433\u0430": 319,
  "\u2581\u043f\u043e\u0432\u0435\u0447\u0435": 320,
  "very": 321,
  "\u2581P": 322,
  "\u2581\u0437\u043d\u0430\u043c": 323,
  "\u2581\u043f\u0440\u0435\u0434\u0438": 324,
  "\u2581T": 325,
  "\u2581Come": 326,
  "\u2581may": 327,
  "\u2581\u0431\u0435\u0437": 328,
  "\u2581Regulation": 329,
  "\u2581\u0413": 330,
  "\u2581these": 331,
  "\u2581\u0438\u043c": 332,
  "\u2581\u0438\u0437": 333,
  "\u2581\u041a\u0430\u043a": 334,
  "S": 335,
  "\u2581\u0441\u0435\u0433\u0430": 336,
  "\u2581mean": 337,
  "\u2581\u043a\u0430\u043a\u0442\u043e": 338,
  "\u2581\u043a\u0430\u043a": 339,
  "\u2581\u0434\u043e\u0431\u0440\u0435": 340,
  "\u2581\u0432\u044a\u0432": 341,
  "\u2581its": 342,
  "\u2581\u0447\u043b\u0435\u043d": 343,
  "),": 344,
  "\u2581first": 345,
  "\u2581[": 346,
  "\u2581\u043f\u043e\u0434": 347,
  "\u2581\u0415": 348,
  "\u2581Don": 349,
  "\u2581never": 350,
  "\u2581Let": 351,
  ").": 352,
  "b": 353,
  "\u2581work": 354,
  "\u2581little": 355,
  "\u2581off": 356,
  "\u2581let": 357,
  "\u2581those": 358,
  "\u2581...": 359,
  "\u25815": 360,
  "\u2581\u041e\u0442": 361,
  "\u2581Mr": 362,
  "\u2581am": 363,
  "\u2581Thank": 364,
  "\u2581day": 365,
  "\u043d\u0430\u0442\u0430": 366,
  "\u2581\u0442\u043e\u043b\u043a\u043e\u0432\u0430": 367,
  "\u2581look": 368,
  "\u2581\u0435\u0434\u043d\u0430": 369,
  "\u2581\u043c\u0430\u043b\u043a\u043e": 370,
  "\u2581also": 371,
  "\u2581\u0442\u0430\u043c": 372,
  "\u2581My": 373,
  "\u2581even": 374,
  "\u2581because": 375,
  "\u2581well": 376,
  "al": 377,
  ",\"": 378,
  "\u2581doing": 379,
  "\u2581life": 380,
  "\u2581much": 381,
  "\u2581before": 382,
  "\u2581must": 383,
  "\u2581Commission": 384,
  "es": 385,
  "\u0445\u043c\u0435": 386,
  "\u2581\u0422\u0430\u043a\u0430": 387,
  "\u2581\u0441\u044a\u0449\u043e": 388,
  "\u2581g": 389,
  "\u2581love": 390,
  "\u2581help": 391,
  "]": 392,
  "\u2581after": 393,
  "\u2581thing": 394,
  "\u2581\u0411\u043b\u0430\u0433\u043e\u0434\u0430\u0440": 395,
  "\u2581new": 396,
  "\u2581\u0442\u044f": 397,
  "\u2581p": 398,
  "\u2581years": 399,
  "\u2581f": 400,
  "\u25814": 401,
  "\u2581\u0433\u043e\u0434\u0438\u043d\u0438": 402,
  "\u2581why": 403,
  "\u0447\u0435": 404,
  "\u2581find": 405,
  "\u2581\u0422\u044f": 406,
  "\u266a": 407,
  "\u2581For": 408,
  "\u258110": 409,
  "\u2581\u043d\u0430\u043b\u0438": 410,
  "\u2581F": 411,
  "\u2581\u0434\u0435\u043d": 412,
  "\u2581Now": 413,
  "\u2581\u0437\u0430\u0449\u043e\u0442\u043e": 414,
  "c": 415,
  "\u2581made": 416,
  "\u2581\u041a\u043e\u043c\u0438\u0441\u0438\u044f\u0442\u0430": 417,
  "\u2581Where": 418,
  "\u2581\u043d\u0438\u0449\u043e": 419,
  "\u2581\u0422\u0435": 420,
  "\u2581use": 421,
  "\u2581\u043f\u0440\u043e\u0441\u0442\u043e": 422,
  "\u2581give": 423,
  "\u043b\u043e": 424,
  "\u2581still": 425,
  "\u2581\u0439": 426,
  "\u2581\u0438\u0441\u043a\u0430\u043c": 427,
  "\u2581\u0445\u043e\u0440\u0430": 428,
  "\u0434": 429,
  "\u2581Look": 430,
  "i": 431,
  "\u2581W": 432,
  "\u043d\u0438\u0442\u0435": 433,
  "\u2581\u0418\u0437": 434,
  "I": 435,
  "\u2581Who": 436,
  "\u2581\u043a\u0430\u0437\u0430": 437,
  "\u2581\u0440\u0430\u0431\u043e\u0442\u0430": 438,
  "\u2581\u0434\u0440\u0443\u0433\u0438": 439,
  "\u2581Just": 440,
  "or": 441,
  "g": 442,
  "\u2581oka": 443,
  "\u2581Union": 444,
  "\u2581\u0432\u0435\u0447\u0435": 445,
  "\u2581To": 446,
  "\u2581such": 447,
  "\u2581\u0442\u044f\u0445": 448,
  "\u2581try": 449,
  "\u2581\u0435\u0434\u043d\u043e": 450,
  "C": 451,
  "\u2581\u0441\u0442\u0430\u0432\u0430": 452,
  "\u2581under": 453,
  "\u2581\u0425\u0430\u0439": 454,
  "\u043a\u043e": 455,
  "A": 456,
  "\u0430\u0442\u0430": 457,
  "\u2581sorry": 458,
  "\u2581\u043d\u0430\u0441": 459,
  "\u2581last": 460,
  "\u2581\u043c\u0435\u0436\u0434\u0443": 461,
  "\u043d\u0438\u044f": 462,
  "\u2581through": 463,
  "\u2581long": 464,
  "\u2581sure": 465,
  "\u2581\u0447\u043e\u0432\u0435\u043a": 466,
  "\u2581\u043f\u044a\u0442": 467,
  "\u2581Are": 468,
  "\u2581again": 469,
  "\u0440": 470,
  "\u0434\u0438": 471,
  "\u2581\u0440\u0430\u0437": 472,
  "\u2581anything": 473,
  "\u2581put": 474,
  "\u2581does": 475,
  "\u2581\u0431\u044a\u0434\u0430\u0442": 476,
  "\u258120": 477,
  "\u2581home": 478,
  "\u2581\u043f\u0430\u0440\u0430\u0433\u0440\u0430\u0444": 479,
  "\u2581place": 480,
  "\u2581used": 481,
  "\u0442\u0438": 482,
  "\u2581\u0414\u043e": 483,
  "\u2581talk": 484,
  "\u2581call": 485,
  "\u2581Member": 486,
  "\u2581Not": 487,
  "\u2581\u0423": 488,
  "\u2581night": 489,
  "\u2581things": 490,
  "\u2581May": 491,
  "\u2581\u043d\u044f\u043a\u043e\u0439": 492,
  "\u2581Go": 493,
  "\u25816": 494,
  "\u2581thought": 495,
  "\u2581name": 496,
  "\u2581away": 497,
  "\u2581\u0415\u0432\u0440\u043e\u043f\u0435\u0439\u0441\u043a\u0438\u044f": 498,
  "\u2581\u0437\u0430\u0449\u043e": 499,
  "\u2581Your": 500,
  "\u2581\u043a\u0430\u0436\u0430": 501,
  "\u2581\u0432\u0441\u0435\u043a\u0438": 502,
  "\u2581\u0421\u0435\u0433\u0430": 503,
  "r": 504,
  "EC": 505,
  "\u2581\u043e": 506,
  "\u2581\u043f\u0440\u0435\u0434\u0432\u0438\u0434": 507,
  "\u2581being": 508,
  "\u2581\u041f\u0440\u0438": 509,
  "\u2581\u043c\u043e\u0433\u0430\u0442": 510,
  "\u2581R": 511,
  "\u2581M": 512,
  "\u2581\u0432\u044a\u0440\u0445\u0443": 513,
  "D": 514,
  "\u2581\u0420\u0435\u0433\u043b\u0430\u043c\u0435\u043d\u0442": 515,
  "\u2581G": 516,
  "\u2581When": 517,
  "\u0432\u0430": 518,
  "\u2581\u041a\u044a\u0434\u0435": 519,
  "\u2581told": 520,
  "l": 521,
  "\u2581\u0432\u0441\u0435": 522,
  "\u2581\u0447\u0430\u0441\u0442": 523,
  "\u2581\u0433\u043e\u0434\u0438\u043d\u0430": 524,
  "\u2581same": 525,
  "on": 526,
  "\u0443": 527,
  "\u2581better": 528,
  "\u2581s": 529,
  "\u2581\u043d\u0430\u0447\u0438\u043d": 530,
  "\u2581\u0418\u0441\u043a\u0430\u043c": 531,
  "\u043a\u0438": 532,
  "\u0439\u0442\u0435": 533,
  "\u2581\u043d\u0435\u044f": 534,
  "\u2581\u043e\u0442\u043d\u043e\u0441\u043d\u043e": 535,
  "\u2581\u0417\u043d\u0430\u0435": 536,
  "\u2581\u0431\u0438\u043b": 537,
  "\u2581around": 538,
  "\u2581Good": 539,
  "\u2581O": 540,
  "\u2581\u0441\u043b\u0435\u0434\u0432\u0430": 541,
  "\u2581\u0438\u0441\u043a\u0430\u0448": 542,
  "be": 543,
  "\u2581\u0411": 544,
  "\u2581information": 545,
  "\u2581\u041c\u043d\u043e\u0433\u043e": 546,
  "\u2581\u043c\u044f\u0441\u0442\u043e": 547,
  "\u2581V": 548,
  "\u2581world": 549,
  "--": 550,
  "\u2581\u043a\u043e\u043b\u043a\u043e": 551,
  "\u2581\u043f\u0440\u0435\u0434": 552,
  "\u2581\u043d\u0438\u0435": 553,
  "\u2581great": 554,
  "\u2581between": 555,
  "\u2581own": 556,
  "\u2581\u0443": 557,
  "\u2581\u0432\u0430\u0441": 558,
  "\u2581feel": 559,
  "\u2581Get": 560,
  "\u2581\u041f\u0440\u043e\u0441\u0442\u043e": 561,
  "\u0435\u0442\u0435": 562,
  "\u0415\u041e": 563,
  "\u2581Council": 564,
  "\u2581won": 565,
  "\u2581most": 566,
  "\u2581Can": 567,
  "\u2581always": 568,
  "\u2581\u041a\u043e\u0433\u0430\u0442\u043e": 569,
  "\u043f": 570,
  "\u2581many": 571,
  "guy": 572,
  "\u2581\u0431\u0435": 573,
  "\u2581Did": 574,
  "\u2581\u0417\u043d\u0430\u043c": 575,
  "\u2581\u0421\u0430\u043c\u043e": 576,
  "\u2581N": 577,
  "\u2581H": 578,
  "\u258130": 579,
  "ic": 580,
  "\u2581\u0414\u0436\u0435": 581,
  "\u2581\u0425\u0435": 582,
  "\u2581K": 583,
  "\u2581believe": 584,
  "2": 585,
  "\u2581found": 586,
  "\u25817": 587,
  "ers": 588,
  "\u2581three": 589,
  "\u2581money": 590,
  "\u258115": 591,
  "\u0446\u0438": 592,
  "\u2581\u0422": 593,
  "\u2581keep": 594,
  "\u2581As": 595,
  "\u2581States": 596,
  "\u2581ever": 597,
  "\u2581kind": 598,
  "\u0433": 599,
  "\u2581without": 600,
  "\u2581\u0420\u0430\u0437\u0431\u0438\u0440\u0430": 601,
  "\u044a\u0436\u0430\u043b\u044f\u0432\u0430": 602,
  "\u2581\u043d\u0430\u043f\u0440\u0430\u0432\u0438": 603,
  "\u2581please": 604,
  "\u2581\u0438\u043d\u0444\u043e\u0440\u043c\u0430\u0446\u0438\u044f": 605,
  "\u2581every": 606,
  "\u2581\u043d\u044f\u043a\u043e\u043b\u043a\u043e": 607,
  "\u0447": 608,
  "\u2581year": 609,
  "\u2581part": 610,
  "\u2581\u0437\u043d\u0430\u0435\u0448": 611,
  "\u2581car": 612,
  "\u2581done": 613,
  "\u258112": 614,
  "\u2581\u0411\u0435": 615,
  "\u2581\u0434\u0430\u043b\u0438": 616,
  "\u2581\u0434\u043e\u043a\u0430\u0442\u043e": 617,
  "th": 618,
  "\u0441\u0442": 619,
  "\u2581\u043f\u0440\u0435": 620,
  "\u2581case": 621,
  "\u2581doesn": 622,
  "\u2581\u043f\u0440\u0438\u044f\u0442\u0435\u043b": 623,
  "\u2581\u0441\u0442\u0440\u0430\u043d\u0430": 624,
  "\u0438\u044f": 625,
  "\u2581another": 626,
  "\u043f\u043e": 627,
  "\u2581nothing": 628,
  "\u0437": 629,
  "\u2581\u0415\u0442\u043e": 630,
  "\u0437\u0430": 631,
  "\u0431": 632,
  "\u2581lot": 633,
  "\u2581everything": 634,
  "\u2581\u043f\u0440\u0430\u0432\u0438": 635,
  "\u2581\u043f\u0440\u0430\u0432\u0438\u0448": 636,
  "\u2581\u041a\u043e\u0439": 637,
  "\u2581might": 638,
  "\u2581\u043d\u0435\u0449\u0430": 639,
  "\u0449": 640,
  "\u2581\u0445\u043e\u0440\u0430\u0442\u0430": 641,
  "\u2581girl": 642,
  "\u2581\u0434\u043e\u0440\u0438": 643,
  "\u2581\u041c\u043e\u043b\u044f": 644,
  "\u2581course": 645,
  "\u2581set": 646,
  "uys": 647,
  "\u2581\u043c\u0438\u0441\u043b\u044f": 648,
  "ie": 649,
  "\u2581\u043d\u044f\u043a\u043e\u0438": 650,
  "\u2581\u0421\u043b\u0435\u0434": 651,
  "f": 652,
  "\u2581each": 653,
  "\u2581\u0434\u0440\u0443\u0433": 654,
  "\u2581house": 655,
  "ta": 656,
  "\u25818": 657,
  "\u2581point": 658,
  "\u0421": 659,
  "\u2581\u043c\u043e\u0436\u0435\u0448": 660,
  "\u2581\u043f\u0440\u043e": 661,
  "Please": 662,
  "\u2581Then": 663,
  "\u2581\u0431\u044f\u0445": 664,
  "\u2581\u043a\u044a\u0434\u0435": 665,
  "\u2581left": 666,
  "\u2581\u0412\u0441\u0438\u0447\u043a\u043e": 667,
  "\u2581old": 668,
  "\u2581best": 669,
  "\u2581\u041c\u0438\u0441\u043b": 670,
  "\u2581\u0417\u0434\u0440\u0430\u0432\u0435\u0439": 671,
  "\u2581order": 672,
  "\u2581\u0442\u0440\u0438": 673,
  "B": 674,
  "\u2581came": 675,
  "\u258118": 676,
  "\u2581following": 677,
  "\u2581wanted": 678,
  "\u2581\u043d\u0430\u0438\u0441\u0442\u0438\u043d\u0430": 679,
  "\u2581\u0410\u043c\u0438": 680,
  "\u2581J": 681,
  "\u2581\u0412\u0438\u0435": 682,
  "man": 683,
  "\u2581\u0432\u0438\u0435": 684,
  "uck": 685,
  "\u2581\u0436\u0438\u0432\u043e\u0442\u0430": 686,
  "\u2581\u0438\u043c\u0430\u043c": 687,
  "\u2581\u041d\u0438\u0435": 688,
  "\u2581i": 689,
  "\u2581\u0447\u0440\u0435\u0437": 690,
  "k": 691,
  "\u2581\u0441\u044a\u043e\u0442\u0432\u0435\u0442\u0441\u0442\u0432\u0438\u0435": 692,
  "\u2581sir": 693,
  "\u2581happened": 694,
  "\u2581\u0412\u0438": 695,
  "\u2581leave": 696,
  "\u2581\u043e\u0442\u043d\u043e\u0448\u0435\u043d\u0438\u0435": 697,
  "\u2581family": 698,
  "\u25819": 699,
  "\u043c\u0438": 700,
  "\u2581EU": 701,
  "\u2581pre": 702,
  "p": 703,
  "\u2581\u0421\u044a\u0432\u0435\u0442\u0430": 704,
  "\u2581\u0417": 705,
  "EU": 706,
  "\u2581l": 707,
  "\u0432\u0438": 708,
  "\u2581understand": 709,
  "\u2581number": 710,
  "\u2581\u0427\u043b\u0435\u043d": 711,
  "\u2581\u0414\u0436\u043e": 712,
  "\u2581\u0418\u043c\u0430\u043c": 713,
  "\u2581\u0442\u043e\u0447\u043d\u043e": 714,
  "\u2581\u0436\u0438\u0432\u043e\u0442": 715,
  "\u2581coming": 716,
  "\u258119": 717,
  "\u044e": 718,
  "\u2581wrong": 719,
  "\u2581days": 720,
  "\u2581care": 721,
  "\u2581\u0438\u0441\u043a\u0430": 722,
  "\u2581means": 723,
  "\u2581\u043d\u0430\u0434": 724,
  "\u2581\u0434\u0432\u0435": 725,
  "llo": 726,
  "\u0410": 727,
  "\u0434\u0430": 728,
  "\u2581bad": 729,
  "\u2581\u043d\u0430\u043f\u0440\u0430\u0432\u044f": 730,
  "en": 731,
  "\u2581big": 732,
  "\u2581together": 733,
  "\u2581stop": 734,
  "\u2581\u0431\u0430\u0449\u0430": 735,
  "\u2581hear": 736,
  "\u2581end": 737,
  "\u2581\u0434\u044f\u0432\u043e\u043b": 738,
  "\u2581father": 739,
  "\u2581kill": 740,
  "\u2581already": 741,
  "\u0441\u0438": 742,
  "\u043d\u043e\u0442\u043e": 743,
  "\u0434\u043e\u0431\u0440\u0435": 744,
  "\u2581someone": 745,
  "\u2581enough": 746,
  "\u2581\u041f": 747,
  "one": 748,
  "\u2581today": 749,
  "\u2581\u0417\u0430\u0449\u043e\u0442\u043e": 750,
  "\u2581dead": 751,
  "\u0441\u043a\u0438": 752,
  "\u2581\u043e\u0442\u043d\u043e\u0432\u043e": 753,
  "\u0415\u0421": 754,
  "\u2581\u0441\u044a\u044e\u0437": 755,
  "\u2581both": 756,
  "\u2581\u0434\u0430\u043d\u043d\u0438": 757,
  "\u0444": 758,
  "\u2581Here": 759,
  "\u2581bit": 760,
  "uh": 761,
  "\u2581\u0436\u0435\u043d\u0430": 762,
  "\u2581\u041d\u0430\u0438\u0441\u0442\u0438\u043d\u0430": 763,
  "\u2581\u0442\u043e\u0433\u0430\u0432\u0430": 764,
  "\u2581talking": 765,
  "\u2581products": 766,
  "\u043a\u0430\u0442\u0430": 767,
  "\u2581\u0414": 768,
  "\u2581\u043c\u043e\u0436\u0435\u043c": 769,
  "\u043c\u0430": 770,
  "\u2581body": 771,
  "\u2581\u043f\u0440\u043e\u0434\u0443\u043a\u0442\u0438": 772,
  "\u2581else": 773,
  "\u2581\u0412\u0441\u0438\u0447\u043a\u0438": 774,
  "\u2581c": 775,
  "\u2581\u043a\u043e\u0439": 776,
  "\u2581One": 777,
  "\u044a\u0440": 778,
  "\u2581system": 779,
  "\u2581next": 780,
  "\u0449\u0438": 781,
  "\u2581\u0441\u043b\u0443\u0447\u0430\u0439": 782,
  "\u0439\u043a\u0438": 783,
  "\u2581ask": 784,
  "\u2581\u0438\u0437\u0433\u043b\u0435\u0436\u0434\u0430": 785,
  "\u2581\u0441\u0442\u0440": 786,
  "\u2581\u043d\u0438\u043a\u043e\u0433\u0430": 787,
  "\u2581\u0438\u043c\u0430\u0448": 788,
  "\u2581show": 789,
  "\u2581looking": 790,
  "\u2581\u0431\u044f\u0445\u0430": 791,
  "\u2581\u0425": 792,
  "\u2581fine": 793,
  "\u2581\u043f\u0440\u0438\u043b\u043e\u0436\u0435\u043d\u0438\u0435": 794,
  "\u2581mother": 795,
  "\u2581against": 796,
  "\u2581\u041d\u0410": 797,
  "\u2581\u0438\u0437\u043f\u043e\u043b\u0437\u0432\u0430": 798,
  "\u2581\u0432\u0438\u0434\u044f": 799,
  "\u2581Annex": 800,
  "\u2581Uh": 801,
  "\u2581\u041a\u0430\u0442\u043e": 802,
  "\u2581went": 803,
  "\u2581called": 804,
  "E": 805,
  "\u2581\u0437\u0430\u0435\u0434\u043d\u043e": 806,
  "\u2581\u043f\u043e\u043c\u043e\u0449": 807,
  "\u2581son": 808,
  "\u2581State": 809,
  "\u0431\u0438": 810,
  "\u2581\u0412\u0438\u0436": 811,
  "\u258125": 812,
  "\u2581while": 813,
  "\u2581\u0431\u0438\u043b\u0438": 814,
  "\u2581\u043f\u0430\u043a": 815,
  "\u2581hell": 816,
  "\u2581\u043d\u0443\u0436\u0434\u0430": 817,
  "\u2581data": 818,
  "\u2581mg": 819,
  "\u2581getting": 820,
  "\u2581important": 821,
  "\u2581e": 822,
  "\u2581whole": 823,
  "\u2581THE": 824,
  "\u2581\u0431": 825,
  "\u2581\u0422\u043e\u0433\u0430\u0432\u0430": 826,
  "\u2581Because": 827,
  "\u2581different": 828,
  "the": 829,
  "us": 830,
  "\u2581\u043a\u0430\u0436\u0435\u0448": 831,
  "\u2581\u043e\u043a\u043e\u043b\u043e": 832,
  "\u2581\u0432\u0438\u043d\u0430\u0433\u0438": 833,
  "\u2581re": 834,
  "\u2581\u043c\u0430\u0439\u043a\u0430": 835,
  "\u258111": 836,
  "\u2581friend": 837,
  "\u0440\u0430": 838,
  "\u2581mind": 839,
  "\u2581room": 840,
  "\u2581\u0432\u0440\u044a\u0437\u043a\u0430": 841,
  "ch": 842,
  "\u2581\u0442\u043e\u0447\u043a\u0430": 843,
  "\u2581yourself": 844,
  "\u2581Hi": 845,
  "\u2581\u0417\u043d\u0430\u0447\u0438": 846,
  "\u2581isn": 847,
  "tty": 848,
  "\u2581\u043d\u0430\u0440\u0435\u0434": 849,
  "to": 850,
  "\u2581saw": 851,
  "\u0449\u0430": 852,
  "\u2581accordance": 853,
  "\u2581\u0434\u043d\u0438": 854,
  "\u2581business": 855,
  "\u2581within": 856,
  "\u2581*": 857,
  "\u2581\u043f\u0430\u0440\u0438": 858,
  "\u0440\u0438": 859,
  "\u2581stay": 860,
  "\u2581&": 861,
  "\u2581\u043a\u0430\u0437\u0432\u0430": 862,
  "\u2581took": 863,
  "\u2581water": 864,
  "N": 865,
  "\u2581\u0421\u044a\u044e\u0437\u0430": 866,
  "\u2581wait": 867,
  "\u2581On": 868,
  "\u2581job": 869,
  "\u2581de": 870,
  "\u2581start": 871,
  "\u2581blood": 872,
  "\u2581\u0440\u0435\u0433\u043b\u0430\u043c\u0435\u043d\u0442": 873,
  "\u2581\u0437\u043d\u0430\u0435": 874,
  "\u044a\u043b": 875,
  "\u2581hard": 876,
  "\u0436\u0430": 877,
  "\u2581\u0446\u0435\u043b": 878,
  "\u2581second": 879,
  "\u2581\u0434\u043d\u0435\u0441": 880,
  "\u2581market": 881,
  "\u2581\u0441\u0440\u0435\u0449\u0443": 882,
  "\u2581\u0431\u0438\u043b\u043e": 883,
  "\u2581boy": 884,
  "\u2581Right": 885,
  "\u2581problem": 886,
  "\u2581head": 887,
  "\u2581d": 888,
  "\u2581until": 889,
  "T": 890,
  "\u2581remember": 891,
  "\u2581\u0438\u043c\u0430\u043c\u0435": 892,
  "\u2581\u0438\u043c\u0430\u0442": 893,
  "\u2581high": 894,
  "\u2581country": 895,
  "\u2581men": 896,
  "\u2581\u043c\u043e\u043b\u044f": 897,
  "\u2581\u043e\u0431": 898,
  "\u2581\u041d\u0435\u043a\u0430": 899,
  "\u2581live": 900,
  "\u2581un": 901,
  "M": 902,
  "\u2581\u0420\u0430\u0437": 903,
  "\u2581seen": 904,
  "\u2581\u0437\u0430\u0440\u0430\u0434\u0438": 905,
  "ate": 906,
  "\u2581\u0422\u0443\u043a": 907,
  "\u2581Some": 908,
  "\u2581hand": 909,
  "\u0441\u043a\u0430": 910,
  "\u2581m": 911,
  "\u2581/": 912,
  "\u25811.": 913,
  "\u2581person": 914,
  "\u2581few": 915,
  "\u2581least": 916,
  "\u2581idea": 917,
  "\u043d\u0435\u0442\u043e": 918,
  "P": 919,
  "H": 920,
  "\u2581\u0432\u0441\u044f\u043a\u0430": 921,
  "\u2581Of": 922,
  "\u258116": 923,
  "\u2581\u0418\u0441\u043a\u0430\u0448": 924,
  "\u2581during": 925,
  "\u2581\u0447\u0443\u0432\u0441\u0442\u0432\u0430": 926,
  "ucking": 927,
  "\u2581\u0445\u0430\u0440\u0435\u0441\u0432\u0430": 928,
  "\u2581\u0441\u0435\u0431\u0435": 929,
  "le": 930,
  "shit": 931,
  "\u0449\u043e": 932,
  "\u2581having": 933,
  "\u043f\u0438": 934,
  "\u2581\u0434\u043e\u0439\u0434\u0435": 935,
  "\u2581\u043c\u0438\u0441\u043b\u0438\u0448": 936,
  "\u0441\u044a\u043d": 937,
  "\u2581yet": 938,
  "\u25811,": 939,
  "\u2581nice": 940,
  "\u2581\u041a\u043e\u043b\u043a\u043e": 941,
  "\u2581since": 942,
  "\u2581\u043e\u0437\u043d\u0430\u0447\u0430\u0432\u0430": 943,
  "\u2581\u0441\u044a\u0440": 944,
  "R": 945,
  "\u2581See": 946,
  "\u2581meet": 947,
  "\u2581\u0415\u0421": 948,
  "\u2581working": 949,
  "\u258150": 950,
  "\u258114": 951,
  "\u2581yea": 952,
  "\u2581\u0431\u0438\u0445": 953,
  "\u2581change": 954,
  "\u2581heard": 955,
  "\u2581Or": 956,
  "\u2581By": 957,
  "\u2581\u043a\u044a\u0434\u0435\u0442\u043e": 958,
  "\u2581measures": 959,
  "\u2581\u0422\u043e": 960,
  "\u043e\u0432\u0435": 961,
  "\u2581ago": 962,
  "\u0447\u0438": 963,
  "\u0432\u043e": 964,
  "\u2581100": 965,
  "\u2581matter": 966,
  "\u2581\u0431\u0438\u043b\u0430": 967,
  "F": 968,
  "\u2581\u0442\u043e": 969,
  "\u043d\u0438\u043a": 970,
  "\u0433\u0430": 971,
  "\u2581At": 972,
  "\u2581\u041d\u0430\u0439": 973,
  "an": 974,
  "\u2581children": 975,
  "\u2581bring": 976,
  "\u2581knew": 977,
  "\u2581\u0422\u043e\u0437\u0438": 978,
  "\u2581saying": 979,
  "3": 980,
  "\u258124": 981,
  "\u2581\u0434\u043e\u0441\u0442\u0430": 982,
  "\u2581free": 983,
  "\u2581product": 984,
  "\u258117": 985,
  "able": 986,
  "\u2581\u0438\u0434\u0432\u0430": 987,
  "\u2581Wait": 988,
  "\u2581fun": 989,
  "\u2581\u0415\u0439": 990,
  "\u2581\u0440\u0435\u0448\u0435\u043d\u0438\u0435": 991,
  "at": 992,
  "\u2581school": 993,
  "\u2581\u043f\u0440\u043e\u0431\u043b\u0435\u043c": 994,
  "\u2581taking": 995,
  "\u2581wa": 996,
  "\u2581!": 997,
  "\u2581baby": 998,
  "\u2581heart": 999,
  "\u0436\u0438": 1000,
  "ny": 1001,
  "\u2581actually": 1002,
  "\u2581maybe": 1003,
  "\u2581\u041c\u0430\u043c": 1004,
  "\u2581woman": 1005,
  "\u2581times": 1006,
  "\u2581weight": 1007,
  "\u2581\u043c\u043e\u044f": 1008,
  "\u2581\u0411\u043e\u0436\u0435": 1009,
  "\u2581Parliament": 1010,
  "\u2581period": 1011,
  "\u2581\u0440\u0430\u0431\u043e\u0442\u0438": 1012,
  "\u2581\u0432\u0435\u0447\u0435\u0440": 1013,
  "is": 1014,
  "\u2581power": 1015,
  "\u2581once": 1016,
  "\u2581\u0432\u0438\u0434\u0438\u043c": 1017,
  "am": 1018,
  "\u0411": 1019,
  "\u2581t": 1020,
  "\"?": 1021,
  "\u258113": 1022,
  "\u2581move": 1023,
  "\u2581Directive": 1024,
  "\u2581game": 1025,
  "\u2581_": 1026,
  "\u2581control": 1027,
  "\u2581\u0441\u0442\u0430\u043d\u0435": 1028,
  "\u2581report": 1029,
  "\u2581including": 1030,
  "\u2581provided": 1031,
  "\u2581Decision": 1032,
  "\u2581food": 1033,
  "\u043c\u043e": 1034,
  "\u2581\u0434\u043e\u0441\u0442\u0430\u0442\u044a\u0447\u043d\u043e": 1035,
  "\u2581\u043d\u043e\u0449": 1036,
  "\u2581possible": 1037,
  "\u258121": 1038,
  "\u2581financial": 1039,
  "\u2581particular": 1040,
  "\u2581\u0434\u0435": 1041,
  "\u043e\u0442\u043e": 1042,
  "\u2581play": 1043,
  "\u2581open": 1044,
  "\u2581\u0418\u0441\u043a\u0430": 1045,
  "\u2581killed": 1046,
  "\u2581II": 1047,
  "\u2581hope": 1048,
  "\u044a\u043d": 1049,
  "\u2581morning": 1050,
  "\u2581says": 1051,
  "\u2581side": 1052,
  "up": 1053,
  "\u2581\u0422\u043e\u0447\u043d\u043e": 1054,
  "\u2581\u0441\u0438\u0441\u0442\u0435\u043c\u0430": 1055,
  "\u2581b": 1056,
  "\u2581+": 1057,
  "\u0412": 1058,
  "\u2581\u0441\u044a\u0433\u043b\u0430\u0441\u043d\u043e": 1059,
  "\u2581\u0441\u0442\u0440\u0430\u0445": 1060,
  "\u2581guess": 1061,
  "\u2581Jesus": 1062,
  "\u2581taken": 1063,
  "\u2581\u041d\u0438\u0449\u043e": 1064,
  "\u2581\u0414\u0435": 1065,
  "\u2581\u0434\u0435\u0446\u0430": 1066,
  "\u2581wife": 1067,
  "L": 1068,
  "\u2581support": 1069,
  "\u2581\u043c\u0435\u0440\u043a\u0438": 1070,
  "\u2581\u0411\u0438": 1071,
  "\u2581\u0440\u0430\u0437\u043b\u0438\u0447\u043d\u0438": 1072,
  "\u2581\u0447\u0430\u0441\u0430": 1073,
  "\u2581\u0433\u043e\u0432\u043e\u0440\u0438": 1074,
  "\u2581\u0434\u0440\u0443\u0433\u043e": 1075,
  "\u2581conditions": 1076,
  "\u2581OK": 1077,
  "\u2581\u041c\u0430\u0439": 1078,
  "\u2581face": 1079,
  "\u2581\u0442\u0440\u044a\u0433\u0432\u0430": 1080,
  "\u2581\u0434\u044a\u0440\u0436\u0430\u0432\u0438": 1081,
  "\u2581\u0434\u0432\u0430": 1082,
  "em": 1083,
  "\u258122": 1084,
  "\u2581\u0411\u043e\u0433": 1085,
  "\u2581Re": 1086,
  "\u2581human": 1087,
  "\u2581referred": 1088,
  "it": 1089,
  "son": 1090,
  "\u2581patients": 1091,
  "\u2581ready": 1092,
  "\u2581friends": 1093,
  "\u2581level": 1094,
  "\u2581public": 1095,
  "\u2581\u043f\u043e\u043c\u043e\u0433\u043d\u0430": 1096,
  "\u0442\u044a\u0440": 1097,
  "\u043f\u0435": 1098,
  "\u2581Take": 1099,
  "\u2581\u0437\u043d\u0430\u0447\u0435\u043d\u0438\u0435": 1100,
  "\u2581far": 1101,
  "\u2581\u041a": 1102,
  "\u2581\u0434": 1103,
  "\u0445\u0442\u0435": 1104,
  "\u2581phone": 1105,
  "\u2581months": 1106,
  "\u0422": 1107,
  "\u2581date": 1108,
  "\u2581Have": 1109,
  "\u2581run": 1110,
  "\u2581\u041a\u0430\u043a\u0442\u043e": 1111,
  "\u2581Sorr": 1112,
  "\u2581alone": 1113,
  "\u2581Bulgaria": 1114,
  "\u2581\u043d\u0435\u0449\u0430\u0442\u0430": 1115,
  "W": 1116,
  "\u2581\u0432\u0437\u0435\u043c\u0430": 1117,
  "\u2581\u041f\u0440\u0435": 1118,
  "\u2581\u043d\u043e\u0432\u0438": 1119,
  "\u2581\u043e\u043f\u0438\u0442\u0432\u0430": 1120,
  "\u2581list": 1121,
  "\u2581\u0441\u0442\u0430\u043d\u0430": 1122,
  "\u2581true": 1123,
  "\u2581\u0440\u0430\u0431\u043e\u0442\u0430\u0442\u0430": 1124,
  "\u2581\u0438\u0441\u043a\u0430\u043b": 1125,
  "\u2581able": 1126,
  "\u2581\u041a\u0430\u0437\u0430\u0445": 1127,
  "as": 1128,
  "\u2581\u0432\u044a\u043f\u0440\u043e\u0441": 1129,
  "\u2581\u0441\u0442\u0440\u0430\u043d\u0438": 1130,
  "ow": 1131,
  "\u2581\u0412\u0441\u0435": 1132,
  "\u2581countries": 1133,
  "\u2581\u0422\u0430\u0437": 1134,
  "\u2581national": 1135,
  "\u2581question": 1136,
  "\u2581With": 1137,
  "\u2581\u0441\u0438\u043b\u0430": 1138,
  "\u2581\u043f\u044a\u0442\u0438": 1139,
  "\u2581regard": 1140,
  "\u2581\u041c\u043e\u0433\u0430": 1141,
  "\u2581An": 1142,
  "\u2581\u0431\u0440\u0430\u0442": 1143,
  "\u2581listen": 1144,
  "\u2581\u0414\u0438": 1145,
  "\u2581risk": 1146,
  "\u2581\u0432\u0440\u0435\u043c\u0435\u0442\u043e": 1147,
  "\u2581\u041e\u0449\u0435": 1148,
  "\u2581lost": 1149,
  "\u2581These": 1150,
  "\u2581\u0442\u0430\u043a\u0438\u0432\u0430": 1151,
  "\u2581full": 1152,
  "\u2581hours": 1153,
  "\u2581\u0438\u043c\u0435\u0442\u043e": 1154,
  "\u258131": 1155,
  "\u0438\u043d": 1156,
  "\u2581later": 1157,
  "\u2581Al": 1158,
  "\u2581brother": 1159,
  "\u2581His": 1160,
  "\u2581fact": 1161,
  "\u2581\u041d\u0438\u043a\u043e\u0433\u0430": 1162,
  "\u0435\u043d\u0438": 1163,
  "\u2581\u0434\u044a\u0440\u0436\u0430\u0432\u0438\u0442\u0435": 1164,
  "\u2581plan": 1165,
  "\u2581lose": 1166,
  "\u2581\u0418\u043b\u0438": 1167,
  "\u2581\u043c\u043e\u043c\u0438\u0447\u0435": 1168,
  "\u0438\u043b\u0438": 1169,
  "\u2581\u041a\u0430\u0436\u0438": 1170,
  "\u2581wants": 1171,
  "\u25812009": 1172,
  "\u2581\u0441\u043b\u0443\u0447\u0438": 1173,
  "\u0437\u0438": 1174,
  "\u2581gone": 1175,
  "\u2581\u0411\u044f\u0445": 1176,
  "\u2581law": 1177,
  "\u2581death": 1178,
  "\u2581\u041a\u043e": 1179,
  "ity": 1180,
  "\u2581minutes": 1181,
  "z": 1182,
  "\u043a\u0443": 1183,
  "\u2581\u0441\u0432\u0435\u0442\u0430": 1184,
  "\u2581\u0414\u043e\u0440\u0438": 1185,
  "ting": 1186,
  "\u2581necessary": 1187,
  "\u0447\u0442\u0438": 1188,
  "\u043e\u0442": 1189,
  "\u2581certain": 1190,
  "\u2581area": 1191,
  "\u25812,": 1192,
  "\u2581New": 1193,
  "\u2581\u043d\u0430\u043f\u0440\u0430\u0432\u0438\u043c": 1194,
  "\u0441\u0442\u0438": 1195,
  "\u2581met": 1196,
  "\u2581given": 1197,
  "\u2581anyone": 1198,
  "\u2581\u041c": 1199,
  "\u2581\u043f\u0440\u0430\u0432\u044f": 1200,
  "\u2581\u043a\u043e": 1201,
  "\u2581\u0441\u0440\u0435\u0449\u0430": 1202,
  "\u2581myself": 1203,
  "\u0441\u0435": 1204,
  "\u0431\u0430": 1205,
  "\u2581Dr": 1206,
  "\u2581\u043f\u0440\u0430\u0432\u043e": 1207,
  "\u2581\u0411\u044a\u043b\u0433\u0430\u0440\u0438\u044f": 1208,
  "1": 1209,
  "\u2581deal": 1210,
  "\u2581late": 1211,
  "\u2581\u043f\u0430\u0440\u043b\u0430\u043c\u0435\u043d\u0442": 1212,
  "\u2581\u0432\u044a\u0437": 1213,
  "\u2581Me": 1214,
  "\u2581\u0418\u0437\u0433\u043b\u0435\u0436\u0434\u0430": 1215,
  "\u2581\u0422\u0435\u0437": 1216,
  "\u2581\u043c\u043e\u043c\u0435\u043d\u0442\u0430": 1217,
  "\u0446\u0438\u0442\u0435": 1218,
  "\u2581President": 1219,
  "\u2581\u0412\u0435\u0447\u0435": 1220,
  "\u2581Be": 1221,
  "\u043e\u043d": 1222,
  "\u2581soon": 1223,
  "\u043f\u0430": 1224,
  "\u2581die": 1225,
  "\u2581making": 1226,
  "\u2581close": 1227,
  "\u2581week": 1228,
  "\u0432\u0430\u043c": 1229,
  "\u2581\u041c\u0438": 1230,
  "\u043c\u0430\u043b\u043a\u043e": 1231,
  "\u2581Real": 1232,
  "\u0418": 1233,
  "\u2581\u0433\u043e\u043b\u044f\u043c\u0430": 1234,
  "\u2581\u0411\u0435\u0437": 1235,
  "\u2581\u0441\u0432\u044a\u0440\u0437\u0430\u043d\u0438": 1236,
  "\u2581gave": 1237,
  "\u2581\u0419\u0435": 1238,
  "\u2581haven": 1239,
  "\u2581OF": 1240,
  "\u2581line": 1241,
  "\u2581Like": 1242,
  "\u2581\u0441\u0440\u0435\u0434\u0441\u0442\u0432\u0430": 1243,
  "ion": 1244,
  "\u2581company": 1245,
  "\u2581Tell": 1246,
  "\u2581\u0434\u044a\u0440\u0436\u0430\u0432\u0430": 1247,
  "\u0435\u043d\u0430": 1248,
  "\u2581eat": 1249,
  "\u25810": 1250,
  "\u2581less": 1251,
  "\u2581\u043d\u0438\u0442\u043e": 1252,
  "\u2581\u041e\u0441\u0432\u0435\u043d": 1253,
  "el": 1254,
  "\u2581\u043c\u0435\u0441\u0435\u0446\u0430": 1255,
  "\u2581per": 1256,
  "\u2581\u0432\u0437\u0435": 1257,
  "\u2581turn": 1258,
  "\u2022": 1259,
  "\u2581\u043c\u043e\u0436\u0435\u0442\u0435": 1260,
  "\u2581#": 1261,
  "\u2581\u043d\u0438\u043a\u043e\u0439": 1262,
  "\u2581pay": 1263,
  "\u044a\u043a": 1264,
  "\u2581light": 1265,
  "\u2581\u0441\u0432\u044f\u0442": 1266,
  "\u2581\u043c\u0438\u043d\u0443\u0442\u0438": 1267,
  "\u2581\u0442\u044a\u0439": 1268,
  "\u2581happy": 1269,
  "\u2581\u0417\u0430\u0442\u043e\u0432\u0430": 1270,
  "\u2581thinking": 1271,
  "x": 1272,
  "\u2581door": 1273,
  "\u0439\u043d": 1274,
  "vah": 1275,
  "4": 1276,
  "\u2581rules": 1277,
  "\u0432\u044a\u0440": 1278,
  "and": 1279,
  "\u2581hit": 1280,
  "\u2581\u043f\u043e\u043b\u0443\u0447\u0438": 1281,
  "\u2581\u0440\u0435": 1282,
  "\u258140": 1283,
  "\u2581\u0442": 1284,
  "\u2581needs": 1285,
  "\u2581\u0442\u0440\u044f\u0431\u0432\u0430\u0448\u0435": 1286,
  "\u2581five": 1287,
  "\u2581\u0448\u0435": 1288,
  "\u2581\u041c\u0438\u0441\u043b\u0438": 1289,
  "\u2581Stop": 1290,
  "\u2581\u043c\u044a\u0436": 1291,
  "ur": 1292,
  "est": 1293,
  "\u2581party": 1294,
  "ir": 1295,
  "\u2581cut": 1296,
  "\u25812011": 1297,
  "\u043e\u0432": 1298,
  "\u2581\u0420\u043e": 1299,
  "\u2581\u0431\u044a\u0440\u0437\u043e": 1300,
  "\u2581\u0432\u043a\u043b\u044e\u0447\u0438\u0442\u0435\u043b\u043d\u043e": 1301,
  "\u2581makes": 1302,
  "\u2581four": 1303,
  "\u2581paragraph": 1304,
  "\u2581Jeho": 1305,
  "\u2581non": 1306,
  "\u2581third": 1307,
  "\u2581\u043f\u0435\u0442": 1308,
  "\u2581\u0438\u043c\u0435": 1309,
  "\u2581special": 1310,
  "\u2581\u041f\u0440\u0435\u0434\u0438": 1311,
  "\u2581\u0443\u0441\u043b\u043e\u0432\u0438\u044f": 1312,
  "\u2581\u0410\u043b": 1313,
  "\u2581\u0442\u0430\u043a\u044a\u0432": 1314,
  "\u0446\u0430": 1315,
  "\u2581\u0432\u044a\u0437\u043c\u043e\u0436\u043d\u043e": 1316,
  "\u258123": 1317,
  "\u2581happen": 1318,
  "\u2581services": 1319,
  "\u0441\u0430": 1320,
  "\u2581\u0427\u0435": 1321,
  "\u0436\u0435": 1322,
  "\u2581become": 1323,
  "\u25812013": 1324,
  "\u2581\u043f\u0440\u043e\u0434\u0443\u043a\u0442": 1325,
  "\u2581EUR": 1326,
  "\u0441\u043a\u0430\u0442\u0430": 1327,
  "\u2581\u0433\u043e\u0432\u043e\u0440\u044f": 1328,
  "\u2581\u0418\u043c\u0430\u0448": 1329,
  "\u2581type": 1330,
  "\u2581\u0434\u0440\u0443\u0433\u0430": 1331,
  "\u2581\u041e\u0431": 1332,
  "\u2581\u0445": 1333,
  "\u2581\u0432\u044a\u0440\u043d\u0430": 1334,
  "G": 1335,
  "\u2581ma": 1336,
  "\u0433\u043e": 1337,
  "\u2581\u041d\u0430\u043b\u0438": 1338,
  "K": 1339,
  "\u2581using": 1340,
  "\u0448\u0430\u0442\u0430": 1341,
  "\u2581(1)": 1342,
  "\u2581reason": 1343,
  "Y": 1344,
  "\u2581U": 1345,
  "\u25812014": 1346,
  "\u2581force": 1347,
  "\u2581young": 1348,
  "\u2581\u0434\u0440\u0443\u0433\u0438\u0442\u0435": 1349,
  "\u0434\u043e": 1350,
  "\u2581authorities": 1351,
  "\u2581\u0440\u0430\u043c\u043a\u0438\u0442\u0435": 1352,
  "\u2581\u0441\u0438\u0433\u0443\u0440\u043d\u043e\u0441\u0442": 1353,
  "\u25814.": 1354,
  "\u25812010": 1355,
  "\u2581John": 1356,
  "\u2581co": 1357,
  "\u2581\u0441\u043f\u0440\u0435": 1358,
  "\u2581\u0427\u0430\u043a\u0430\u0439": 1359,
  "huh": 1360,
  "\u2581word": 1361,
  "\u0435\u0440": 1362,
  "\u2581\u0447\u043b\u0435\u043d\u043a\u0438": 1363,
  "\u2581\u0431\u043b\u0430\u0433\u043e\u0434\u0430\u0440\u044f": 1364,
  "\u2581\u0432\u0438\u0434": 1365,
  "\u2581read": 1366,
  "\u0438\u0437": 1367,
  "\u2581\u043c\u043e\u043c\u0435\u043d\u0442": 1368,
  "et": 1369,
  "\u2581\u0415\u0434\u0438\u043d": 1370,
  "ar": 1371,
  "The": 1372,
  "\u2581available": 1373,
  "\u0435\u0446": 1374,
  "\u2581tonight": 1375,
  "\u2581\u043e\u043f\u0438\u0442\u0430": 1376,
  "\u2581test": 1377,
  "\u2581\u043f\u0440\u043e\u043c\u0435\u043d\u0438": 1378,
  "\u2581\u0420\u0438": 1379,
  "\u2581yes": 1380,
  "\u2581\u043a\u0430\u0437\u0430\u0445": 1381,
  "st": 1382,
  "\u2581thank": 1383,
  "il": 1384,
  "\u2581rest": 1385,
  "\u2581\u0434\u043e\u0431\u044a\u0440": 1386,
  "\u2581clear": 1387,
  "\u2581\u043a\u043e\u043b\u0430\u0442\u0430": 1388,
  "\u2581knows": 1389,
  "\u2581\u041a\u0430": 1390,
  "\u2581decision": 1391,
  "\u2581Ver": 1392,
  "\u2581cannot": 1393,
  "\u2581\u043f\u043e\u043c\u043e\u0433\u043d\u0435": 1394,
  "\u2581probably": 1395,
  "\u2581Europe": 1396,
  "\u2581\u043e\u0440\u0433\u0430\u043d\u0438": 1397,
  "\u2581asked": 1398,
  "\u0445\u043e\u0432\u0430": 1399,
  "\u2581\u0431\u044a\u0434\u0430": 1400,
  "\u0447\u0430": 1401,
  "\u2581Agreement": 1402,
  "\u2581\u0443\u0441\u043b\u0443\u0433\u0438": 1403,
  "\u2581truth": 1404,
  "\u2581stuff": 1405,
  "\u2581\u0441\u044a\u0436\u0430\u043b\u044f\u0432\u0430": 1406,
  "\u2581\u043f\u043e\u0441\u043b\u0435": 1407,
  "\u2581everyone": 1408,
  "\u2581\u0434\u0430\u0434\u0435": 1409,
  "\u2581women": 1410,
  "\u2581Mom": 1411,
  "00": 1412,
  "\u2581requirements": 1413,
  "\u2581dad": 1414,
  "\u2581\u0434\u0432\u0430\u043c\u0430\u0442\u0430": 1415,
  "\u2581small": 1416,
  "\u2581Our": 1417,
  "\u2581energy": 1418,
  "\u2581either": 1419,
  "ation": 1420,
  "\u2581child": 1421,
  "\u2581half": 1422,
  "\u2581\u0438\u043c\u0430\u0442\u0435": 1423,
  "\u2581worry": 1424,
  "\u2581\u043f\u0440\u0438\u043b\u0430\u0433\u0430": 1425,
  "\u2581\u043a\u043e\u043d\u0442\u0440\u043e\u043b": 1426,
  "u": 1427,
  "\u043d\u0438\u044f\u0442": 1428,
  "O": 1429,
  "\u2581\u043d\u0430\u0441\u0442\u043e\u044f\u0449\u0438\u044f": 1430,
  "\u2581\u0414\u0438\u0440\u0435\u043a\u0442\u0438\u0432\u0430": 1431,
  "\u2581doctor": 1432,
  "\u2581\u0422\u0430": 1433,
  "\u2581\u042f": 1434,
  "\u2581book": 1435,
  "\u2581Ma": 1436,
  "\u258127": 1437,
  "\u2581tomorrow": 1438,
  "\u0430\u043d": 1439,
  "\u2581$": 1440,
  "\u2581\u043a\u0440\u0430\u044f": 1441,
  "\u2581whether": 1442,
  "\u2581aid": 1443,
  "\u2581treatment": 1444,
  "\u2581service": 1445,
  "\u2581\u041f\u0440\u0435\u0437": 1446,
  "\u2581\u041c\u0438\u0441\u043b\u0435": 1447,
  "\u2581mm": 1448,
  "\u0435\u043c": 1449,
  "\u2581inside": 1450,
  "\u2581\u043c\u043e\u0439": 1451,
  "\u2581hurt": 1452,
  "\u2581account": 1453,
  "\u2581respect": 1454,
  "\u25812012": 1455,
  "\u2581\u0438\u0437\u043f\u044a\u043b\u043d\u0435\u043d\u0438\u0435": 1456,
  "\u0432\u0430\u043d\u0435": 1457,
  "\u0438\u0448": 1458,
  "\u2581eyes": 1459,
  "id": 1460,
  "\u2581beautiful": 1461,
  "\u041e": 1462,
  "\u2581hands": 1463,
  "\u2581police": 1464,
  "\u2581mom": 1465,
  "\u2581\u0433\u043e\u0432\u043e\u0440\u0438\u0448": 1466,
  "men": 1467,
  "\u2581\u043d\u043e\u0432\u0430": 1468,
  "\u0438\u043b": 1469,
  "\u2581Dad": 1470,
  "\u2581kids": 1471,
  "\u2581\u043f": 1472,
  "\u2581comes": 1473,
  "\u2581After": 1474,
  "\u258128": 1475,
  "\u2581easy": 1476,
  "\u2581Listen": 1477,
  "\u2581million": 1478,
  "\u2581kid": 1479,
  "\u0415": 1480,
  "\u2581\u041f\u0438": 1481,
  "\u041a": 1482,
  "\u2581\u043d\u0430\u043f\u0440\u0430\u0432\u0438\u0448": 1483,
  "ible": 1484,
  "\u2581therefore": 1485,
  "um": 1486,
  "\u2581\u0432\u043e\u0434\u0430": 1487,
  "\u2581fight": 1488,
  "\u2581Ah": 1489,
  "\u2581check": 1490,
  "\u043c\u0430\u043d": 1491,
  "?\"": 1492,
  "\u2581air": 1493,
  "\u258126": 1494,
  "ia": 1495,
  "w": 1496,
  "\u2581\u043f\u0440\u043e\u0431\u043b\u0435\u043c\u0438": 1497,
  "\u2581\u0449\u043e": 1498,
  "\u2581\u043c\u0430\u0439": 1499,
  "\u2581De": 1500,
  "ian": 1501,
  "ul": 1502,
  "\u2581price": 1503,
  "\u2581\u0434\u043e\u043c\u0430": 1504,
  "\u2581\u0432\u044a\u0437\u043c\u043e\u0436\u043d\u043e\u0441\u0442": 1505,
  "\u0435\u043b": 1506,
  "\u0442\u044a\u043d": 1507,
  "\u0447\u043b\u0435\u043d\u043a\u0438": 1508,
  "\u2581\u043e\u0441\u0432\u0435\u043d": 1509,
  "ol": 1510,
  "\u2581\u041d\u044f\u043a\u043e\u0439": 1511,
  "\u2581\u0438\u0433\u0440\u0430": 1512,
  "de": 1513,
  "ra": 1514,
  "ma": 1515,
  "\u2581common": 1516,
  "\u2581future": 1517,
  "\u2581security": 1518,
  "\u2581supposed": 1519,
  "\u2581Give": 1520,
  "\u2581\u043e\u0440\u0433\u0430\u043d": 1521,
  "\u2581\u043e\u0441\u043d\u043e\u0432\u0430": 1522,
  "\u2581application": 1523,
  "\u2581\u0432\u0435\u0434\u043d\u0430\u0433\u0430": 1524,
  "\u0434\u0440\u0430\u0441\u0442\u0438": 1525,
  "\u0413": 1526,
  "\u2581\u0440\u0430\u0437\u0431\u0438\u0440\u0430": 1527,
  "\u2581chance": 1528,
  "\u2581\u0427": 1529,
  "\u2581office": 1530,
  "\u2581\u0434\u043e\u0431\u0440\u043e": 1531,
  "\u2581wish": 1532,
  "\u2581\u043f\u0430\u0446\u0438\u0435\u043d\u0442\u0438": 1533,
  "\u2581pick": 1534,
  "\u2581provide": 1535,
  "\u2581\u041a\u0430\u0440": 1536,
  "\u2581\u0438\u0441\u043a\u0430\u0442\u0435": 1537,
  "\u2581fire": 1538,
  "\u2581city": 1539,
  "\u0432\u0438\u043d\u0435\u0442\u0435": 1540,
  "\u2581feeling": 1541,
  "\u2581hold": 1542,
  "\u2581Will": 1543,
  "\u2581started": 1544,
  "\u2581\u0437\u0430\u0442\u043e\u0432\u0430": 1545,
  "\u043e\u043b\u043a\u043e\u0432\u0430": 1546,
  "\u2581\u0415\u0432\u0440\u043e\u043f\u0430": 1547,
  "\u2581\u043e\u0431\u0430\u0447\u0435": 1548,
  "\u2581\u043f\u0430\u0440\u0438\u0442\u0435": 1549,
  "un": 1550,
  "\u25812008": 1551,
  "\u2581\u0441\u0432\u043e\u044f": 1552,
  "\u2581shot": 1553,
  "\u2581\u0434\u0435\u0446\u0430\u0442\u0430": 1554,
  "\u2581\u0441\u0430\u043c": 1555,
  "\u043e\u0432\u0438": 1556,
  "\u2581minute": 1557,
  "\u2581Any": 1558,
  "\u2581\u041f\u0440\u043e": 1559,
  "\u2581exactly": 1560,
  "\u2581based": 1561,
  "\u2581Nothing": 1562,
  "\u043b\u0435": 1563,
  "\u2581\u041e\u0431\u0438\u0447\u0430": 1564,
  "\u2581\u043f\u0440\u0438\u044f\u0442\u0435\u043b\u0438": 1565,
  "\u2581value": 1566,
  "\u2581crazy": 1567,
  "\u2581\u0441\u0435\u0434\u043c\u0438\u0446\u0430": 1568,
  "\u2581\u0415\u043b\u0430": 1569,
  "\u2581Man": 1570,
  "\u2581\u0432\u044a\u043f\u0440\u043e\u0441\u0438": 1571,
  "\u2581\u043c\u043e\u044f\u0442\u0430": 1572,
  "\u2581development": 1573,
  "\u0446\u0435": 1574,
  "ry": 1575,
  "\u2581known": 1576,
  "v": 1577,
  "\u0441\u043f\u0435\u0446\u0438\u0430\u043b\u043d\u043e": 1578,
  "\u2581\u0412\u0441\u044a\u0449\u043d\u043e\u0441\u0442": 1579,
  "\u2581ensure": 1580,
  "\u2581view": 1581,
  "\u2581]": 1582,
  "\u25812.": 1583,
  "\u2581\u043f\u0440\u0430\u0432\u0438\u043c": 1584,
  "\u2581sent": 1585,
  "\u2581\u0446\u044f\u043b\u0430\u0442\u0430": 1586,
  "\u2581\u0434\u0435\u0442\u0435": 1587,
  "\u2581team": 1588,
  "\u2581sleep": 1589,
  "\u2581looks": 1590,
  "\u2581\u0443\u043f\u0440\u0430\u0432\u043b\u0435\u043d\u0438\u0435": 1591,
  "\u2581\u0420\u0435\u0448\u0435\u043d\u0438\u0435": 1592,
  "\u2581group": 1593,
  "\u0432\u0430\u0442": 1594,
  "\u2581\u041a\u0443": 1595,
  "\u2581story": 1596,
  "\u2581economic": 1597,
  "\u2581\u041b\u0438": 1598,
  "\u2581\u0437\u0430\u043f\u043e\u0447\u043d\u0435": 1599,
  "\u2581\u043f\u043e\u0441\u043e\u0447\u0435\u043d\u0438": 1600,
  "\u2581\u0432\u043e\u0434\u0438": 1601,
  "\u2581specific": 1602,
  "\u2581\u041d\u0435\u0449\u043e": 1603,
  "\u2581\u0431\u0443\u043a\u0432\u0430": 1604,
  "\u2581\u043f\u043b\u0430\u043d": 1605,
  "\u043a\u0430\u0448": 1606,
  "\u2581\u0441\u044a": 1607,
  "\u2581activities": 1608,
  "\u2581\u0443\u0442\u0440\u0435": 1609,
  "\u2581drink": 1610,
  "\u0443\u0441": 1611,
  "\u2581\u0441\u0442\u043e\u0439\u043d\u043e\u0441\u0442": 1612,
  "\u2581\u041d\u0438\u043a\u043e\u0439": 1613,
  "\u0436": 1614,
  "\u2581\u043f\u0435\u0440\u0438\u043e\u0434": 1615,
  "\u2581brought": 1616,
  "\u2581\u0414\u0430\u0439": 1617,
  "\u2581\u0438\u0441\u043a\u0430\u0445": 1618,
  "\u2581\u0424": 1619,
  "\u0441\u043a\u043e": 1620,
  "\u2581moment": 1621,
  "\u2581appropriate": 1622,
  "\u2581news": 1623,
  "\u2581\u041f\u043e\u0434": 1624,
  "\u2581\u0437\u043d\u0430\u0447\u0438": 1625,
  "\u2581meeting": 1626,
  "\u2581basis": 1627,
  "\u2581though": 1628,
  "\u2581outside": 1629,
  "V": 1630,
  "\u2581relevant": 1631,
  "\u2581n": 1632,
  "ist": 1633,
  "\u2581\u0442\u0430\u043a\u043e\u0432\u0430": 1634,
  "\u2581\u043f\u043e\u043d\u0435": 1635,
  "\u25812016": 1636,
  "\u2581Lord": 1637,
  "\u2581daughter": 1638,
  "\u2581\u0441\u043a\u043e\u0440\u043e": 1639,
  "\u2581\u0442\u0430\u0442\u043a\u043e": 1640,
  "ies": 1641,
  "\u2581state": 1642,
  "\u2581\u0434\u0432\u0435\u0442\u0435": 1643,
  "\u2581above": 1644,
  "\u0433\u0438": 1645,
  "\u2581walk": 1646,
  "\u2581\u0437\u0430\u043f\u043e\u0447\u0432\u0430": 1647,
  "\u043a\u044a\u0441\u043d\u043e": 1648,
  "\u2581amount": 1649,
  "\u2581\u0425\u0430": 1650,
  "\u0449\u0430\u0441\u0442\u043b\u0438\u0432": 1651,
  "\u2581However": 1652,
  "\u2581\u043e\u0431\u0430\u0434\u0438": 1653,
  "\u2581\u043d\u0430\u043f\u0440\u0430\u0432\u0438\u043b": 1654,
  "\u2581Every": 1655,
  "\u2581\u041a\u0430\u0437\u0430": 1656,
  "\u2581\u043d\u0430\u043f\u044a\u043b\u043d\u043e": 1657,
  "\u2581war": 1658,
  "\u041d\u0435": 1659,
  "xcuse": 1660,
  "ne": 1661,
  "\u2581\u0433\u043b\u0430\u0432\u0430\u0442\u0430": 1662,
  "\u043a\u044a\u043b": 1663,
  "\u2581\u0412\u0438\u043d\u0430\u0433\u0438": 1664,
  "\u2581break": 1665,
  "\u2581trust": 1666,
  "\u2581situation": 1667,
  "\u2581\u043e\u043f\u0440\u0435\u0434\u0435\u043b\u0435\u043d\u0438": 1668,
  "\u2581\u043b\u044e\u0431\u043e\u0432": 1669,
  "\u2581behind": 1670,
  "\u0433\u0430\u0440": 1671,
  "\u2581others": 1672,
  "\u2581concerned": 1673,
  "\u2581\u0437\u0435\u043c\u044f\u0442\u0430": 1674,
  "\u0441\u0442\u0432\u043e": 1675,
  "\u2581\u044f\u0441\u043d\u043e": 1676,
  "\u2581Bulgarian": 1677,
  "\u25812015": 1678,
  "\u2581o": 1679,
  "\u2581\u0442\u044f\u043b\u043e\u0442\u043e": 1680,
  "\u2581serious": 1681,
  "ton": 1682,
  "age": 1683,
  "\u2581\u0433\u0440\u0430\u0434\u0430": 1684,
  "\u2581safe": 1685,
  "\u2581policy": 1686,
  "\u2581ex": 1687,
  "\u2581\u0433\u0440\u0430\u0434": 1688,
  "\u2581town": 1689,
  "\u2581\u0414\u0436\u0438": 1690,
  "\u2581apply": 1691,
  "\u2581words": 1692,
  "\u2581\u043d\u0430\u0448\u0438\u0442\u0435": 1693,
  "\u2581ml": 1694,
  "\u2581\u0411\u043e\u0433\u0430": 1695,
  "\u2581\u0438\u043d\u0442\u0435\u0440\u0435\u0441": 1696,
  "\u2581\u0446\u0435\u043b\u0438\u044f": 1697,
  "\u2581Co": 1698,
  "\u2581\u0441\u0432\u044a\u0440\u0448\u0438": 1699,
  "\u0430\u043a": 1700,
  "\u0430\u0442": 1701,
  "os": 1702,
  "lo": 1703,
  "\u2581\u0434\u043e\u0431\u0440\u0430": 1704,
  "\u2581r": 1705,
  "\u258129": 1706,
  "\u0435\u0439": 1707,
  "ment": 1708,
  "\u2581\u043f\u0440\u043e\u0434\u044a\u043b\u0436\u0438": 1709,
  "\u2581watch": 1710,
  "\u0438\u0445": 1711,
  "\u2581Un": 1712,
  "\u043a\u0441": 1713,
  "\u2581\u043c\u043e\u043c\u0447\u0435": 1714,
  "\u2581further": 1715,
  "\u2581\u0441\u0432\u043e\u0438\u0442\u0435": 1716,
  "\u25813,": 1717,
  "\u2581seem": 1718,
  "\u2581\u0438\u043c\u0430\u0448\u0435": 1719,
  "\u2581\u0442\u0432\u043e\u044f": 1720,
  "\u2581\u043e\u0442\u043a\u043e\u043b\u043a\u043e\u0442\u043e": 1721,
  "\u043f\u043e\u0440\u0435\u0434": 1722,
  "\u2581past": 1723,
  "\u2581(2)": 1724,
  "\u2581\u0437\u0430\u0449\u0438\u0442\u0430": 1725,
  "\u2581subject": 1726,
  "\u2581\u0420\u0430": 1727,
  "\u258160": 1728,
  "te": 1729,
  "\u2581\u0418\u0441\u0443\u0441": 1730,
  "\u2581Hav": 1731,
  "\u2581front": 1732,
  "\u2581form": 1733,
  "\u2581\u043c\u043e\u043c\u0447\u0435\u0442\u0430": 1734,
  "\u2581\u0413\u043e\u0441\u043f\u043e\u0434\u0438": 1735,
  "\u0441\u0442\u0432\u0430": 1736,
  "ine": 1737,
  "ary": 1738,
  "\u25812007": 1739,
  "\u2581loss": 1740,
  "\u2581husband": 1741,
  "\u2581\u0441\u0435\u043c\u0435\u0439\u0441\u0442\u0432\u043e": 1742,
  "\u0432\u0435": 1743,
  "\u2581almost": 1744,
  "\u2581\u043d\u0435\u043e\u0431\u0445\u043e\u0434\u0438\u043c\u043e": 1745,
  "\u2581gun": 1746,
  "\u2581\u0442\u0432\u044a\u0440\u0434\u0435": 1747,
  "tic": 1748,
  "\u2581\u0441\u043f\u0438\u0441\u044a\u043a\u0430": 1749,
  "\u2581weeks": 1750,
  "\u2581\u043e\u0441\u0442\u0430\u043d\u0435": 1751,
  "\u2581died": 1752,
  "\u2581\u0438\u0434\u0435\u044f": 1753,
  "my": 1754,
  "\u2581single": 1755,
  "\u2581\u0442\u0440\u0443\u0434\u043d\u043e": 1756,
  "\u2581process": 1757,
  "\u2581sweet": 1758,
  "\u2581Car": 1759,
  "\u2581\u043f\u043e\u0440\u0430\u0434\u0438": 1760,
  "\u043e\u0442\u043d\u043e": 1761,
  "\u2581living": 1762,
  "\u043e\u0432\u0430": 1763,
  "\u2581\u0415\u0432\u0440\u043e\u043f\u0435\u0439\u0441\u043a\u0430": 1764,
  "\u2581goes": 1765,
  "\u2581\u0441\u043f\u043e\u0440\u0435\u0434": 1766,
  "\u0425": 1767,
  "\u2581\u043c\u043e\u0435": 1768,
  "body": 1769,
  "\u25813.": 1770,
  "\u2581\u0437\u043d\u0430\u0435\u0442\u0435": 1771,
  "\u2581speak": 1772,
  "\u2581\u0441\u0438\u043d": 1773,
  "\u2581\u0442\u0438\u043f": 1774,
  "\u2581\u043c\u044f\u0441\u0442\u043e\u0442\u043e": 1775,
  "\u2581\u0432\u0441\u044f\u043a\u043e": 1776,
  "\u2581\u043a\u0430\u0436\u0435": 1777,
  "\u2581Mm": 1778,
  "\u2581\u041d": 1779,
  "ina": 1780,
  "\u2581December": 1781,
  "\u2581health": 1782,
  "\u0423": 1783,
  "\u2581tried": 1784,
  "\u2581\u043f\u0440\u0438\u0435\u043c\u0430": 1785,
  "\u2581\u043f\u0440\u0430\u0432\u0430": 1786,
  "\u2581\u0432\u044a\u0442\u0440\u0435": 1787,
  "\u0438\u043c": 1788,
  "\u2581\u043f\u044a\u0440\u0432\u043e": 1789,
  "\u2581mine": 1790,
  "co": 1791,
  "ha": 1792,
  "\u2581Home": 1793,
  "ro": 1794,
  "quite": 1795,
  "\u0449\u0435": 1796,
  "\u0438\u044f\u0442": 1797,
  "\u2581protection": 1798,
  "\u0435\u0448": 1799,
  "\u2581six": 1800,
  "\u2581\u043a\u0430\u0437\u0430\u043b": 1801,
  "\u2581\u0443\u0447\u0438\u043b\u0438\u0449\u0435": 1802,
  "\u2581present": 1803,
  "\u2581\u043a\u044a\u0449\u0430\u0442\u0430": 1804,
  "\u2581YOU": 1805,
  "\u2581\u0437\u043d\u0430\u0435\u043c": 1806,
  "\u2581afraid": 1807,
  "\u2581\u0432\u0430\u0436\u043d\u043e": 1808,
  "\u2581Jack": 1809,
  "\u2581\u0440\u0430\u0437\u0432\u0438\u0442\u0438\u0435": 1810,
  "\u2581\u043d\u0435\u043a\u0430": 1811,
  "\u2581Christ": 1812,
  "\u2581answer": 1813,
  "\u2581\u0441\u044a\u0449\u043e\u0442\u043e": 1814,
  "hose": 1815,
  "\u0430\u0442\u043a\u043e": 1816,
  "\u2581fat": 1817,
  "\u2581\u0441\u0435\u043c\u0435\u0439\u0441\u0442\u0432\u043e\u0442\u043e": 1818,
  "\u2581\u043f\u0440\u0430\u0432\u044f\u0442": 1819,
  "less": 1820,
  "\u2581Does": 1821,
  "ad": 1822,
  "\u2581\u0433\u043e\u043b\u044f\u043c": 1823,
  "\u2581\u0414\u0435\u0439": 1824,
  "J": 1825,
  "\u2581\u0441\u044a\u0441\u0442\u043e\u044f\u043d\u0438\u0435": 1826,
  "\u2581\u0433\u0440\u0443\u043f\u0430": 1827,
  "\u2581bed": 1828,
  "\u2581Committee": 1829,
  "\u2581\u0441\u0442\u0440\u0430\u043d\u0430\u0442\u0430": 1830,
  "na": 1831,
  "\u2581\u0440\u0435\u0434": 1832,
  "\u0436\u043e": 1833,
  "\u043e\u0432\u0435\u0442\u0435": 1834,
  "\u2581\u042e": 1835,
  "\u2581\u0412\u0441\u0435\u043a\u0438": 1836,
  "ach": 1837,
  "\u2581personal": 1838,
  "\u2581couple": 1839,
  "\u2581Sir": 1840,
  "\u2581\u043c": 1841,
  "\u0440\u0430\u043d": 1842,
  "\u2581\u0447\u043e\u0432\u0435\u043a\u0430": 1843,
  "\u2581\u0411\u0438\u0445": 1844,
  ":00": 1845,
  "\u2581considered": 1846,
  "ev": 1847,
  "\u2581married": 1848,
  "\u2581rights": 1849,
  "\u2581access": 1850,
  "\u2581\u0438\u0433\u0440\u0430\u0435": 1851,
  "\u2581interest": 1852,
  "\u2581hot": 1853,
  "\u2581contact": 1854,
  "\u041f": 1855,
  "\u2581project": 1856,
  "\u2581\u0441\u0440\u0430\u0432\u043d\u0435\u043d\u0438\u0435": 1857,
  "\u2581\u0437\u0430\u0434": 1858,
  "\u2581\u0438\u0441\u0442\u0438\u043d\u0430\u0442\u0430": 1859,
  "\u2581anymore": 1860,
  "\u2581\u043e\u0431\u0438\u0447\u0430\u043c": 1861,
  "\u0446": 1862,
  "\u2581\u0445\u0440\u0430\u043d\u0430": 1863,
  "\u2581\u043f\u0440\u043e\u0434\u044a\u043b\u0436\u0430\u0432\u0430": 1864,
  "\u2581waiting": 1865,
  "ce": 1866,
  "\u2581send": 1867,
  "\u044a": 1868,
  "\u2581\u043a\u0430": 1869,
  "\u2581\u0434\u0435\u043a\u0435\u043c\u0432\u0440\u0438": 1870,
  "\u2581\u043a\u0430\u0437\u0432\u0430\u043c": 1871,
  "\u2581land": 1872,
  "\u2581\u043d\u043e\u043c\u0435\u0440": 1873,
  "\u2581\u043e\u0441\u043e\u0431\u0435\u043d\u043e": 1874,
  "_": 1875,
  "\u2581\u0436\u0435\u043d\u0438": 1876,
  "\u043d\u0433": 1877,
  "\u2581\u0447\u0430\u0441": 1878,
  "\u2581\u043f\u0440\u0438\u0447\u0438\u043d\u0430": 1879,
  "\u2581applicable": 1880,
  "\u2581\u043f\u0440\u043e\u0442\u0438\u0432": 1881,
  "19": 1882,
  "\u2581Would": 1883,
  "\u044a\u043f\u0440\u0435\u043a\u0438": 1884,
  "\u2581\u0432\u0435\u0434\u043d\u044a\u0436": 1885,
  "\u2581\u043b\u0435\u0441\u043d\u043e": 1886,
  "\u2581000": 1887,
  "\u2581\u0441\u0435\u0434\u043c\u0438\u0446\u0438": 1888,
  "\u2581\u0448\u0430\u043d\u0441": 1889,
  "\u2581\u043f\u0440\u0430\u0432\u0438\u043b\u0430": 1890,
  "\u043d\u043e\u0441\u0442": 1891,
  "\u043e\u0441": 1892,
  "\u2581Pro": 1893,
  "\u2581\u0433\u043e\u0432\u043e\u0440\u0438\u043c": 1894,
  "\u2581OJ": 1895,
  "\u2581Sure": 1896,
  "\u2581due": 1897,
  "\u2581save": 1898,
  "\u2581telling": 1899,
  "ling": 1900,
  "\u0443\u043c": 1901,
  "\u2581production": 1902,
  "\u2581parents": 1903,
  "\u2581hair": 1904,
  "\u2581along": 1905,
  "\u2581\u0432\u0441\u0438\u0447\u043a\u0438\u0442\u0435": 1906,
  "\u2581buy": 1907,
  "\u2581short": 1908,
  "\u2581sit": 1909,
  "\u2581\u0427\u0430": 1910,
  "\u044f\u0432\u0430": 1911,
  "\u2581\u043e\u0431\u043b\u0430\u0441\u0442\u0442\u0430": 1912,
  "\u2581position": 1913,
  "\u2581\u041a\u0430\u043a\u044a\u0432": 1914,
  "im": 1915,
  "\u2581\u041d\u044f\u043c\u0430\u043c": 1916,
  "\u2581\u0442\u0435\u0445\u043d\u0438\u0442\u0435": 1917,
  "\u0440\u0435": 1918,
  "\u2581\u0447\u0435\u0442\u0438\u0440\u0438": 1919,
  "\u2581\u043e\u0431\u0438\u0447\u0430": 1920,
  "\u2581total": 1921,
  "\u2581\u043d\u043e\u0432\u043e": 1922,
  "\u043a\u0438\u0442\u0435": 1923,
  "\u2581top": 1924,
  "friend": 1925,
  "ter": 1926,
  "\u2581local": 1927,
  "\u0449\u0430\u0442\u0430": 1928,
  "\u2581\u043c\u0438\u0441\u043b\u0438": 1929,
  "you": 1930,
  "\u2581\u0440\u0430\u0437\u0431\u0435\u0440\u0435": 1931,
  "\u2581himself": 1932,
  "\u2581example": 1933,
  "\u2581upon": 1934,
  "\u2581drive": 1935,
  ");": 1936,
  "\u2581\u041e\u0412": 1937,
  "\u2581main": 1938,
  "\u2581\u0434\u044a\u0449\u0435\u0440\u044f": 1939,
  "\u2581evidence": 1940,
  "\u2581authority": 1941,
  "\u041e\u0412": 1942,
  "\u2581\u043f\u0430\u0437\u0430\u0440\u0430": 1943,
  "\u2581(\"": 1944,
  "\u2581July": 1945,
  "\u2581h": 1946,
  "\u2581\u041b\u0435": 1947,
  "ness": 1948,
  "\u2581\u0438\u0433\u0440\u0438": 1949,
  "\u2581\u0432\u0438\u0436\u0434\u0430\u043b": 1950,
  "ous": 1951,
  "ant": 1952,
  "la": 1953,
  "\u2581stand": 1954,
  "\u2581international": 1955,
  "\u2581\u0414\u0436\u0430\u043a": 1956,
  "\u2581trade": 1957,
  "\u2581\u0417\u0410": 1958,
  "\u2581\u0440\u0430\u0437\u0431\u0438\u0440\u0430\u043c": 1959,
  "\u2581\u0421\u0438\u0433\u0443\u0440\u043d\u043e": 1960,
  "\u2581trouble": 1961,
  "\u2581general": 1962,
  "\u2581\u041a\u0430\u043a\u0432\u0430": 1963,
  "\u2581government": 1964,
  "\u2581\u0442\u0435\u0433\u043b\u043e": 1965,
  "\u2581among": 1966,
  "\u2581girls": 1967,
  "\u042a": 1968,
  "ley": 1969,
  "\u2581\u043d\u0430\u0441\u0442\u043e\u044f\u0449\u043e\u0442\u043e": 1970,
  "\u2581Even": 1971,
  "\u2581\u043f\u044a\u0442\u044f": 1972,
  "\u2581\u0442\u0430": 1973,
  "\u2581\u043b\u0438\u0446\u0430": 1974,
  "\u2581lives": 1975,
  "\u043d\u0438\u0446\u0438": 1976,
  "\u2581Um": 1977,
  "\u2581\u0442\u0430\u043a\u0430\u0432\u0430": 1978,
  "\u2581\u043d\u043e\u0432": 1979,
  "\u2581\u043b\u0438\u0446\u0435": 1980,
  "\u2581\u043d\u043e\u0441\u0438": 1981,
  "\u2581dose": 1982,
  "\u2581\u0441\u043a\u044a\u043f\u0430": 1983,
  "\u2581longer": 1984,
  "\u2581provisions": 1985,
  "\u2581results": 1986,
  "\u2581problems": 1987,
  "\u0444\u0430": 1988,
  "\u2581\u0421\u0442\u0440\u0430\u0445": 1989,
  "\u2581\u0440\u0430\u0437\u0445\u043e\u0434\u0438": 1990,
  "\u2581La": 1991,
  "\u2581\u043f\u0430\u0437\u0430\u0440": 1992,
  "\u2581management": 1993,
  "\u2581\u0422\u044a": 1994,
  "amp": 1995,
  "\u2581\u0420\u0435": 1996,
  "\u25815.": 1997,
  "\u2581\u0437\u043d\u0430\u0435\u0445": 1998,
  "\u2581\u043e\u0442\u0438\u0434\u0430": 1999,
  "\u2581\u0421\u0438": 2000,
  "\u2581sister": 2001,
  "\u2581AND": 2002,
  "ance": 2003,
  "\u2581according": 2004,
  "\u2581forget": 2005,
  "\u2581\u0434\u0443\u043c\u0430": 2006,
  "\u2581United": 2007,
  "\u2581legal": 2008,
  "\u2581black": 2009,
  "di": 2010,
  "\u2581\u0434\u044a\u043b\u0433\u043e": 2011,
  "\u2581\u043c\u0435\u0441\u0442\u0430": 2012,
  "\u2581increase": 2013,
  "\u2581\u0432\u043a\u043b\u044e\u0447\u0432\u0430": 2014,
  "\u2581From": 2015,
  "\u2581alive": 2016,
  "\u0430\u0440\u0435\u0441\u0432\u0430": 2017,
  "\u2581Miss": 2018,
  "\u0444\u0438": 2019,
  "\u2581\u043f\u0440\u0438\u0442\u0435\u0441\u043d\u044f\u0432\u0430": 2020,
  "\u2581sex": 2021,
  "\u2581\u0432\u0438\u0434\u044f\u0445": 2022,
  "\u2581Great": 2023,
  "\u0438\u043d\u0433": 2024,
  "\u2581\u043f\u043e\u0434\u043a\u0440\u0435\u043f\u0430": 2025,
  "\u2581\u043e\u0447\u0430\u043a\u0432\u0430": 2026,
  "\u2581Community": 2027,
  "\u2581\u0432\u0441\u044a\u0449\u043d\u043e\u0441\u0442": 2028,
  "mo": 2029,
  "\u2581needed": 2030,
  "\u2581X": 2031,
  "\u043c\u0435\u043d": 2032,
  "\u2581\u0443\u043f\u043e\u0442\u0440\u0435\u0431\u0430": 2033,
  "ex": 2034,
  "\u2581=": 2035,
  "\u2581\u0432\u043a\u044a\u0449\u0438": 2036,
  "\u2581action": 2037,
  "\u2581\u043c\u043e\u0438": 2038,
  "\u043b\u044f": 2039,
  "\u2581works": 2040,
  "\u2581\u043e\u0431\u0449\u043e": 2041,
  "\u2581questions": 2042,
  "\u2581\u043f\u043e\u043a\u0430\u0437\u0432\u0430": 2043,
  "\u2581whatever": 2044,
  "\u2581\u0447\u0435\u0441\u0442\u043e": 2045,
  "\u2581social": 2046,
  "\u2581Two": 2047,
  "\u0435\u0442\u043e": 2048,
  "\u0430\u043a\u044a\u0432": 2049,
  "\u2581yours": 2050,
  "\u2581\u043e\u0446\u0435\u043d\u043a\u0430": 2051,
  "\u2581\u0438\u0437\u043f\u043e\u043b\u0437\u0432\u0430\u0442": 2052,
  "\u2581\u0441\u0432\u043e\u044f\u0442\u0430": 2053,
  "\u2581\u0441\u043b\u0443\u0447\u0432\u0430": 2054,
  "\u2581\u0413\u043e\u0441\u043f\u043e\u0434": 2055,
  "com": 2056,
  "\u2581sense": 2057,
  "\u2581\u0441\u044a\u0442\u0440\u0443\u0434\u043d\u0438\u0447\u0435\u0441\u0442\u0432\u043e": 2058,
  "\u2581\u0428\u0435": 2059,
  "ard": 2060,
  "\u043f\u0440\u0435": 2061,
  "\u2581natural": 2062,
  "\u2581return": 2063,
  "\u0440\u0430\u0437": 2064,
  "\u2581Her": 2065,
  "\u2581\u0446\u044f\u043b\u043e\u0442\u043e": 2066,
  "\u2581hate": 2067,
  "ak": 2068,
  "\u2581\u0434\u0430\u0432\u0430": 2069,
  "\u2581\u0432\u043d\u0438\u043c\u0430\u043d\u0438\u0435": 2070,
  "\u2581\u0431\u0440\u043e\u0439": 2071,
  "\u2581III": 2072,
  "\u2581\u043a\u043e\u043d": 2073,
  "\u2581Keep": 2074,
  "\u2581\u0446\u0435\u043b\u0438": 2075,
  "\u2581\u0436\u0438\u0432\u0435\u0435": 2076,
  "\u2581\u0441\u043c\u044a\u0440\u0442\u0442\u0430": 2077,
  "\u2581hour": 2078,
  "\u2581\u0432\u0438\u0436\u0434\u0430\u043c": 2079,
  "\u2581Which": 2080,
  "\u2581\u0412\u0438\u0436\u0434\u0430": 2081,
  "\u2581\u043e\u0431\u0440\u0430\u0442\u043d\u043e": 2082,
  "\u0430\u0448\u0438\u0442\u0435": 2083,
  "\u2581building": 2084,
  "\u2581\u043f\u0440\u043e\u0433\u0440\u0430\u043c\u0430": 2085,
  "\u2581\u0431\u0438\u0437\u043d\u0435\u0441": 2086,
  "no": 2087,
  "\u2581\u0411\u0430": 2088,
  "\u0440\u0443": 2089,
  "\u2581\u043a\u043e\u043b\u0430": 2090,
  "\u2581\u0438\u0441\u043a\u0430\u0442": 2091,
  "\u0435\u0442": 2092,
  "ish": 2093,
  "\u2581\u0438\u0437\u0432\u044a\u043d": 2094,
  "\u2581established": 2095,
  "\u2581\u043e\u0447\u0438\u0442\u0435": 2096,
  "way": 2097,
  "\u2581miss": 2098,
  "out": 2099,
  "AL": 2100,
  "\u2581act": 2101,
  "\u2581key": 2102,
  "\u0448\u0438": 2103,
  "\u2581\u0434\u043e\u0441\u0442\u044a\u043f": 2104,
  "\u2581rate": 2105,
  "\u25812006": 2106,
  "\u2581strong": 2107,
  "\u2581Treaty": 2108,
  "6": 2109,
  "\u0431\u0443": 2110,
  "\u2581running": 2111,
  "\u2581\u0434\u0435\u043d\u044f": 2112,
  "\u0438\u0441": 2113,
  "\u0442\u0435\u043b": 2114,
  "\u2581\u041c\u043e": 2115,
  "\u0431\u043e": 2116,
  "\u043d\u0435\u0442\u0435": 2117,
  "\u2581procedure": 2118,
  "all": 2119,
  "\u2581sort": 2120,
  "\u2581fast": 2121,
  "\u2581\u0438\u0441\u0442\u043e\u0440\u0438\u044f": 2122,
  "\u2581seems": 2123,
  "\u2581required": 2124,
  "\u0434\u044a\u0440": 2125,
  "\u2581\u043f\u043e\u0441\u043b\u0435\u0434\u043d\u0438\u0442\u0435": 2126,
  "\u2581\u0429\u043e": 2127,
  "ever": 2128,
  "\u2581\u043e\u0442\u0433\u043e\u0432\u0430\u0440\u044f": 2129,
  "\u2581Mar": 2130,
  "\u0437\u0435": 2131,
  "\u2581follow": 2132,
  "by": 2133,
  "ful": 2134,
  "\u2581somebody": 2135,
  "\u2581field": 2136,
  "\u2581June": 2137,
  "me": 2138,
  "You": 2139,
  "\u2581w": 2140,
  "\u2581month": 2141,
  "\u0431\u0430\u0432": 2142,
  "\u2581costs": 2143,
  "\u2581\u043d\u044f\u043c\u0430\u0448\u0435": 2144,
  "\u2581\u0441\u044a\u0440\u0446\u0435\u0442\u043e": 2145,
  "\u0434\u0436\u0438": 2146,
  "\u2581\u0411\u0438\u043b": 2147,
  "\u2581\u043e\u043f\u0438\u0442": 2148,
  "\u2581white": 2149,
  "\u2581\u0441\u0435\u0441\u0442\u0440\u0430": 2150,
  "\u2581\u0432\u044a\u0440\u0432\u0438\u043c": 2151,
  "\u2581experience": 2152,
  "\u2581\u043d\u0430\u043f\u0440\u0438\u043c\u0435\u0440": 2153,
  "\u0438\u0435": 2154,
  "\u2581\u043f\u043e\u043c\u0430\u0433\u0430": 2155,
  "\u2581low": 2156,
  "\u2581di": 2157,
  "\u0441\u0442\u0432\u043e\u0442\u043e": 2158,
  "pe": 2159,
  "\u2581study": 2160,
  "\u2581\u043a": 2161,
  "\u2581St": 2162,
  "\u2581\u043d\u0438\u0432\u043e": 2163,
  "\u2581lead": 2164,
  "\u2581\u043e\u043d\u0435\u0437\u0438": 2165,
  "\u0424": 2166,
  "\u2581\u0434\u0435\u0439\u043d\u043e\u0441\u0442": 2167,
  "\u2581\u0418\u0437\u0432": 2168,
  "\u0447\u043a\u0430": 2169,
  "50": 2170,
  "\u2581Y": 2171,
  "\u2581ahead": 2172,
  "\u2581sound": 2173,
  "\u25816.": 2174,
  "\u2581\u0441\u043f\u0430\u0441\u0438": 2175,
  "\u2581concerning": 2176,
  "\u2581aren": 2177,
  "\u2581share": 2178,
  "\u2581\u041b\u043e": 2179,
  "\u2581\u0441\u044a\u0432\u0435\u0442": 2180,
  "\u2581y": 2181,
  "\u2581\u041a\u043e\u043d": 2182,
  "\u2581win": 2183,
  "\u2581\u0441\u043b\u0435\u0434\u043d\u0438\u0442\u0435": 2184,
  "\u2581effects": 2185,
  "\u2581\u041f\u0440\u0435\u0434\u043f\u043e\u043b\u0430\u0433\u0430": 2186,
  "\u2581\u0414\u0440\u0443\u0433\u0438": 2187,
  "\u2581\u0445\u0443\u0431\u0430\u0432\u043e": 2188,
  "\u2581cases": 2189,
  "\u2581cover": 2190,
  "\u25814,": 2191,
  "\u2581effect": 2192,
  "\u2581\u0432\u0438\u0434\u0438\u0448": 2193,
  "\u2581\u043a\u0430\u043a\u0432\u0430": 2194,
  "\u0438\u043d\u044f\u0432\u0430\u0439": 2195,
  "\u2581200": 2196,
  "\u2581\u0441\u043c\u044f\u0442\u0430": 2197,
  "\u2581scare": 2198,
  "\u2581\u0449\u044f\u0445": 2199,
  "\u2581\u0422\u0430\u043c": 2200,
  "\u2581\u043f\u043e\u043b\u0443\u0447\u0430\u0432\u0430": 2201,
  "\u2581related": 2202,
  "\u2581\u0432\u0440\u044a\u0449\u0430": 2203,
  "\u2581Sam": 2204,
  "ah": 2205,
  "\u2581safety": 2206,
  "\u2581Mo": 2207,
  "\u2581\u043c\u0430\u043b\u043a\u0430": 2208,
  "\u2581\u0440\u0435\u0437\u0443\u043b\u0442\u0430\u0442": 2209,
  "right": 2210,
  "\u2581\u0421\u044a": 2211,
  "\u2581\u0421\u0430\u043c": 2212,
  "\u2581\u043b\u043e\u0448\u043e": 2213,
  "\u0440\u043e": 2214,
  "\u2581TO": 2215,
  "\u2581\u043f\u044a\u0440\u0432\u0438": 2216,
  "\u2581\u0438\u0437\u0431\u043e\u0440": 2217,
  "\u2581\u0431\u044a\u0434\u0435\u0448": 2218,
  "\u0441\u0442\u044a\u0440": 2219,
  "\u2581\u0448\u0435\u0441\u0442": 2220,
  "\u2581\u0421\u0442\u0438\u0433\u0430": 2221,
  "\u2581age": 2222,
  "\u2581\u0441\u0440\u0435\u0434": 2223,
  "\u2581result": 2224,
  "\u2581thereof": 2225,
  "\u2581\u0441\u0440\u0435\u0434\u0430": 2226,
  "\u2581\u0434\u0443\u043c\u0438": 2227,
  "7": 2228,
  "\u2581\u0447\u043e\u0432\u0435\u0447\u0435": 2229,
  "\u2581\u043b\u0435\u0447\u0435\u043d\u0438\u0435": 2230,
  "\u2581First": 2231,
  "line": 2232,
  "\u2581\u043b\u0438\u0446\u0435\u0442\u043e": 2233,
  "\u2581god": 2234,
  "\u2581Z": 2235,
  "\u2581\u043a\u044a\u0449\u0430": 2236,
  "\u2581early": 2237,
  "do": 2238,
  "\u2581\u043b\u0435\u043a\u0430\u0440": 2239,
  "\u2581\u0441\u0442\u0440\u0443\u0432\u0430": 2240,
  "\u2581perfect": 2241,
  "old": 2242,
  "\u0433\u043e\u0432\u043e\u0440\u0438\u043c": 2243,
  "\u2581promise": 2244,
  "\u2581include": 2245,
  "da": 2246,
  "\u2581\u0432\u043b\u0438\u0437\u0430": 2247,
  "\u2581\u043e\u0441\u0442\u0430\u0432\u044f": 2248,
  "\u043b\u0438\u043d": 2249,
  "day": 2250,
  "\u2581\u0441\u043b\u0443\u0447\u0430\u0438": 2251,
  "\u2581\u0442\u0435\u043b\u0435\u0444\u043e\u043d\u0430": 2252,
  "\u2581large": 2253,
  "\u0442\u0440\u0438": 2254,
  "\u2581\u043a\u043e\u0433\u043e": 2255,
  "\u2581quality": 2256,
  "\u2581\u043c\u0438\u0441\u043b\u0435\u0445": 2257,
  "10": 2258,
  "\u0448\u0430": 2259,
  "\u2581history": 2260,
  "\u2581choice": 2261,
  "\u2581\u043f\u044a\u043a": 2262,
  "\u2581\u0434\u0430\u043b\u0435\u0447": 2263,
  "\u2581\u043a\u0430\u0437\u0432\u0430\u0448": 2264,
  "\u2581con": 2265,
  "\u2581stupid": 2266,
  "\u2581\u043a\u0430\u0440\u0430": 2267,
  "\u2581\u043a\u0430\u0436\u0438": 2268,
  "\u2581\u0434\u0438": 2269,
  ".....": 2270,
  "\u2581page": 2271,
  "\u2581sign": 2272,
  "\u2581\u043d\u0430\u0448\u0438\u044f": 2273,
  "\u2581\u043f\u043e\u043c\u043e\u0449\u0442\u0430": 2274,
  "\u2581\u0432\u0435\u0440\u043e\u044f\u0442\u043d\u043e": 2275,
  "\u2581v": 2276,
  "\u0432\u0430\u0448": 2277,
  "\u2581\u0442\u0440\u044f\u0431\u0432\u0430\u043b\u043e": 2278,
  "\u2581kg": 2279,
  "\u2581\u043d\u0430\u0447\u0430\u043b\u043e\u0442\u043e": 2280,
  "\u2581code": 2281,
  "\u2581\u043c\u044a\u0436\u0435": 2282,
  "OJ": 2283,
  "\u2581protect": 2284,
  "\u2581\u044e\u043d\u0438": 2285,
  "\u2581\u041e\u0441\u0442\u0430\u0432\u0438": 2286,
  "\u2581um": 2287,
  "\u2581music": 2288,
  "\u0434\u0435\u043d": 2289,
  "\u2581\u0435\u043d\u0435\u0440\u0433\u0438\u044f": 2290,
  "\u2581ones": 2291,
  "\u0414\u0430": 2292,
  "\u0435\u0448\u0435": 2293,
  "\u043e\u0440": 2294,
  "8": 2295,
  "\u2581points": 2296,
  "\u2581purpose": 2297,
  "\u2581\u0441\u044a\u0434": 2298,
  "\u2581\u0433\u0430\u0440\u0430\u043d\u0442\u0438\u0440\u0430": 2299,
  "\u2581\u0421\u043f\u0440\u0438": 2300,
  "\u2581\u0449\u0435\u0448\u0435": 2301,
  "\u2581\u0441\u043b\u0443\u0447\u0438\u043b\u043e": 2302,
  "\u2581Tel": 2303,
  "\u2581\u0433\u043e\u043b\u0435\u043c\u0438": 2304,
  "\u0443\u043d": 2305,
  "he": 2306,
  "\u2581\u0440\u0430\u0437\u043c\u0435\u0440": 2307,
  "\u2581\u043d": 2308,
  "\u2581earth": 2309,
  "\u2581\u0438\u0437\u0438\u0441\u043a\u0432\u0430\u043d\u0438\u044f": 2310,
  "\u2581cool": 2311,
  "\u2581learn": 2312,
  "\u2581\u0414\u043e\u0433\u043e\u0432\u043e\u0440\u0430": 2313,
  "\u2581near": 2314,
  "\u2581Got": 2315,
  "ov": 2316,
  "\u2581cause": 2317,
  "we": 2318,
  "ize": 2319,
  "\u2581takes": 2320,
  "\u2581\u043c\u0435\u0441\u0435\u0446": 2321,
  "\u2581step": 2322,
  "\u2581\u043f\u0440\u0435\u0434\u0441\u0442\u0430\u0432\u044f": 2323,
  "\u2581dinner": 2324,
  "\u2581dog": 2325,
  "\u2581\u0438\u0437\u043b\u0438\u0437\u0430": 2326,
  "\u2581\u0414\u043d\u0435\u0441": 2327,
  "\u2581\u0434\u043e\u0431\u0440\u0438": 2328,
  "20": 2329,
  "\u043b\u0443": 2330,
  "\u2581\u0440\u044a\u0446\u0435\u0442\u0435": 2331,
  "\u2581\u0434\u0435\u0439\u0441\u0442\u0432\u0438\u0435": 2332,
  "\u2581offer": 2333,
  "\u2581pain": 2334,
  "\u2581Other": 2335,
  "\u2581\u0411\u0430\u0449\u0430": 2336,
  "\u2581\u041a\u0435\u0439": 2337,
  "\u2581enter": 2338,
  "\u0430\u043b": 2339,
  "\u2581General": 2340,
  "\u2581\u043d\u0430\u043c\u0435\u0440\u0438": 2341,
  "\u2581everybody": 2342,
  "ty": 2343,
  "=": 2344,
  "\u2581\u0432\u0440\u0430\u0442\u0430\u0442\u0430": 2345,
  "\u2581\u043f\u043e\u0437\u0432\u043e\u043b\u0438": 2346,
  "\u2581\u041c\u0443": 2347,
  "\u2581paper": 2348,
  "\u2581implementation": 2349,
  "\u2581\u0411\u0443": 2350,
  "\u2581shoot": 2351,
  "...\"": 2352,
  "\u2581Hold": 2353,
  "\u2581happens": 2354,
  "where": 2355,
  "\u2581\u0434\u0435\u0439\u043d\u043e\u0441\u0442\u0438": 2356,
  "\u2581class": 2357,
  "\u2581Only": 2358,
  "\u2581leaving": 2359,
  "\u2581systems": 2360,
  "j": 2361,
  "\u2581continue": 2362,
  "\u2581red": 2363,
  "\u2581\u0420\u0430\u0434\u0432\u0430": 2364,
  "\u2581boys": 2365,
  "\u2581Pre": 2366,
  "\u2581\u0443\u0441\u043b\u043e\u0432\u0438\u044f\u0442\u0430": 2367,
  "\u2581\u0434\u043e\u043b\u0430\u0440\u0430": 2368,
  "\u2581\u0432\u044a\u0440\u0432\u0438": 2369,
  "\u2581\u0410\u0440": 2370,
  "\u2581En": 2371,
  "\u2581ten": 2372,
  "\u2581\u0435\u0432\u0440\u043e": 2373,
  "\u2581site": 2374,
  "5": 2375,
  "\u2581address": 2376,
  "\u2581games": 2377,
  "\u0444\u0435\u0440": 2378,
  "):": 2379,
  "\u2581\u0414\u0430\u043b\u0438": 2380,
  "\u2581levels": 2381,
  "\u2581Dam": 2382,
  "\u2581technical": 2383,
  "\u2581worked": 2384,
  "\u2581\u043e\u0442\u043d\u0430\u0441\u044f": 2385,
  "\u2581\u0411\u0430\u0440": 2386,
  "ner": 2387,
  "\u2581similar": 2388,
  "\u2581\u041d\u0438": 2389,
  "\u2581received": 2390,
  "\u2581online": 2391,
  "\u2581\u0433\u043b\u0430\u0432\u0430": 2392,
  "\u2581\u0441\u0442\u0435\u043f\u0435\u043d": 2393,
  "\u2581\u0433\u0440\u0435\u0448\u043a\u0430": 2394,
  "\u2581\u0411\u043e": 2395,
  "\u2581normal": 2396,
  "\u2581\u043d\u044f\u043a\u043e\u0433\u0430": 2397,
  "\u2581figure": 2398,
  "\u2581\u043a\u0430\u0436\u0435\u0442\u0435": 2399,
  "\u2581\u043e\u043d\u043b\u0430\u0439\u043d": 2400,
  "\u2581\u043f\u0440\u0430\u0432": 2401,
  "\u2581Ha": 2402,
  "\u2581asking": 2403,
  "\u2581\u0441\u043f\u043e\u0440\u0430\u0437\u0443\u043c\u0435\u043d\u0438\u0435": 2404,
  "\u2581fall": 2405,
  "\u0435\u0440\u0438": 2406,
  "\u2581table": 2407,
  "\u2581\u0442\u0432\u043e\u044f\u0442\u0430": 2408,
  "\u2581\u041a\u043e\u0433\u0430": 2409,
  "\u2581rather": 2410,
  "\u2581\u0414\u0436\u0443": 2411,
  "%": 2412,
  "\u2581sick": 2413,
  "\u2581thanks": 2414,
  "\u2581\u041f\u044a\u0440\u0432\u043e": 2415,
  "\u043d\u044f": 2416,
  "\u2581request": 2417,
  "\u0435\u043d\u043e": 2418,
  "\u0438\u0433\u0443\u0440\u0435\u043d": 2419,
  "\u2581\u043e\u0441\u0442\u0430\u0432\u0430": 2420,
  "\u0441\u0442\u0430": 2421,
  "\u2581\u0431\u0435\u0437\u043e\u043f\u0430\u0441\u043d\u043e\u0441\u0442": 2422,
  "\u2581English": 2423,
  "\u2581\u0446\u0435\u043b\u0438\u0442\u0435": 2424,
  "\u2581star": 2425,
  "\u2581\u0441\u044a\u0434\u044a\u0440\u0436\u0430": 2426,
  "\u2581training": 2427,
  "\u2581\u0446\u0435\u043d\u0430": 2428,
  "\u25811/": 2429,
  "\u2581often": 2430,
  "\u2581\u043c\u0430": 2431,
  "\u2581\u0414\u043e\u0431\u0440\u043e": 2432,
  "per": 2433,
  "\u2581x": 2434,
  "\u2581eye": 2435,
  "\u2581\u041c\u0430\u043a": 2436,
  "verything": 2437,
  "\u2581final": 2438,
  "\u2581\u043f\u0440\u0435\u0434\u043b\u0430\u0433\u0430": 2439,
  "\u2581\u041c\u0430": 2440,
  "\u2581October": 2441,
  "\u2581\u043f\u043e\u043b\u0438\u0442\u0438\u043a\u0430": 2442,
  "\u0447\u0435\u043d": 2443,
  "\u2581bar": 2444,
  "\u2581People": 2445,
  "\u0430\u0439": 2446,
  "\u2581Nice": 2447,
  "\u2581\u0440\u0435\u0448\u0438": 2448,
  "\u2581\u0434\u043e\u0432\u0435\u0434\u0435": 2449,
  "\u2581Di": 2450,
  "\u2581research": 2451,
  "\u2581Court": 2452,
  "\u2581laid": 2453,
  "\u2581dis": 2454,
  "\u2581\u0437\u0430\u043f\u043e\u0447\u043d\u0430": 2455,
  "\u2581\u0422\u043e\u043c": 2456,
  "\u2581post": 2457,
  "\u2581\u0447\u043b\u0435\u043d\u043e\u0432\u0435": 2458,
  "\u258190": 2459,
  "\u2581agreement": 2460,
  "rs": 2461,
  "\u2581\u043e\u0441\u0442\u0430\u0432\u0438": 2462,
  "\u2581touch": 2463,
  "\u2581\u0441\u043c\u044a\u0440\u0442": 2464,
  "\u0440\u044f": 2465,
  "\u2581paid": 2466,
  "\u2581\u0438\u0437\u043a\u043b\u044e\u0447\u0435\u043d\u0438\u0435": 2467,
  "\u2581additional": 2468,
  "0": 2469,
  "\u2581equipment": 2470,
  "\u2581January": 2471,
  "\u2581Republic": 2472,
  "\u2581\u041d\u044e": 2473,
  "\u044f\u0442\u0430": 2474,
  "\u2581murder": 2475,
  "*": 2476,
  "\u2581\u0433\u0430\u0434": 2477,
  "About": 2478,
  "\u0414": 2479,
  "\u2581competent": 2480,
  "\u2581political": 2481,
  "addy": 2482,
  "\u2581\u0422\u0440\u0438": 2483,
  "\u2581members": 2484,
  "\u2581\u043d\u0430\u043c\u0438\u0440\u0430": 2485,
  "\u2581\u043d\u044f\u043a\u043e\u0433\u043e": 2486,
  "\u2581\u043a\u0440\u0430\u0439": 2487,
  "\u2581\u043f\u043e\u043b\u0438\u0446\u0438\u044f\u0442\u0430": 2488,
  "\u2581\u043d\u044f\u043a": 2489,
  "\u2581\u0440\u0438\u0441\u043a": 2490,
  "\u2581\u043f\u0440\u0438\u043b\u0430\u0433\u0430\u043d\u0435": 2491,
  "\u2581involved": 2492,
  "\u2581Paul": 2493,
  "\u2581\u0434\u0432\u0430\u043c\u0430": 2494,
  "\u2581several": 2495,
  "\u2581\u0425\u043e": 2496,
  "\u043b\u0435\u043d": 2497,
  "\u043d\u0438\u0435": 2498,
  "\u2581\u0441\u0440\u043e\u043a": 2499,
  "\u2581Put": 2500,
  "\u2581credit": 2501,
  "\u2581\u0441\u0440\u0435\u0434\u0441\u0442\u0432\u043e": 2502,
  "ka": 2503,
  "\u2581Am": 2504,
  "\u043b\u044a\u0440": 2505,
  "\u043a\u0435": 2506,
  "\u2581\u0433\u043b\u0435\u0434\u0430": 2507,
  "\u2581\u0412\u0430\u0448\u0438\u044f": 2508,
  "\u2581\u043f\u0440\u0435\u0434\u0441\u0442\u0430\u0432\u043b\u044f\u0432\u0430": 2509,
  "\u2581\u0447\u0430\u0441\u0442\u0438": 2510,
  "luck": 2511,
  "our": 2512,
  "\u2581\u043d\u0430\u043c\u0435\u0440\u044f": 2513,
  "\u2581\u043c\u044a\u0440\u0442\u044a\u0432": 2514,
  "ive": 2515,
  "\u2581\u043f\u0440\u0438\u0447\u0438\u043d\u0438": 2516,
  "\u2581\u0436\u0438\u0432\u043e\u0442\u043d\u0438": 2517,
  "cause": 2518,
  "\u2581\u0435\u0437\u0438\u043a": 2519,
  "\u2581\u0432\u044a\u043f\u0440\u043e\u0441\u0430": 2520,
  "\u043b\u0438\u044f": 2521,
  "\u2581\u0445\u0440\u0430\u043d\u0438": 2522,
  "\u2581space": 2523,
  "\u2581road": 2524,
  "\u2581\u0427\u0430\u0440": 2525,
  "\u2581anti": 2526,
  "\u2581pressure": 2527,
  "\u2581Could": 2528,
  "\u2581\u0441\u0442\u0430\u044f": 2529,
  "\u2581\u0418\u0434\u0432\u0430": 2530,
  "\u2581March": 2531,
  "\u0438\u0440\u0430\u043d\u0438": 2532,
  "\u2581clean": 2533,
  "\u2581\u0441\u043c\u0438\u0441\u044a\u043b": 2534,
  "\u2581\u0420\u0435\u0439": 2535,
  "\u2581diet": 2536,
  "\u2581\u0433\u043e\u043b\u044f\u043c\u043e": 2537,
  "\u2581current": 2538,
  "\u2581\u043d\u044f\u043a\u0430\u043a\u0432": 2539,
  "\u2581\u041d\u0430\u0434\u044f\u0432\u0430\u043c": 2540,
  "\u2581gas": 2541,
  "\u2581\u041c\u0435": 2542,
  "op": 2543,
  "\u2581\u0414\u043e\u043a\u0430": 2544,
  "\u2581entire": 2545,
  "ang": 2546,
  "\u2581\u0425\u0430\u0440": 2547,
  "\u2581responsible": 2548,
  "\u2581damn": 2549,
  "\u2581\u043c\u0430\u043b\u043a\u0438": 2550,
  "\u2581\u043a\u0440\u044a\u0432": 2551,
  "se": 2552,
  "\u2581giving": 2553,
  "\u2581\u0434\u044a\u0440\u0436\u0430\u0432\u0430\u0442\u0430": 2554,
  "\u2581\u0412\u0438\u0436\u0442\u0435": 2555,
  "\u2581\u043a\u0430\u043a\u044a\u0432": 2556,
  "see": 2557,
  "\u2581\u043a\u044a\u0441\u043c\u0435\u0442": 2558,
  "\u2581\u0441\u0438\u0433\u0443\u0440\u0435\u043d": 2559,
  "\u2581\u0442\u0440\u0435\u0442\u0438": 2560,
  "\u2581companies": 2561,
  "\u2581cost": 2562,
  "\u2581\u043e\u043a\u0442\u043e\u043c\u0432\u0440\u0438": 2563,
  "\u043d\u044f\u043a\u044a\u0434\u0435": 2564,
  "\u0432\u0435\u0440\u043e\u044f\u0442\u043d\u043e": 2565,
  "\u2581below": 2566,
  "\u2581\u043f\u0440\u0430\u0432\u0438\u0442\u0435": 2567,
  "\u2581\u044e\u043b\u0438": 2568,
  "\u2581visit": 2569,
  "\u2581vehicle": 2570,
  "\u2581\u0434\u043e\u043c": 2571,
  "\u2581\u0432\u0435\u0441\u0442\u043d\u0438\u043a": 2572,
  "\u2581Help": 2573,
  "\u2581\u0437\u0430\u0433\u0443\u0431\u0430": 2574,
  "\u2581\u043f\u0430": 2575,
  "\u2581\u044f\u043d\u0443\u0430\u0440\u0438": 2576,
  "\u2581Father": 2577,
  "po": 2578,
  "\u2581decided": 2579,
  "\u0443\u043b": 2580,
  "\u2581\u043f\u044a\u0440\u0432\u0430\u0442\u0430": 2581,
  "\u0433\u043e\u0440\u0435": 2582,
  "!\"": 2583,
  "\u043a\u044a\u0440": 2584,
  "\u2581changes": 2585,
  "\u2581\u0441\u0430\u043c\u0430": 2586,
  "\u2581terms": 2587,
  "\u2581\u0432\u044a\u0437\u0440\u0430\u0441\u0442": 2588,
  "\u2581\u0442\u0440\u0435\u0432\u043e": 2589,
  "\u2581\u043e\u0442\u0433\u043e\u0432\u043e\u0440": 2590,
  "\u041c": 2591,
  "\u2581\u0432\u043b\u0435\u0437\u0435": 2592,
  "\u2581anyway": 2593,
  "\u2581Christian": 2594,
  "\u2581\u0431\u043b\u0438\u0437\u043e": 2595,
  "\u2581TV": 2596,
  "\u258180": 2597,
  "\u2581changed": 2598,
  "\u2581private": 2599,
  "\u25812004": 2600,
  "\u0444\u0435": 2601,
  "\u2581hotel": 2602,
  "\u043b\u0438\u044f\u0442\u0430": 2603,
  "\u2581animals": 2604,
  "\u2581\u0444\u043e\u0440\u043c\u0430": 2605,
  "\u2581\u0421\u044a\u0449\u043e": 2606,
  "\u2581\u0421\u0435": 2607,
  "\u2581\u0414\u0430\u0432\u0430\u0439": 2608,
  "\u044f\u0445": 2609,
  "\u2581basic": 2610,
  "\u2581animal": 2611,
  "\u2581\u043e\u043d\u043e\u0432\u0430": 2612,
  "\u2581gentle": 2613,
  "\u0432\u0435\u043d": 2614,
  "\u2581Captain": 2615,
  "\u0430\u0440": 2616,
  "\u2581active": 2617,
  "\u2581\u0443\u0431\u0438\u0435": 2618,
  "\u2581directly": 2619,
  "\u2581\u043a\u044a\u0441\u043d\u043e": 2620,
  "\u2581areas": 2621,
  "\u2581held": 2622,
  "\u043e\u0431": 2623,
  "\u2581\u0438\u0441\u043a\u0430\u0448\u0435": 2624,
  "\u2581pro": 2625,
  "\u2581issue": 2626,
  "\u2581\u0432\u0438\u0434\u0438": 2627,
  "\u2581ground": 2628,
  "\u2581honey": 2629,
  "\u2581\u0447\u043b\u0435\u043d\u043a\u0430": 2630,
  "\u2581\u0438\u0437\u0438\u0441\u043a\u0432\u0430": 2631,
  "\u2581\u043f\u043e\u0434\u043e\u0431\u043d\u0438": 2632,
  "\u2581\u043c\u0430\u0437\u043d\u0438\u043d\u0438": 2633,
  "\u2581\u043e\u0442\u0438\u0434\u0435": 2634,
  "\u2581\u0421\u043f\u043e\u0440\u0430\u0437\u0443\u043c\u0435\u043d\u0438\u0435\u0442\u043e": 2635,
  "\u2581size": 2636,
  "\u2581\u043e\u0441\u0442\u0430\u043d\u0430": 2637,
  "\u2581500": 2638,
  "\u0432\u0430\u043b": 2639,
  "\u2581\u0443\u0431\u0438\u043b": 2640,
  "\u043b\u044a": 2641,
  "\u2581material": 2642,
  "\u041d\u0430": 2643,
  "\u0447\u043e": 2644,
  "\u2581\u043a\u0430\u0444\u0435": 2645,
  "\u2581\u043e\u0433\u043b\u0435\u0434": 2646,
  "\u0430\u0439\u0434\u0435": 2647,
  "\u2581Con": 2648,
  "land": 2649,
  "\u2581message": 2650,
  "\u2581burn": 2651,
  "\u0435\u043d\u0438\u0435": 2652,
  "\u043f\u0440\u0438": 2653,
  "\u0432\u0438\u0434": 2654,
  "\u2581\u0441\u044a\u043e\u0442\u0432\u0435\u0442\u043d\u0438\u0442\u0435": 2655,
  "\u2581cold": 2656,
  "ler": 2657,
  "\u043b\u044a\u043d": 2658,
  "\u2581hospital": 2659,
  "\u2581\u0447\u0430\u043a\u0430": 2660,
  "ated": 2661,
  "\u2581EEA": 2662,
  "\u2581\u043d\u0430\u043c\u0435\u0440\u0438\u043c": 2663,
  "\u2581April": 2664,
  "\u2581\u043d\u044f\u043c\u0430\u043c": 2665,
  "\u2581reported": 2666,
  "\u2581\u043c\u0438\u043b\u0438\u043e\u043d\u0430": 2667,
  "\u2581\u0432\u0438\u0434\u043e\u0432\u0435": 2668,
  "\u2581sea": 2669,
  "mp": 2670,
  "\u2581\u0441\u043b\u0443\u0447\u0430\u044f": 2671,
  "\u2581lie": 2672,
  "\u2581covered": 2673,
  "\u2581\u043e\u043f\u0440\u0435\u0434\u0435\u043b\u044f\u043d\u0435": 2674,
  "\u2581grand": 2675,
  "\u2581\u043c\u0430\u0440\u0442": 2676,
  "\u2581\u0423\u0438\u043b": 2677,
  "\u2581\u043f\u0440\u0438\u043a\u043b\u044e\u0447\u0438": 2678,
  "\u2581skin": 2679,
  "\u2581ship": 2680,
  "\u2581\u041a\u0430\u043a\u0432\u0438": 2681,
  "\u2581\u043f\u0440\u0435\u043a\u0430\u043b\u0435\u043d\u043e": 2682,
  "\u2581\u0415\u0418\u041f": 2683,
  "\u2581\u0438\u0437\u0438\u0441\u043a\u0432\u0430\u043d\u0438\u044f\u0442\u0430": 2684,
  "\u2581Make": 2685,
  "\u043b\u0430\u0442\u0430": 2686,
  "\u2581bank": 2687,
  "\u2581\u0438\u0441\u043a\u0430\u043c\u0435": 2688,
  "\u25812000": 2689,
  "\u2581playing": 2690,
  "\u2581\u0432\u044a\u043f\u0440\u0435\u043a\u0438": 2691,
  "\u0440\u0430\u043d\u0438": 2692,
  "\u2581al": 2693,
  "of": 2694,
  "\u2581\u0445\u0430": 2695,
  "\u2581assessment": 2696,
  "\u2581\u0437\u0430\u0442\u0432\u043e\u0440\u0430": 2697,
  "\u2581\u043f\u0440\u0438\u043b\u0430\u0433\u0430\u043d\u0435\u0442\u043e": 2698,
  "\u2581\u043f\u0440\u043e\u0434\u0443\u043a\u0442\u0430": 2699,
  "\u2581section": 2700,
  "\u2581\u043a\u043e\u0433\u043e\u0442\u043e": 2701,
  "\u2581November": 2702,
  "\u2581fair": 2703,
  "\u0438\u044f\u0442\u0430": 2704,
  "\u2581investigation": 2705,
  "\u258145": 2706,
  "\u2581turned": 2707,
  "\u2581picture": 2708,
  "\u043a\u0432\u0430": 2709,
  "\u2581American": 2710,
  "omething": 2711,
  "\u25812017": 2712,
  "No": 2713,
  "What": 2714,
  "\u2581\u0429": 2715,
  "\u2581felt": 2716,
  "\u2581\u0441\u0442\u0440\u0430\u043d\u0438\u0446\u0430": 2717,
  "mplementing": 2718,
  "\u2581\u0432\u0437\u0435\u043c\u0435": 2719,
  "\u2581\u0434\u0443\u0448\u0438": 2720,
  "\u2581\u043f\u0430\u0440\u0442\u0438": 2721,
  "\u2581\u0437\u0430\u0433\u0443\u0431\u0438": 2722,
  "\u2581\u0421\u0410\u0429": 2723,
  "ite": 2724,
  "ING": 2725,
  "\u2581\u041f\u043e\u0432\u0435\u0447\u0435": 2726,
  "\u2581\u0440\u0435\u0448\u0435\u043d\u0438\u044f": 2727,
  "\u2581cooperation": 2728,
  "\u2581parties": 2729,
  "\u2581\u043c\u043e": 2730,
  "\u2581\u0444\u0438\u043b\u043c": 2731,
  "\u2581events": 2732,
  "\u2581write": 2733,
  "\u2581\u043e\u0431\u0430\u0434": 2734,
  "\u2581secret": 2735,
  "\u2581fish": 2736,
  "\u2581\u0413\u043e\u0442\u043e\u0432": 2737,
  "\u2581dear": 2738,
  "\u2581dance": 2739,
  "\u2581Since": 2740,
  "9": 2741,
  "\u2581\u041c\u0430\u043b\u043a\u043e": 2742,
  "\u2581\u043d\u0430\u0440\u0438\u0447\u0430": 2743,
  "\u2581opinion": 2744,
  "\u2581difficult": 2745,
  "\u2581\u043a\u043b\u0430\u0441": 2746,
  "\u2581\u041f\u043e\u0440\u0430\u0434\u0438": 2747,
  "\u2581Was": 2748,
  "\u2581\u0436\u0438\u0432": 2749,
  "\u2581\u0427\u0443\u0434\u0435\u0441": 2750,
  "\u2581\u0411\u0438\u0431": 2751,
  "\u2581capital": 2752,
  "\u2581More": 2753,
  "\u2581\u041d\u0430\u043f\u0440\u0430\u0432\u0438": 2754,
  "\u0437\u043d\u0430": 2755,
  "\u2581goods": 2756,
  "\u2581species": 2757,
  "ird": 2758,
  "\u0446\u0438\u044f": 2759,
  "\u2581\u041a\u0430\u0437\u0432\u0430": 2760,
  "ver": 2761,
  "\u2581Fine": 2762,
  "\u2581coffee": 2763,
  "\u2581\u043e\u0442\u043a\u0440\u0438\u0435": 2764,
  "\u2581industry": 2765,
  "\u2581operation": 2766,
  "\u0430\u0448\u0430\u0442\u0430": 2767,
  "\u2581\u0441\u0442\u0430\u044f\u0442\u0430": 2768,
  "12": 2769,
  "\u2581\u0432\u0435\u0447\u0435\u0440\u044f": 2770,
  "\u2581forward": 2771,
  "\u2581kept": 2772,
  "\u2581allow": 2773,
  "\u2581\u0432\u043c\u0435\u0441\u0442\u043e": 2774,
  "\u2581carried": 2775,
  "\u2581\u0434\u043e\u0437\u0430": 2776,
  "\u2581\u043e\u043d\u0437\u0438": 2777,
  "\u2581lady": 2778,
  "\u2581\u0437\u043d\u0430\u044f\u0442": 2779,
  "\u2581shut": 2780,
  "\u2581\u043b": 2781,
  "\u2581simple": 2782,
  "ise": 2783,
  "\u2581themselves": 2784,
  "\u2581floor": 2785,
  "\u2581(3)": 2786,
  "\u2581\u043b\u0438\u043d\u0438\u044f": 2787,
  "\u2581\u043d\u0443\u0436\u0434\u0430\u0435": 2788,
  "\u2581\u0417\u043d\u0430\u0435\u0442\u0435": 2789,
  "\u2581\u0415\u0434\u043d\u0430": 2790,
  "\u2581\u0441\u0438\u0441\u0442\u0435\u043c\u0438": 2791,
  "\u2581event": 2792,
  "\u2581\u0441\u0438\u0441\u0442\u0435\u043c\u0430\u0442\u0430": 2793,
  "\u2581\u0410\u043d": 2794,
  "ut": 2795,
  "\u2581\u043f\u0440\u0435\u0434\u043f\u043e\u043b\u0430\u0433\u0430": 2796,
  "\u2581mad": 2797,
  "05": 2798,
  "\u2581\u043a\u0430\u043a\u0432\u0438": 2799,
  "\u2581calling": 2800,
  "\u2581\u0434\u043e\u043b\u0443": 2801,
  "\u2581\u043f\u0440\u043e\u0438\u0437\u0445\u043e\u0434": 2802,
  "\u2581court": 2803,
  "\u2581David": 2804,
  "\u2581across": 2805,
  "\u2581\u0425\u043e\u0440\u0430\u0442\u0430": 2806,
  "\u0430\u043d\u0430": 2807,
  "\u2581attention": 2808,
  "\u2581Sofia": 2809,
  "\u0447\u043a\u0438": 2810,
  "\u25812018": 2811,
  "\u2581Say": 2812,
  "\u0442\u0443": 2813,
  "\u2581moving": 2814,
  "\u2581Frank": 2815,
  "\u2581added": 2816,
  "\u2581Pa": 2817,
  "\u2581South": 2818,
  "\u2581\u0412\u0438\u0434\u044f\u0445": 2819,
  "\u2581solution": 2820,
  "\u2581300": 2821,
  "\u2581\u043f\u0443\u043a\u0430": 2822,
  "\u0432\u0435\u0440": 2823,
  "\u0439\u0442": 2824,
  "\u0434\u043e\u043b\u0443": 2825,
  "om": 2826,
  "\u0441\u044a": 2827,
  "\u0440\u0430\u043d\u043e": 2828,
  "\u2581\u0438\u0437\u043f\u043e\u043b\u0437\u0432\u0430\u043d\u0435": 2829,
  "\u043d\u0438\u043a\u0430": 2830,
  "\u2581reference": 2831,
  "\u2581\u0413\u043e\u0432\u043e\u0440\u0438": 2832,
  "\u25812005": 2833,
  "\u2581\u0434\u0435\u0439\u0441\u0442\u0432\u0438\u044f": 2834,
  "\u2581cell": 2835,
  "\u2581\u041c\u0430\u0445\u043d": 2836,
  "\u2581\u043d\u044f\u043a\u0430\u043a\u0432\u0430": 2837,
  "\u2581\u0440\u044a\u043a\u0430": 2838,
  "\u2581completely": 2839,
  "ally": 2840,
  "\u2581\u043d\u0435\u0433\u043e\u0432\u0438\u0442\u0435": 2841,
  "\u2581\u0415\u0434\u043d\u043e": 2842,
  "\u043a\u0440\u0438": 2843,
  "\u2581king": 2844,
  "\u044c\u043e": 2845,
  "\u2581\u0432\u0438\u0441\u043e\u043a\u043e": 2846,
  "ke": 2847,
  "\u2581\u0441\u0443\u0442\u0440\u0438\u043d": 2848,
  "\u2581throw": 2849,
  "\u2581\u041c\u0430\u0439\u043a\u0430": 2850,
  "\u0432\u0438\u043d": 2851,
  "2,": 2852,
  "\u2581interested": 2853,
  "\u2581\u0437": 2854,
  "\u2581September": 2855,
  "\u2581\u043e\u0442\u0438\u0434\u0435\u043c": 2856,
  "\u2581\u0441\u0442\u0440\u0430\u043d\u043d\u043e": 2857,
  "\u2581Journal": 2858,
  "\u2581\u0438\u0437\u043f\u0440\u0430\u0442\u0438": 2859,
  "\u2581Most": 2860,
  "\u2581\u041e\u0442\u043a\u044a\u0434\u0435": 2861,
  "\u2581\u041f\u0443\u0441\u043d": 2862,
  "\u2581\u0441\u0438\u0433\u0443\u0440\u043d\u043e": 2863,
  "\u0440\u0435\u0437": 2864,
  "ung": 2865,
  "\u2581piece": 2866,
  "\u0449\u0438\u0442\u0435": 2867,
  "\u2581transport": 2868,
  "\u2581\u043e\u0431\u0438\u043a\u043d\u043e\u0432\u0435\u043d\u043e": 2869,
  "\u2581fell": 2870,
  "end": 2871,
  "iv": 2872,
  "\u2581agree": 2873,
  "\u041b": 2874,
  "\u2581design": 2875,
  "va": 2876,
  "\u2581\u0441\u044a\u0449\u0438\u044f": 2877,
  "\u2581explain": 2878,
  "\u2581capacity": 2879,
  "\u25810,": 2880,
  "EEC": 2881,
  "\u0432\u0430\u0439": 2882,
  "\u2581enjoy": 2883,
  "\u2581attack": 2884,
  "\u2581member": 2885,
  "\u2581glad": 2886,
  "\u2581nature": 2887,
  "\u2581\u0411\u0435\u043d": 2888,
  "ED": 2889,
  "\u2581\u0432\u044a\u0440\u043d\u0435": 2890,
  "\u2581\u0445\u0438\u043b\u044f\u0434\u0438": 2891,
  "\u2581worth": 2892,
  "\u2581\u041d\u044f\u043a\u043e\u0438": 2893,
  "\u2581\u0441\u043c\u0435\u0442\u043a\u0430": 2894,
  "\u2581\u0441\u0435\u0440\u0438\u043e\u0437\u043d\u043e": 2895,
  "\u2581finally": 2896,
  "\u2581sector": 2897,
  "\u044f\u043d": 2898,
  "\u2581cross": 2899,
  "\u2581Call": 2900,
  "\u2581\u0445\u0430\u0440\u0435\u0441\u0430": 2901,
  "pa": 2902,
  "\u2581\u0440\u0435\u0448\u0435\u043d\u0438\u0435\u0442\u043e": 2903,
  "\u2581catch": 2904,
  "ac": 2905,
  "\u2581box": 2906,
  "\u2581\u043c\u0438\u0441\u043b\u0438\u0442\u0435": 2907,
  "\u2581dream": 2908,
  "\u2581\u043b\u0438\u043f\u0441\u0432\u0430": 2909,
  "\u2581parts": 2910,
  "\u2581disease": 2911,
  "\u2581mouth": 2912,
  "\u2581major": 2913,
  "\u2581\u0431\u044f\u0445\u043c\u0435": 2914,
  "\u2581programme": 2915,
  "\u2581activity": 2916,
  "\u2581\u043f\u0440\u043e\u0438\u0437\u0432\u043e\u0434\u0441\u0442\u0432\u043e": 2917,
  "\u2581region": 2918,
  "\u2581\u0434\u043e\u043a\u0442\u043e\u0440": 2919,
  "\u2581addition": 2920,
  "\u2581increased": 2921,
  "\u2581\u041e\u043f\u0438\u0442\u0432\u0430": 2922,
  "25": 2923,
  "Z": 2924,
  "\u2581\u043e\u0442\u0442\u0443\u043a": 2925,
  "\u2581content": 2926,
  "lan": 2927,
  "\u2581pass": 2928,
  "\u2581\u0434\u0430\u043d\u043d\u0438\u0442\u0435": 2929,
  "\u2581\u043c\u0430\u043b\u044a\u043a": 2930,
  "\u2581Ben": 2931,
  "\u2581fear": 2932,
  "\u2581du": 2933,
  "\u2581institutions": 2934,
  "\u2581oil": 2935,
  "\u2581France": 2936,
  "\u2581\u043d\u043e\u0435\u043c\u0432\u0440\u0438": 2937,
  "\u25815,": 2938,
  "\u0431\u044a\u0440\u0437\u043e": 2939,
  "\u2581\u0430\u043f\u0430\u0440\u0442\u0430\u043c\u0435\u043d\u0442": 2940,
  "\u0441\u043a\u043e\u0440\u043e": 2941,
  "\u2581Kingdom": 2942,
  "\u2581self": 2943,
  "\u2581higher": 2944,
  "\u043c\u0438\u0441\u043b\u0438\u0445": 2945,
  "\u2581\u043f\u043e\u0437\u0438\u0446\u0438\u044f": 2946,
  "\u2581National": 2947,
  "\u2581relationship": 2948,
  "\u2581\u043f\u0440\u0438\u043b\u0430\u0433\u0430\u0442": 2949,
  "\u2581fault": 2950,
  "bye": 2951,
  "\u043a\u043e\u043d": 2952,
  "\u2581adopted": 2953,
  "\u2581complete": 2954,
  "\u2581amended": 2955,
  "\u2581\u0432\u0435\u0449\u0435\u0441\u0442\u0432\u0430": 2956,
  "\u2581\u0442\u0430\u043d\u0446": 2957,
  "\u0441\u043a\u0438\u0442\u0435": 2958,
  "\u2581Shut": 2959,
  "\u0430\u0440\u0438": 2960,
  "\u0447\u0435\u0442\u0430": 2961,
  "\u043d\u0433\u0435": 2962,
  "\u044a\u0441": 2963,
  "ism": 2964,
  "\u2581maximum": 2965,
  "\u2581\u043d\u0435\u0433\u043e\u0432\u0430\u0442\u0430": 2966,
  "40": 2967,
  "\u2581\u0410\u043b\u043e": 2968,
  "\u2581\u041b\u0443": 2969,
  "\u2581\u043f\u043e\u0438\u0441\u043a\u0430": 2970,
  "\u2581\u043e\u0442\u0432\u043e\u0440\u0438": 2971,
  "\u2581\u043f\u0440\u0435\u0434\u043e\u0441\u0442\u0430\u0432\u044f": 2972,
  "\u2581US": 2973,
  "\u2581peace": 2974,
  "dy": 2975,
  "\u2581\u0438\u0437\u0431\u044f\u0433\u0430": 2976,
  "\u2581straight": 2977,
  "\u2581\u0448": 2978,
  "\u2581International": 2979,
  "\u0432\u044a\u043d": 2980,
  "\u2581\u043f\u0438\u0448\u0435": 2981,
  "\u043f\u044a\u0440": 2982,
  "\u2581\u0428": 2983,
  "\u2581tax": 2984,
  "30": 2985,
  "\u2581Bank": 2986,
  "\u2581\u0446\u044f\u043b": 2987,
  "\u2581Never": 2988,
  "\u2581\u0438\u0441\u0442\u0438\u043d\u0441\u043a\u0438": 2989,
  "\u2581\u0442\u043e\u0447\u043a\u0438": 2990,
  "\u2581feet": 2991,
  "\u2581\u0440\u044a\u043a\u0430\u0442\u0430": 2992,
  "ent": 2993,
  "\u2581\u0424\u0440\u0430\u043d\u043a": 2994,
  "\u044f\u0432\u0430\u043d\u0435": 2995,
  "\u2581\u043e\u043f\u0440\u0435\u0434\u0435\u043b\u0435\u043d\u043e": 2996,
  "\u2581\u0434\u0435\u0442\u0435\u0442\u043e": 2997,
  "\u2581\u0432\u0438\u0436": 2998,
  "\u2581anybody": 2999,
  "\u2581sometimes": 3000,
  "\u2581\u043b\u0438\u0447\u043d\u043e": 3001,
  "time": 3002,
  "\u2581charge": 3003,
  "\u0443\u043a": 3004,
  "01": 3005,
  "\u2581sub": 3006,
  "\u2581\u043a\u0430\u0437\u0432\u0430\u0442": 3007,
  "\u2581\u043f\u043e\u0432\u044f\u0440\u0432\u0430\u043c": 3008,
  "\u2581missing": 3009,
  "\u2581looked": 3010,
  "\u2581loved": 3011,
  "\u0433\u0435\u043d": 3012,
  "\u2581\u0441\u044a\u0432\u0441\u0435\u043c": 3013,
  "\u2581medical": 3014,
  "\u2581\u0441\u0435\u043f\u0442\u0435\u043c\u0432\u0440\u0438": 3015,
  "04": 3016,
  "\u2581happening": 3017,
  "\u2581expect": 3018,
  "\u2581kidd": 3019,
  "\u2581included": 3020,
  "\u2581\u0438\u0441\u0442\u043e\u0440\u0438\u044f\u0442\u0430": 3021,
  "\u2581individual": 3022,
  "\u0415\u0418\u041e": 3023,
  "\u2581effective": 3024,
  "\u2581\u0431\u0438\u0432\u0430": 3025,
  "\u2581entry": 3026,
  "\u2581\u0432\u044f\u0440\u043d\u043e": 3027,
  "\u2581became": 3028,
  "\u2581pursuant": 3029,
  "\u2581\u043a\u043e\u0433\u0430": 3030,
  "\u2581\u0434\u043e\u043a\u043b\u0430\u0434": 3031,
  "\u2581\u0412\u044a\u0440\u0432": 3032,
  "\u2581\u0432\u043e\u0439\u043d\u0430": 3033,
  "\u2581\u0431\u044a\u0434\u0435\u043c": 3034,
  "\u2581compare": 3035,
  "\u2581Stay": 3036,
  "\u2581expected": 3037,
  "\u2581letter": 3038,
  "\u2581purposes": 3039,
  "\u2581investment": 3040,
  "\u2581\u043f\u0440\u0435\u0434\u0441\u0442\u0430\u0432\u0438": 3041,
  "\u2581seeing": 3042,
  "\u2581\u0432\u0437\u0435\u043c\u0430\u0442": 3043,
  "\u041f\u043e": 3044,
  "\u258132": 3045,
  "\u2581\u043e\u0441\u0442\u0430\u043d\u0430\u043b\u0438\u0442\u0435": 3046,
  "\u043d\u043e\u0449\u0438": 3047,
  "\u2581performance": 3048,
  "\u2581\u043b\u0430": 3049,
  "ho": 3050,
  "\u2581\u0440\u0435\u0430\u043a\u0446\u0438\u0438": 3051,
  "\u043c\u0430\u043c\u0430": 3052,
  "\u2581\u0432\u0430\u0448\u0438\u044f": 3053,
  "\u2581\u0436\u0435\u043d\u0438\u0442\u0435": 3054,
  "\u2581\u0441\u0442\u0438\u0433\u0430": 3055,
  "\u2581\u043c\u0430\u0433\u0430\u0437\u0438\u043d": 3056,
  "\u2581kiss": 3057,
  "\u043d\u0438\u0446\u0430": 3058,
  "\u2581\u0441\u043f\u0435\u0446\u0438\u0430\u043b\u043d\u043e": 3059,
  "\u0441\u043a\u043e\u0442\u043e": 3060,
  "\u2581\u0433\u043b\u0443\u043f\u043e\u0441\u0442": 3061,
  "\u2581\u0438\u0437\u043f\u044a\u043b\u043d\u0435\u043d\u0438\u0435\u0442\u043e": 3062,
  "\u2581\u0440\u0430\u0437\u0431\u0440\u0430\u0445": 3063,
  "\u2581\u043c\u0430\u0442\u0435\u0440\u0438\u0430\u043b\u0438": 3064,
  "\u2581\u0440\u0430\u0437\u0445\u043e\u0434\u0438\u0442\u0435": 3065,
  "\u2581mess": 3066,
  "ca": 3067,
  "\u2581\u0432\u044f\u0440\u0432\u0430\u043c": 3068,
  "\u2581\u0433\u043e\u0440\u0435": 3069,
  "\u2581\u0414\u0430\u043d\u0438": 3070,
  "\u2581procedures": 3071,
  "\u0441\u0442\u0440\u043e": 3072,
  "\u2581voice": 3073,
  "\u258170": 3074,
  "\u2581French": 3075,
  "\u2581patient": 3076,
  "\u0431\u0430\u0432\u043d\u043e": 3077,
  "\u2581till": 3078,
  "\u2581Peter": 3079,
  "\u2581\u0438\u043d\u0441\u0442\u0440\u0443\u043c\u0435\u043d\u0442\u0438": 3080,
  "\u2581however": 3081,
  "\u2581standard": 3082,
  "\u2581\u0412\u0440\u0435\u043c\u0435": 3083,
  "\u2581Germany": 3084,
  "\u2581\u043f\u043e\u0432\u0435\u0447\u0435\u0442\u043e": 3085,
  "\u2581welcome": 3086,
  "\u2581\u0441\u0442\u0430\u043d\u0430\u043b\u043e": 3087,
  "ko": 3088,
  "\u2581\u041c\u0430\u0439\u043a": 3089,
  "\u2581\u0441\u044a\u0449\u0435\u0441\u0442\u0432\u0443\u0432\u0430": 3090,
  "\u2581Son": 3091,
  "\u2581boss": 3092,
  "\u2581\u043f\u0440\u0430\u0432\u0438\u043b\u043d\u043e": 3093,
  "ong": 3094,
  "\u2581video": 3095,
  "\u2581\u041b\u0430": 3096,
  "\u2581\u0412\u0437\u0435\u043c": 3097,
  "\u2581worrie": 3098,
  "\u2581\u043f\u0440\u0430\u0432\u0438\u043b\u0430\u0442\u0430": 3099,
  "\u258136": 3100,
  "lt": 3101,
  "\u2581\u0427\u0443\u0445": 3102,
  "\u2581film": 3103,
  "\u2581bodies": 3104,
  "\u2581travel": 3105,
  "\u2581\u0434\u044a\u0440\u0436\u0438": 3106,
  "\u2581seven": 3107,
  "\u2581reach": 3108,
  "\u0434\u044a\u043d": 3109,
  "lin": 3110,
  "\u2581\u0434\u043e\u0439\u0434\u0430": 3111,
  "\u2581\u0438\u0437\u043c\u0435\u043d\u0435\u043d\u0438\u0435": 3112,
  "\u2581waste": 3113,
  "\u2581\u043f\u0440\u0430\u0432\u043e\u0442\u043e": 3114,
  "\u2581\u043f\u043e\u043b\u0437\u0430": 3115,
  "\u2581\u0441\u0447\u0438\u0442\u0430": 3116,
  "\u00e9": 3117,
  "\u0434\u0436": 3118,
  "\u2581studies": 3119,
  "\u2581persons": 3120,
  "\u2581\u0431\u0438\u0445\u0430": 3121,
  "\u2581\u0441\u0442\u0440\u0430\u043d\u0438\u0442\u0435": 3122,
  "\u258148": 3123,
  "15": 3124,
  "11": 3125,
  "\u2581\u043f\u0440\u043e\u0435\u043a\u0442": 3126,
  "\u2581\u0421\u043e\u0444\u0438\u044f": 3127,
  "\u2581granted": 3128,
  "\u2581Ch": 3129,
  "\u2581\u0414\u043e\u0431\u044a\u0440": 3130,
  "\u2581\u043d\u0443\u0436\u043d\u043e": 3131,
  "\u2581\u0420": 3132,
  "ri": 3133,
  "\u2581\u0433\u043b\u0443\u043f\u0430\u0432": 3134,
  "ba": 3135,
  "\u2581\u0434\u0440": 3136,
  "\u2581\u043c\u043e\u044f\u0442": 3137,
  "\u2581\u0438\u0437\u043b\u0435\u0437\u0435": 3138,
  "\u2581\u0441\u0442\u0438\u0433\u043d\u0435": 3139,
  "\u2581\u0421\u043b\u0443\u0448\u0430\u0439": 3140,
  "\u2581\u0441\u0435\u043a\u0441": 3141,
  "\u2581El": 3142,
  "ucky": 3143,
  "\u2581\u043e\u0442\u0433\u043e\u0432\u043e\u0440\u0438": 3144,
  "\u2581\u0440\u0430\u0437\u043f\u043e\u0440\u0435\u0434\u0431\u0438": 3145,
  "\u043d\u0430\u043b": 3146,
  "bo": 3147,
  "\u2581especially": 3148,
  "\u2581\u0424\u0438": 3149,
  "\u2581whose": 3150,
  "\u2581text": 3151,
  "\u2581\u0427\u0438": 3152,
  "ized": 3153,
  "\u0430\u043b\u043d\u043e": 3154,
  "\u043a\u0430\u0440\u0430\u0439": 3155,
  "\u2581Po": 3156,
  "\u2581Bo": 3157,
  "\u2581\u043d\u0430\u043f\u0440\u0430\u0432\u0438\u0445": 3158,
  "\u2581\u0428\u0438": 3159,
  "\u2581\u0437\u0432\u044a\u043d": 3160,
  "\u2581\u0430\u043f\u0440\u0438\u043b": 3161,
  "X": 3162,
  "\u2581IV": 3163,
  "\u2581\u0437\u043b\u0435": 3164,
  "\u043f\u0435\u0440": 3165,
  "\u2581\u0434\u043e\u0439\u0434\u0435\u0448": 3166,
  "\u2581\u043f\u0440\u043e\u0438\u0437\u0432\u043e\u0434\u0441\u0442\u0432\u043e\u0442\u043e": 3167,
  "\u2581immediately": 3168,
  "\u0431\u044a\u043b": 3169,
  "\u0438\u0440\u0430": 3170,
  "\u2581\u0438\u0437\u0441\u043b\u0435\u0434\u0432\u0430\u043d\u0438\u044f": 3171,
  "\u2581potential": 3172,
  "\u0438\u0440\u0430\u043d\u0435": 3173,
  "\u0443\u0440": 3174,
  "\u2581<": 3175,
  "\u2581\u0431\u0443": 3176,
  "\u2581\u043e\u043f\u0440\u0435\u0434\u0435\u043b\u044f": 3177,
  "\u2581\u0448\u0438\u0431": 3178,
  "\u2581\u043f\u043e\u0437\u0432\u043e\u043b\u044f\u0432\u0430": 3179,
  "\u2581\u0434\u0435\u0441\u0435\u0442": 3180,
  "\u2581\u043f\u0435": 3181,
  "\u2581Minister": 3182,
  "\u2581dark": 3183,
  "tri": 3184,
  "\u2581k": 3185,
  "\u2581Day": 3186,
  "\u2581except": 3187,
  "\u0417\u0430": 3188,
  "\u2581carry": 3189,
  "\u2581\u0432\u043a\u0443\u0441": 3190,
  "\u2581measure": 3191,
  "\u2581\u043f\u0440\u0435\u0434\u0441\u0435\u0434\u0430\u0442\u0435\u043b": 3192,
  "\u2581According": 3193,
  "\u2581\u043d\u043e\u0432\u0438\u043d\u0438": 3194,
  "\u2581\u043c\u043e\u043c\u0438\u0447\u0435\u0442\u0430": 3195,
  "\u043e\u0441\u0442": 3196,
  "90": 3197,
  "\u2581York": 3198,
  "Cause": 3199,
  "\u2581sell": 3200,
  "\u2581values": 3201,
  "\u2581\u0441\u0438\u043d\u0430": 3202,
  "\u0443\u0434": 3203,
  "\u0435\u043b\u0438": 3204,
  "\u2581\u0434\u0435\u0439\u0441\u0442\u0432\u0430": 3205,
  "\u2581prices": 3206,
  "\u2581\u0438\u043d\u0442\u0435\u0440\u0435\u0441\u0443\u0432\u0430": 3207,
  "\u2581\u0410\u043b\u0438": 3208,
  "\u2581\u043f\u0440\u043e\u0446\u0435\u0441": 3209,
  "\u2581knowledge": 3210,
  "\u2581Add": 3211,
  "\u2581born": 3212,
  "\u2581record": 3213,
  "\u2581review": 3214,
  "\u2581\u0443\u0431\u0438\u0432\u0430": 3215,
  "\u2581euro": 3216,
  "\u2581wedding": 3217,
  "\u2581Che": 3218,
  "\u2581resources": 3219,
  "\u2581\u0426\u0435\u043d\u0430": 3220,
  "\u2581beginning": 3221,
  "\u2581\u043f\u043e\u043d\u044f\u043a\u043e\u0433\u0430": 3222,
  "ack": 3223,
  "\u2581\u043f\u043e\u043b\u0443\u0447\u0438\u0442\u0435": 3224,
  "ig": 3225,
  "\u2581\u041a\u043e\u0440": 3226,
  "\u2581\u043f\u0438": 3227,
  "\u2581art": 3228,
  "\u2581ways": 3229,
  "\u2581Jim": 3230,
  "\u2581\u0443\u0442\u0440\u043e": 3231,
  "\u2581\u043f\u0440\u0435\u0434\u043f\u0440\u0438\u044f\u0442\u0438\u044f": 3232,
  "\u2581\u0432\u0438\u0434\u0438\u0442\u0435": 3233,
  "\u2581meant": 3234,
  "\u2581choose": 3235,
  "\u2581range": 3236,
  "\u2581significant": 3237,
  "\u2581crime": 3238,
  "ace": 3239,
  "\u0417": 3240,
  "\u2581worse": 3241,
  "\u2581spend": 3242,
  "\u2581duty": 3243,
  "\u0432\u043e\u0440": 3244,
  "\u2581\u0441\u043b\u0435\u0434\u0432\u0430\u0449\u0438\u044f": 3245,
  "\u2581replaced": 3246,
  "\u2581smart": 3247,
  "\u2581\u041f\u0435": 3248,
  "\u2581\u0432\u043d\u043e\u0441": 3249,
  "\u2581IT": 3250,
  "\u2581FOR": 3251,
  "\u2581\u0438\u043c\u0430\u043b": 3252,
  "\u2581beat": 3253,
  "\u2581Sea": 3254,
  "\u2581Actually": 3255,
  "\u0448\u0435\u0442\u043e": 3256,
  "ot": 3257,
  "\u2581\u043f\u0440\u043e\u043c\u044f\u043d\u0430": 3258,
  "\u0440\u044a\u0447": 3259,
  "U": 3260,
  "\u2581equal": 3261,
  "\u2581\u0419\u043e": 3262,
  "\u2581\u043f\u044a\u0440\u0432\u0438\u044f": 3263,
  "\u2581\u0443\u0434\u0430\u0440\u0438": 3264,
  "\u2581Hm": 3265,
  "\u043f\u0440\u043e": 3266,
  "\u2581weren": 3267,
  "\u2581\u0441\u043f\u0440\u0430\u0432\u044f": 3268,
  "\u2581\u0434\u043e\u043a\u0443\u043c\u0435\u043d\u0442\u0438": 3269,
  "mail": 3270,
  "\u2581program": 3271,
  "\u2581\u0412\u0435\u0440\u043e\u044f\u0442\u043d\u043e": 3272,
  "\u2581defined": 3273,
  "\u2581positive": 3274,
  "\u0441\u0442\u0440\u0430": 3275,
  "\u2581\u0441\u043f\u0435\u0447\u0435\u043b\u0438": 3276,
  "\u2581February": 3277,
  "der": 3278,
  "\u0442\u0435\u043b\u0435\u043d": 3279,
  "\u2581\u041c\u043e\u0436\u0435\u043c": 3280,
  "\u2581\u043f\u0440\u0435\u0434\u0441\u0442\u0430\u0432\u0430": 3281,
  "\u2581round": 3282,
  "\u2581language": 3283,
  "\u2581\u0433\u043e\u0442\u043e\u0432": 3284,
  "\u2581\u0441\u044a\u0434\u044a\u0440\u0436\u0430\u043d\u0438\u0435": 3285,
  "\u2581speed": 3286,
  "ci": 3287,
  "\u2581\u043a\u0443\u043f\u0438": 3288,
  "\u2581\u043e\u0441": 3289,
  "\u2581specified": 3290,
  "\u2581\u0421\u044a\u0440": 3291,
  "\u2581itself": 3292,
  "\u2581budget": 3293,
  "\u2581direct": 3294,
  "\u2581Ex": 3295,
  "\u2581\u041d\u043e\u0432\u0438": 3296,
  "\u2581materials": 3297,
  "\u2581\u0426": 3298,
  "\u2581spirit": 3299,
  "\u2581drop": 3300,
  "\u2581\u043f\u0435\u0440\u0438\u043e\u0434\u0430": 3301,
  "\u2581condition": 3302,
  "\u2581\u0438\u043d\u0444\u043e\u0440\u043c\u0430\u0446\u0438\u044f\u0442\u0430": 3303,
  "\u0447\u043d\u0430": 3304,
  "ok": 3305,
  "\u2581consider": 3306,
  "\u2581numbers": 3307,
  "\u2581\u043e\u0442\u0433\u043e\u0432\u043e\u0440\u043d\u043e\u0441\u0442": 3308,
  "\u2581color": 3309,
  "\u2581\u0412\u0430\u0448\u0430": 3310,
  "\u2581brain": 3311,
  "\u2581base": 3312,
  "\u2581instead": 3313,
  "\u0442\u044f": 3314,
  "\u2581\u0413\u0435\u0440\u043c\u0430\u043d\u0438\u044f": 3315,
  "\u2581\u0436": 3316,
  "\u2581apartment": 3317,
  "\u0447\u043d\u0438": 3318,
  "\u2581\u0447": 3319,
  "\u044a\u0437": 3320,
  "\u0434\u0438\u043e\u0442": 3321,
  "\u2581\u0438\u0433\u0440\u0430\u0442\u0430": 3322,
  "\u2581card": 3323,
  "\u2581\u0433\u0440\u0443\u043f\u0438": 3324,
  "\u0431\u0440\u0430": 3325,
  "\u2581\u0441\u0438\u043b\u0438": 3326,
  "\u2581\u041f\u043e\u0441\u043b\u0435": 3327,
  "\u0442\u0438\u0442\u0435": 3328,
  "\u2581approval": 3329,
  "\u2581\u041f\u0430": 3330,
  "\u258135": 3331,
  "\u2581\u041d\u0438\u043a": 3332,
  "ect": 3333,
  "\u2581\u043f\u043e\u043b\u0438\u0446\u0430": 3334,
  "\u0448\u0438\u044f\u0442": 3335,
  "\u2581\u0421\u044a\u0441": 3336,
  "\u043d\u0438\u044f\u0442\u0430": 3337,
  "\u2581\u0440\u043e\u0434\u0438\u0442\u0435\u043b\u0438\u0442\u0435": 3338,
  "\u2581\u043f\u043e\u0432\u044f\u0440\u0432\u0430": 3339,
  "\u2581\u0441\u043f\u0440\u044f\u043c\u043e": 3340,
  "\u25816,": 3341,
  "\u2581\u0431\u043e\u0440\u0431\u0430": 3342,
  "\u0435\u0445": 3343,
  "\u0434\u0440\u0430": 3344,
  "\u2581average": 3345,
  "\u2581\u043d\u0430\u043c\u0430\u043b\u044f\u0432\u0430\u043d\u0435": 3346,
  "\u2581\u043d\u0430\u0432\u044a\u043d": 3347,
  "\u2581[1],": 3348,
  "\u2581cash": 3349,
  "\u2581mistake": 3350,
  "\u0435\u0442\u0430": 3351,
  "\u2581\u0441\u0438\u043b\u0430\u0442\u0430": 3352,
  "\u2581\u0412\u044a\u0437": 3353,
  "\u0430\u043b\u0435\u043d": 3354,
  "\u2581handle": 3355,
  "\u2581pull": 3356,
  "\u2581daily": 3357,
  "\u2581Ho": 3358,
  "\u043d\u0435\u0448": 3359,
  "\u2581\u043d\u0430\u043f\u0440\u0435\u0434": 3360,
  "\u2581\u0441\u0443\u0442\u0440\u0438\u043d\u0442\u0430": 3361,
  "\u2581smell": 3362,
  "\u2581faith": 3363,
  "\u043b\u0435\u0440": 3364,
  "\u0440\u0435\u043d": 3365,
  "\u0432\u0430\u0440": 3366,
  "\u2581\u0430\u043b": 3367,
  "\u0440\u044a\u0441": 3368,
  "\u2581Shit": 3369,
  "\u2581\u0441\u043f\u0438\u0441\u044a\u043a": 3370,
  "ge": 3371,
  "\u2581\u043c\u0430\u043c\u043e": 3372,
  "if": 3373,
  "\u2581\u043f\u043e\u0441\u0442\u043e\u044f\u043d\u043d\u043e": 3374,
  "\u2581unless": 3375,
  "\u2581War": 3376,
  "\u2581\u0432\u0440\u0430\u0442\u0430": 3377,
  "\u2581\u0443\u043c\u0440\u0435": 3378,
  "ni": 3379,
  "\u043d\u0430\u0442": 3380,
  "ier": 3381,
  "\u0441\u0435\u043d": 3382,
  "\u2581quickly": 3383,
  "yl": 3384,
  "\u2581\u0430\u0434\u0432\u043e\u043a\u0430\u0442": 3385,
  "\u0431\u043e\u0440": 3386,
  "\u2581wear": 3387,
  "\u2581\u041f\u043e\u043d\u044f\u043a\u043e\u0433\u0430": 3388,
  "\u043b\u0435\u0442": 3389,
  "\u2581Allah": 3390,
  "\u2581\u0438\u0437\u0432\u044a\u0440\u0448\u0432\u0430": 3391,
  "\u2581Se": 3392,
  "\u2581opportunity": 3393,
  "\u2581\u0442\u0440\u044a\u0433\u043d\u0435": 3394,
  "\u2581\u041e\u0431\u0449\u043d\u043e\u0441\u0442\u0442\u0430": 3395,
  "\u2581Da": 3396,
  "\u2581\u043f\u043e\u0434\u0434\u044a\u0440\u0436\u0430": 3397,
  "unt": 3398,
  "\u2581Joe": 3399,
  "\u043d\u043e\u0441\u0442\u0442\u0430": 3400,
  "\u2581King": 3401,
  "\u2581\u0440\u0430\u0437\u0431\u0435\u0440\u0430": 3402,
  "\u2581\u043a\u0443\u0447": 3403,
  "\u2581Earth": 3404,
  "\u2581intended": 3405,
  "\u2581Ro": 3406,
  "\u2581Michael": 3407,
  "\u0439\u043b": 3408,
  "\u2581\u041c\u0430\u0440\u043a": 3409,
  "\u2581exchange": 3410,
  "\u25812003": 3411,
  "\u0441\u043a\u0438\u044f": 3412,
  "\u2581Watch": 3413,
  "\u2581dangerous": 3414,
  "\u2581\u043e\u0431\u043b\u0430\u0441\u0442": 3415,
  "\u2581\u043f\u0440\u0438\u043b\u0438\u0447\u0430": 3416,
  "go": 3417,
  "\u2581\u041e\u0431\u0435\u0449\u0430": 3418,
  "\u2581\u043e\u0431\u0443\u0447\u0435\u043d\u0438\u0435": 3419,
  "\u2581\u043f\u0440\u0435\u043a\u0430\u0440\u0430": 3420,
  "\u2581sun": 3421,
  "\u2581\u0438\u0437\u043d\u0435\u043d\u0430\u0434\u0430": 3422,
  "\u2581poor": 3423,
  "ec": 3424,
  "\u2581\u0443\u0447\u0430\u0441\u0442\u0438\u0435": 3425,
  "\u2581impact": 3426,
  "\u2581difference": 3427,
  "\u2581\u043f\u043e\u043b\u043e\u0436\u0435\u043d\u0438\u0435": 3428,
  "\u2581Three": 3429,
  "\u2581\u043e\u0431\u0449\u043d\u043e\u0441\u0442": 3430,
  "\u2581\u043f\u0438\u0441\u0442\u043e\u043b\u0435\u0442": 3431,
  "\u2581\u0434\u0440\u0443\u0433\u0430\u0442\u0430": 3432,
  "\u0441\u0442\u0430\u043d": 3433,
  "\u2581\u043f\u0440\u044f\u043a\u043e": 3434,
  "\u2581issues": 3435,
  "\u043a\u0441\u0438": 3436,
  "\u2581bag": 3437,
  "\u2581\u0441\u0435\u043a\u0442\u043e\u0440": 3438,
  "\u2581Ste": 3439,
  "\u2581Official": 3440,
  "\u2581submitted": 3441,
  "\u2581towards": 3442,
  "\u2581\u0433\u0440\u0438\u0436\u0438": 3443,
  "\u2581\u041f\u043e\u0433\u043b\u0435\u0434\u043d\u0438": 3444,
  "\u2581\u043a\u044a\u0449\u0438": 3445,
  "\u2581\u043d\u044f\u043a\u043e\u044f": 3446,
  "\u2581\u0442\u044a\u0440\u0441\u0438": 3447,
  "\u0432\u0430\u043d\u0435\u0442\u043e": 3448,
  "\u2581Therefore": 3449,
  "\u2581\u0440\u0435\u0437\u0443\u043b\u0442\u0430\u0442\u0438\u0442\u0435": 3450,
  "80": 3451,
  "\u0439\u043a": 3452,
  "\u2581created": 3453,
  "\u2581evening": 3454,
  "\u2581\u0438\u0437\u043f\u043e\u043b\u0437\u0432\u0430\u043d\u0438": 3455,
  "16": 3456,
  "\u2581\u043d\u043e\u043c\u0435\u0440\u0430": 3457,
  "\u0443\u0432\u0430": 3458,
  "\u2581\u043f\u0440\u0430\u0432\u0430\u0442\u0430": 3459,
  "\u2581internal": 3460,
  "\u2581standards": 3461,
  "\u2581applied": 3462,
  "\u2581unit": 3463,
  "\u043f\u0430\u043b": 3464,
  "\u2581\u0442\u0435\u043b\u0435\u0444\u043e\u043d": 3465,
  "\u2581\u0441\u044a\u0449\u0430\u0442\u0430": 3466,
  "\u2581calls": 3467,
  "\u2581allowed": 3468,
  "\u2581\u0438\u0437\u043a\u043b\u044e\u0447\u0438\u0442\u0435\u043b\u043d\u043e": 3469,
  "\u2581board": 3470,
  "\u2581\u0447\u0443\u0434\u0435\u0441\u043d\u043e": 3471,
  "\u2581\u0432\u044f\u0440\u0432\u0430": 3472,
  "\u0432\u0430\u043d": 3473,
  "\u2581caught": 3474,
  "\u0447\u0435\u0440\u0430": 3475,
  ",000": 3476,
  "\u2581\u043e\u043f\u0440\u0430\u0432\u044f": 3477,
  "\u2581\u0432\u0438\u0436\u0434\u0430": 3478,
  "\u2581mission": 3479,
  "\u0434\u0443": 3480,
  "\u2581nor": 3481,
  "\u2581starting": 3482,
  "\u2581\u043f\u044a\u0440\u0432\u0430": 3483,
  "off": 3484,
  "\u2581hang": 3485,
  "ze": 3486,
  "\u2581wonder": 3487,
  "\u2581Le": 3488,
  "\u2581\u0441\u0442\u0440\u0435\u043b\u044f": 3489,
  "\u2581whom": 3490,
  "IN": 3491,
  "\u2581\u043a\u043e\u043c\u0438\u0442\u0435\u0442": 3492,
  "\u2581Over": 3493,
  "\u2581Ar": 3494,
  "\u2581\u043f\u0440\u043e\u0435\u043a\u0442\u0438": 3495,
  "\u2581\u0446\u0435\u043d\u0442\u044a\u0440": 3496,
  "\u2581sounds": 3497,
  "les": 3498,
  "\u2581\u0434\u0432\u0438\u0436\u0435\u043d\u0438\u0435": 3499,
  "\u2581train": 3500,
  "\u2581\u041f\u043e\u043d\u0435": 3501,
  "\u043e\u0440\u0438": 3502,
  "17": 3503,
  "\u2581containing": 3504,
  "\u2581\u041d\u0430\u0447\u0430\u043b\u043e": 3505,
  "\u2581crisis": 3506,
  "\u2581\u0441\u0438\u043b\u043d\u043e": 3507,
  "\u2581store": 3508,
  "\u2581\u0431\u0430": 3509,
  "\u2581Sp": 3510,
  "\u2581\u0442\u0440\u044a\u0433\u043d\u0430": 3511,
  "\u25812002": 3512,
  "We": 3513,
  "\u0420": 3514,
  "\u2581gives": 3515,
  "\u2581\u0441\u043b\u0435\u0434\u043d\u043e\u0442\u043e": 3516,
  "\u2581reasons": 3517,
  "ide": 3518,
  "\u2581\u0447\u0443\u0432\u0441\u0442\u0432\u043e": 3519,
  "\u2581listed": 3520,
  "\u2581published": 3521,
  "\u2581\u0414\u0440\u044a\u0436": 3522,
  "\u2581fishing": 3523,
  "\u258100": 3524,
  "ru": 3525,
  "\u2581\u043a\u043e\u0440\u0430\u0431": 3526,
  "\u2581\u043a\u0430\u043b": 3527,
  "\u2581\u0441\u043a\u044a\u043f\u0438": 3528,
  "\u2581\u043f\u044a\u043b\u043d\u043e": 3529,
  "\u2581\u043d\u0430\u0447\u0438\u043d\u0430": 3530,
  "\u043b\u043e\u0433": 3531,
  "\u2581lower": 3532,
  "\u2581holding": 3533,
  "\u2581\u0444\u0435\u0432\u0440\u0443\u0430\u0440\u0438": 3534,
  "\u2581bought": 3535,
  "\u2581\u043d\u0430\u043a\u0430\u0440\u0430": 3536,
  "\u2581amazing": 3537,
  "\u2581\u041f\u0435\u0442": 3538,
  "\u2581\u043d\u0438\u043a\u043e\u0433\u043e": 3539,
  "\u2581Price": 3540,
  "\u2581\u0446\u044f\u043b\u0430": 3541,
  "-2": 3542,
  "\u2581administration": 3543,
  "\u2581\u0415\u043b": 3544,
  "\u2581\u0443\u0436\u0430\u0441\u043d\u043e": 3545,
  "\u2581\u0434\u0430\u0442\u0430\u0442\u0430": 3546,
  "\u2581\u0444\u0438\u043d\u0430\u043d\u0441\u043e\u0432\u0438": 3547,
  "\u2581middle": 3548,
  "\u0431\u044a\u0440": 3549,
  "\u0434\u043d\u0438\u043a": 3550,
  "ki": 3551,
  "\u2581Star": 3552,
  "\u2581\u0440\u044a\u0446\u0435": 3553,
  "\u2581ride": 3554,
  "\u0438\u0441\u0442": 3555,
  "\u0438\u0435\u0442\u043e": 3556,
  "\u2581partner": 3557,
  "\u2581\u041c\u043e\u043c\u0447\u0435": 3558,
  "\u2581criteria": 3559,
  "\u2581\u0412\u0430\u0441": 3560,
  "\u041d": 3561,
  "\u2581\u0410\u043c\u0435\u0440\u0438\u043a\u0430": 3562,
  "\u0442\u043e\u0440": 3563,
  "ek": 3564,
  "\u2581role": 3565,
  "\u2581\u0431\u0430\u0440": 3566,
  "\u2581\u043f\u0440\u0438\u043b\u043e\u0436\u0435\u043d\u0438\u0435\u0442\u043e": 3567,
  "\u2581build": 3568,
  "\u2581groups": 3569,
  "\u2581\u043b\u0435": 3570,
  "ga": 3571,
  "\u2581practice": 3572,
  "\u2581\u0441\u044a\u0431\u0438\u0442\u0438\u044f": 3573,
  "\u2581\u0424\u0430": 3574,
  "\u2581\u0441\u0440\u0435\u0449\u043d\u0435": 3575,
  "\u0445\u043e\u0434": 3576,
  "\u2581Hotel": 3577,
  "\u0433\u0440\u0430\u0434": 3578,
  "\u2581street": 3579,
  "\u2581Love": 3580,
  "\u2581Agency": 3581,
  "\u0448\u043a\u0430": 3582,
  "so": 3583,
  "\u2581regards": 3584,
  "\u2581\u041d\u0430\u0441\u0442\u043e\u044f\u0449\u0438\u044f\u0442": 3585,
  "ana": 3586,
  "\u2581prison": 3587,
  "\u2581jump": 3588,
  "1,": 3589,
  "\u2581imports": 3590,
  "ER": 3591,
  "\u2581model": 3592,
  "\u2581Ta": 3593,
  "\u2581Brussels": 3594,
  "\u2581\u0430\u043d\u0442\u0438": 3595,
  "\u2581drug": 3596,
  "\u0433\u044a\u0440": 3597,
  "+": 3598,
  "\u043e\u0432\u043e": 3599,
  "\u2581\u0442\u043e\u043a\u0443": 3600,
  "\u2581\u0443\u0447\u0430\u0441\u0442\u0432\u0430": 3601,
  "\u2581Part": 3602,
  "\u2581contract": 3603,
  "\u2581\u043b\u0435\u0447\u0435\u043d\u0438\u0435\u0442\u043e": 3604,
  "\u2581\u0434\u043e\u043f\u044a\u043b\u043d\u0438\u0442\u0435\u043b\u043d\u0438": 3605,
  "\u2581\u0427\u0443": 3606,
  "\u2581\u0411\u043e\u0431": 3607,
  "\u2581term": 3608,
  "\u2581projects": 3609,
  "\u2581determined": 3610,
  "gar": 3611,
  "\u2581\u043d\u0430\u043f\u0440\u0430\u0432\u0438\u0442\u0435": 3612,
  "\u2581\u043e\u0447\u0438": 3613,
  "\u2581\u0433\u0440\u0438\u0436\u0430": 3614,
  "\u2581\u0432\u043a\u043b\u044e\u0447\u0435\u043d\u0438": 3615,
  "\u2581feed": 3616,
  "\u2581en": 3617,
  "\u2581com": 3618,
  "\u2581interesting": 3619,
  "\u043a\u044a\u0442": 3620,
  "\u0441\u0435\u043b": 3621,
  "\u0441\u0442\u0442\u0430": 3622,
  "\u2581Back": 3623,
  "\u2581Articles": 3624,
  "\u2581\u043e\u0441\u0438\u0433\u0443\u0440\u0438": 3625,
  "\u2581establishing": 3626,
  "\u2581\u0440\u0430\u0431\u043e\u0442\u044f\u0442": 3627,
  "\u2581\u0421\u0438\u043d": 3628,
  "\u0432\u0436": 3629,
  "\u2581\u0434\u043e\u043a\u0430\u0437\u0430\u0442\u0435\u043b\u0441\u0442\u0432\u0430": 3630,
  "mm": 3631,
  "\u2581decide": 3632,
  "\u0438\u043a": 3633,
  "\u2581lying": 3634,
  "\u2581Should": 3635,
  "\u2581\u042f\u0441\u043d\u043e": 3636,
  "\u0447\u043d\u043e": 3637,
  "\u2581create": 3638,
  "\u2581remain": 3639,
  "\u2581\u0443\u0434\u0430\u0440": 3640,
  "\u2581\u0443\u0431\u0438\u044f": 3641,
  "\u044c\u043e\u0440": 3642,
  "\u2581designed": 3643,
  "\u2581plant": 3644,
  "\u2581wine": 3645,
  "\u2581Remember": 3646,
  "\u2581killer": 3647,
  "\u2581plans": 3648,
  "\u2581\u043c\u0438\u0440": 3649,
  "\u2581planet": 3650,
  "\u2581\u0433\u0440\u0443\u043f\u0430\u0442\u0430": 3651,
  "\u2581\u0438\u0437\u043e\u0431\u0449\u043e": 3652,
  "ical": 3653,
  "\u2581\u041f\u0430\u043a": 3654,
  "\u2581sugar": 3655,
  "\")": 3656,
  "\u0441\u043e": 3657,
  "\u2581\u043f\u0440\u043e\u043c\u0435\u043d\u044f": 3658,
  "\u2581regarding": 3659,
  "14": 3660,
  "\u2581computer": 3661,
  "\u2581\u043f\u0435\u0440": 3662,
  "\u2581nobody": 3663,
  "\u2581\u0432\u044a\u0437\u0441\u0442\u0430\u043d\u043e\u0432\u044f\u0432\u0430\u043d\u0435": 3664,
  "que": 3665,
  "13": 3666,
  "02": 3667,
  "\u2581THIS": 3668,
  "\u043c\u043e\u0440": 3669,
  "\u2581competition": 3670,
  "\u043b\u043e\u0432": 3671,
  "\u2581\u043f\u0440\u043e\u0433\u0440\u0430\u043c\u0438": 3672,
  "\u2581Russian": 3673,
  "\u2581\u043d\u0430\u0443\u0447\u0438": 3674,
  "\u25817.": 3675,
  "\u2581\u0434\u0438\u0435\u0442\u0430": 3676,
  "\u2581track": 3677,
  "\u2581\u0442\u0435\u0441\u0442": 3678,
  "\u2581\u0441\u044a\u043f\u0440\u0443\u0433\u0430": 3679,
  "\u2581property": 3680,
  "\u258110.": 3681,
  "\u2581wonderful": 3682,
  "\u2581150": 3683,
  "\u2581written": 3684,
  "\u2581environment": 3685,
  "\u2581\u041f\u0440\u0430\u0432": 3686,
  "\u2581shows": 3687,
  "\u2581growth": 3688,
  "\u2581wrote": 3689,
  "\u2581\u0445\u043e\u0442\u0435\u043b": 3690,
  "\u0440\u0430\u043c": 3691,
  "\u2581\u0410\u043d\u0434": 3692,
  "\u2581\u0437\u0430\u0445\u0430\u0440": 3693,
  "\u2581\u0419\u043e\u0440\u043a": 3694,
  "\u2581extra": 3695,
  "li": 3696,
  "\u2581official": 3697,
  "\u2581City": 3698,
  "\u043c\u0435\u043d\u0442": 3699,
  "\u2581\u0443\u043c": 3700,
  "\u2581Tom": 3701,
  "\u2581\u043c\u0430\u0433": 3702,
  "\u2581\u0441\u0432\u0435\u0442\u043b\u0438\u043d\u0430": 3703,
  "io": 3704,
  "\u2581World": 3705,
  "\u2581America": 3706,
  "\u2581greater": 3707,
  "\u2581injection": 3708,
  "\u0433\u043d\u0435": 3709,
  "\u2581\u0440\u0435\u0437\u0443\u043b\u0442\u0430\u0442\u0438": 3710,
  "\u2581usually": 3711,
  "\u2581\u041f\u043e\u043c\u043d\u0438": 3712,
  "\u2581\u043b\u044e\u0431\u043e\u0432\u0442\u0430": 3713,
  "\u2581payment": 3714,
  "\u2581\u043f\u0440\u043e\u0435\u043a\u0442\u0430": 3715,
  "\u2581\u041a\u043e\u0434": 3716,
  "ti": 3717,
  "\u2581\u0443\u0441\u043b\u0443\u0433\u0430": 3718,
  "\u2581\u0430\u0434\u0440\u0435\u0441": 3719,
  "\u258133": 3720,
  "\u2581\u0434\u043e\u043a\u043b\u0430\u0434\u0430": 3721,
  "\u2581\u043c\u043e\u0436\u0435\u0445": 3722,
  "for": 3723,
  "\u2581join": 3724,
  "\u2581\u043a\u043e\u0434": 3725,
  "\u2581blue": 3726,
  "\u2581\u043a\u0430\u0436\u0435\u043c": 3727,
  "\u2581\u043f\u0440\u0435\u0437\u0438\u0434\u0435\u043d\u0442": 3728,
  "\u2581\u041f\u0440\u0438\u044f\u0442\u0435\u043b": 3729,
  "\u2581Paris": 3730,
  "\u2581Jo": 3731,
  "info": 3732,
  "\u0440\u0430\u0432\u043e": 3733,
  "06": 3734,
  "\u2581Leave": 3735,
  "\u2581San": 3736,
  "\u2581German": 3737,
  "\u2581\u043e\u0440\u0433\u0430\u043d\u0438\u0437\u0430\u0446\u0438\u044f": 3738,
  "\u2581fully": 3739,
  "\u2581\u043c\u0443\u0437\u0438\u043a\u0430": 3740,
  "\u2581\u043a\u043e\u043c\u0438\u0441\u0438\u044f": 3741,
  "\u2581staff": 3742,
  "\u2581\u0413\u043e": 3743,
  "\u2581talked": 3744,
  "\u2581funds": 3745,
  "\u2581Last": 3746,
  "\u2581\u043e\u0441\u043d\u043e\u0432\u043d\u0438\u0442\u0435": 3747,
  "\u2581News": 3748,
  "\u2581busy": 3749,
  "\u2581writing": 3750,
  "\u2581\u041a\u0430\u0437\u0432\u0430\u043c": 3751,
  "\u043e\u043b": 3752,
  "\u2581Christmas": 3753,
  "\u2581careful": 3754,
  "\u2581\u0422\u0440\u044a": 3755,
  "\u2581\u0438\u0437\u043f\u043e\u043b\u0437\u0432\u0430\u043d\u0435\u0442\u043e": 3756,
  "\u2581Move": 3757,
  "\u2581soul": 3758,
  "\u2581watching": 3759,
  "\u2581IN": 3760,
  "\u2581ran": 3761,
  "\u2581broke": 3762,
  "\u2581\u041f\u0440\u0430\u0432\u0438": 3763,
  "\u2581\u0432\u044a\u0440\u043d\u0435\u043c": 3764,
  "\u2581\u0438\u0437\u0432\u0435\u0441\u0442\u043d\u043e": 3765,
  "\u2581\u043d\u0430\u0441\u0442\u043e\u044f\u0449\u0430\u0442\u0430": 3766,
  "\u2581notice": 3767,
  "\u2581\u043a\u043d\u0438\u0433\u0430": 3768,
  "\u2581\u0441\u043d\u0438\u043c\u043a\u0438": 3769,
  "\u2581\u0432\u043e\u0434\u0430\u0442\u0430": 3770,
  "\u2581\u0438\u043c\u0430\u0445": 3771,
  "\u2581\u043b\u0443\u0434": 3772,
  "\u2581\u0441\u0442\u043e\u0439\u043d\u043e\u0441\u0442\u0438": 3773,
  "ren": 3774,
  "ja": 3775,
  "\u2581inform": 3776,
  "\u2581\u0430\u043a\u0442": 3777,
  "\u2581\u0434\u0435\u043b\u043e": 3778,
  "\u2581\u041e\u0444\u0438\u0446\u0438\u0430\u043b\u0435\u043d": 3779,
  "\u2581\u0440\u0430\u0437\u0431\u0438\u0440\u0430\u0448": 3780,
  "\u2581Red": 3781,
  "\u258101": 3782,
  "\u2581\u0433\u043e\u0442\u043e\u0432\u0438": 3783,
  "\u2581\u0440\u0435\u0436\u0438\u043c": 3784,
  "\u2581\u0427\u0443\u0432": 3785,
  "\u2581\u041a\u0435": 3786,
  "\u2581\u0433\u043b\u0435\u0434\u0430\u043c": 3787,
  "\u2581spent": 3788,
  "\u2581\u043d\u0438\u043a\u0430\u043a\u0432\u0438": 3789,
  "\u2581seat": 3790,
  "\u2581la": 3791,
  "\u2581Onc": 3792,
  "\u2581Think": 3793,
  "\u2581evil": 3794,
  "\u2581finish": 3795,
  "\u2581analysis": 3796,
  "\u2581totally": 3797,
  "\u2581\u0431\u044a\u0434\u0435\u0449\u0435\u0442\u043e": 3798,
  "\u2581supply": 3799,
  "\u2581thinks": 3800,
  "\u2581Out": 3801,
  "\u2581moved": 3802,
  "\u2581count": 3803,
  "\u2581clinical": 3804,
  "\u2581negative": 3805,
  "\u2581exercise": 3806,
  "\u2581\u0434\u0438\u0440\u0435\u043a\u0442\u043e\u0440": 3807,
  "\u2581\u043d\u0435\u0437\u0430\u0432\u0438\u0441\u0438\u043c\u043e": 3808,
  "03": 3809,
  "\u2581\u0443\u0431\u0438": 3810,
  "\u2581method": 3811,
  "\u2581\u043f\u0440\u0435\u0434\u043b\u043e\u0436\u0438": 3812,
  "\u2581accept": 3813,
  "ee": 3814,
  "\u2581blow": 3815,
  "\u2581eating": 3816,
  "\u2581foot": 3817,
  "\u0432\u0430\u043b\u0438": 3818,
  "\u2581various": 3819,
  "\u2581Mike": 3820,
  "\u2581\u043a\u043e\u043c\u043f\u0430\u043d\u0438\u044f": 3821,
  "\u2581\u0443\u043c\u0438\u0440\u0430": 3822,
  "\u2581marriage": 3823,
  "60": 3824,
  "\u0446\u0435\u043d": 3825,
  "\u2581\u0433\u0435\u0440\u043e": 3826,
  "ors": 3827,
  "\u2581provides": 3828,
  "\u2581fresh": 3829,
  "\u2581eight": 3830,
  "\u0435\u0432": 3831,
  "\u2581\u043d\u0435\u0433\u043e\u0432\u043e\u0442\u043e": 3832,
  "\u2581\u0432\u0437\u0435\u043c\u0435\u043c": 3833,
  "\u2581follows": 3834,
  "\u2581\u043d\u0430\u0431\u043b\u044e\u0434\u0430\u0432\u0430": 3835,
  "\u2581likely": 3836,
  "\u2581rich": 3837,
  "\u2581Group": 3838,
  "\u2581original": 3839,
  "\u2581\u0430\u0433\u0435\u043d\u0442": 3840,
  "\u2581sales": 3841,
  "ster": 3842,
  "\u2581treated": 3843,
  "\u2581\u043f\u0440\u043e\u0446\u0435\u0434\u0443\u0440\u0430": 3844,
  "\u2581\u0434\u043e\u0448\u043b\u0438": 3845,
  "\u2581\u0417\u0430\u0440\u0430\u0434": 3846,
  "\u2581\u0441\u043f\u0438\u0440\u0430": 3847,
  "\u2581\u043d\u043e\u0449\u0442\u0430": 3848,
  "\u2581\u0441\u0432\u043e\u0435\u0442\u043e": 3849,
  "\u2581\u00b0": 3850,
  "\u2581Try": 3851,
  "18": 3852,
  "\u2581\u0441\u0442\u0430\u0440": 3853,
  "vo": 3854,
  "\u2581\u0423\u043e\u043b": 3855,
  "\u0447\u043b\u0435\u043d\u043a\u0430": 3856,
  "\u2581annual": 3857,
  "It": 3858,
  "ub": 3859,
  "\u2581relating": 3860,
  "\u0435\u0434\u043d\u0430\u0433\u0430": 3861,
  "\u2581Isn": 3862,
  "\u2581fruit": 3863,
  "\u2581\u0440\u0430\u0437\u0434\u0435\u043b": 3864,
  "\u2581\u0411\u0440\u044e\u043a\u0441\u0435\u043b": 3865,
  "\u2581\u0442\u044a\u043f": 3866,
  "\u2581\u0438\u0437\u0446\u044f\u043b\u043e": 3867,
  "\u2581\u0435\u0434\u0438\u043d\u0441\u0442\u0432\u0435\u043d\u043e": 3868,
  "\u2581Serbia": 3869,
  "ber": 3870,
  "\u2581Time": 3871,
  "\u2581Authority": 3872,
  "min": 3873,
  "\u2581station": 3874,
  "\u2581\u0435\u043b\u0430": 3875,
  "\u2581machine": 3876,
  "\u2581citizens": 3877,
  "\u0442\u043d\u0430": 3878,
  "\u0448\u043d\u043e": 3879,
  "\u2581\u043e\u0431\u043e\u0440\u0443\u0434\u0432\u0430\u043d\u0435": 3880,
  "\u0440\u0435\u0434": 3881,
  "\u2581ball": 3882,
  "\u2581accident": 3883,
  "\u2581\u0432\u043a\u043b\u044e\u0447\u0432\u0430\u0442": 3884,
  "\u2581deep": 3885,
  "\u2581Open": 3886,
  "ship": 3887,
  "\u2581\u0421\u0430\u043d": 3888,
  "\u2581avoid": 3889,
  "\u258175": 3890,
  "\u2581\u0443\u0434\u043e\u0432\u043e\u043b\u0441\u0442\u0432\u0438\u0435": 3891,
  "\u2581built": 3892,
  "\u2581\u0444\u0443\u043d\u043a\u0446\u0438\u043e\u043d\u0438\u0440\u0430\u043d\u0435\u0442\u043e": 3893,
  "\u2581appreciate": 3894,
  "\u2581Check": 3895,
  "\u2581ya": 3896,
  "con": 3897,
  "\u043c\u044a\u043d": 3898,
  "\u2581\u0437\u0432\u0443\u0447\u0438": 3899,
  "\u2581\u0421\u0442\u0430\u0432\u0430": 3900,
  "\u2581\u043d\u0430\u0441\u0430\u043c": 3901,
  "\u2581quick": 3902,
  "\u2581\u0433\u0430\u0437": 3903,
  "\u2581\u0434\u044a\u0440\u0436\u0430": 3904,
  "\u2581\u0434\u043e\u0448\u044a\u043b": 3905,
  "\u2581\u0421\u0438\u0433\u0443\u0440\u043d": 3906,
  "\u0440\u0438\u0441": 3907,
  "\u2581receive": 3908,
  "\u2581forever": 3909,
  "\u2581approved": 3910,
  "\u2581inter": 3911,
  "\u2581meaning": 3912,
  "hmm": 3913,
  "\u2581taste": 3914,
  "\u2581\u0447\u0430\u043a\u0430\u0439": 3915,
  "\u2581\u041a\u043e\u044f": 3916,
  "\u2581\u0412\u044a\u0432": 3917,
  "\u2581\u0446\u0435\u043d\u0438": 3918,
  "\u2581framework": 3919,
  "\u2581\u0414\u0436\u043e\u0440\u0434\u0436": 3920,
  "\u2581\u0440\u0435\u0441\u0443\u0440\u0441\u0438": 3921,
  "\u2581green": 3922,
  "\u2581anywhere": 3923,
  "\u2581\u043a\u0438": 3924,
  "\u2581\u0442\u044f\u043b\u043e": 3925,
  "\u043f\u043e\u043a\u043e\u0439\u043d\u043e": 3926,
  "\u0435\u043b\u0430": 3927,
  "\u2581\u041c\u0435\u0440": 3928,
  "\u2581\u043f\u0440\u043e\u0433\u0440\u0430\u043c\u0430\u0442\u0430": 3929,
  "\u2581documents": 3930,
  "\u2581swear": 3931,
  "\u2581\u0432\u0437\u0438\u043c\u0430": 3932,
  "\u2581scene": 3933,
  "\u2581\u043f\u0440\u0435\u0434\u0432\u0438\u0434\u0435\u043d\u0438": 3934,
  "\u043b\u0430\u043d": 3935,
  "\u2581\u0440\u0438\u0441\u043a\u0430": 3936,
  "\u2581certainly": 3937,
  "ious": 3938,
  "\u2581Welcome": 3939,
  "\u2581\u0438\u043d\u0442\u0435\u0440\u043d\u0435\u0442": 3940,
  "\u0446\u0438\u0438": 3941,
  "\u2581file": 3942,
  "\u043a\u0435\u0439": 3943,
  "ted": 3944,
  "\u2581Before": 3945,
  "\u2581\u043f\u043e\u043c\u0438\u0441\u043b\u0438": 3946,
  "\u2581healthy": 3947,
  "\u2581\u0440\u0430\u0431\u043e\u0442\u044f": 3948,
  "\u2581\u043f\u043b\u0430\u0449\u0430": 3949,
  "\u2581tired": 3950,
  "\u2581glass": 3951,
  "EN": 3952,
  "\u2581Black": 3953,
  "\u2581Charlie": 3954,
  "\u2581\u043d\u0435\u043e\u0431\u0445\u043e\u0434\u0438\u043c\u0438": 3955,
  "term": 3956,
  "\u2581\u043f\u043e\u0447\u0438\u0432\u043a\u0430": 3957,
  "\u0447\u043a\u043e": 3958,
  "\u2581progress": 3959,
  "\u2581\u043a\u0430\u0440\u0442\u0430": 3960,
  "\u2581movi": 3961,
  "\u2581\u0446\u0435\u043b\u0442\u0430": 3962,
  "\u2581military": 3963,
  "ena": 3964,
  "\u2581\u0441\u044a\u043e\u0431\u0449\u0435\u043d\u0438\u0435": 3965,
  "\u2581clearly": 3966,
  "\u0442\u0438\u0432": 3967,
  "\u043b\u0435\u043a": 3968,
  "\u2581\u043e\u043a\u043e\u043b\u043d\u0430\u0442\u0430": 3969,
  "\u2581\u0421\u0443": 3970,
  "\u2581budd": 3971,
  "\u2581\u0435\u043a\u0438\u043f": 3972,
  "\u2581stopped": 3973,
  "\u0434\u0440\u0438": 3974,
  "\u2581\u043f\u043e\u043a\u0430\u0436\u0430": 3975,
  "\u2581benefit": 3976,
  "\u2581rule": 3977,
  "\u043a\u0430\u043d": 3978,
  "\u2581House": 3979,
  "\u2581\u0432\u0430\u0436\u043d\u0430": 3980,
  "\u2581prepared": 3981,
  "\u0432\u0430\u043c\u0435": 3982,
  "\u2581Done": 3983,
  "\u2581network": 3984,
  "\u0434\u0436\u044a\u0440": 3985,
  "&": 3986,
  "\u2581gold": 3987,
  "\u2581clothes": 3988,
  "\u043a\u044a\u0434\u0435": 3989,
  "\u2581\u043d\u0438\u0432\u0430": 3990,
  "\u2581sale": 3991,
  "\u043a\u0440\u0430": 3992,
  "\u2581\u043d\u0430\u043e\u043a\u043e\u043b\u043e": 3993,
  "\u043a\u0430\u0440\u0430": 3994,
  "\u2581Park": 3995,
  "vi": 3996,
  "\u2581George": 3997,
  "\u2581agreed": 3998,
  "\u2581reading": 3999,
  "\u2581\u0438\u043d\u0441\u0442\u0438\u0442\u0443\u0446\u0438\u0438": 4000,
  "\u2581\u0445\u043b\u0430": 4001,
  "\u0434\u0435\u0440": 4002,
  "yan": 4003,
  "\u2581\u0437\u0435\u043c\u044f": 4004,
  "\u2581Code": 4005,
  "\u2581\u0425\u0443\u0431\u0430\u0432\u043e": 4006,
  "\u2581\u043e\u0440\u044a\u0436\u0438\u0435": 4007,
  "\u2581\u043a\u0440\u044a\u0432\u0442\u0430": 4008,
  "\u2581import": 4009,
  "\u2581double": 4010,
  "\u0442\u0435\u043b\u043d\u0438": 4011,
  "\u2581\u043c\u0438\u043d\u0430": 4012,
  "\u0433\u0430\u043d": 4013,
  "\u2581Na": 4014,
  "\u2581Israel": 4015,
  "\u2581origin": 4016,
  "\u2581\u0444\u043e\u0440\u043c\u0430\u0442\u0430": 4017,
  "\u043d\u0438\u0446\u0438\u0442\u0435": 4018,
  "\u2581Top": 4019,
  "\u2581\u043e\u0440\u0433\u0430\u043d\u0438\u0437\u0430\u0446\u0438\u0438": 4020,
  "\u2581\u0440\u0430\u0432\u043d\u0438\u0449\u0435": 4021,
  "45": 4022,
  "qui": 4023,
  "\u043b\u044e": 4024,
  "\u2581sitting": 4025,
  "\u2581professional": 4026,
  "\u2581\u0424\u0440\u0430\u043d\u0446\u0438\u044f": 4027,
  "\u2581stick": 4028,
  "\u2581\u041f\u0440\u043e\u0434\u044a\u043b\u0436\u0430\u0432\u0430": 4029,
  "\u043b\u0430\u043d\u0434": 4030,
  "\u2581wall": 4031,
  "\u2581village": 4032,
  "\u2581target": 4033,
  "ped": 4034,
  "\u2581UN": 4035,
  "\u2581\u0441\u0435\u0434\u0435\u043c": 4036,
  "\u2581saved": 4037,
  "\u2581\u0438\u043a\u043e\u043d\u043e\u043c\u0438\u0447\u0435\u0441\u043a\u0438": 4038,
  "\u2581birthday": 4039,
  "24": 4040,
  "\u2581yesterday": 4041,
  "\u2581actions": 4042,
  "\u2581source": 4043,
  "\u2581\u0440\u0430": 4044,
  "\u0435\u0440\u0430": 4045,
  "\u044a\u043c": 4046,
  "til": 4047,
  "\u2581Mary": 4048,
  "year": 4049,
  "\u2581civil": 4050,
  "\u2581favor": 4051,
  "\u2581\u0442\u044a\u0440\u0433\u043e\u0432\u0438\u044f": 4052,
  "\u2581\u0438\u0441\u0442\u0438\u043d\u0430": 4053,
  "\u2581Yo": 4054,
  "ai": 4055,
  "\u2581foreign": 4056,
  "\u2581\u043f\u043e\u044f\u0432\u0438": 4057,
  "\u043b\u0435\u043d\u0438\u044f": 4058,
  "\u2581\u0438\u043c\u0430\u043b\u043e": 4059,
  "\u2581ring": 4060,
  "\u2581\u0428\u043e": 4061,
  "\u2581\u041c\u0430\u0440": 4062,
  "ash": 4063,
  "\u2581\u041f\u043e\u0447\u0430\u043a\u0430\u0439": 4064,
  "\u2581\u0444\u0438\u043d\u0430\u043d\u0441\u0438\u0440\u0430\u043d\u0435": 4065,
  "\u0449\u043e\u0442\u043e": 4066,
  "\u2581realize": 4067,
  "\u2581billion": 4068,
  "\u2581killing": 4069,
  "\u2581approach": 4070,
  "\u2581\u043f\u043e\u0434\u043e\u0431\u043d\u043e": 4071,
  "\u2581\u0418\u043d": 4072,
  "\u2581super": 4073,
  "\u2581function": 4074,
  "\u0447\u0435\u0442\u043e": 4075,
  "\u2581lay": 4076,
  "\u2581\u0410\u043c\u0430": 4077,
  "\u2581monitoring": 4078,
  "hi": 4079,
  "\u2581\u0421\u043c\u044f\u0442\u0430": 4080,
  "\u2581\u0431\u043e": 4081,
  "\u2581therapy": 4082,
  "\u0422\u0415": 4083,
  "\u2581\u043f\u0440\u0435\u0434\u0432\u0430\u0440\u0438\u0442\u0435\u043b\u043d\u043e": 4084,
  "\u2581\u043d\u0430\u0432\u0441\u044f\u043a\u044a\u0434\u0435": 4085,
  "\u2581\u043e\u0431\u0438\u0447\u0430\u0448": 4086,
  "\u2581\u0441\u043d\u0438\u043c\u043a\u0430": 4087,
  "\u258134": 4088,
  "\u0442\u0435\u043b\u043d\u043e": 4089,
  "ord": 4090,
  "\u2581mentioned": 4091,
  "\u2581marry": 4092,
  "\u2581\u041c\u0430\u0442": 4093,
  "\u2581\u043f\u0440\u043e\u0443\u0447\u0432\u0430\u043d\u0438\u044f": 4094,
  "\u2581\u041e\u0445": 4095,
  "\u0440\u0430\u0441": 4096,
  "\u2581showed": 4097,
  "\u2581\u0421\u0430\u0440\u0430": 4098,
  "\u2581society": 4099,
  "\u2581[1]": 4100,
  "\u2581stage": 4101,
  "\u2581\u043d\u0430\u043f\u0440\u0430\u0432\u044f\u0442": 4102,
  "\u2581Gar": 4103,
  "\u2581\u0415\u043b\u0438": 4104,
  "\u2581reports": 4105,
  "\u2581Mother": 4106,
  "\u0443\u0432\u0430\u043c": 4107,
  "\u0432\u0438\u0441": 4108,
  "\u25818.": 4109,
  "\u2581\u0443\u0447\u0438": 4110,
  "\u2581China": 4111,
  "\u2581master": 4112,
  "\u2581Huh": 4113,
  "za": 4114,
  "\u2581assets": 4115,
  "\u2581\u0421\u043b\u0435\u0434\u043e\u0432\u0430\u0442\u0435\u043b\u043d\u043e": 4116,
  "\u2581education": 4117,
  "70": 4118,
  "\u2581\u0441\u044a\u043e\u0442\u0432\u0435\u0442\u043d\u043e": 4119,
  "definitely": 4120,
  "ham": 4121,
  "\u2581driving": 4122,
  "\u2581\u0432\u044a\u0440\u043d\u0435\u0448": 4123,
  "\u2581response": 4124,
  "\u2581\u043f\u043e\u0437\u043d\u0430\u0432\u0430\u043c": 4125,
  "\u2581\u0434\u0443\u043c\u0438\u0442\u0435": 4126,
  "\u2581\u0440\u0438\u0431\u0430": 4127,
  "orie": 4128,
  "\u25817,": 4129,
  "\u043e\u043d\u0430": 4130,
  "\u2581\u041d\u0430\u043f\u0440\u0430\u0432\u0438\u0445": 4131,
  "\u0448\u043a\u0438": 4132,
  "\u2581\u0443\u0441\u0442\u0430\u0442\u0430": 4133,
  "\u2581details": 4134,
  "\u2581gift": 4135,
  "\u2581path": 4136,
  "\u2581Ka": 4137,
  "\u2581technology": 4138,
  "\u2581Product": 4139,
  "\u2581\u041c\u0435\u0440\u0438": 4140,
  "\u2581transfer": 4141,
  "\u2581wind": 4142,
  "\u2581High": 4143,
  "\u2581vehicles": 4144,
  "\u2581\u0442\u044f\u0445\u043d\u0430\u0442\u0430": 4145,
  "\u2581\u0410\u0439": 4146,
  "\u0442\u0435\u0440": 4147,
  "\u2581\u0443\u0441\u043b\u043e\u0432\u0438\u0435": 4148,
  "\u2581\u0446\u0435\u043d\u0430\u0442\u0430": 4149,
  "\u2581tea": 4150,
  "\u2581\u043f\u043e\u0441\u043e\u0447\u0435\u043d\u043e": 4151,
  "\u258138": 4152,
  "\u0427": 4153,
  "\u2581\u0420\u0443": 4154,
  "\u2581instruments": 4155,
  "\u2581reduce": 4156,
  "\u2581\u0441\u043b\u0435\u0434\u0432\u0430\u0449\u0430\u0442\u0430": 4157,
  "\u2581\u043a\u0430\u0440\u0442\u0438": 4158,
  "\u2581bull": 4159,
  "ya": 4160,
  "\u2581document": 4161,
  "tro": 4162,
  "\u2581prove": 4163,
  "ball": 4164,
  "\u2581followed": 4165,
  "ix": 4166,
  "\u2581Ye": 4167,
  "\u2581doubt": 4168,
  "\u2581\u0421\u0443\u043f\u0435\u0440": 4169,
  "\u2581\u0432\u0438\u0434\u0435\u043e": 4170,
  "\u2581places": 4171,
  "\u2581\u0414\u043e\u0441\u0442\u0430": 4172,
  "\u2581territory": 4173,
  "\u2581trip": 4174,
  "\u2581\u0441\u043b\u0443\u0436\u0431\u0430": 4175,
  ":30": 4176,
  "\u2581\u0433\u043b\u0443\u043f": 4177,
  "\u2581\u0440\u0430\u0434\u0432\u0430\u043c": 4178,
  "\u2581\u043c\u0435\u0447": 4179,
  "\u2581associated": 4180,
  "ron": 4181,
  "\u2581Chinese": 4182,
  "\u0433\u0440\u0435": 4183,
  "\u2581students": 4184,
  "\u043f\u0435\u043b\u0435": 4185,
  "\u2581Air": 4186,
  "\u2581\u043f\u0440\u043e\u0432\u0435\u0440\u0438": 4187,
  "\u2581surprise": 4188,
  "\u2581minimum": 4189,
  "\u2581Total": 4190,
  "tra": 4191,
  "ney": 4192,
  "\u2581\u0431\u044a\u0434\u0435\u0442\u0435": 4193,
  "\u2581\u043f\u044a\u043b\u043d\u0430": 4194,
  "\u2581device": 4195,
  "\u2581Gu": 4196,
  "\u2581\u0438\u0441\u0442\u0438\u043d\u0441\u043a\u0430": 4197,
  "\u2581Art": 4198,
  "\u2581\u0442\u0432\u043e\u0438\u0442\u0435": 4199,
  "\u2581\u0443\u0431\u0438\u0435\u0446": 4200,
  "\u2581\u0433\u043e\u0441\u043f\u043e\u0434\u0430": 4201,
  "\u2581\u0435\u043b\u0435\u043c\u0435\u043d\u0442\u0438": 4202,
  "\u043c\u0438\u0441\u043b\u044f": 4203,
  "\u2581center": 4204,
  "\u0432\u0435\u0447\u0435": 4205,
  "\u2581\u0437\u0434\u0440\u0430\u0432\u0435": 4206,
  "\u2581search": 4207,
  "\u2581combination": 4208,
  "\u2581Ne": 4209,
  "\u2581\u0430\u043d\u0430\u043b\u0438\u0437": 4210,
  "\u2581\u043b\u044a\u0436\u0430": 4211,
  "\u043d\u0430\u043b\u0438": 4212,
  "\u2581broken": 4213,
  "over": 4214,
  "\u0442\u0438\u0447\u043d\u043e": 4215,
  "\u2581responsibility": 4216,
  "\u2581\u0443\u0441\u043f\u0435\u0435": 4217,
  "\u2581\u043a\u0440\u044a\u0433": 4218,
  "\u2581\u043c\u0430\u0448\u0438\u043d\u0438": 4219,
  "3,": 4220,
  "\u2581\u0425\u043e\u0442\u0435\u043b": 4221,
  "\u2581cop": 4222,
  "\u2581producers": 4223,
  "\u2581\u0437\u0430\u0441\u043b\u0443\u0436\u0430\u0432\u0430": 4224,
  "\u0442\u0435\u043b\u043d\u0430": 4225,
  "\u25819.": 4226,
  "\u2581\u043f\u0440\u043e\u0431\u043b\u0435\u043c\u0430": 4227,
  "\u2581Ok": 4228,
  "\u2581direction": 4229,
  "\u2581\u043a\u0430\u043f\u0438\u0442\u0430\u043d": 4230,
  "\u2581Ko": 4231,
  "\u2581\u043c\u043e\u0433\u044a\u043b": 4232,
  "\u2581\u0420\u0430\u0439": 4233,
  "\u2581location": 4234,
  "\u2581\u041b\u0435\u043a\u0430": 4235,
  "\u2581Mark": 4236,
  "\u2581meat": 4237,
  "\u2581\u0412\u0441\u044f\u043a\u0430": 4238,
  "\u0440\u043a": 4239,
  "\u2581\u0443\u0441\u043f\u0435\u0445": 4240,
  "\u2581names": 4241,
  "\u043f\u043e\u0434": 4242,
  "\u2581imagine": 4243,
  "\u2581operations": 4244,
  "\u2581\u0432\u0438\u0436\u0434\u0430\u0448": 4245,
  "\u2581\u0424\u0435": 4246,
  "\u2581proud": 4247,
  "\u2581ice": 4248,
  "\u2581contains": 4249,
  "IA": 4250,
  "\u2581\u0412\u0430\u0448\u0435": 4251,
  "ick": 4252,
  "\u2581\u043f\u0440\u043e\u0434\u044a\u043b\u0436\u0435\u043d\u0438\u0435": 4253,
  "\u2581\u0441\u044a\u0437\u0434\u0430\u0432\u0430\u043d\u0435": 4254,
  "\u2581unto": 4255,
  "ck": 4256,
  "\u2581Dur": 4257,
  "\u2581\u0421\u0435\u0440\u0438\u043e\u0437\u043d\u043e": 4258,
  "\u2581plane": 4259,
  "\u0433\u043b\u0435\u0436\u0434\u0430": 4260,
  "\u2581recommended": 4261,
  "\u2581\u0437\u0430\u0431\u0440\u0430\u0432\u044f": 4262,
  "\u2581\u0430\u043b\u0438\u043d\u0435\u044f": 4263,
  "\u2581\u0440\u0430\u0437\u0432\u0438\u0442\u0438\u0435\u0442\u043e": 4264,
  "\u0431\u0430\u0434\u0438": 4265,
  "\u2581\u0441\u0432\u044a\u0440\u0436\u0435": 4266,
  "\u2581\u0435\u0434\u0432\u0430": 4267,
  "ey": 4268,
  "\u2581media": 4269,
  "\u043a\u043e\u0432": 4270,
  "\u2581\u043f\u043e\u0441\u043b\u0435\u0434\u043d\u0430\u0442\u0430": 4271,
  "\u2581\u0444\u043e\u043d\u0434": 4272,
  "ating": 4273,
  "\u043c\u0430\u0440": 4274,
  "ou": 4275,
  "\u2581\u0431\u0430\u043d\u043a\u0430": 4276,
  "\u2581missed": 4277,
  "\u2581\u0440\u0430\u0437\u0440\u0435\u0448\u0435\u043d\u0438\u0435": 4278,
  "\u0430\u0446\u0438\u044f": 4279,
  "\u2581CO": 4280,
  "\u2581milk": 4281,
  "\u2581physical": 4282,
  "\u2581\u043c\u0438\u043b\u0438": 4283,
  "\u2581\u043d\u044f\u043c\u0430\u0448": 4284,
  "\u2581\u041a\u043e\u043b\u0435\u0434\u0430": 4285,
  "\u2581\u0448\u043e\u0443": 4286,
  "\u2581Today": 4287,
  "\u2581\u043f\u0440\u043e\u0446\u0435\u0434\u0443\u0440\u0430\u0442\u0430": 4288,
  "\u2581\u043a\u0440\u0430\u0441\u0438\u0432\u0430": 4289,
  "\u2581\u0447\u0435\u0441\u0442": 4290,
  "\u2581guarantee": 4291,
  "\u2581statement": 4292,
  "\u2581seconds": 4293,
  "anny": 4294,
  "\u2581wake": 4295,
  "\u2581\u043e\u043d\u0430\u0437\u0438": 4296,
  "\u2581limited": 4297,
  "\u2581\u0446\u044f\u043b\u043e": 4298,
  "\u2581\u0437\u0430\u043f\u0430\u0437\u0438": 4299,
  "09": 4300,
  "\u2581\u0437\u0430\u043d\u0438\u043c\u0430\u0432\u0430": 4301,
  "\u2581VI": 4302,
  "\u2581\u043e\u0442\u0438\u0432\u0430\u0448": 4303,
  "\u2581oh": 4304,
  "\u258142": 4305,
  "\u2581\u0441\u0442\u043e\u043a\u0438": 4306,
  "\u2581huge": 4307,
  "qu": 4308,
  "\u2581excuse": 4309,
  "\u0436\u0435\u043d": 4310,
  "\u2581Ja": 4311,
  "\u2581\u043a\u043e\u043d\u0442\u0430\u043a\u0442": 4312,
  "\u2581\u041a\u043b\u0430": 4313,
  "\u2581\u0434\u0438\u0440\u0435\u043a\u0442\u0438\u0432\u0430": 4314,
  "\u2581\u043c\u0430\u0442\u0435\u0440\u0438\u0430\u043b": 4315,
  "\u2581none": 4316,
  "\u2581Special": 4317,
  "\u2581Party": 4318,
  "\u0434\u043e\u0431\u0440\u0438\u0442\u0435": 4319,
  "\u2581\u043f\u0438\u0442\u0430": 4320,
  "\u0433\u043e\u043b\u044f\u043c\u0430": 4321,
  "\u2581\u043f\u0440\u0435\u0433\u043b\u0435\u0434": 4322,
  "au": 4323,
  "\u2581\u0441\u043b\u043e\u0436\u0438": 4324,
  "\u043e\u0443": 4325,
  "ps": 4326,
  "\u2581decisions": 4327,
  "\u2581assistance": 4328,
  "\u2581fix": 4329,
  "\u2581\u0447\u0443\u0445": 4330,
  "\u2581fixed": 4331,
  "\u2581slow": 4332,
  "\u2581\u0442\u0432\u044a\u0440\u0434\u0438": 4333,
  "\u2581\u041e\u0431\u0449\u043e": 4334,
  "\u2581quiet": 4335,
  "\u25818,": 4336,
  "\u2581\u043a\u043b\u0438\u0435\u043d\u0442\u0438": 4337,
  "\u2581\u043f\u0440\u0430\u043a\u0442\u0438\u043a\u0430": 4338,
  "\u2581\u045d": 4339,
  "\u2581\u043c\u0430\u0441\u0430": 4340,
  "\u2581\u0425\u0440\u0438\u0441\u0442\u043e\u0441": 4341,
  "\u2581standing": 4342,
  "\u2581lunch": 4343,
  "\u2581shown": 4344,
  "\u2581\u043a\u043e\u044f": 4345,
  "\u2581\u0437\u0430\u0434\u044a\u043b\u0436\u0435\u043d\u0438\u044f": 4346,
  "\u2581August": 4347,
  "\u2581hundred": 4348,
  "\u2581begin": 4349,
  "\u2581victim": 4350,
  "\u2581Big": 4351,
  "\u2581\u0444": 4352,
  "\u043a\u043e\u0432\u0430": 4353,
  "\u2581markets": 4354,
  "eth": 4355,
  "\u2581matters": 4356,
  "\u2581idio": 4357,
  "\u2581\u0445\u043e\u0434\u0438": 4358,
  "\u0431\u0435\u043b": 4359,
  "\u2581connection": 4360,
  "\u2581\u0432\u0437\u0435\u043c\u0435\u0448": 4361,
  "\u2581described": 4362,
  "\u2581Up": 4363,
  "\u2581Max": 4364,
  "\u0442\u043e\u0432\u0430": 4365,
  "\u2581km": 4366,
  "\u2581pen": 4367,
  "gt": 4368,
  "\u2581Boy": 4369,
  "\u2581\u0434\u043e\u0432\u0435": 4370,
  "\u2581boat": 4371,
  "-1": 4372,
  "\u2581Post": 4373,
  "erhaps": 4374,
  "\u2581\u0414\u0432\u0435": 4375,
  "\u2581\u0432\u043d\u0438\u043c\u0430\u0442\u0435\u043b\u043d\u043e": 4376,
  "\u0442\u043a\u0438": 4377,
  "ap": 4378,
  "\u0430\u043d\u0442\u0438": 4379,
  "\u2581400": 4380,
  "\u2581status": 4381,
  "ile": 4382,
  "\u2581sad": 4383,
  "\u2581Show": 4384,
  "\u2581Tri": 4385,
  "\u0431\u043e\u043b": 4386,
  "\u2581\u043c\u0435\u0440\u043a\u0438\u0442\u0435": 4387,
  "ran": 4388,
  "\u2581advice": 4389,
  "\u2581finished": 4390,
  "000": 4391,
  "ence": 4392,
  "ities": 4393,
  "\u2581window": 4394,
  "\u2581\u043f\u043e\u043c\u043e\u0433\u043d\u0435\u0448": 4395,
  "ab": 4396,
  "\u2581\u0434\u044f\u043b": 4397,
  "\u2581birth": 4398,
  "\u258139": 4399,
  "\u2581\u043d\u0435\u0437\u0430\u0431\u0430\u0432\u043d\u043e": 4400,
  "\u2581\u043a\u0443\u0447\u0435": 4401,
  "\u2581terrible": 4402,
  "\u2581church": 4403,
  "\u2581University": 4404,
  "\u2581approximately": 4405,
  "\u043a\u044a\u043f\u0430": 4406,
  "\u2581focus": 4407,
  "\u2581\u043f\u043e\u043a\u0430\u0436\u0435": 4408,
  "\u00a9": 4409,
  "21": 4410,
  "\u2581\u0412\u0440\u0435\u043c\u0435\u0442\u043e": 4411,
  "\u2581\u043e\u0442\u0438\u0434\u0435\u0448": 4412,
  "\u2581\u0417\u0435\u043c\u044f\u0442\u0430": 4413,
  "\u2581etc": 4414,
  "\u2581\u0441\u0442\u0430\u043d\u0434\u0430\u0440\u0442\u0438": 4415,
  "\u2581types": 4416,
  "\u2581agricultural": 4417,
  "\u258110%": 4418,
  "\u043d\u0430\u0445": 4419,
  "\u2581\u043f\u0440\u0435\u0432\u043e\u0437\u043d\u0438": 4420,
  "\u2581treat": 4421,
  "ud": 4422,
  "\u2581\u0434\u043e\u043f\u044a\u043b\u043d\u0435\u043d\u0438\u0435": 4423,
  "\u2581economy": 4424,
  "\u2581\u0441\u0443\u043c\u0430": 4425,
  "\u2581\u0442\u0432\u043e\u0435\u0442\u043e": 4426,
  "\u2581\u043c\u043e\u0436\u0435\u0448\u0435": 4427,
  "\u2581\u043e\u0444\u0438\u0441\u0430": 4428,
  "\u2581100%": 4429,
  "\u2581\u043f\u0440\u0438\u0442\u0435\u0436\u0430\u0432\u0430": 4430,
  "\u2581Cha": 4431,
  "\u2581strange": 4432,
  "\u2581\u043e\u043f\u0440\u0435\u0434\u0435\u043b\u0435\u043d": 4433,
  "\u2581calm": 4434,
  "\u2581\u0441\u043b\u0435\u0434\u0438": 4435,
  "stairs": 4436,
  "\u2581\u0434\u043e\u0433\u043e\u0432\u043e\u0440": 4437,
  "\u2581acid": 4438,
  "\u2581\u043e\u0442\u0438\u0432\u0430": 4439,
  "\u2581Turn": 4440,
  "\u2581\u043f\u0440\u0430\u0432\u0438\u0442\u0435\u043b\u0441\u0442\u0432\u043e\u0442\u043e": 4441,
  "\u2581dress": 4442,
  "\u2581hide": 4443,
  "\u2581\u0432\u0447\u0435\u0440\u0430": 4444,
  "\u0438\u0446\u0430": 4445,
  "ell": 4446,
  "\u2581offers": 4447,
  "du": 4448,
  "\u2581\u0441\u044a\u0440\u0446\u0435": 4449,
  "\u258137": 4450,
  "\u0432\u044f": 4451,
  "\u2581\u0420\u0430\u0437\u0431\u0440\u0430\u0445": 4452,
  "\u2581\u0432\u044a\u0437\u043c\u043e\u0436\u043d\u043e\u0441\u0442\u0438": 4453,
  "\u2581ladi": 4454,
  "\u2581proposal": 4455,
  "\u2581closed": 4456,
  "\u0432\u0438\u0436\u0434\u0430\u043d\u0435": 4457,
  "\u2581earlier": 4458,
  "\u2581\u0443\u0431\u0438\u0439\u0441\u0442\u0432\u043e": 4459,
  "\u2581excit": 4460,
  "\u2581\u043d\u0430\u0446\u0438\u043e\u043d\u0430\u043b\u043d\u0438\u0442\u0435": 4461,
  "\u2581simply": 4462,
  "\u2581\u0440\u0430\u0437\u043f\u043e\u0440\u0435\u0434\u0431\u0438\u0442\u0435": 4463,
  "\u2581\u043f\u0440\u043e\u0432\u0435\u0440\u043a\u0430": 4464,
  "\u2581witness": 4465,
  "\u2581\u0441\u0430\u043c\u0438": 4466,
  "\u2581Ltd": 4467,
  "\u2581\u043a\u043e\u043b\u0435\u0436": 4468,
  "sh": 4469,
  "\u2581\u0433\u043b\u0430\u0441": 4470,
  "\u2581website": 4471,
  "\u2581wearing": 4472,
  "\u2581>": 4473,
  "\u0435\u043d\u0435": 4474,
  "\u2581\u041f\u0440\u0435\u0434": 4475,
  "\u2581\u043a\u0430\u0437\u0432\u0430\u0439": 4476,
  "\u2581suck": 4477,
  "ure": 4478,
  "\u2581\u043d\u0430\u0437\u0430\u0434": 4479,
  "\u2581Everybody": 4480,
  "\u2581\u041c\u0430\u043d": 4481,
  "\u0414\u043e": 4482,
  "\u2581EN": 4483,
  "\u2581heading": 4484,
  "\u0432\u0443\u0447\u0438": 4485,
  "\u2581opening": 4486,
  "\u2581\u0434\u0440\u0443\u0433\u043e\u0442\u043e": 4487,
  "\u2581~": 4488,
  "\u2581\u0418\u0433\u0440\u0430": 4489,
  "\u2581insulin": 4490,
  "\u2581\u043c\u0438\u043d\u0430\u043b\u0430\u0442\u0430": 4491,
  "\u043a\u0430\u0440\u0430\u043c": 4492,
  "\u043a\u043e\u0440": 4493,
  "\u2581bra": 4494,
  "\u043e\u0432\u0430\u0442\u0430": 4495,
  "\u2581summer": 4496,
  "\u0446\u0438\u044f\u0442\u0430": 4497,
  "\u2581\u0441\u0443\u043f\u0435\u0440": 4498,
  "eu": 4499,
  "\u2581Je": 4500,
  "\u2581\u0441\u044a\u0437\u0434\u0430\u0434\u0435": 4501,
  "\u2581\u0431\u0435\u0431\u0435": 4502,
  "\u2581\u043b\u0435\u0433\u043b\u043e\u0442\u043e": 4503,
  "\u2581\u043f\u0440\u043e\u0446\u0435\u0441\u0430": 4504,
  "\u043a\u0430\u0440": 4505,
  "\u2581press": 4506,
  "\u2581song": 4507,
  "\u2581Security": 4508,
  "\u2581Business": 4509,
  "\u2581Grand": 4510,
  "\u2581James": 4511,
  "\u2581\u0425\u0430\u0440\u0438": 4512,
  "\u0439\u043c\u0441": 4513,
  "\u2581sight": 4514,
  "77": 4515,
  "\u0442\u0440\u0430": 4516,
  "\u2581neither": 4517,
  "\u2581\u043c\u0438\u043d\u0430\u043b\u043e\u0442\u043e": 4518,
  "\u2581\u043f\u043e\u043a\u0430\u0437\u0432\u0430\u0442": 4519,
  "\u2581\u0421\u0442\u043e": 4520,
  "OR": 4521,
  "\u2581substance": 4522,
  "\u2581fighting": 4523,
  "ization": 4524,
  "\u2581Has": 4525,
  "\u0435\u0442\u0438": 4526,
  "\u0440\u0435\u0434\u0438": 4527,
  "ax": 4528,
  "\u2581\u043c\u0430\u0445\u0430": 4529,
  "hole": 4530,
  "ucker": 4531,
  "\u2581\u043f\u0440\u043e\u0431": 4532,
  "den": 4533,
  "\u2581presented": 4534,
  "\u2581race": 4535,
  "\u2581extreme": 4536,
  "\u2581Central": 4537,
  "\u2581sp": 4538,
  "\u2581operating": 4539,
  "\u2581\u0441\u0435\u043a\u0443\u043d\u0434\u0438": 4540,
  "\u2581surface": 4541,
  "\u2581Vi": 4542,
  "\u2581\u041d\u0430\u043c\u0435\u0440\u0438\u0445": 4543,
  "\u2581\u0437\u0430\u0432\u0438\u0441\u0438": 4544,
  "\u2581Next": 4545,
  "\u2581bear": 4546,
  "\u0447\u043a\u0430\u0442\u0430": 4547,
  "\u2581\u0440\u0430\u0437\u043b\u0438\u043a\u0430": 4548,
  "\u2581\u043f\u043b\u0430\u0442\u0438": 4549,
  "enny": 4550,
  "\u2581improve": 4551,
  "\u2581\u043a\u0440\u0438\u0435": 4552,
  "\u0433\u0440\u0430": 4553,
  "08": 4554,
  "\u2581vote": 4555,
  "\u2581existing": 4556,
  "\u2581\u043e\u043f\u0440\u0435\u0434\u0435\u043b\u0438": 4557,
  "oc": 4558,
  "\u2581\u0441\u044a\u0437\u0434\u0430\u0432\u0430": 4559,
  "\u2581\u043f\u0440\u043e\u0434\u0430\u0432\u0430": 4560,
  "ng": 4561,
  "\u2581\u0432\u0438\u043a\u0430": 4562,
  "\u2581London": 4563,
  "\u2581bother": 4564,
  "\u2581\u041a\u0438": 4565,
  "\u2581Sit": 4566,
  "\u2581authorisation": 4567,
  "\u2581stock": 4568,
  "\u2581\u0428\u0430": 4569,
  "ear": 4570,
  "\u2581\u043f\u0440\u0430\u0445": 4571,
  "\u25811).": 4572,
  "\u0438\u0445\u043c\u0435": 4573,
  "\u2581\u043f\u0440\u043e\u0438\u0437\u0432\u043e\u0434\u0438\u0442\u0435\u043b\u0438": 4574,
  "\u2581\u0438\u0437\u0447\u0430\u043a\u0430": 4575,
  "\u2581\u0411\u044a\u0440": 4576,
  "\u2581\u0442\u044f\u0445\u043d\u043e\u0442\u043e": 4577,
  "but": 4578,
  "\u2581\u043f\u0440\u0438\u043c\u0435\u0440": 4579,
  "\u2581magic": 4580,
  "\u2581\u0421\u0442\u043e\u0439": 4581,
  "\u2581EUROPEAN": 4582,
  "\u2581prevent": 4583,
  "\u2581lived": 4584,
  "\u2581\u0431\u044a\u0434\u0435\u0449\u0435": 4585,
  "\u2581\u0442\u0435\u0445\u043d\u0438\u0447\u0435\u0441\u043a\u0438": 4586,
  "\u2581\u0437\u043b\u043e": 4587,
  "\u2581camp": 4588,
  "\u2581\u043a\u043e\u043b\u0438": 4589,
  "\u2581temperature": 4590,
  "\u043d\u0441\u043a\u0438": 4591,
  "\u2581drugs": 4592,
  "\u0442\u044a\u0442": 4593,
  "\u2581\u041a\u043e\u0439\u0442\u043e": 4594,
  "\u2581arrest": 4595,
  "\u2581legislation": 4596,
  "\u2581insurance": 4597,
  "\u2581(4)": 4598,
  "ude": 4599,
  "\u2581cat": 4600,
  "\u043b\u044f\u0432\u0430": 4601,
  "\u2581\u0440\u0435\u0441\u0442\u043e\u0440\u0430\u043d\u0442": 4602,
  "\u2581named": 4603,
  "\u2581note": 4604,
  "ft": 4605,
  "od": 4606,
  "\u2581\u043b\u0435\u043a\u0430\u0440\u0441\u0442\u0432\u0430": 4607,
  "\u258112.": 4608,
  "\u2581beyond": 4609,
  "\u2581\u0438\u043d\u0430\u0447\u0435": 4610,
  "\u2581discuss": 4611,
  "\u2581\u041a\u0440\u0430": 4612,
  "\u2581caused": 4613,
  "\u2581rock": 4614,
  "\u2581\u0437\u0430\u043a\u043e\u043d": 4615,
  "\u2581\u043f\u0430\u0446\u0438\u0435\u043d\u0442\u0438\u0442\u0435": 4616,
  "@": 4617,
  "\u2581methods": 4618,
  "\u2581fool": 4619,
  "\u2581\u0441\u0432\u0435\u0442": 4620,
  "\u2581Dan": 4621,
  "\u2581publication": 4622,
  "\u2581\u0436\u0438\u0432\u0435\u044f": 4623,
  "\u2581\u042f\u0432\u043d\u043e": 4624,
  "\u2581tests": 4625,
  "\u0432\u0435\u0442": 4626,
  "ino": 4627,
  "\u2581Whereas": 4628,
  "\u2581Guy": 4629,
  "\u2581\u041d\u0438\u0442\u043e": 4630,
  "\u2581\u041a\u0435\u043d": 4631,
  "\u2581central": 4632,
  "\u043b\u043e\u0436\u0438": 4633,
  "ture": 4634,
  "\u2581began": 4635,
  "In": 4636,
  "\u2581twice": 4637,
  "\u2581\u041c\u0430\u043a\u0441": 4638,
  "\u2581\u0441\u0438\u0433\u0443\u0440\u043d\u0430": 4639,
  "\u2581\u043d\u0430\u043c\u0435\u0440\u0438\u0448": 4640,
  "\u2581\u0431\u0440\u043e\u044f": 4641,
  "\u2581\u043f\u0440\u0438\u044f\u0442\u0435\u043b\u0438\u0442\u0435": 4642,
  "\u0430\u0446\u0438\u0438": 4643,
  "\u2581officer": 4644,
  "\u2581implementing": 4645,
  "\u2581thousand": 4646,
  "\u2581club": 4647,
  "\u2581sold": 4648,
  "\u2581\u0444\u0430\u043a\u0442\u0430": 4649,
  "\u0430\u043b\u043d\u0430": 4650,
  "\u258108": 4651,
  "\u2581\u0437\u0430\u043c\u0435\u043d\u044f": 4652,
  "\u2581former": 4653,
  "\u2581\u0432\u0438\u0441\u043e\u043a\u0430": 4654,
  "\u2581\u043f\u0440\u0438\u0435\u043c\u0435": 4655,
  "\u2581\u0430\u043a\u0442\u0438\u0432\u0438": 4656,
  "07": 4657,
  "\u2581amending": 4658,
  "nything": 4659,
  "\u2581While": 4660,
  "\u2581\u0412\u0438\u0434\u044f": 4661,
  "\u258102": 4662,
  "\u2581\u0448\u0435\u0433": 4663,
  "\u2581previous": 4664,
  "\u2581behalf": 4665,
  "99": 4666,
  "\u2581passed": 4667,
  "\u2581issued": 4668,
  "\u2581books": 4669,
  "\u2581Doctor": 4670,
  "\u2581\u0421\u0442\u0438": 4671,
  "\u2581regular": 4672,
  "\u25811:": 4673,
  "\u2581release": 4674,
  "\u2581\u043e\u043f\u0440\u0435\u0434\u0435\u043b\u044f\u0442": 4675,
  "\u0442\u043d\u0438": 4676,
  "\u2581\u041c\u0430\u0445\u0430": 4677,
  "\u2581\u043f\u043e\u0441\u043b\u0435\u0434\u043d\u043e": 4678,
  "\u2581Sometimes": 4679,
  "\u2581\u0435\u0444\u0435\u043a\u0442": 4680,
  "\u2581Sh": 4681,
  "\u2581\u0431\u043e\u043b\u043d\u0438\u0446\u0430\u0442\u0430": 4682,
  "22": 4683,
  "\u2581\u041b": 4684,
  "\u2581consumption": 4685,
  "\u043d\u043e\u0432": 4686,
  "\u2581\u043c\u0440\u0435\u0436\u0430": 4687,
  "\u2581\u043a\u043e\u0436\u0430\u0442\u0430": 4688,
  "\u2581\u043a\u0430\u0447\u0435\u0441\u0442\u0432\u043e\u0442\u043e": 4689,
  "\u2581bastard": 4690,
  "\u0434\u043e\u0431\u044a\u0440": 4691,
  "\u2581horse": 4692,
  "si": 4693,
  "rt": 4694,
  "erry": 4695,
  "\u2581president": 4696,
  "\u2581\u0438\u0434\u0432\u0430\u0442": 4697,
  "\u0431\u0435\u0440": 4698,
  "ES": 4699,
  "\u2581\u0440\u0430\u0437\u0431\u0435\u0440\u0435\u0448": 4700,
  "\u2581\u0432\u0430\u0436\u043d\u0438": 4701,
  "\u2581Such": 4702,
  "\u2581\u0434\u043e\u043d\u0435\u0441\u0435": 4703,
  "\u2581ourselves": 4704,
  "\u2581sh": 4705,
  "\u2581\u043f\u0435\u0441\u0435\u043d": 4706,
  "26": 4707,
  "He": 4708,
  "\u2581\u043f\u044a\u0440\u0432\u0438\u0442\u0435": 4709,
  "\u043c\u0443": 4710,
  "\u2581\u043d\u0430\u043b\u043e\u0436\u0438": 4711,
  "\u0438\u043d\u0430": 4712,
  "\u2581\u043f\u043e\u0441\u0442\u0438\u0433\u043d\u0435": 4713,
  "\u2581\u043f\u0440\u043e\u0441\u0442\u0440\u0430\u043d\u0441\u0442\u0432\u043e": 4714,
  "\u0434\u043d\u0438\u043a\u0430": 4715,
  "\u0430\u0441": 4716,
  "\u2581\u0445\u0430\u0440\u0430\u043a\u0442\u0435\u0440\u0438\u0441\u0442\u0438\u043a\u0438": 4717,
  "\u043d\u0443": 4718,
  "\u2581learned": 4719,
  "\u2581trick": 4720,
  "\u2581\u0414\u0430\u0442\u0430": 4721,
  "\u2581\u0446\u0432\u044f\u0442": 4722,
  "\u2581Information": 4723,
  "ip": 4724,
  "ium": 4725,
  "27": 4726,
  "\u0443\u0442": 4727,
  "\u2581\u043f\u044a\u0440\u0432\u043e\u0442\u043e": 4728,
  "\u043a\u0435\u0440": 4729,
  "\u2581pregnant": 4730,
  "\u2581\u0431\u044f\u0433\u0430": 4731,
  "\u2581located": 4732,
  "\u2581circumstances": 4733,
  "\u2581\u0432\u0435\u043a": 4734,
  "\u2581Master": 4735,
  "\u2581Section": 4736,
  "\u2581regional": 4737,
  "\u2581North": 4738,
  "\u041d\u0418": 4739,
  "\u2581heat": 4740,
  "\u2581miles": 4741,
  "\u043d\u0446\u0435": 4742,
  "\u2581truck": 4743,
  "\u2581\u0437\u0430\u043f\u043e\u0447\u043d\u0430\u0445": 4744,
  "\u2581honor": 4745,
  "\u2581sake": 4746,
  "\u2581Anyway": 4747,
  "\u2581\u041f\u043e\u043b": 4748,
  "\u2581\u0438\u043d\u0444\u043e\u0440\u043c\u0438\u0440\u0430": 4749,
  "\u2581\u0412\u0438\u0436\u0434\u0430\u043c": 4750,
  "\u2581favour": 4751,
  "\u2581acts": 4752,
  "\u2581Use": 4753,
  "red": 4754,
  "\u2581fly": 4755,
  "\u2581\u043f\u043b\u043e\u0434\u043e\u0432\u0435": 4756,
  "\u2581\u0447\u0430\u0439": 4757,
  "35": 4758,
  "\u2581\u0433\u043e\u0432\u043e\u0440\u0438\u0442\u0435": 4759,
  "\u043f\u0440\u0430\u0432\u0438\u0448": 4760,
  "\u2581\u0437\u0430\u044f\u0432\u0438": 4761,
  "\u2581limit": 4762,
  "\u2581\u0432\u0438\u0434\u0430": 4763,
  "\u2581Still": 4764,
  "\u2581\u0411\u0440\u0430\u0442": 4765,
  "33": 4766,
  "23": 4767,
  "\u2581\u043f\u043e\u0447\u0443\u0432\u0441\u0442\u0432\u0430": 4768,
  "\u2581developed": 4769,
  "\u2581\u043f\u043e\u0434\u0445\u043e\u0434\u044f\u0449\u0438": 4770,
  "\u2581\u043d\u0435\u0433\u043e\u0432\u0438\u044f": 4771,
  "\u2581\u043d\u0430\u043b\u0430\u0433\u0430": 4772,
  "\u2581Chapter": 4773,
  "\u2581Table": 4774,
  "\u2581\u043a\u043c": 4775,
  "\u2581\u043f\u043e\u0441\u043b\u0435\u0434\u043d\u0438\u044f": 4776,
  "\u2581\u0437\u043d\u0430\u0447\u0438\u0442\u0435\u043b\u043d\u043e": 4777,
  "\u2581\u043a\u043e\u0440\u0430\u0431\u0430": 4778,
  "\u0438\u0437\u044a\u043c": 4779,
  "\u258143": 4780,
  "\u2581mass": 4781,
  "\u2581\u0431\u0430\u0437\u0430": 4782,
  "\u2581grow": 4783,
  "\u2581\u043e\u043f\u0440\u0430\u0432": 4784,
  "\u043b\u0435\u0437": 4785,
  "\u2581\u043f\u043e\u0434\u043a\u0440\u0435\u043f\u044f": 4786,
  "\u2581\u0434\u043e\u0441\u0435\u0433\u0430": 4787,
  "\u2581compared": 4788,
  "\u2581\u0437\u0430\u0432\u0438\u0441\u0438\u043c\u043e\u0441\u0442": 4789,
  "RE": 4790,
  "ens": 4791,
  "\u2581Ms": 4792,
  "\u0442\u0438\u043a\u0430": 4793,
  "\u2581cal": 4794,
  "\u2581\u0441\u0442\u0438\u0433\u043d\u0430": 4795,
  "side": 4796,
  "\u2581\u0432\u044a\u0437\u043c\u043e\u0436\u043d\u043e\u0441\u0442\u0442\u0430": 4797,
  "\u2581\u043c\u043e\u0433\u043b\u0438": 4798,
  "\u2581\u041e\u0442\u0438\u0432\u0430": 4799,
  "\u0435\u0441\u0442": 4800,
  "\u2581\u0414\u043e\u0441\u0442\u0430\u0442\u044a\u0447\u043d\u043e": 4801,
  "\u2581serve": 4802,
  "\u2581\u0441\u0440\u0435\u0449\u0430\u0442\u0430": 4803,
  "\u2581teach": 4804,
  "\u044f\u0432\u0430\u043c": 4805,
  "\u2581achieve": 4806,
  "\u2581north": 4807,
  "\u2581\u043a\u0443\u0442\u0438\u044f": 4808,
  "ice": 4809,
  "\u2581\u0437\u043e\u043d\u0430": 4810,
  "\u043a\u0430\u043a\u0442\u043e": 4811,
  "\u2581\u0420\u0435\u043f\u0443\u0431\u043b\u0438\u043a\u0430": 4812,
  "\u2581add": 4813,
  "\u2581cm": 4814,
  "\u2581agent": 4815,
  "mon": 4816,
  "\u2581\u043a\u043e\u0435": 4817,
  "\u2581freedom": 4818,
  "\u2581\u0445\u0440\u0438\u0441\u0442\u0438\u044f\u043d": 4819,
  "\u2581pleasure": 4820,
  "\u2581\u043f\u0438\u0441\u043c\u043e": 4821,
  "\u2581strength": 4822,
  "\u2581lawyer": 4823,
  "\u2581\u043e\u0431\u044f\u0441\u043d\u0438": 4824,
  "\u2581\u043f\u0440\u043e\u0446\u0435\u0434\u0443\u0440\u0438": 4825,
  "\u2581\u0443\u043f\u0440\u0430\u0432\u043b\u044f\u0432\u0430": 4826,
  "\u043e\u0447\u0430\u0440\u043e": 4827,
  "\u2581series": 4828,
  "\u0437\u043e": 4829,
  "\u043a\u043e\u0441": 4830,
  "\u2581\u043f\u043e\u0441\u043e\u043a\u0430": 4831,
  "\u25819,": 4832,
  "\u2581dry": 4833,
  "\u2581Place": 4834,
  "\u2581\u0440\u0430\u0437\u0431\u0440\u0430": 4835,
  "ning": 4836,
  "\u2581\u043d\u0430\u043f\u0440\u0430\u0432\u0438\u043b\u0430": 4837,
  "\u2581\u0421\u0432\u0435\u0442": 4838,
  "\u0430\u043d\u0441": 4839,
  "29": 4840,
  "\u2581thus": 4841,
  "\u0430\u0437": 4842,
  "\u2581battle": 4843,
  "\u2581helping": 4844,
  "tis": 4845,
  "\u2581ha": 4846,
  "\u2581helped": 4847,
  "\u2581\u0436\u0438\u0432\u0435\u044f\u0442": 4848,
  "\u0426": 4849,
  "\u2581Functioning": 4850,
  "\u2581\u043f\u0440\u0435\u0434\u043e\u0441\u0442\u0430\u0432\u044f\u0442": 4851,
  "\u2581Another": 4852,
  "\u2581walking": 4853,
  "\u2581arm": 4854,
  "\u2581forgot": 4855,
  "\u2581\u0441\u043b\u0443\u0436\u0438\u0442\u0435\u043b\u0438": 4856,
  "\u0435\u043d\u0438\u0435\u0442\u043e": 4857,
  "\u2581Sa": 4858,
  "ph": 4859,
  "\u2581particularly": 4860,
  "\u2581electronic": 4861,
  "ker": 4862,
  "\u2581favorit": 4863,
  "crap": 4864,
  "IT": 4865,
  "\u2581produced": 4866,
  "\u2581community": 4867,
  "\u2581\u0423\u0442\u0440\u0435": 4868,
  "\u2581\u0421\u044a\u0441\u0442\u0430\u0432\u0435\u043d": 4869,
  "\u2581\u0440": 4870,
  "\u2581\u043f\u0440\u0435\u0434\u043b\u043e\u0436\u0435\u043d\u0438\u0435": 4871,
  "\u0422\u043e\u0432\u0430": 4872,
  "\u2581Greek": 4873,
  "\u2581\u0441\u043f\u0438": 4874,
  "\u2581prior": 4875,
  "\u2581\u043c\u043e\u0434\u0435\u043b": 4876,
  "\u2581joint": 4877,
  "\u2581units": 4878,
  "\u2581match": 4879,
  "\u2581impossible": 4880,
  "\u2581\u0442\u0440\u0435\u0442\u0430": 4881,
  "\u2581mark": 4882,
  "can": 4883,
  "\u2581tree": 4884,
  "\u043d\u0435\u043c": 4885,
  "\u2581\u043c\u043e\u043c\u0438\u0447\u0435\u0442\u043e": 4886,
  "\u2581Mon": 4887,
  "\u2581\u0436\u0438\u0432\u043e\u0442\u043d\u0438\u0442\u0435": 4888,
  "\u2581\u0446\u0432\u0435\u0442\u044f": 4889,
  "\u0438\u043c\u0430": 4890,
  "\u2581\u0414\u044a": 4891,
  "\u0438\u0447\u043d\u043e": 4892,
  "\u2581\u0418\u043c\u0430\u0445": 4893,
  "\u2581college": 4894,
  "\u2581HAS": 4895,
  "\u2581orders": 4896,
  "\u258144": 4897,
  "\u2581\u043a\u0440\u0430\u043a\u0430\u0442\u0430": 4898,
  "\u043b\u043e\u0442\u043e": 4899,
  "\u2581kick": 4900,
  "\u2581owe": 4901,
  "\u2581Oo": 4902,
  "\u2581states": 4903,
  "\u2581\u0443\u043f\u0440\u0430\u0432\u043b\u0435\u043d\u0438\u0435\u0442\u043e": 4904,
  "\u0434\u043e\u0431\u0440\u043e\u0442\u043e": 4905,
  "\u2581client": 4906,
  "\u2581\u0434\u043e\u043a\u0443\u043c\u0435\u043d\u0442": 4907,
  "\u2581\u041f\u0430\u0440": 4908,
  "\u258184": 4909,
  "\u2581require": 4910,
  "\u0435\u043c\u0438": 4911,
  "\u2581\u0445\u0432\u0430\u043d\u0435": 4912,
  "\u2581Italy": 4913,
  "\u2581\u043c\u0438\u043d\u0443\u0442\u0430": 4914,
  "\u2581\u0441\u0438\u0442\u0443\u0430\u0446\u0438\u044f": 4915,
  "\u2581\u0411\u0440\u043e\u0439": 4916,
  "\u2581\u0440\u0430\u0437\u043b\u0438\u0447\u043d\u043e": 4917,
  "\u2581\u0432\u0430\u0448\u0435\u0442\u043e": 4918,
  "\u2581\u041a\u0430\u043a\u0432\u043e\u0442\u043e": 4919,
  "uch": 4920,
  "\u2581Kid": 4921,
  "\u2581planning": 4922,
  "\u2581White": 4923,
  "AR": 4924,
  "47": 4925,
  "\u2581\u041a\u0438\u0442\u0430\u0439": 4926,
  "\u2581\u0434\u043e\u043a\u0430\u0437\u0430\u0442\u0435\u043b\u0441\u0442\u0432\u043e": 4927,
  "arling": 4928,
  "\u2581\u0441\u044a\u043e\u0442\u0432\u0435\u0442\u043d\u0430\u0442\u0430": 4929,
  "\u2581\u0442\u0432\u043e\u0439": 4930,
  "\u2581\u041f\u0420\u0418\u0415": 4931,
  "\u2581\u041f\u0435\u0440": 4932,
  "\u2581global": 4933,
  "\u2581\u043f\u043e\u0434\u0430\u0440\u044a\u043a": 4934,
  "\u2581raise": 4935,
  "\u043b\u0435\u0433": 4936,
  "II": 4937,
  "\u2581\u0414\u043e\u0431\u0440\u0430": 4938,
  "\u2581led": 4939,
  "\u2581develop": 4940,
  "\u2581\u0411\u0435\u043b": 4941,
  "\u2581rooms": 4942,
  "\u043e\u043d\u0438": 4943,
  "\u2581flight": 4944,
  "\u2581mention": 4945,
  "\u2581Te": 4946,
  "\u2581\u0414\u0436\u0430": 4947,
  "\u2581administrative": 4948,
  "\u0447\u0443": 4949,
  "ON": 4950,
  "\u2581\u0430\u043d\u0433\u043b\u0438\u0439\u0441\u043a\u0438": 4951,
  "\u2581elements": 4952,
  "\u2581\u0442\u0430\u043a\u0441\u0438": 4953,
  "\u2581\u0440\u0443": 4954,
  "\u2581perhaps": 4955,
  "\u258150%": 4956,
  "ily": 4957,
  "\u2581\u0425\u0435\u043d\u0440\u0438": 4958,
  "\u041f\u0440\u043e": 4959,
  "\u2581principles": 4960,
  "\u0433\u043b\u0435\u0434\u0430": 4961,
  "\u2581\u041f\u0420\u0418\u041b\u041e\u0416\u0415\u041d\u0418\u0415": 4962,
  "\u2581\u043d\u044f\u043c\u0430\u0442": 4963,
  "\u2581collection": 4964,
  "ator": 4965,
  "\u2581\u043f\u0430\u0440\u0442\u043d\u044c\u043e\u0440": 4966,
  "\u2581construction": 4967,
  "\u2581destroy": 4968,
  "\u2581\u043f\u044a\u043b\u0435\u043d": 4969,
  "\u2581\u0445\u0440\u0430\u043d\u0435\u043d\u0435": 4970,
  "\u2581\u043f\u043e\u043b\u0438\u0442\u0438\u043a\u0430\u0442\u0430": 4971,
  "\u0422\u0410": 4972,
  "ial": 4973,
  "\u2581damage": 4974,
  "\u2581\u043a\u043d\u0438\u0433\u0430\u0442\u0430": 4975,
  "\u2581\u043a\u0430\u0447\u0435\u0441\u0442\u0432\u043e": 4976,
  "\u2581substances": 4977,
  "\u25811000": 4978,
  "\u2581\u0432\u043b\u0430\u0441\u0442": 4979,
  "\u2581acting": 4980,
  "wa": 4981,
  "damn": 4982,
  "\u2581strategy": 4983,
  "\u2581\u0431\u043e\u043b\u043a\u0430": 4984,
  "\u2581\u0441\u043e\u0431\u0441\u0442\u0432\u0435\u043d\u0430": 4985,
  "\u2581interests": 4986,
  "\u2581Jane": 4987,
  "\u0430\u0440\u0434": 4988,
  "\u2581honest": 4989,
  "\u2581\u0438\u0437\u043c\u044a\u043a\u043d": 4990,
  "\u2581machines": 4991,
  "\u2581\u0446\u0435\u043d\u0442\u044a\u0440\u0430": 4992,
  "28": 4993,
  "\u041a\u0430\u043a\u0432\u043e": 4994,
  "Q": 4995,
  "\u2581south": 4996,
  "\u2581Although": 4997,
  "\u2581\u041a\u0430\u0440\u0430": 4998,
  "\u2581signed": 4999,
  "\u2581otherwise": 5000,
  "\u0431\u0435": 5001,
  "lov": 5002,
  "\u2581suppose": 5003,
  "\u0439\u0434": 5004,
  "\u2581\u043f\u0440\u0430\u0432\u0438\u043b\u043e": 5005,
  "\u2581\u0441\u0435\u043a\u0443\u043d\u0434\u0430": 5006,
  "\u2581\u0434\u0440\u0435\u0445\u0438": 5007,
  "\u2581\u0413\u043b\u0435\u0434\u0430\u0439": 5008,
  "\u2581rid": 5009,
  "\u2581separate": 5010,
  "br": 5011,
  "\u2581population": 5012,
  "\u2581\u0413\u044a\u0440\u0446\u0438\u044f": 5013,
  "kov": 5014,
  "gra": 5015,
  "\u0434\u0440\u044a\u0436": 5016,
  "\u043d\u0441": 5017,
  "\u2581Lo": 5018,
  "\u2581West": 5019,
  "\u2581(1": 5020,
  "\u2581\u0414\u043e\u043a\u0442\u043e\u0440": 5021,
  "night": 5022,
  "\u2581\u043e\u0442\u0433\u043e\u0432\u0430\u0440\u044f\u0442": 5023,
  "\u2581\u0440\u0430\u0437\u0441\u0442\u043e\u044f\u043d\u0438\u0435": 5024,
  "\u2581\u043c\u0435\u0441\u043e": 5025,
  "\u2581\u043d\u0435\u0431\u0435\u0442\u043e": 5026,
  "\u2581Henry": 5027,
  "\u2581\u043a\u043e\u043d\u0442\u0440\u043e\u043b\u0438\u0440\u0430": 5028,
  "\u044f\u043b": 5029,
  "\u2581radio": 5030,
  "\u043c\u043f": 5031,
  "book": 5032,
  "ight": 5033,
  "\u2581\u043c\u043b\u043d": 5034,
  "\u2581lack": 5035,
  "\u044f\u043c": 5036,
  "\u2581\u043f\u0440\u043e\u0443\u0447\u0432\u0430\u043d\u0435": 5037,
  "\u2581\u0418\u0442\u0430\u043b\u0438\u044f": 5038,
  "\u2581\u043f\u043e\u0433\u043b\u0435\u0434\u043d\u0430": 5039,
  "\u2581\u043f\u0440\u0438\u0435\u043c\u0430\u0442": 5040,
  "\u2581\u0441\u0434\u0435\u043b\u043a\u0430": 5041,
  "\u0440\u0430\u0442": 5042,
  "\u2581Greece": 5043,
  "ade": 5044,
  "31": 5045,
  "\u2581\u043e\u0431\u0449\u0430": 5046,
  "ET": 5047,
  "\u2581\u043e\u043f\u0440\u0435\u0434\u0435\u043b\u0435\u043d\u0430": 5048,
  "ep": 5049,
  "\u2581\u0437\u0430\u043a\u043e\u043d\u0430": 5050,
  "\u2581\u0411\u0438\u043b\u0438": 5051,
  "\u2581\u0445\u0430\u043f": 5052,
  "\u2581\u0441\u043a\u043e\u0440\u043e\u0441\u0442": 5053,
  "\u2581\u0420\u0435\u0434": 5054,
  "\u2581presence": 5055,
  "\u2581symptoms": 5056,
  "\u2581\u0440\u0430\u0439\u043e\u043d\u0438": 5057,
  "\u2581\u043f\u043e\u043b\u0435": 5058,
  "\u2581\u043f\u043e\u043b\u0437\u0432\u0430": 5059,
  "\u2581failure": 5060,
  "\u2581hi": 5061,
  "\u2581camera": 5062,
  "\u2581\u0443\u0441\u0442\u0430\u043d\u043e\u0432\u0435\u043d\u0438": 5063,
  "\u2581\u0442\u0440\u0430\u043d\u0441\u043f\u043e\u0440\u0442": 5064,
  "\u2581po": 5065,
  "\u0441\u0442\u044a\u043d": 5066,
  "\u043d\u0442": 5067,
  "\u2581\u043b\u0435\u043a\u0430\u0440\u0441\u0442\u0432\u0435\u043d\u0438": 5068,
  "\u2581keeping": 5069,
  "\u2581\u0437\u0430\u0441\u0442\u0440\u0435\u043b\u044f": 5070,
  "\u0428": 5071,
  "\u2581\u0440\u0430\u043d\u043e": 5072,
  "\u2581Development": 5073,
  "\u2581cops": 5074,
  "\u2581spiritual": 5075,
  "\u2581Alex": 5076,
  "\u2581fit": 5077,
  "\u0442\u0438\u043d": 5078,
  "\u2581IS": 5079,
  "ans": 5080,
  "\u044a\u043f": 5081,
  "\u2581ability": 5082,
  "\u0440\u044a\u043d": 5083,
  "\u2581Economic": 5084,
  "\u2581\u0441\u043f\u0435\u0446\u0438\u0430\u043b\u043d\u0438": 5085,
  "\u2581institution": 5086,
  "\u0439\u0441": 5087,
  "\u2581EC": 5088,
  "\u2581\u0434\u0443\u0445": 5089,
  "\u2581\u041a\u0430\u043f\u0438\u0442\u0430\u043d": 5090,
  "\u2581army": 5091,
  "\u2581\u0434\u0440\u0443\u0436\u0435\u0441\u0442\u0432\u0430": 5092,
  "\u25812:": 5093,
  "\u0441\u0435\u0433\u0430": 5094,
  "\u2581\u0440\u0435\u043f\u0443\u0431\u043b\u0438\u043a\u0430": 5095,
  "\u2581forms": 5096,
  "\u2581brothers": 5097,
  "\u2581600": 5098,
  "\u2581signal": 5099,
  "\u2581plus": 5100,
  "\u0442\u043a\u0430": 5101,
  "\u2581\u0433\u043b\u0430\u0441\u0443\u0432\u0430": 5102,
  "uff": 5103,
  "\u2581cells": 5104,
  "\u0440\u0435\u043a": 5105,
  "\u2581promised": 5106,
  "\u2581Life": 5107,
  "\u2581opened": 5108,
  "\u2581\u0432\u0435\u0449\u0435\u0441\u0442\u0432\u043e": 5109,
  "\u2581\u043b\u043e": 5110,
  "\u2581Internet": 5111,
  "\u2581\u0436\u0435\u0440\u0442\u0432\u0430": 5112,
  "\u2581accounts": 5113,
  "\u2581\u041d\u0435\u0434\u0435\u0439": 5114,
  "\u2581\u043e\u0431\u044f\u0434": 5115,
  "\u2581\u043e\u0431\u0449\u0430\u0442\u0430": 5116,
  "\u2581\u0434\u0430\u0434\u0435\u043d\u0430": 5117,
  "\u0436\u0434\u0430": 5118,
  "\u2581draw": 5119,
  "\u2581hero": 5120,
  "\u2581\u0413\u0443": 5121,
  "\u2581principle": 5122,
  "\u0434\u043e\u0441\u0430\u043d": 5123,
  "\u2581\u043f\u0440\u0435\u0434\u0430\u0434\u0435": 5124,
  "\u2581\u0431\u044a\u043b\u0433\u0430\u0440\u0441\u043a\u0438": 5125,
  "\u2581Holy": 5126,
  "\u2581Law": 5127,
  "\u2581\u043d\u0430\u0434\u043e\u043b\u0443": 5128,
  "ski": 5129,
  "ress": 5130,
  "\u2581Parties": 5131,
  "\u2581environmental": 5132,
  "\u2581\u0435\u0434\u0438\u043d\u0441\u0442\u0432\u0435\u043d\u0438\u044f\u0442": 5133,
  "\u2581\u043c\u0430\u0447": 5134,
  "\u2581bathroom": 5135,
  "\u2581\u043e\u0434\u043e\u0431\u0440\u0435\u043d\u0438\u0435": 5136,
  "\u2581debt": 5137,
  "\u0432\u0430\u0442\u0430": 5138,
  "\u0415\u041d": 5139,
  "\u2581\u043a\u0443": 5140,
  "\u258111.": 5141,
  "\u2581\u043f\u043e\u043a\u0430\u043d\u0438": 5142,
  "\u2581Find": 5143,
  "\u2581reached": 5144,
  "\u2581\u043f\u043e\u0441\u0442\u0430\u0432\u0438": 5145,
  "\u2581airport": 5146,
  "\u2581angry": 5147,
  "\u2581\u043f\u0440\u043e\u0434\u0443\u043a\u0442\u0438\u0442\u0435": 5148,
  "-3": 5149,
  "\u2581Director": 5150,
  "\u2581[2]": 5151,
  "\u2581\u041d\u0430\u043f\u0440\u0438\u043c\u0435\u0440": 5152,
  "\u2581Ed": 5153,
  "\u2581\u043a\u0430\u0442\u0435\u0433\u043e\u0440\u0438\u044f": 5154,
  "\u2581tough": 5155,
  "\u2581\u0427\u0443\u0434": 5156,
  "\u0441\u0442\u0432\u0430\u043c": 5157,
  "\u2581\u041e\u041e\u041d": 5158,
  "\u2581knock": 5159,
  "\u2581jail": 5160,
  "\u2581se": 5161,
  "\u2581weapon": 5162,
  "\u2581\u0441\u0440\u0435\u0434\u0430\u0442\u0430": 5163,
  "\u2581square": 5164,
  "\u0447\u0430\u043a\u0430\u0439": 5165,
  "\u2581emergency": 5166,
  "\u2581pictures": 5167,
  "\u2581\u0411\u044a\u0440\u0437\u043e": 5168,
  "ani": 5169,
  "port": 5170,
  "\u2581volume": 5171,
  "\u2581\u0442\u0430\u0439\u043d\u0430": 5172,
  "\u2581medicine": 5173,
  "\u2581\u0431\u0435\u0431\u0435\u0442\u043e": 5174,
  "mmy": 5175,
  "\u2581\u043a\u0430\u043f\u0438\u0442\u0430\u043b": 5176,
  "\u2581\u043d\u0430\u0435\u043c": 5177,
  "\u2581bus": 5178,
  "\u043d\u0435\u0440": 5179,
  "\u2581\u043a\u043e\u043b\u0438\u0447\u0435\u0441\u0442\u0432\u043e": 5180,
  "\u0441\u0442\u0430\u0432": 5181,
  "\u2581\u0437\u0430\u043f\u043e\u0432\u0435\u0434": 5182,
  "\u2581\u043a\u0438\u0441\u0435\u043b\u0438\u043d\u0430": 5183,
  "\u2581\u043f\u0440\u043e\u0441\u0442\u0438": 5184,
  "\u2581Play": 5185,
  "\u2581\u0413\u043e\u0440": 5186,
  "\u2581\u0433\u044a\u0440\u0431\u0430": 5187,
  "\u2581\u0443\u0441\u0442\u0430\u043d\u043e\u0432\u044f\u0432\u0430\u043d\u0435": 5188,
  "\u2581\u043c\u043d\u0435\u043d\u0438\u0435": 5189,
  "reak": 5190,
  "ns": 5191,
  "\u2581\u043e\u0447\u0435\u0432\u0438\u0434\u043d\u043e": 5192,
  "\u0434\u043d\u0438": 5193,
  "\u2581powerful": 5194,
  "\u2581\u0433\u043e\u0442\u043e\u0432\u0430": 5195,
  "\u2581rise": 5196,
  "\u2581\u0433\u043e\u0432\u043e\u0440\u044f\u0442": 5197,
  "mar": 5198,
  "\u258165": 5199,
  "\u2581\u0438\u0437\u043f\u044a\u043b\u043d\u044f\u0432\u0430": 5200,
  "\u2581Gra": 5201,
  "\u2581Ask": 5202,
  "\u2581\u041a\u0440\u0438\u0441": 5203,
  "\u2581\u043e\u043f\u0430\u0441\u043d\u043e\u0441\u0442": 5204,
  "\u2581\u043e\u0431\u0449\u0435\u0441\u0442\u0432\u043e": 5205,
  "\u2581weapons": 5206,
  "\u2581\u0440\u0430\u0431\u043e\u0442\u0438\u0448": 5207,
  "\u2581Daniel": 5208,
  "\u2581\u043a\u0440\u0430\u0439\u043d\u0430": 5209,
  "\u2581Sta": 5210,
  "\u2581loves": 5211,
  "\u2581aware": 5212,
  "\u2581\u0443\u0441\u043c": 5213,
  "\u043a\u0443\u043b": 5214,
  "\u2581hungry": 5215,
  "\u2581Ba": 5216,
  "\u2581Want": 5217,
  "\u2581balance": 5218,
  "\u2581drunk": 5219,
  "\u2581communication": 5220,
  "ill": 5221,
  "\u2581Fund": 5222,
  "\u2581\u043e\u0431\u0449\u0438\u044f": 5223,
  "\u2581hop": 5224,
  "\u2581\u0440\u043e\u043b\u044f": 5225,
  "\u2581entered": 5226,
  "\u2581\u0411\u044a\u0434": 5227,
  "\u2581commercial": 5228,
  "\u0434\u0435\u043b": 5229,
  "Re": 5230,
  "\u2581\u0441\u044a\u0436\u0430\u043b\u0435\u043d\u0438\u0435": 5231,
  "\u043d\u0434": 5232,
  "\u2581\u043d\u0430\u043c\u0435\u0440\u0438\u0445": 5233,
  "\u2581modern": 5234,
  "\u0442\u043e\u043d": 5235,
  "\u2581grab": 5236,
  "\u2581\u043f\u0443\u0441\u043d\u0430": 5237,
  "\u2581\u043f\u0440\u0435\u043f\u043e\u0440\u044a\u0447\u0432\u0430": 5238,
  "gen": 5239,
  "\u2581\u0423\u0441\u043f\u043e\u043a\u043e": 5240,
  "\u2581\u0431\u043e\u0439": 5241,
  "1/": 5242,
  "\u2581CD": 5243,
  "\u0433\u0430\u0441": 5244,
  "\u2581\u0434\u0443\u043c\u0430\u0442\u0430": 5245,
  "\u2581providing": 5246,
  "\u2581\u043d\u0438\u043a\u0430\u043a\u044a\u0432": 5247,
  "polog": 5248,
  "\u2581\u0413\u0440\u0435\u0439": 5249,
  "cy": 5250,
  "\u2581Nick": 5251,
  "\u2581\u043c\u044a": 5252,
  "\u2581\u0421\u043a\u043e\u0440\u043e": 5253,
  "\u2581distance": 5254,
  "\u2581\u041a\u043e\u0435": 5255,
  "\u043a\u043b\u0430": 5256,
  "55": 5257,
  "\u2581includes": 5258,
  "\u2581blame": 5259,
  "AD": 5260,
  "\u043d\u0430\u043a\u0440\u0430\u044f": 5261,
  "\u258155": 5262,
  "\u2581\u0410\u043b\u0435\u043a\u0441": 5263,
  "\u2581\u0413\u043e\u0441\u043f\u043e\u0434\u0430": 5264,
  "tel": 5265,
  "\u2581rain": 5266,
  "\u2581\u0437\u0430\u0441\u044f\u0433\u0430": 5267,
  "\u043b\u0438\u0432\u0430": 5268,
  "\u2581ADOPTE": 5269,
  "\u2581deserve": 5270,
  "\u2581\u043c\u0438\u043d\u0430\u0432\u0430": 5271,
  "\u2581\u0422\u0430\u0439": 5272,
  "\u2581article": 5273,
  "\u2581\u043f\u0430\u0434\u0430": 5274,
  "\u2581absolutely": 5275,
  "\u2581ON": 5276,
  "\u2581250": 5277,
  "\u2581recent": 5278,
  "\u2581metal": 5279,
  "\u0432\u0430\u043d\u0438": 5280,
  "ass": 5281,
  "\u2581\u043f\u043e\u0434\u0445\u043e\u0434": 5282,
  "\u2581\u0442\u0435\u0445\u043d\u043e\u043b\u043e\u0433\u0438\u0438": 5283,
  "\u2581\u043e\u0442\u043d\u0435\u043c\u0435": 5284,
  "\u2581Per": 5285,
  "\u2581\u0445\u0430\u0440\u0430\u043a\u0442\u0435\u0440": 5286,
  "\u2581j": 5287,
  "\u2581\u043c\u0438\u0441\u043b\u044f\u0442": 5288,
  "\u25812001": 5289,
  "\u2581medicinal": 5290,
  "\u0430\u043d\u0442": 5291,
  "\u043f\u0430\u0434\u0430": 5292,
  "\u2581severe": 5293,
  "\u2581\u0438\u0437\u043f\u0438\u0442\u0432\u0430\u043d\u0435": 5294,
  "\u2581iron": 5295,
  "\u2581fuel": 5296,
  "\u2581Honey": 5297,
  "\u2581\u0438\u043c\u0430\u043b\u0438": 5298,
  "\u2581\u0441\u0438\u0433\u043d\u0430\u043b": 5299,
  "\u0431\u044a\u0440\u043a\u0430": 5300,
  "\u2581ANNEX": 5301,
  "\u2581\u0443\u0447\u0438\u0442\u0435\u043b": 5302,
  "\u0440\u0438\u044f": 5303,
  "\u2581disorders": 5304,
  "\u043c\u0430\u0442\u0430": 5305,
  "\u2581\u0435\u043a\u0441": 5306,
  "\u2581exposure": 5307,
  "\u2581push": 5308,
  "\u2581\u0421\u0438\u043b": 5309,
  "ast": 5310,
  "und": 5311,
  "\u2581\u0416\u0438\u0432\u043e\u0442": 5312,
  "\u2581correct": 5313,
  "\u2581complex": 5314,
  "\u2581warm": 5315,
  "79": 5316,
  "nd": 5317,
  "universe": 5318,
  "\u2581\u0414\u0443": 5319,
  "\u0431\u044a\u0440\u0442": 5320,
  "\u2581\u0421\u0442\u0430\u0440": 5321,
  "\u2581\u0432\u0438\u0434\u044f\u043b": 5322,
  "\u2581\u043f\u043e\u0441\u0442\u0430\u0432\u044f": 5323,
  "\u2581\u043f\u0438\u0442\u0430\u043c": 5324,
  "\u2581programmes": 5325,
  "\u2581Date": 5326,
  "az": 5327,
  "\u2581Friday": 5328,
  "\u2581obligations": 5329,
  "\u2581\u0414\u0435\u043d": 5330,
  "\u2581\u0430\u0432\u0433\u0443\u0441\u0442": 5331,
  "led": 5332,
  "\u2581\u0438\u0437\u043c\u0438\u0441\u043b\u0438": 5333,
  "ez": 5334,
  "\u2581comments": 5335,
  "\u2581\u0438\u0434\u0435\u0438": 5336,
  "\u2581science": 5337,
  "\u2581compliance": 5338,
  "\u043a\u043e\u0432\u0438": 5339,
  "\u2581fu": 5340,
  "\u2581empty": 5341,
  "work": 5342,
  "\u2581\u0432\u043e\u0439\u043d\u0430\u0442\u0430": 5343,
  "\u2581\u043e\u0441\u0438\u0433\u0443\u0440\u044f\u0432\u0430": 5344,
  "\u25815%": 5345,
  "\u2581shop": 5346,
  "\u2581manufacturer": 5347,
  "\u043b\u0441": 5348,
  "\u2581min": 5349,
  "\u0411\u0420": 5350,
  "\u2581Ca": 5351,
  "\u2581\u0441\u0438\u0433\u0443\u0440\u043d\u043e\u0441\u0442\u0442\u0430": 5352,
  "\u2581observed": 5353,
  "\u2581\u043e\u0436\u0435\u043d\u0438": 5354,
  "\u2581claim": 5355,
  "aw": 5356,
  "\u2581\u043e\u0441\u0435\u043c": 5357,
  "\u2581Ray": 5358,
  "\u2581reporting": 5359,
  "\u2581hearing": 5360,
  "\u2581\u043f\u043b\u0430\u043d\u0430": 5361,
  "\u2581\u043c\u0438\u043d\u0438\u0441\u0442\u044a\u0440": 5362,
  "\u2581Fe": 5363,
  "\u2581\u0447\u043e\u0432\u0435\u0448\u043a\u0438": 5364,
  "\u2581\u0433\u043b\u0435\u0434\u0430\u0448": 5365,
  "ola": 5366,
  "\u2581\u043b\u0435\u043a\u043e": 5367,
  "\u2581leg": 5368,
  "\u2581\u0437\u0434\u0440\u0430\u0432\u0435\u0442\u043e": 5369,
  "\u00f6": 5370,
  "\u2581\u0437\u043d\u0430\u0435\u0448\u0435": 5371,
  "\u2581Ac": 5372,
  "\u2581\u0440\u0430\u0437\u0441\u043b\u0435\u0434\u0432\u0430\u043d\u0435": 5373,
  "\u0435\u043c\u0430": 5374,
  "\u2581ideas": 5375,
  "\u0448\u0435\u043d": 5376,
  "\u2581movement": 5377,
  "\u2581category": 5378,
  "\u2581Joint": 5379,
  "\u2581\u0436\u0438\u0432\u0435\u0435\u0448": 5380,
  "\u2581\u0440\u0430\u0437\u043f\u043e\u043b\u0430\u0433\u0430": 5381,
  "\u2581processing": 5382,
  "\u2581\u0447\u0438\u0447\u043e": 5383,
  "\u2581\u0434\u044a\u0440\u0432\u043e": 5384,
  "don": 5385,
  "\u0438\u0447\u0435\u0441\u043a\u0438": 5386,
  "net": 5387,
  "\u2581\u0436\u0435\u043d\u0430\u0442\u0430": 5388,
  "\u2581shoes": 5389,
  "\u2581\u0440\u0430\u0437\u0433\u043b\u0435\u0434\u0430": 5390,
  "US": 5391,
  "\u2581\u043a\u0440\u0430\u043a\u0430": 5392,
  "\u2581lines": 5393,
  "\u2581\u0425\u0430\u043d": 5394,
  "\u0434\u043e\u0431\u0440\u0438\u044f\u0442": 5395,
  "\u2581blind": 5396,
  "\u2581\u0441\u0442\u0438\u043b": 5397,
  "\u2581dying": 5398,
  "\u2581\u043a\u043e\u0448": 5399,
  "\u2581\u0443\u043c\u0440\u044f": 5400,
  "eva": 5401,
  "\u2581wood": 5402,
  "\u2581\u043e\u0431\u0430\u0436\u0434\u0430": 5403,
  "\u2581indicated": 5404,
  "\u2581\u043f\u044a\u0440\u0432\u0438\u044f\u0442": 5405,
  "\u2581\u0427\u0443\u0432\u0430": 5406,
  "\u2581Common": 5407,
  "\u2581\u043d\u0430\u0447\u0430\u043b\u043e": 5408,
  "\u0430\u043a\u043e": 5409,
  "\u2581\u0441\u044a\u0434\u044a\u0440\u0436\u0430\u0449\u0438": 5410,
  "upset": 5411,
  "\u0440\u0430\u043a": 5412,
  "\u2581Agent": 5413,
  "\u2581throughout": 5414,
  "\u2581\u043a\u043e\u043c\u043f\u0430\u043d\u0438\u044f\u0442\u0430": 5415,
  "\u2581contribution": 5416,
  "\u2581\u043f\u0440\u0435\u0441": 5417,
  "\u2581\u043d\u0430\u0431\u043b\u044e\u0434\u0435\u043d\u0438\u0435": 5418,
  "iz": 5419,
  "\u2581\u043e\u0440\u044a\u0436\u0438\u044f": 5420,
  "\u2581\u043e\u043f\u0435\u0440\u0430\u0446\u0438\u044f": 5421,
  "\u2581\u043d\u0430\u043a\u0440\u0430\u044f": 5422,
  "\u2581photo": 5423,
  "\u2581\u0433\u0440\u0430\u0436\u0434\u0430\u043d\u0438": 5424,
  "\u2581\u0432\u0440\u044a\u0437\u043a\u0430\u0442\u0430": 5425,
  "\u2581organisation": 5426,
  "ID": 5427,
  "\u2581\u043d\u043e\u0432\u0438\u0442\u0435": 5428,
  "\u2581provision": 5429,
  "\u2581[...]": 5430,
  "\u043b\u0438\u0447\u043a\u0430": 5431,
  "\u2581\u041e\u0442\u0438\u0432\u0430\u043c": 5432,
  "bi": 5433,
  "\u2581\u0443\u0441\u0442\u0430\u043d\u043e\u0432\u0438": 5434,
  "\u2581offered": 5435,
  "\u043c\u043d\u043e\u0433\u043e": 5436,
  "\u2581\u043c\u044a\u0440\u0434\u0430": 5437,
  "49": 5438,
  "\u2581cancer": 5439,
  "\u0447\u0435\u0441\u043a\u0438": 5440,
  "\u2581\u043b\u043e\u0448\u0438": 5441,
  "\u2581\u0446\u0435\u043d\u0438\u0442\u0435": 5442,
  "\u2581\u0437\u0430\u0442\u0432\u043e\u0440\u0438": 5443,
  "\u2581\u043f\u0440\u044a\u0432": 5444,
  "\u2581benefits": 5445,
  "\u2581hall": 5446,
  "\u2581\u0438\u0437\u043a\u0430\u0440\u0430": 5447,
  "\u2581Too": 5448,
  "\u2581engine": 5449,
  "\u2581\u0431\u044a\u0434": 5450,
  "\u2581Turkey": 5451,
  "\u0440\u044a": 5452,
  "\u2581\u0434\u0435\u043b\u0430": 5453,
  "\u0430\u043b\u043d\u0438": 5454,
  "\u2581\u0433\u043b\u0430\u0434": 5455,
  "\u0442\u0438\u043a": 5456,
  "\u2581willing": 5457,
  "\u258115.": 5458,
  "\u2581Act": 5459,
  "\u2581\u041b\u0438\u043d": 5460,
  "ova": 5461,
  "\u2581\u043d\u0430\u043b\u044f\u0433\u0430\u043d\u0435": 5462,
  "\u0440\u0435\u0441": 5463,
  "\u2581spot": 5464,
  "\u2581trial": 5465,
  "\u2581cry": 5466,
  "\u2581\u043f\u0430\u0437\u0430\u0440\u0438": 5467,
  "DE": 5468,
  "BI": 5469,
  "\u2581heaven": 5470,
  "\u2581arms": 5471,
  "\u2581\u0417\u0430\u043f\u043e\u0447\u0432\u0430": 5472,
  "\u2581IU": 5473,
  "\u2581Many": 5474,
  "\u0431\u0435\u0440\u0438": 5475,
  "\u2581Adam": 5476,
  "\u2581\u0443\u0441\u0438\u043b\u0438\u044f": 5477,
  "\u2581Chief": 5478,
  "\u2581\u043a\u0440\u0438\u0437\u0430": 5479,
  "\u2581essential": 5480,
  "\u0431\u0435\u0437": 5481,
  "\u2581\u043b\u044a\u0436\u0435": 5482,
  "6,": 5483,
  "\u2581\u043e\u0431\u044a\u0440\u043a\u0430": 5484,
  "\u2581\u0438\u0437\u0433\u0443\u0431\u0438": 5485,
  "\u2581spoke": 5486,
  "\u2581\u0441\u043c\u0438\u0441\u044a\u043b\u0430": 5487,
  "\u044f\u0432\u0430\u0442": 5488,
  "\u0431\u0435\u043d": 5489,
  "\u2581steps": 5490,
  "\u0430\u0442\u043e\u0440": 5491,
  "\u043c\u0438\u043d": 5492,
  "\u043c\u044a\u0440": 5493,
  "ger": 5494,
  "\u2581BE": 5495,
  "\u2581\u0438\u0437\u0432\u0438\u043d": 5496,
  "\u2581entity": 5497,
  "arry": 5498,
  "ten": 5499,
  "\u2581\u041d\u043e\u0432\u0430": 5500,
  "\u2581\u0421\u044a\u0432\u0435\u0442\u044a\u0442": 5501,
  "\u2581\u043f\u0440\u0438\u044f\u0442\u043d\u043e": 5502,
  "\u2581relation": 5503,
  "\u2581ye": 5504,
  "\u2581\u0432\u0438\u043d\u043e": 5505,
  "\u2581Ra": 5506,
  "\u2581afternoon": 5507,
  "\u2581indeed": 5508,
  "\u2581losing": 5509,
  "\u2581laying": 5510,
  "\u2581\u043f\u043e\u0431\u0435\u0434\u0438": 5511,
  "\u2581\u0441\u0442\u044a\u043f\u043a\u0430": 5512,
  "\u2581\u0420\u0430\u0431\u043e\u0442\u0438": 5513,
  "\u2581\u0424\u0440\u0435": 5514,
  "ists": 5515,
  "\u0433\u043e\u043b\u044f\u043c": 5516,
  "\u043b\u0438\u0432": 5517,
  "\u2581powers": 5518,
  "\u2581\u043f\u0440\u0435\u0434\u043e\u0441\u0442\u0430\u0432\u0438": 5519,
  "\u2581\u0422\u044a\u0440": 5520,
  "\u2581Green": 5521,
  "\u2581success": 5522,
  "\u2581\u0442\u044a\u0440\u0433\u043e\u0432\u0441\u043a\u0438": 5523,
  "\u2581escape": 5524,
  "ik": 5525,
  "her": 5526,
  "\u2581memory": 5527,
  "\u2581external": 5528,
  "\u2581Quantity": 5529,
  "\u2581\u043d\u0430\u043f\u0440\u0430\u0432\u043e": 5530,
  "\u2581\u043f\u0440\u0435\u0434\u0432\u0438\u0436\u0434\u0430": 5531,
  "\u2581image": 5532,
  "\u258151": 5533,
  "\u2581\u0441\u0442\u043e\u0438": 5534,
  "\u2581century": 5535,
  "use": 5536,
  "\u2581\u043d\u043e\u0432\u0438\u044f": 5537,
  "\u2581\u0431\u0430\u0437\u0430\u0442\u0430": 5538,
  "\u2581advantage": 5539,
  "\u2581dogs": 5540,
  "\u2581\u0443\u0431\u0438\u0439\u0441\u0442\u0432\u043e\u0442\u043e": 5541,
  "\u2581\u041a\u043e\u0435\u0442\u043e": 5542,
  "\u2581export": 5543,
  "mer": 5544,
  "\u2581package": 5545,
  "\u0441\u0443": 5546,
  "\u2581worst": 5547,
  "\u2581\u043f\u0440\u0435\u0434\u043e\u0441\u0442\u0430\u0432\u044f\u043d\u0435": 5548,
  "\u2581reduction": 5549,
  "\u2581customs": 5550,
  "\u258116.": 5551,
  "\u2581obtained": 5552,
  "\u0433\u0435": 5553,
  "\u2581played": 5554,
  "\u2581\u0420\u0443\u0441\u0438\u044f": 5555,
  "\u2581\u043f\u043e\u0441\u043e\u0447\u0432\u0430": 5556,
  "\u2581cup": 5557,
  "\u2581overall": 5558,
  "\u2581\u041e\u0447\u0435\u0432\u0438\u0434\u043d\u043e": 5559,
  "\u0438\u043a\u0430": 5560,
  "\u2581Cor": 5561,
  "\u2581\u043f\u043e\u0435\u043c\u0430": 5562,
  "\u2581cars": 5563,
  "\u2581\u0432\u044a\u0437\u0434\u0443\u0445": 5564,
  "\u0432\u0440\u0438": 5565,
  "\u043b\u0435\u0441": 5566,
  "\u2581\u041a\u0430\u043c": 5567,
  "\u2581seriously": 5568,
  "48": 5569,
  "\u2581excellent": 5570,
  "\u2581efforts": 5571,
  "\u2581remains": 5572,
  "\u2581\u043c\u044a\u0436\u0435\u0442\u0435": 5573,
  "\u2581\u043e\u0431\u043b\u0430\u0441\u0442\u0438": 5574,
  "\u2581objectives": 5575,
  "\u2581forgive": 5576,
  "\u2581beach": 5577,
  "og": 5578,
  "\u2581length": 5579,
  "\u2581Sha": 5580,
  "\u2581nine": 5581,
  "\u2581quit": 5582,
  "\u2581expenditure": 5583,
  "\u258147": 5584,
  "gu": 5585,
  "\u2581storage": 5586,
  "\u2581\u043d\u0430\u043c\u0430\u043b\u0438": 5587,
  "idae": 5588,
  "\u2581\u0442\u0440\u043e": 5589,
  "\u043a\u0435\u0442": 5590,
  "\u2581\u043a\u0430\u0437\u0430\u043b\u0430": 5591,
  "ulations": 5592,
  "\u2581scheme": 5593,
  "\u2581\u043d\u044f\u043c\u0430\u043c\u0435": 5594,
  "\u2581Sound": 5595,
  "\u2581chief": 5596,
  "\u2581\u0440\u0430\u0431\u043e\u0442\u043d\u0438": 5597,
  "\u2581\u0434\u043e\u0437\u0430\u0442\u0430": 5598,
  "\u2581criminal": 5599,
  "\u2581items": 5600,
  "\u0438\u0447\u043d\u0430": 5601,
  "\u2581signs": 5602,
  "\u041a\u0430": 5603,
  "\u2581\u0437\u0430\u0432\u0438\u043d\u0430\u0433\u0438": 5604,
  "\u2581\u0438\u043d\u0441\u0443\u043b\u0438\u043d": 5605,
  "\u2581\u0449\u0430\u0441\u0442\u0438\u0435": 5606,
  "\u2581\u0440\u0438\u0431\u043e\u043b\u043e\u0432": 5607,
  "\u2581\u0440\u0430\u0432\u043d\u043e": 5608,
  "ks": 5609,
  "\u2581Chi": 5610,
  "\u2581\u0440\u0430\u0437\u0442\u0432\u043e\u0440": 5611,
  "\u2581identified": 5612,
  "\u258113.": 5613,
  "\u2581kitchen": 5614,
  "\u2581Happ": 5615,
  "riff": 5616,
  "\u2581\u041e\u0422": 5617,
  "\u2581Angel": 5618,
  "\u2581Weather": 5619,
  "\u2581\u0445\u043e\u0434": 5620,
  "\u2581Kosovo": 5621,
  "\u2581\u043a\u0443\u0440": 5622,
  "\u2581Center": 5623,
  "\u2581\u043f\u0440\u0435\u0434\u043f\u0440\u0438\u044f\u0442\u0438\u0435": 5624,
  "ery": 5625,
  "\u041c\u0430": 5626,
  "\u2581Russia": 5627,
  "\u2581\u043d\u0430\u043c\u0435\u0440\u0438\u0442\u0435": 5628,
  "\u042f": 5629,
  "\u2581\u0447\u0430\u043a": 5630,
  "\u0438\u0441\u0442\u0438": 5631,
  "\u2581\u043f\u0440\u0435\u0434\u0441\u0442\u0430\u0432\u0438\u0442\u0435\u043b": 5632,
  "\u2581stuck": 5633,
  "\u043e\u0442\u0435\u043d": 5634,
  "\u2581\u0441\u044a\u0449\u0438\u0442\u0435": 5635,
  "\u2581\u041f\u043e\u043c\u043e\u0449": 5636,
  "\u2581applicant": 5637,
  "\u2581scar": 5638,
  "\u2581\u043f\u0430\u0440\u0430\u0433\u0440\u0430\u0444\u0438": 5639,
  "\u2581\u0446\u0430\u0440": 5640,
  "\u2581\u0444\u043e\u0440\u043c\u0438": 5641,
  "\u2581\u043d\u0430\u0440\u0443\u0448\u0435\u043d\u0438\u044f": 5642,
  "\u2581\u041c\u043e\u043c\u0438\u0447\u0435": 5643,
  "\u2581\u043c\u0438\u0440\u0430": 5644,
  "\u2581\u043f\u043e\u043b\u0438\u0442\u0438\u0447\u0435\u0441\u043a\u0438": 5645,
  "75": 5646,
  "\u2581\u0434\u0438\u0437\u0430\u0439\u043d": 5647,
  "ita": 5648,
  "\u2581Hurry": 5649,
  "\u2581risks": 5650,
  "\u2581adopt": 5651,
  "\u2581steel": 5652,
  "\u2581\u043f\u0440\u0435\u0434\u043d\u0430\u0437\u043d\u0430\u0447\u0435\u043d\u0438": 5653,
  "\u2581\u043f\u043e\u0437\u043d\u0430\u0432\u0430\u0448": 5654,
  "\u2581\u043f\u043e\u043b\u043e\u0432\u0438\u043d": 5655,
  "\u2581\u0441\u044a\u0437\u0434\u0430\u0432\u0430\u043d\u0435\u0442\u043e": 5656,
  "\u2581\u0447\u0435\u0441\u0442\u043d\u043e": 5657,
  "\u2581Lot": 5658,
  "\u2581\u043c\u043e\u0436\u0430\u0445": 5659,
  "\u2581\u0434\u043e\u043f\u044a\u043b\u043d\u0438\u0442\u0435\u043b\u043d\u043e": 5660,
  "\u2581\u043d\u0430\u043f\u0440\u0435\u0436\u0435\u043d\u0438\u0435": 5661,
  "\u2581\u0438\u043d\u0441\u0442\u0440\u0443\u043c\u0435\u043d\u0442": 5662,
  "\u0434\u043e\u0431\u0440\u043e": 5663,
  "\u2581\u043e\u0431\u0449\u0438": 5664,
  "\u2581Read": 5665,
  "\u2581binding": 5666,
  "\u2581\u0412\u043d\u0438\u043c\u0430\u0432\u0430\u0439": 5667,
  "\u2581\u0413\u043b\u0443\u043f": 5668,
  "\u2581rates": 5669,
  "\u2581convince": 5670,
  "\u2581records": 5671,
  "\u2581subparagraph": 5672,
  "\u2581\u0441\u0432\u043e\u0431\u043e\u0434\u0430": 5673,
  "\u043d\u0434\u0430": 5674,
  "\u2581\u043f\u0440\u0435\u043c\u0435\u0441\u0442\u0438": 5675,
  "\u0441\u043a\u0438\u044f\u0442": 5676,
  "\u2581Remove": 5677,
  "\u2581judge": 5678,
  "\u2581authorised": 5679,
  "AT": 5680,
  "\u2581Harr": 5681,
  "\u2581Contact": 5682,
  "\u2581\u0441\u043b\u0435\u0434\u0432\u0430\u0449\u0438\u0442\u0435": 5683,
  "\u2581\u0441\u0430\u0439\u0442\u0430": 5684,
  "\u2581\u0435\u0442\u0430\u0436": 5685,
  "\u043b\u0430\u0441": 5686,
  "\u2581career": 5687,
  "\u0418\u0437": 5688,
  "\u2581happ": 5689,
  "int": 5690,
  "\u2581\u043f\u0440\u0435\u0441\u043b\u0435\u0434\u0432\u0430": 5691,
  "AN": 5692,
  "\u2581\u043f\u0440\u0430\u0432\u0438\u0442\u0435\u043b\u0441\u0442\u0432\u043e": 5693,
  "\u0440\u0430\u0431\u043e\u0442\u0438": 5694,
  "\u2581\u0438\u043c\u0435\u043d\u043d\u043e": 5695,
  "org": 5696,
  "\u2581\u0447\u0443\u044f": 5697,
  "\u2581\u0440\u0430\u0437\u043b\u0438\u0447\u043d\u0438\u0442\u0435": 5698,
  "\u2581\u043c\u0430\u0441\u043b\u043e": 5699,
  "\u2581park": 5700,
  "\u2581\u043f\u043b\u0430\u043d\u0438\u0440\u0430": 5701,
  "\u0431\u0440\u0438": 5702,
  "\u2581\u043f\u043e\u043a\u0440\u0438\u0432\u0430": 5703,
  "\u2581objective": 5704,
  "\u2581\u043c\u043b\u0430\u0434\u0438": 5705,
  "\u2581\u041d\u0438\u043c\u0430": 5706,
  "\u2581Protocol": 5707,
  "\u2581vessels": 5708,
  "\u2581sleeping": 5709,
  "\u2581\u0417\u0430\u0431\u0440\u0430\u0432\u0438": 5710,
  "\u0435\u043a": 5711,
  "\u2581\u0412\u044f\u0440\u043d\u043e": 5712,
  "\u2581\u0433\u0443\u0431\u0438": 5713,
  "\u2581drinking": 5714,
  "like": 5715,
  "\u2581context": 5716,
  "\u2581\u0445\u043e\u0434\u044f": 5717,
  "\u2581exist": 5718,
  "\u2581\u0444\u0438\u043d\u0430\u043d\u0441\u043e\u0432\u0430": 5719,
  "\u2581\u0447\u0443": 5720,
  "\u2581theory": 5721,
  "\u0434\u044a\u043b": 5722,
  "\u2581\u0410\u0434\u0430\u043c": 5723,
  "\u2581\u0438\u0437\u0431\u0438\u0440\u0430": 5724,
  "\u2581\u0432\u0440\u044a\u0437\u043a\u0438": 5725,
  "\u0438\u0447\u0435\u043d": 5726,
  "\u0442\u0443\u0440": 5727,
  "\u2581Q": 5728,
  "\u2581speaking": 5729,
  "\u2581\u03bc": 5730,
  "\u2581\u043e\u043f\u0435\u0440\u0430\u0446\u0438\u0438": 5731,
  "44": 5732,
  "\u2581popular": 5733,
  "\u0442\u044a\u0440\u0441": 5734,
  "\u2581\u043f\u0440\u043e\u043a\u043b\u0435\u0442": 5735,
  "\u2581\u0441\u043f\u0440\u0438": 5736,
  "\u2581\u0438\u0437\u0441\u043b\u0435\u0434\u0432\u0430\u043d\u0435": 5737,
  "\u2581\u0441\u0446\u0435\u043d\u0430": 5738,
  "\u2581reduced": 5739,
  "\u2581\u043a\u0443\u0447\u0435\u0442\u0430": 5740,
  "\u2581\u0441\u043d\u0438\u043c\u0430": 5741,
  "law": 5742,
  "har": 5743,
  "\u2581\u0437\u0430\u0431\u0430\u0432\u043b": 5744,
  "CH": 5745,
  "\u2581\u043f\u043e\u043b\u0438": 5746,
  "ica": 5747,
  "\u2581weekend": 5748,
  "\u2581\u0434\u043e\u0441\u0442\u0430\u0432\u043a\u0430": 5749,
  "\u2581\u0441\u044a\u0434\u0430": 5750,
  "\u2581Without": 5751,
  "\u0442\u043e\u0440\u0438": 5752,
  "\u0442\u0438\u0447\u043d\u0430": 5753,
  "\u2581affect": 5754,
  "2/": 5755,
  "\u2581Board": 5756,
  "house": 5757,
  "\u2581\u0448\u0438": 5758,
  "\u2581closer": 5759,
  "\u2581detailed": 5760,
  "\u258120%": 5761,
  "\u2581\u041c\u0438\u0440": 5762,
  "\u2581\u0433\u043e\u0441\u0442\u0438": 5763,
  "\u2581bomb": 5764,
  "\u0438\u0440\u0430\u043d\u0430": 5765,
  "\u043e\u0442\u043d\u0430": 5766,
  "\u2581na": 5767,
  "\u0430\u043d\u0433": 5768,
  "\u2581\u0444\u0438": 5769,
  "\u0442\u044a\u043a": 5770,
  "\u043d\u0430\u0440": 5771,
  "\u2581\u0440\u0430\u043a": 5772,
  "\u043a\u0430\u0442": 5773,
  "\u2581driver": 5774,
  "\u2581\u0440\u0430\u0437\u0433\u043e\u0432\u043e\u0440": 5775,
  "ji": 5776,
  "\u2581crew": 5777,
  "\u2581\u0443\u0441\u0442\u0440\u043e\u0439\u0441\u0442\u0432\u043e": 5778,
  "\u2581\u0443\u043d\u0438\u0449\u043e\u0436\u0438": 5779,
  "\u2581Madam": 5780,
  "\u2581\u043d\u0430\u043f\u0443\u0441\u043d\u0430": 5781,
  "\u2581\u043c\u043e\u0440\u0435": 5782,
  "\u2581easily": 5783,
  "\u2581\u043e\u043f\u0438\u0442\u0430\u043c": 5784,
  "\u2581currently": 5785,
  "\u2581establish": 5786,
  "wood": 5787,
  "\u2581traffic": 5788,
  "\u2581\u0442\u0435\u043c\u043f\u0435\u0440\u0430\u0442\u0443\u0440\u0430": 5789,
  "\u2581\u0441\u0432\u043e\u0431\u043e\u0434\u043d\u043e": 5790,
  "\u2581Er": 5791,
  "\u2581\u0438\u0434\u0435\u044f\u0442\u0430": 5792,
  "\u2581\u0434\u0435\u0442\u0435\u043a\u0442\u0438\u0432": 5793,
  "\u2581\u0441\u043b\u0443\u0448\u0430": 5794,
  "\u0432\u044a\u0437": 5795,
  "34": 5796,
  "\u2581\u043e\u0442\u0434\u0430\u0432\u043d\u0430": 5797,
  "\u2581plants": 5798,
  "\u2581answers": 5799,
  "\u258114.": 5800,
  "\u043b\u044c\u043e": 5801,
  "\u2581joke": 5802,
  "\u2581neck": 5803,
  "\u2581actual": 5804,
  "\u2581unique": 5805,
  "\u2581\u041a\u044a\u043c": 5806,
  "\u2581vision": 5807,
  "\u2581\u0422\u0443\u0440\u0446\u0438\u044f": 5808,
  "\u2581\u0431\u0435\u0437\u043e\u043f\u0430\u0441\u043d\u043e\u0441\u0442\u0442\u0430": 5809,
  "\u2581firm": 5810,
  "\u2581sing": 5811,
  "\u258185": 5812,
  "\u2581fellow": 5813,
  "\u2581\u0417\u0430\u043f\u043e\u0432\u044f\u0434\u0430\u0439": 5814,
  "\u2581\u041a\u043b\u0435": 5815,
  "\u044f\u0442\u043d\u043e": 5816,
  "\u2581leading": 5817,
  "\u2581bullet": 5818,
  "bar": 5819,
  "\u2581\u043a\u0430\u043f\u0430\u0446\u0438\u0442\u0435\u0442": 5820,
  "\u2581\u043a\u0430\u0437\u0430\u0445\u0430": 5821,
  "\u2581maintain": 5822,
  "\u2581scientific": 5823,
  "\u2581\u043e\u0442\u043d\u043e\u0448\u0435\u043d\u0438\u044f": 5824,
  "85": 5825,
  "\u2581\u0438\u0437\u0442\u043e\u0447\u043d\u0438\u0446\u0438": 5826,
  "\u2581\u0437\u0430\u043f\u043e\u0437\u043d\u0430": 5827,
  "\u2581taught": 5828,
  "\u2581concern": 5829,
  "\u2581bottle": 5830,
  "tor": 5831,
  "\u2581\u0416": 5832,
  "\u2581border": 5833,
  "\u2581successful": 5834,
  "\u2581\u043c\u044f\u0440\u043a\u0430": 5835,
  "\u2581tablets": 5836,
  "\u2581duties": 5837,
  "\u2581\u0430\u0440\u0435\u0441\u0442\u0443\u0432\u0430": 5838,
  "\u2581version": 5839,
  "\u2581\u0430\u043b\u043a\u043e\u0445\u043e\u043b": 5840,
  "\u2581\u043f\u0440\u043e\u0434\u0430\u0436\u0431\u0430": 5841,
  "\u2581\u0438\u0437\u0432\u0435\u0441\u0442\u0435\u043d": 5842,
  "cha": 5843,
  "\u2581\u043f\u044a\u0442\u0443\u0432\u0430\u043d\u0435": 5844,
  "\u0439\u043a\u0430": 5845,
  "\u2581hurry": 5846,
  "\u2581\u043f\u0440\u043e\u0431\u0438": 5847,
  "\u0440\u043e\u0434": 5848,
  "\u2581\u0431\u043e\u0440\u0438": 5849,
  "\u2581THAT": 5850,
  "\u2581Ya": 5851,
  "\u258141": 5852,
  "\u2581\u043f\u0440\u0438\u0447\u0438\u043d\u0430\u0442\u0430": 5853,
  "\u2581Five": 5854,
  "\u2581\u044f\u0434\u0435": 5855,
  "\u2581\u0421\u044a\u0440\u0431\u0438\u044f": 5856,
  "\u25813:": 5857,
  "\u2581\u0442\u043e\u0440": 5858,
  "\u2581Him": 5859,
  "\u2581bottom": 5860,
  "\u2581Food": 5861,
  "\u2581\u0431\u0435\u0437\u043f\u043b\u0430\u0442\u043d\u043e": 5862,
  "\u2581\u041c\u0435\u0436\u0434\u0443": 5863,
  "\u2581\u0447\u0430\u043a\u0430\u043c": 5864,
  "\u2581policies": 5865,
  "\u2581\u041c\u043e\u044f\u0442": 5866,
  "\u2581\u0437\u0430\u0449\u0438\u0442\u0430\u0432\u0430": 5867,
  "36": 5868,
  "95": 5869,
  "\u043d\u043a": 5870,
  "500": 5871,
  "\u2581\u0444\u0438\u043d\u0430\u043d\u0441\u043e\u0432\u0438\u0442\u0435": 5872,
  "\u258146": 5873,
  "\u2581weather": 5874,
  "\u043f\u0430\u0440": 5875,
  "\u2581figured": 5876,
  "\u2581\u0421\u043f\u0440\u0435": 5877,
  "\u20ac": 5878,
  "\u2581\u041b\u043e\u043d\u0434\u043e\u043d": 5879,
  "\u2581\u043c\u043e\u043c\u0447\u0435\u0442\u043e": 5880,
  "\u2581Li": 5881,
  "\u2581placed": 5882,
  "\u2581van": 5883,
  "\u2581Association": 5884,
  "ckin": 5885,
  "\u2581\u0440\u0430\u0437\u043b\u0438\u0447\u0435\u043d": 5886,
  "\u2581\u0442\u0435\u043e\u0440\u0438\u044f": 5887,
  "\u2581\u0414\u043e\u0439\u0434\u043e\u0445": 5888,
  "\u2581\u043a\u043b\u0435\u0442\u043a\u0438": 5889,
  "\u2581\u041a\u0430\u043b": 5890,
  "\u2581\u0434\u0432\u0430\u0442\u0430": 5891,
  "\u2581\u0414\u044a\u0440\u0436\u0430\u0432\u0438\u0442\u0435": 5892,
  "\u2581\u043d\u0430\u0440\u043e\u0434": 5893,
  "\u2581120": 5894,
  "\u2581\u0443\u0441\u043f\u044f\u0445": 5895,
  "\u2581\u0438\u0441\u043a\u0430\u043d\u0435": 5896,
  "\u0440\u043e\u0432": 5897,
  "\u2581flowers": 5898,
  "\u2581\u0441\u044a\u0431\u0443\u0434\u0438": 5899,
  "\u2581\u041f\u043e\u0437\u0434\u0440\u0430\u0432": 5900,
  "\u2581\u043f\u043e\u0433\u043b\u0435\u0434": 5901,
  "\u0430\u043d\u0438": 5902,
  "\u041a\u043e": 5903,
  "\u2581laws": 5904,
  "\u2581\u043c\u0435\u0442\u043e\u0434\u0438": 5905,
  "fa": 5906,
  "ons": 5907,
  "\u2581\u043f\u044a\u0442\u0443\u0432\u0430": 5908,
  "\u2581\u043c\u0430\u043a\u0430\u0440": 5909,
  "\u2581\u0431\u0438\u0440\u0430": 5910,
  "\u2581\u043c\u0435\u0442\u0440\u0430": 5911,
  "\u2581email": 5912,
  "igh": 5913,
  "\u2581\u0432\u0442\u043e\u0440\u0430": 5914,
  "oo": 5915,
  "\u2581pretend": 5916,
  "\u2581structure": 5917,
  "\u2581lovely": 5918,
  "vis": 5919,
  "\u2581applications": 5920,
  "\u2581\u043f\u043e\u0441\u0440\u0435\u0434\u0441\u0442\u0432\u043e\u043c": 5921,
  "\u2581\u0442\u0432\u043e\u044f\u0442": 5922,
  "\u2581staying": 5923,
  "\u2581exceeding": 5924,
  "\u2581Sch": 5925,
  "\u2581enemy": 5926,
  "\u2581setting": 5927,
  "\u2581finding": 5928,
  "\u2581\u0432\u0442\u043e\u0440\u0438": 5929,
  "\u2581amounts": 5930,
  "asy": 5931,
  "\u2581\u0440\u0430\u0437\u043f\u043e\u043b\u043e\u0436\u0435\u043d\u0438\u0435": 5932,
  "\u2581steal": 5933,
  "\u2581Saturday": 5934,
  "\u2581\u0410\u043d\u0430": 5935,
  "\u2581determine": 5936,
  "\u2581Mel": 5937,
  "\u2581invited": 5938,
  "\u2581Men": 5939,
  "\u2581\u0431\u044a\u0440\u0437\u0430": 5940,
  "tin": 5941,
  "\u2581\u0434\u0430\u0434\u0435\u043d": 5942,
  "\u2581\u0437\u0434\u0440\u0430\u0432\u043e": 5943,
  "\u0435\u043d\u0438\u044f": 5944,
  "\u2581\u0432\u043d\u043e\u0441\u0430": 5945,
  "\u2581latest": 5946,
  "\u2581maintenance": 5947,
  "\u2581\u0434\u0435\u0439\u043d\u043e\u0441\u0442\u0442\u0430": 5948,
  "\u2581\u0442\u0435\u043a\u0441\u0442": 5949,
  "\u2581\u043d\u0435\u0436\u0435\u043b\u0430\u043d\u0438": 5950,
  "\u0406": 5951,
  "\u2581\u043d\u0430\u043f\u0440\u0430\u0432\u0438\u043b\u0438": 5952,
  "\u2581guard": 5953,
  "\u258172": 5954,
  "\u2581\u043f\u043b\u0430\u043d\u043e\u0432\u0435": 5955,
  "\u25811999": 5956,
  "\u043e\u0432\u0438\u0442\u0435": 5957,
  "\u2581\u0441\u043f\u043e\u0440\u0442": 5958,
  "\u2581Mac": 5959,
  "\u2581Name": 5960,
  "\u2581\u043b\u043e\u0448": 5961,
  "\u2581\u0418\u043c\u0435\u0442\u043e": 5962,
  "\u2581\u043a\u0440\u0430\u043b\u0441\u0442\u0432\u043e": 5963,
  "\u043d\u043a\u0430": 5964,
  "\u043a\u0430\u0440\u0430\u043c\u0435": 5965,
  "\u2581representative": 5966,
  "\u2581\u043c\u0435\u0442\u043e\u0434": 5967,
  "\u2581agreements": 5968,
  "\u2581recently": 5969,
  "\u2581\u0442\u044a\u0440\u0433\u043e\u0432\u0438\u044f\u0442\u0430": 5970,
  "\u2581\u0420\u0435\u0448": 5971,
  "\u2581\u041d\u044f\u043c\u0430\u0448": 5972,
  "\u2581\u043f\u043e\u0441\u043e\u0447\u0435\u043d\u0430": 5973,
  "\u2581concluded": 5974,
  "\u2581justice": 5975,
  "\u2581customers": 5976,
  "\u2581\u041f\u043e\u0437\u043d\u0430\u0432\u0430": 5977,
  "\u2581\u043e\u0441\u043d\u043e\u0432\u043d\u0438": 5978,
  "\u2581\u043f\u043e\u0442\u0440\u0435\u0431\u0438\u0442\u0435\u043b\u0438\u0442\u0435": 5979,
  "\u2581proof": 5980,
  "\u2581Under": 5981,
  "100": 5982,
  "\u2581\u043a\u0435": 5983,
  "\u2581\u0443\u0441\u0442\u0440\u043e\u0439\u0441\u0442\u0432\u0430": 5984,
  "nes": 5985,
  "\u2581\u0438\u043a\u043e\u043d\u043e\u043c\u0438\u043a\u0430": 5986,
  "\u2581\u0441\u043f\u0440\u0430": 5987,
  "lu": 5988,
  "\u0433\u0443\u0432\u0430\u0448": 5989,
  "\u0441\u043b\u0443\u0436": 5990,
  "\u2581Detecti": 5991,
  "\u2581apart": 5992,
  "\u2581easier": 5993,
  "\u2581description": 5994,
  "\u2581Euro": 5995,
  "\u2581\u0447\u043b\u0435\u043d\u043e\u0432\u0435\u0442\u0435": 5996,
  "\u2581\u0421\u0430\u0439": 5997,
  "\u2581\u043e\u0441\u0442\u0430\u043d\u0430\u043b\u0438": 5998,
  "\u2581heavy": 5999,
  "\u2581charges": 6000,
  "\u2581\u043f\u0443\u0431\u043b\u0438\u043a\u0443\u0432\u0430\u043d\u0435\u0442\u043e": 6001,
  "\u2581\u041a\u0430\u0441": 6002,
  "lf": 6003,
  "\u2581\u043c\u0438\u043b\u043e": 6004,
  "\u2581\u041f\u0440\u043e\u0431\u043b\u0435\u043c": 6005,
  "\u2581\u043e\u0431\u0449": 6006,
  "\u2581\u0437\u0430\u043a\u043e\u043d\u043e\u0434\u0430\u0442\u0435\u043b\u0441\u0442\u0432\u043e": 6007,
  "\u2581entities": 6008,
  "\u2581leaves": 6009,
  "\u2581initial": 6010,
  "\u2581\u041c\u043e\u0440": 6011,
  "\u2581\u043a\u0440\u0430\u043b": 6012,
  "\u2581Exact": 6013,
  "\u2581registered": 6014,
  "\u2581item": 6015,
  "\u0443\u0437\u0438": 6016,
  "\u0433\u043e\u043d": 6017,
  "\u2581innocent": 6018,
  "\u2581importance": 6019,
  "\u2581\u043e\u0442\u043a\u0440\u0430\u0434\u043d\u0430": 6020,
  "\u043b\u0438\u0437\u0430\u0439": 6021,
  "\u2581\u0415\u0440\u0438\u043a": 6022,
  "\u25812019": 6023,
  "\u2581\u041a\u0430\u0440\u043b": 6024,
  "\u043a\u043e\u0432\u0435": 6025,
  "\u2581\u041b\u0443\u0438": 6026,
[...]
